#version: 0.2
č Ċ
Ġ t
i n
Ġ s
e r
Ġ a
Ġ d
Ġ h
e n
Ã ¤
a r
Ġ m
o u
e t
a n
Ġt h
l l
Ġ f
Ã ¥
Ġ b
o n
Ġ w
a t
Ã ¶
o r
i t
o m
Ġ g
Ġ v
Ã¤ r
a g
in g
s t
r e
Ġ p
Ġ y
i g
Ġ n
Ġ k
Ġ l
Ġy ou
i s
Ġ o
Ġth e
Ġ in
. .
e d
Ġ c
Ġt o
t t
Ã¶ r
a d
n d
Ġ I
Ġ j
Ġ Ã¤r
c h
t e
c k
i ll
e s
' s
a s
Ġ u
Ġa tt
o t
o w
Ġd et
J ag
e l
v e
i d
Ġd u
.. .
a l
Ġin te
Ġb e
Ġ en
Ġ r
a y
Ġf Ã¶r
a m
Ġo f
l e
Ġj ag
Ġ i
Ġ it
T h
l d
er e
Ġs t
' t
k e
Ġ e
v er
Ġa nd
u t
Ġth at
n a
p p
Ġw h
Ġs om
D et
Ġs k
Ġh a
Ġm e
Ġ on
r a
Ã¤ n
Ġv ar
Ġp Ã¥
Ġo ch
Ġh ar
Y ou
Ġ is
Ġ S
Ġ re
ad e
i m
u r
s e
o d
Ġf or
an d
Ġa n
Ġh e
Ġd o
h t
ou t
Ġl i
Ġ M
Ġw e
Ġd e
Ã¥ r
i l
a ll
en t
Ġa ll
Ġm ed
r o
Ġg o
c e
Ġ H
i r
u st
Ġt ill
t er
Ġf r
a k
i on
Ã¥ n
Ġm y
o l
Ġ A
Ġm ig
W h
Ġs h
Ġ D
Ġk n
Ġw as
Ġ -
Ġv i
W e
s s
Ġh Ã¤r
Ġ om
Ġth is
et t
an t
it h
' m
Ġyou r
it t
Ġs e
Ġ C
Ġt r
ig ht
Ġha ve
' re
Ġ B
Ġk an
Ġd ig
u n
Ġkn ow
Ġn ot
Ġs Ã¥
ou ld
c t
Ġw ith
s k
r i
Ġn e
V i
l y
a ck
Ã¤ l
d e
k t
Th e
D u
Ġm in
Ġc an
o k
Ġa v
Ġd en
Ġ T
o p
l ig
e a
Ġd on
Ġh an
Ġh on
Ġ N
Ġ G
Ġj ust
u s
t h
Ġl o
i c
i ck
Ġ J
Ġk om
st e
Ġwh at
Ġ L
Ã¤ tt
ar t
ar a
Ġa re
Ã¤ g
t a
Ġb l
Ġ O
Ġa b
Ġli ke
u ll
i e
m er
H e
ar e
Ġs o
I t
Ġm an
e m
om e
Ġ out
Ġs a
Ġ P
Ġ ett
Ġv ill
f f
Ã¥ t
r y
n ing
in k
u l
Ġg et
Ġ F
a ke
Ġsk a
Ġs p
Ġc h
Ã¥ g
u m
Ġg Ã¶r
er s
Ġu p
Ġu t
Ġn o
Ġ R
Ġh ere
on e
Wh at
e ll
' ll
Ġm en
k a
or t
Ġab out
ou r
i st
es s
n e
Ġw ant
A nd
m a
Ġn i
Ġh er
Ġh im
h er
Ġf in
or e
Ġp l
Ġd id
a st
all y
Ġa t
Ġv et
Ã¤ nd
Ġ or
Ġth ere
Ġr ight
H an
Ã¶ ver
Ġ K
Ġm Ã¥
Ġw or
Ġ V
o b
g a
Ġth ink
u d
Ġ E
Ġb ut
ou g
Ġ "
at ion
Ġb ara
Th at
Ġp r
Ġon e
f Ã¶r
ea h
a p
a b
Ġh el
a u
' ve
an s
o s
Ġthe y
Ġd in
Ġg ot
ll er
Ġu pp
ĠmÃ¥ ste
k er
Ġs u
Ġi f
Ġan y
v en
Ġ Jag
Ġp ro
Ġa l
Ġu s
en d
Ġd Ã¤r
g e
Ġs l
h ing
n s
h e
Ġb r
Ġa r
e j
Ġt im
Ġkom mer
f ter
Ġe x
Ã¤ m
Ġ W
Ġsom e
Ġhon om
i ve
Ã¤ ll
Ġv ad
d a
j Ã¤l
Ġsh e
Ġsk ull
Ġ ing
Ġ er
i f
on na
u ck
Ġ Y
at e
Ġ You
u nd
i v
g er
ar d
Ġa s
Ġn u
Ġg onna
Ġe ver
Ġn ow
Ġskull e
Ġfr om
We ll
M en
Ġne ed
Ġwh o
Ã Ħ
V ad
Ġb ack
Ġw ould
Ġl e
n er
Ġw ill
Ġvar a
it e
Ġn Ã¤r
Ġg u
on g
am e
at t
k ay
Ġse e
O ch
is s
l a
Ġv er
ou nd
Ġall t
Ġc om
e st
Ġs ay
Ġh is
Ġu nd
Ġs ig
D e
an k
Ġo ss
e p
Ġbe h
Ġtim e
Ġh en
B ut
Ġt al
g en
as s
q u
Ġof f
Ġthe m
Ġ Det
Ġc on
. "
st a
Ġde m
S o
Ġlo ok
I n
Ġn Ã¥g
and e
Ġgo ing
Ġw ere
ow n
Ġ 1
b le
ig t
Ġc ould
d er
N o
Ġbe en
w ay
Ġf Ã¥r
au se
Ġh ad
Ġg r
Ġb o
Ġ Ã¶ver
ĠgÃ¶r a
Ġth ing
Ġb ra
Ġgo od
ar s
lig t
en s
or d
Ġs Ã¤g
Ġd Ã¶
Th is
O h
Ġh ade
Ġb et
Ġk l
Ġb y
o ll
Ġf e
Ġh ur
Ġt a
Ġin t
or de
i k
V ar
in d
Ġfr Ã¥n
The y
Ġ ig
J a
u re
Ġ our
as e
f t
h et
Ġs er
th ing
0 0
a v
o se
Ġever y
Ġwh en
f e
id e
oug h
p er
c ause
Ġf Ã¥
ÃĦ r
o st
Ġf l
H on
Ġp re
r ig
Ġu n
y s
in e
' d
Ġt ell
A ll
b er
Ġj ob
Ġd Ã¥
Ġund er
Ġsom et
F Ã¶r
ou s
i ce
Ġhen ne
ar na
o od
Ġh ow
Ġh and
i p
Ġdid n
Ġre ally
Ġl et
Ġg j
i re
Ġs m
Ã¥n g
b e
Ġw ay
Ġn Ã¥t
Ġwor k
Ġt ake
Ġm ot
Ġe ller
Ġc ome
ĠI t
ĠfÃ¶r s
Ġk ill
Ġh as
Ġd own
Ġig en
Ġm ake
v ar
Y eah
o ck
Ġsomet hing
a pp
Ġd r
y ck
O m
Ġp e
o pp
Ġall a
is k
Ġtal k
Ġm ore
Ġ Ã¤n
Ġv Ã¤n
u g
i a
op le
Ġli v
S Ã¥
Ġv is
ke j
Ġg Ã¥
E n
ar k
Ġo ver
am ma
Ġha pp
N ej
i es
Ġs en
Ġc all
re at
a ce
S he
ar n
o g
ĠC h
Ã¤n g
n y
Ġ Ã¥
itt le
Ġsh ould
Ġt v
Th ere
Ġk Ã¤n
it y
o ok
Ġn Ã¥n
j a
Ġme an
Ġth en
Ġp o
oug ht
Ġs in
Ġhe m
Ġ Ã¶
Ġto o
Ġg Ã¥r
ĠH e
s p
â Ļ
g et
Ġc l
v a
er na
âĻ ª
Ġe fter
Ġa m
Ġt id
D en
i ch
Ġpe ople
Ġl ittle
od y
Ġne ver
Ġ id
s el
ck et
Ġtr or
on t
e ct
Ġsa id
is h
i ld
Ġ What
ĠN o
n t
Ġd ag
Ġd ay
at s
I f
Ġb er
d d
w o
Ġbeh Ã¶ver
ld rig
Ġdo es
n an
Ġ U
b b
Ġpr at
am il
Ġg l
Ġf uck
Ġ We
Ġt Ã¤n
H ur
m an
p a
ak t
Ġmy cket
Ġ 2
Ġv Ã¤l
Ġ qu
Ġjob b
Ġh jÃ¤l
er a
ĠfÃ¶r st
Ġa ldrig
ĠD u
c i
Ġs ak
p l
Ġbl ir
Ġi m
re e
Ġl ite
Ġm itt
p t
Ġf Ã¶
ag e
Wh y
ak a
Ġ el
a ch
ad y
S t
Ġm u
Ġm or
Ġh itt
s ke
e w
Ġing en
lig en
s Ã¥
Ġhel p
Ġon ly
ĠS t
j u
b l
Ġf amil
re ss
Ġfin ns
Ġk v
Ġm er
Ġbl i
ga in
le ase
Ġs v
ot her
k ar
Ġ Vi
in t
i z
ĠA nd
an g
ers on
Ġwh ere
Ġt ar
Ġn y
Ã¤ st
or ry
Ġfe el
Ġj u
Ġver y
H ow
Ġkan ske
Ã¶ m
Ġc o
D o
a it
Ġint o
u e
ir st
s l
Ġe ven
Ã¥ ll
Ġfin d
th er
n ar
Ġs c
Ġa gain
or m
Ġ Ã¥r
re d
Ġtr y
ĠY eah
â Ģ
He y
Ġs jÃ¤l
at ch
Ã¤tt a
Ġt wo
Ġl ea
Ġbe f
on d
Ġt e
Ġy e
Ġh Ã¶r
Ġ Ã¥t
Ġmu ch
sel f
Ġb Ã¶r
ay be
Ġbe cause
an na
Ã¤ ck
k en
Ã¤ v
N i
l ing
Ġs n
Ġfr i
e ep
Ġm o
Ġst ill
Ġtill b
Ġwh y
Ġs y
at er
Ġlo ve
i kt
on s
k l
H ar
Ġp art
Ġw on
ĠdÃ¶ d
Ġdo ing
Ġf ick
Ġst r
m ent
Ġv Ã¤r
Ġh Ã¤nd
Ġo kay
el y
Ġst or
Ġgj orde
Ġv Ã¥r
v ing
an ce
r ar
am m
Ġp ol
Ġpl an
Ġtillb aka
Ġth ought
Ġa sk
Ġd i
k te
Ġp erson
Ġfor t
Ġtr Ã¤
Ġf ar
at her
Ġtv Ã¥
Ã¤l sk
Var fÃ¶r
am n
le v
Ġli fe
Ġhapp en
ir l
Ġno g
w n
st er
w e
Ġsl ut
Ġthe ir
ig a
Ġo ther
en ce
Ġhan s
Ġh it
Ġst art
ĠsÃ¤g er
ĠO h
g on
tt a
a c
Ġth an
ĠfÃ¶rs Ã¶
M y
Ġsp e
Ġo ck
Ġf irst
Ġany thing
i x
Ġr Ã¤tt
O kay
Ġn er
ble m
K om
Ġb el
Ġing et
r u
Ġ Ã¤lsk
s h
Ġg ive
r s
Ġock sÃ¥
e ck
Ġm iss
Ġth r
Ġne w
Ġb ad
Ġthe se
Ġsu re
Ġk und
at h
Ġp er
i le
o ld
Ġf un
u te
Ġr o
ning en
Ġbef ore
e f
Ġ That
a ve
N Ã¤r
Ġ Th
M in
Ġa ct
Ġ The
E R
r ing
Ġfri end
d ay
i an
v is
Ġr un
ak ing
Ġk id
b ody
Ġl ast
Ġd el
N ow
ĠsÃ¤g a
r et
Ġvill e
Ġv id
s en
ol k
Ġ Ã¤
g g
Ġb arn
e k
J ust
Ġg en
Ġn ight
is e
Ġt ur
e ver
N u
l ar
ĠsjÃ¤l v
r en
way s
Ġm Ã¥n
Ġd itt
Ġkund e
Ġa c
Ġwe ll
Ġv Ã¤g
Ġpro blem
Ġr Ã¤
Ġh ome
Ġb u
Ġb or
Ġ Wh
ĠV ad
L et
et er
Ġk eep
Ġb orde
o h
an n
en g
Ġto ld
Ġt ra
Ġbe st
Ġg irl
I N
Ġp ut
Ġr ing
s a
Ġthing s
n g
app a
Ġvar it
ou se
Ġc ar
Ġb it
ot h
ar en
Ġs Ã¤
Ġl Ã¥
Ġre d
Ġf ly
Ġa fter
Ġs orry
Ġand ra
Ġf el
D on
ar l
Ġfr am
B e
i er
Ġ '
Ġt re
i o
lig a
ĠJ a
e e
Ġl ot
Ġver k
Ġen s
sk a
x t
Ġse c
a ct
Ġre al
ĠtrÃ¤ ff
O kej
ul t
ar y
Ġsh ow
Ġw r
Ġa d
Ġa way
L ook
c is
Ã¶ j
Ġt y
ĠT H
Ġa g
K an
ĠnÃ¥g ot
Ġut an
n es
i ke
Ġal ways
o y
Ġf an
Ġm Ã¤n
t ar
or s
u p
Ġth ose
Ġbet ter
v ed
Ġmin a
r Ã¥n
is kt
ĠI n
I s
one y
Ġt j
Ġs on
Ġar ound
Ġgu ys
Ġ âĻª
n at
u ally
ĠbÃ¶r j
âĢ ĵ
Ġgu y
Ġb ig
e y
Ġm ust
Ġv Ã¤
au g
ĠG od
Ġye ars
Ġa ss
Ġd is
Ã ©
i ous
Y es
am p
ett ing
st en
Ġh u
Ġre m
s er
Ġh us
Ġm at
Ġl ong
Ġm ade
Ġfr Ã¥g
Ġc ou
Ġdoes n
o ol
y r
Ġl ed
Ġk ind
Ġpl ay
Ġb lev
in s
Ġpl ace
Ġv il
Â ł
u ff
ion s
Ġallt id
Ġbel ie
Ġg reat
Ã¤ sta
ad es
un g
Ã¤ kt
Ġhel a
Ġb es
O U
Ġevery thing
Ġg ill
Ġkom ma
Ġto g
j Ã¤r
ĠsÃ¥ g
Ġthr ough
Ġwant ed
Ġw ait
Ġp h
ĠD e
ĠM r
od de
m en
Ġs ir
Ġprat a
Ã¶ g
v et
ĠS h
Ġp ar
ĠsÃ¤ ker
Ġbe ing
Ġsp el
S k
Ġm amma
e g
p ort
Ġfuck ing
j e
ĠH an
Ġin s
Ġl Ã¤
r or
Ġc are
Ġg e
v Ã¤nd
ĠkÃ¤n ner
S om
Ġ 3
C ome
r at
Ġgj ort
o tt
N ot
ĠnÃ¥g ra
Ġse x
Ġo ld
Ã¶ d
Ġdon e
Ã ħ
Ġd ri
f ul
Ġp lease
ent s
Ġf all
b et
A N
itt a
Ġn ame
n en
Ġl it
Ġc our
Ġe m
p en
Ġnot hing
or na
Ġs it
Ġmig ht
Ġor d
Ġf olk
Ã¤ll a
Ġhe ad
ĠN ej
Ġa pp
in a
ab le
D Ã¥
Ġm oney
Ġst ay
is ka
Ġan s
r ow
Ġm om
Ġp appa
Ġs am
Ã¥ d
or n
Ġo wn
al k
Ġu h
ver y
Ġs ist
m y
Ã¶ t
ig h
- -
Ġs ch
a in
a w
Ġl Ã¤m
em ber
Ġb il
Ġh ouse
In te
v es
Ġsome one
Ġhe ar
ĠH ar
Ġk ont
Ġs ur
Ġst op
Ġbelie ve
ĠnÃ¥g on
Ġmin d
Ġg ick
ĠB ut
et s
Ġg od
Ġp eng
He j
Ġp ass
Ġle ft
al s
g r
as h
Ġsk y
Ġw om
c y
at ed
in n
f ar
y e
s id
Ġcom ing
ĠA ll
ta in
Ġm on
Ġb ab
is st
Ġsu pp
Ġcom p
k et
a il
Ġf ound
Ġb re
Ġs Ã¤tt
M an
op e
Ġtr odde
Ġtry ing
Ġre c
ĠfÃ¶r l
Wh en
A T
Ġdin a
ĠS o
Ġt yck
Ġlea ve
ak es
Ġc ame
Ġvet a
Ġen d
d el
D id
p h
Ġg etting
ĠF r
Ġb ort
ĠM ar
Ġk Ã¶
Ġhe ll
ĠA l
Ġw anna
Ġex p
Ġwor ld
A re
Ã¤tt re
You r
ĠV ar
ill a
i ed
Ġf ull
Ġel se
Ġb us
Wh o
T ack
Ġfamil y
ing s
Ġk Ã¶r
Ã¥ l
j er
it ion
Ġs te
o c
r Ã¤
ĠmÃ¥n ga
r is
Ġc le
Ġs ett
Ġi h
ri st
Ġverk ligen
i b
ĠY es
C an
st and
Ġl Ã¤r
Ġwas n
Ã¥ ra
Ġsh it
Ġme et
Ġt ag
Ġw ent
u b
al t
ff er
Ġl Ã¤g
w h
Ġg Ã¥ng
Ġis n
Ġin f
Ġk on
ĠÃ¤lsk ar
i ver
Ġhappen ed
Ġb ro
Ġb Ã¤ttre
Ġm il
Ġt ro
m ar
Ġd es
ĠtÃ¤n ker
or k
Ġen ough
o ot
S h
Ġgill ar
Ġmin ute
Ġh Ã¥ll
A R
Ġan other
Ġf il
Ġth ree
Ġm ar
ett y
Ġf ast
an ge
i pp
Ġy eah
er ar
" .
ct or
Ġ Ã¤nd
Ġs ame
Ġj Ã¤v
Ġlook ing
y ss
Ġo kej
d ag
Ġk all
aug ht
Ġu r
Ã¶ v
Ġtalk ing
p e
Ġh opp
ĠS he
E N
Ġs ju
er n
ĠhjÃ¤l pa
Ġg ra
V ill
Ġde ad
Ġro om
ĠfÃ¶r sta
Ġv em
Ġto get
Ġtoget her
Ġh al
ank s
l ut
Ġg re
Ġin nan
Ġbe g
T a
O N
er as
ĠB r
al a
Ġhen nes
Ã¤ pp
in na
m m
Ġmot her
i en
if e
d en
S ka
s o
Ġrem ember
v Ã¤r
Ġto day
Ġwe ek
Ġt ack
er t
Ġc ra
ĠO kay
Ġwr ong
ĠO ch
Ġd ro
Ġvis ste
V em
Ġ Ġ
Ġunder stand
ĠM en
Ġsa w
Ġfr u
a h
t ro
Ġr ikt
Ġl Ã¤ng
if t
Ġli k
Ġfamil j
Ġf ather
Ġbo y
A tt
Ġm aybe
Ġac c
Ġsak er
Ġh os
at ing
Ġhel t
as k
Ġ 5
Ã¥r t
n ade
Ġre g
Th en
Ġcour se
el s
ĠD o
Ġne xt
Ġhar d
Ġkl ar
Ġdo g
Ġe v
Ġwho le
Wh ere
re ady
sk ap
IN G
Ġm ost
M aybe
Ġtill s
i al
00 0
Ġl Ã¤n
Ġ ...
Ġkv Ã¤ll
ĠvÃ¤r ld
Ġs na
Ġbab y
Ġni ce
Ġyour self
Ġ 4
or y
U h
im e
Ġgo tta
t al
Ġg Ã¥n
ow er
Ġ Well
C h
ut er
Ã¥ ller
Ġwh ich
Ġp ri
Ġt er
Ġl and
Ã¶r d
o le
Ġfin e
Ġact ually
Ġal ready
l ed
ĠH ow
tt er
l es
Ġm ay
Ġm et
t y
L L
Ġkn ew
i ble
ĠmÃ¤n n
far ande
l and
Ġc r
Ġmen ar
Ġman y
Ġse en
ct ion
ĠdÃ¶ da
ĠlÃ¤n ge
Ġn um
Ġt on
Ġtur n
n ad
ld igt
V il
Ġl Ã¥ng
un ch
Ġs Ã¥n
as on
S e
a ir
Ġvar fÃ¶r
n et
Ġpre cis
ic al
O R
Ġk var
um p
Ġsk ri
Ġan vÃ¤nd
Ġch ild
ĠHe y
os ed
Ġto ok
rs Ã¤kt
Ġwould n
Ġp u
j ud
ĠhÃ¤nd er
ĠfÃ¶ l
Ġ ÃĦr
ĠrÃ¤ dd
Ġre sp
Ġhitt a
Ġsch ool
Ġgl ad
Be cause
Ġus ed
a j
Ġfort farande
? "
Ġh our
Ġt om
Ġcall ed
Ġb ak
Ġs itt
Ġl ag
s y
In gen
p le
Ġin ter
Ġdu m
Ġsk it
Ġu se
re am
Ġgu ess
Ġen da
ci al
Ġhe ard
Ġk oll
Ġan nan
Ġ This
un t
Ã ĸ
Ġre s
A n
b y
att en
Ġb ar
Ġ They
m in
M r
ut h
Ġber Ã¤tta
Ġid ea
Ġk un
oh n
ĠhjÃ¤l p
ir d
Ġpeng ar
ĠfÃ¶rst Ã¥r
ab ly
ĠD on
Ġw atch
ol og
G et
Ġch eck
if rÃ¥n
al en
Ġpol is
v in
Ġh jÃ¤r
Ġk Ã¤r
Ġpr etty
p ar
Ġ Z
Ġber Ã¤tt
i ka
E very
ĠH on
in ess
D in
Ġl Ã¶
Ġ2 0
it ch
Ġg er
i el
All a
L Ã¥t
Ġst Ã¥r
Ġf ix
d da
k om
Ġs Ã¶
Ġin v
Ġr Ã¶
Ġqu est
es e
ĠH ur
ro ss
c ome
Ġdet ta
c u
ĠTH E
d y
Ã¤n t
Ġcom m
Ġdr ink
y m
Ġse em
Ġsec ond
Ġli ve
Ġan n
Ġwith out
Ġmo ve
H Ã¤r
o te
Ġw alk
Ġd ad
Ġst Ã¤ll
l er
Ġv Ã¥ra
Ġsay ing
H er
E tt
Ġs amma
Ġdi ffer
Ġfe w
Ġ [
Ġred an
ri ed
Ġbr ing
Ġd ra
ĠF Ã¶r
Ġn amn
Ġo pen
z y
i ent
ur n
Ġde al
ĠvÃ¤ ldigt
i ot
Ġwor d
m ed
Ġv al
F or
m et
F r
re g
Ġde f
Ġo b
c es
el se
le ep
ation s
Ġtyck er
k v
a x
Ġd Ã¶r
an e
o e
Ġsk ick
Ġw ar
Ġpo int
" ?
er ade
Ġs we
ĠfÃ¶rsÃ¶ ker
ĠA r
it s
Ġmy self
Ġwom an
Ġf ight
Ġm us
b ably
ĠA n
Ġh eter
u c
Ġgen om
v ud
t en
All t
Ġh Ã¥ller
w ard
Ġun t
Ġwh ile
Ġr um
Ġb Ã¤sta
Ġu te
Ã¤n ta
G o
S T
Ġk r
Ġper fe
ĠlÃ¥ ter
n ess
Ġh Ã¤m
Ġt est
Ġre ady
Ġfriend s
lig het
s ent
ĠE n
ĠÃ¥ ter
Ġp ay
l Ã¥t
Ġha ven
Ġm ag
o o
ĠlÃ¤ng re
ad er
Ġb oth
Ġkill ed
Ġv eck
Ġday s
ĠI s
Ġp at
ĠtÃ¤n kte
Ġs ent
s on
Ġd it
A l
id a
Ġag o
ĠL et
c o
Ġany one
ce pt
Ġb ry
al e
s om
p r
Ġst uff
ĠC ome
Ġf em
ĠmÃ¤nn isk
ak en
ing en
y ra
el n
i et
Ġdo ll
Ġde c
us h
j ut
Ġli sten
Ġc ase
Ġmat ter
Ġh old
ĠY OU
n as
Ġre l
Ġwant s
Ġbor ta
Ġvi kt
v el
Ġst and
Ġte am
Ġal so
ĠJ ust
Ġpl ats
ĠN ew
Ġh und
D Ã¤r
Ġpr om
ning ar
re w
c ess
iz e
V et
ĠS e
Ġmor ning
Ġh um
y ing
en de
wh ere
Ġy et
Ġg one
Ġver kar
at or
Ġing a
Ġa ff
Ġst ud
Ġm id
Ġst Ã¶r
Ġl yck
Ġb ed
Ġcou nt
Ġunt il
Ġar bet
ĠfÃ¥ tt
Ġf ire
Ġh ist
Ġk Ã¤nd
b and
R E
i ct
ĠR e
Ġw ife
Ġim p
ar ing
Ġst opp
st Ã¤ll
a ut
Ġp ick
P Ã¥
G ood
Ġmor gon
Ġst ra
ĠhÃ¤nd e
O r
Ġcould n
Ġkid s
re v
Ġih op
Ġf ace
Ġph one
Ġtid en
Ġr et
Ġl ig
Ġevery one
Ġha ving
ĠÃ¶ gon
ed an
Ġin ne
Ġd ire
pp en
Ġex t
Ġh Ã¶g
Ġg av
Ġfl ick
om b
Ã¤n k
on er
ĠB e
or row
r um
Ġton ight
Ġbet y
Ġwork ing
Ã¶ k
Ġhur t
Ġbus iness
at es
ĠbÃ¶rj ar
Ġre st
ĠfÃ¶ re
Ġl ug
Ġm ess
Ġu m
o ke
Ġs w
ĠD en
t on
Ġsay s
Ġsin a
G e
Ġa p
G od
ĠB l
ĠL e
Ġprat ar
o v
Ġbre ak
an a
b r
ĠfÃ¶rl or
Ġhapp y
S Ã¤g
le y
Ġlo st
T H
Ġtj ej
O n
ĠvÃ¤n ner
or g
Ġcon f
am es
Ġs ound
Ġd eras
ĠtrÃ¤ff a
Ġsig n
ĠÃ¥ ka
ĠhÃ¥ll a
Ġhu vud
f ri
Ġ1 9
Ġbr other
m it
Ġsp r
u al
ar ed
Ġm ur
Ġsin ce
s am
Ġthink ing
as y
Ġon ce
Ġh ope
Ġf akt
Ġye ar
Ġpro bably
u k
i ff
B ara
P lease
iv it
Ġl Ã¥t
en a
Ġmon th
T o
Ã¶ s
b ar
Ġe ach
S ome
sid ent
a z
bl and
Ġor der
ig het
Ġal one
Ã¤g g
ot s
Ġsju k
un k
ag t
Ġhe art
Ġbl ood
Ġ Why
Ġpo j
act ly
Ġdiffer ent
Ġne j
Ġco ol
Ġkon st
ith er
Ġv a
Ġle g
Ġem ot
Ġh igh
ĠT O
u bb
is on
l ess
ĠS te
o ve
Ġs leep
Ġd ie
ĠJ ohn
ĠS p
Ġp a
L ike
Ġf av
Ġdo or
Ġc oll
Ġre p
Ġre ad
Ġny a
ĠJ ack
Ġan nat
ck a
Ġh ot
Ġk ul
st Ã¥
c ed
ĠD ad
M ed
Ġy es
an ska
Ġd om
A s
I S
A ny
u pp
E ller
att ar
Ġgl Ã¶m
t id
O ne
aught er
c le
ist er
Ġsupp osed
Ġm r
ĠjÃ¤v la
Ġme ans
Ġsu ch
Ġd ess
Ã¤ ld
ar ly
Ġ There
Ġin c
Ġv an
Ġstor y
Ġj a
il t
oll ow
Ġar m
ist en
Ġg ave
Ġinf orm
ig n
Ã¶r a
Ġh Ã¶
Ġm od
o ss
el t
Ġminute s
Ġb Ã¥
d ing
v Ã¤g
im es
Ġpro te
Ġt el
nd er
Ġf ant
w er
Ġt aking
ĠvÃ¥r t
Ġk ro
Ġad v
Ġlook s
Ġs ol
Ġsist a
S en
Ã¶ tt
ĠD r
ĠS Ã¥
Ġso on
Ġg un
Ġvar je
Th ank
er al
p s
ĠfrÃ¥g a
Ġknow s
Ġsn art
Ġkun na
ent ion
T ill
Ġsk ad
Ġf ig
ĠN ot
Ġm aking
Ġhitt ade
Ġp ower
er at
ĠD an
Ġst ick
ĠC l
ĠCh rist
it a
Ġs ort
Ġm akes
Ġtom orrow
Ġm ark
Ġf re
B ra
Ġch ans
Ġhand s
ra ct
Ġim port
Ġatt ack
H ere
Ġch ar
Ġwon der
om m
Ġar t
Ġa in
Ġsk ol
Ġbe aut
ning s
ĠG r
ĠS k
ĠsÃ¤ker t
e kt
S n
Ġs ide
Ġins ide
Ġch ange
it ed
Ġhu h
y l
ĠÃ¶ pp
Ġfakt iskt
ug g
Ġd an
ere st
r on
Ġbo ok
Ġpart y
E D
Ġth ank
Ã ¢
v ie
iss a
h a
ĠfÃ¶r b
and ra
Ġb ody
Ġ Q
Ã¥ k
Ġb as
Ġpol ice
ĠhÃ¶r a
ĠC ar
et h
Ġpo ss
ou ble
ou ch
Ãħ h
Ġbeh Ã¶v
c ent
Ġask ed
Ġlea st
Ġe at
Ġs agt
Ġf ive
Ġ1 0
ĠÃ¤nd Ã¥
Ġrun t
Ġstart ed
Ã¤ ller
Ġw ater
m ore
Ġs et
Ġgo tt
Ġl ate
Ġwor ry
ne y
Ġl u
ĠvÃ¤g en
er ad
... ?
Ã¤ k
o f
Ġcl ose
Ġch ance
ĠG e
g ent
at ur
V Ã¤nta
Ġm ass
le x
Ġfort s
E S
Ġcom pl
ĠM y
Ġb ur
E T
Ġst an
Ġl ight
le k
Ġhem ma
if ul
Ġm isst
s ide
Ġcra zy
f or
on y
rsÃ¤kt a
Ġg ame
Ġpre ss
Ġg am
Ġs ing
Ġde ath
G Ã¶r
Ġimport ant
in ner
Ġf our
Ġm Ã¥r
na pp
Ġtr ans
Ġ 6
Ġlit en
Ġmur der
FÃ¶r lÃ¥t
Ġj Ã¤tt
a ste
Ġfav or
Ġtr ust
ou nt
y es
R e
y n
Ġid ag
ĠmÃ¤nnisk or
Ġre ason
an y
Ġled sen
Ġrikt igt
m e
ĠfÃ¶r v
Ġh at
Ġdoll ar
Ġer a
Ġex actly
o ice
Ġa w
he ad
H ave
Ġid iot
Ġliv et
ĠvÃ¤rld en
Ġen t
O M
s ol
vet e
Ġf act
er ing
Ġcon t
Ġl ater
Ġtr ue
Ġex per
J o
Ġfig ure
Ġhour s
Ġt itt
Ġsh ot
Ġr ad
it al
Ġl uck
ious ly
Ġtim es
ĠWh o
ll an
ation en
r ade
Ġo l
ĠE l
ou n
Ġth ough
ĠG o
ĠA mer
out h
Ã¤st an
Ġmom ent
ĠhÃ¤r ifrÃ¥n
Ġl aw
Ġw ish
Ġget s
us et
el f
Ġab le
c er
a ff
ĠkÃ¤n ns
Ã¶ n
j ur
Ġslut a
Ġvis a
ag s
Ġquest ion
Ġens am
ĠfÃ¶rsÃ¶ kte
Ġsv Ã¥rt
ri c
Ġagain st
ĠVar fÃ¶r
ĠW ill
Ġsl Ã¤pp
ik en
Ġs im
est er
Ã¶ l
Ã¤m t
m ost
amm ans
f er
Ġd ist
i ven
Ġbl ivit
Ġle ver
Ġha ft
Ġl Ã¤tt
Ġf ollow
ĠgÃ¥n gen
we en
ans ke
ag en
Ġsk r
ste m
Ġc op
ig are
G Ã¥
er g
E x
en e
Ġmin uter
b o
ĠvÃ¤n ta
A S
Ġf ree
R ight
S p
el a
ĠhÃ¶r de
ĠCh arl
ĠC an
Ġneed s
il y
ĠM an
Ġint erest
Ġp os
Ġin st
n u
Ġlig ger
T ror
Ġbl od
iel d
B l
ic a
Ġd aughter
Ġr oll
Ġs j
ea ch
Ġde st
Ġo per
Ġs var
Ġany more
Ġan g
Ġpre sent
Ġcom es
S l
ĠG ud
Ġhal f
Ġc or
m or
Ġjobb ar
kt a
Ġsu per
j ect
ap e
Ġgo es
Ġbety der
Ġv ack
Ġf ot
Ġfr ont
Ã¶ st
Ġme llan
Ġp ull
lut a
ag et
ĠfÃ¶rs v
ft en
Ġe yes
ĠfÃ¶rst Ã¥
Ġbeaut iful
W ait
Ġb ild
Ġnum ber
Ġr u
i ra
Ġs end
Ġoff ic
S er
Ġred o
Ġar g
ĠÃ¥ ker
Ġsna bb
Ġh or
l or
Ġv ap
Ġbil en
Ġ 9
ĠÃ¶ n
Ġspe ak
Ġtr ied
ire d
Ġbe vis
Ġbeh ind
ver s
Ġw in
Ġhist or
Ġh Ã¥r
ĠfÃ¶r ut
Ġl yss
f ull
Ġsa fe
Ġc ut
Ġli ka
h Ã¥ll
Ġtell ing
ĠFr ank
Vil ken
Ġkv inn
ĠbÃ¶rj ade
Ġs es
Ġg iv
F Ã¥r
Ġpro f
or ter
ĠlÃ¤m na
ĠG ood
Ġd am
I T
Ã¤ck er
ĠS am
i h
e x
f ra
it et
Ġs edan
Ġ illa
Ġp ast
ent ing
Ġhel st
Ġtj Ã¤n
Ġmil j
Ġtr uth
Ġ1 5
ĠsÃ¥n t
Ġ !
ic ally
ĠT om
ĠgÃ¥ tt
g ar
Ġcou ple
Ġ 7
ff ic
reg ud
Ġfor g
Ġn Ã¤sta
Ġklar ar
Ġhopp as
ĠlÃ¥ ta
sk ar
ie ll
Ġyou ng
ĠA re
Ġigen om
at ely
ĠY ork
ĠdÃ¤r fÃ¶r
Ã¤m mer
ĠfÃ¶r r
Ġsl Ã¥
er y
Ã¤ t
st ans
Ġr y
Ġhitt ar
Ġhus band
T ell
Ġb ok
Ġbet ween
Ġn orm
ĠK om
Ġstor a
d om
ĠJ o
s m
Ġm atch
am a
Ġn Ã¤stan
Ġb ud
u ss
ap s
Ġd ream
Ġspe c
Ã¤ der
Ġid Ã©
Ġbu ild
Ġ 8
Ġe asy
r ad
D r
Ġs at
S orry
Ġ es
ĠO kej
Ġm Ã¶rd
Ġfil m
Ġans wer
Ã¤n n
Ġl ine
Ġin ve
ck er
v Ã¥
Ġto wn
ĠfÃ¶r Ã¤ld
re st
ge st
Ġsm art
ĠlÃ¥ng t
Ġwhat ever
c c
Ġm Ã¶j
ĠbÃ¥ da
ĠP h
Ġsh oot
l in
em ent
a ul
kl ag
Ġp ie
ĠH ej
Ġdi ed
Ġfant ast
Ġl j
Ã¤r na
fra id
Ġf Ã¤r
Ġsk jut
Ġde p
E fter
Ġkv inna
Ġspe cial
ĠWh ere
re l
ĠM om
in it
ĠnÃ¤r a
or ge
ap tain
id ent
Ġr id
A t
Ġswe et
ĠG et
Ġdo tter
on es
Ġbit ch
Ġv ore
T Ã¤nk
i am
Ġinform ation
ĠU n
d r
Ġmin e
H Ã¥ll
st r
Ġf yra
Ġt ouch
W ith
Ġlo v
ou d
Ġf a
v an
en n
Ġb all
Ġoff ice
Ġm ill
Ġgr und
Ġs id
ar ch
ĠvÃ¤n tar
u h
Ġtills ammans
H Ã¶r
ĠÃ¤ ta
Ġg ift
T r
Ġit s
ĠkÃ¤nd e
ĠS c
Ġsit u
âĢ Ĳ
Ġcon tro
Ġ3 0
a el
ĠA N
ĠK an
Ġfl er
f l
re et
cu se
Ġso ld
Ġbr ought
ĠB ar
Ġar en
Ġvis st
Ġqu ite
ĠTh ank
Ġmin ns
ĠI f
up id
ĠM ich
Ġmonth s
un n
r as
Ġbr or
Ġb en
O W
sh ip
Ġe gen
Ġk rig
Ġa fraid
ĠgÃ¥n ger
fri end
Ġvar andra
o j
Ġr ol
ĠM c
Ġg amm
i um
y ll
h and
het en
L E
Ġkl art
k an
ĠrÃ¤ dda
Ġst anna
U m
p is
on ger
o ch
Ġdr Ã¶m
Ġle arn
Ġen g
Ġdag ar
ĠR ob
Ġal most
He ll
ĠO K
Ġcle ar
Ġst ol
ĠtÃ¤n ka
kt ion
i ker
Ġexp ect
ĠfÃ¶r Ã¤nd
ĠÃ¤ ven
Ġnew s
T itta
Ġsist er
ill y
ic s
Ġpri v
n ot
ĠhÃ¶r t
Ġcle an
ĠL ook
Ġperfe ct
ĠfÃ¶r kl
Ġhus et
Ġgirl s
Ġs an
ĠH er
ĠIn te
ĠdÃ¶d ade
Ġa ir
L isten
Ġfan ns
Ġsome body
al m
U t
O f
Ġin d
k n
Ġch ang
S ee
N Ã¥g
T ake
Ġch ef
el come
ĠkÃ¤n na
Ġhand lar
Ġs ix
Ġout side
Ġwait ing
Ġl ess
Ġfor m
Ġsec ret
al d
Ã¤r a
Ġf ood
ĠL u
ĠO r
Ġh ate
Ġe ither
g Ã¥r
l et
A h
Ġhel vete
Ġf ing
Ġa dd
er ry
Ġoff er
ag g
ĠfÃ¶r t
ri ck
ĠE m
es us
ĠbÃ¶r ja
Ġ z
Ġchild ren
Ġevery body
M ar
Ġwom en
g Ã¥ng
Ġb ull
I G
stÃ¥ nd
ict ure
l an
ard s
Ġjobb et
Ġk ra
Ġpolis en
K anske
Ġm Ã¤r
in es
Ġan t
ro ll
Ġt itta
Ġav sl
Ġbl ack
Ġ1 2
ant s
Ġs ant
im in
Ġsa ve
Ġgr and
Ġsu b
Ġpu bl
la in
Ġyour s
Ġf est
Ġd amn
Ġl a
Ġli st
Ġkill e
ĠM in
Ġle ad
at a
Ġupp t
Ġst ar
ad en
o on
ill s
Ġtel ef
V isst
j Ã¤n
h Ã¶r
Ġhe y
Ġpar ents
Ġl illa
Ġfeel ing
ĠM iss
Ġp sy
Ã¤ d
Ġspel ar
Ġre port
U rsÃ¤kta
ĠD id
Ġrec ord
Ã¤n ner
A L
Ġcompl et
ĠYou r
Ġr Ã¶r
Ġch e
Ġm ist
Ġal ive
kv Ã¤ll
iz ed
ĠN i
Ġfin ish
Ġm ord
P ro
V E
s in
ill e
O K
Ã¥ tt
ĠD av
Ġing enting
Ġtim mar
Som et
Ġc ur
Ġbry r
o in
Ġbu y
Ġst upid
Ġp icture
Ġrun ning
Ġg Ã¤rna
Ġre da
v id
Ġprote ct
ĠO m
is a
Ġring er
Ġsit ter
I C
Ġsy stem
ĠP r
ĠhjÃ¤l per
Ġhan g
Ġmar ried
Ġhe ller
ĠI N
Ġon t
Ġex pl
Ġvil ja
Ġlo ck
f all
Ġspel a
ĠT ack
l ade
Ġcl ass
ar th
Ġgam la
Ġtr ouble
ro tt
Ġh y
ir t
ĠF or
Ġjobb a
ut ion
ver n
Ġb and
B r
Ġcount ry
O T
Ġbo tt
Ġliv es
Ġ $
z ing
il ity
Ġdag en
ad d
Ġl unch
Ġc ent
Ġr isk
Ġfor get
ro om
p ect
at ter
Ġh Ã¤l
Ġlo se
H i
Sn Ã¤lla
kt en
et te
i or
Ġaff Ã¤r
c l
Ġcontro l
Ġring a
er tain
Ġrel ation
Ġh Ã¤nt
Ġinve st
Ġm Ã¶
Ġt io
ĠA m
ast er
id er
Ġk ap
Ġbak om
Ġbo ys
Ġ ?
ĠJ im
ĠA d
Ġha ir
Ġkro pp
p ro
ĠB en
Ġpre sident
ĠN ow
j en
B er
Ġto p
ĠU h
Ġsm all
o or
u tt
Ġif rÃ¥n
Ġhum an
Ġb ank
Ġtre v
U n
Ġsh ip
A D
Ġsk Ã¶
Ġsen are
m Ã¤r
sel ves
s c
en se
Ġqu ick
o int
Ġf ell
Ġsy ster
Ġn att
Ġt aken
Ġh ote
Ġun g
Ġw ind
Ġsv art
Ġs ick
ent ly
Ġdef init
it ing
Ġst at
Th ese
Ġp ack
art ment
H is
ĠM rs
ĠB ob
Â Ļ
Ġgamm al
Â ª
b art
is m
Ġdin ner
Ġplan et
Ġbet al
Ã¤ s
ĠP ar
ĠkÃ¤r lek
ĠS er
ĠT r
Ġask ing
Ġm ad
O ur
! "
Ġint ress
Ġfel t
Ġdire kt
S luta
Ġp ap
sk y
Ġme st
Ġring de
In get
f Ã¤r
Ġv ide
Ġext ra
Ġseem s
Ġtra in
b or
Ġliv ing
ih op
g an
ri k
Ġs Ã¤l
ir th
sk t
id ence
U T
Ġl Ã¥g
Ġbro tt
Ġf Ã¤ng
Ġco ver
od u
b all
A r
Ġsp end
r Ã¥d
ort s
P re
e v
ie f
Ġc am
Ġwe ird
Ġskol an
Ġc ell
Ġb Ã¤st
n ie
in ce
ing ar
Ġs Ã¤tta
ĠÃ¤n nu
, "
Ġf oot
ĠU S
Ġtelef on
I D
ĠR ight
Ġden na
Ġall s
or th
Ġt each
Do es
Ġtag it
Ġlug nt
Ġtal a
Ġ Ã¤g
Ġplay ing
ĠJ ul
ĠI T
Ġal ong
Ġdri ve
Ġs us
Ġb omb
Ġse ll
Ġc ir
Ġc ity
- [
W ill
ĠO F
er en
Ġm Ã¶r
le as
Ġv ak
ent le
A Y
C ause
b ra
B I
in c
Ġle va
Ġkom mit
Ġny tt
ĠR o
FÃ¶r s
Ġty p
Ġ5 0
m as
Ġ .
p ital
ol is
W ould
Ġvil ket
um mer
Ġsen se
ĠhÃ¤m ta
Ã¥n ga
Ġhapp ens
u ld
Ġf ara
u es
l as
oll y
ou l
Ã¶ ll
re s
T y
Ġdo ctor
ĠS om
Ġshould n
Ġbo x
Ã¤tt er
Min a
Ġme m
Ġv atten
Ġbe k
Ġc ertain
Ġt w
Ġg al
Ġmus ic
F uck
G ive
Ġhim self
all Ã¥
ny gg
ter s
Th anks
Ġa head
Ġgra bb
Ġj ord
Ġmeet ing
ĠB ra
am er
Hell o
ĠJ e
Ġd ans
ĠfÃ¶rsÃ¶ ka
Her regud
Ġpeng arna
Han s
Ġim ag
ro y
Ġin sp
Ġdan ger
ort un
Ġsitu ation
Ġfun ny
Ġh op
ur s
ĠfÃ¶rÃ¤ld rar
Ġt en
ry ck
iver s
od e
Ġl ady
Ġprat ade
l ad
Ġr ock
Ġkl ara
Ġvap en
Ġlea ving
und er
ĠfÃ¶r f
Ġst Ã¥
Ġany way
ut s
Ġs ke
Ġ1 00
Ġg if
Ġl ab
Ġbe come
ĠN u
is ed
f orm
pp ed
Ġter ri
ĠC on
Ġcoll e
Ġfun ger
if ic
Ġst ort
ĠE ng
Ġsn Ã¤ll
ow s
Ġk ort
Ġneed ed
Ġwor th
ul ar
Ġp ost
Ġg Ã¶m
Ġprom ise
us ed
Ġle v
ou p
E L
ic an
Ġg alen
ĠE d
Ġd ress
r ight
Ġc atch
Ġcomp any
ĠbehÃ¶v de
Ġex c
ar m
ĠC ol
ig g
ĠberÃ¤tt ade
and en
r an
Ġ 000
c om
o ff
N A
Ġp app
Ġb irth
Ġcan not
z e
Ġer t
M amma
ĠfÃ¶l ja
het er
Ġser v
in da
ĠlÃ¤r a
ĠstÃ¤ll et
Ġih Ã¥g
d le
aug h
en ny
Ġe g
el e
ock an
Ġp op
Ġweek s
Ġvid are
l o
ĠV em
Ġu rsÃ¤kt
Ġj ud
Ã¤n ga
ess ion
Ġli e
Ġgen er
ound s
Ġpro gr
Ġent ire
Ġm ob
ull e
Ġmed ic
Ġid ent
Ġner v
ur ity
ak er
Ġall var
ut en
ld ig
N Ã¥n
Ġfl era
M itt
i ence
ell a
Ġse k
ag er
Ġo tro
Ġp ain
C H
Ġwork ed
Ġfly tt
ĠanvÃ¤nd a
t at
G u
Ġhal v
Ġdr ug
Ġt reat
ĠT o
Ġann ars
b jud
Ġr a
og ra
Ġk iss
ĠlÃ¤m nade
ĠG u
a i
Ġposs ible
aj or
Ġmill ion
A b
f r
Ġhitt at
ip s
Ġf attar
Ġlo c
ut ure
Ġpat ient
Ġe ff
ĠA ng
Ġstra ight
Ġby gg
ag ed
ĠP re
Wh ich
ĠA lex
ĠvÃ¤ x
Ġbo ss
Ġan tar
Ġsc ared
nd a
ĠmÃ¥n ader
Ġman nen
Ġsm Ã¥
Ġpart ner
Ġh ung
a f
Ġdag s
Ġhon est
ĠnÃ¥n sin
te l
j oy
ĠK e
Ġv itt
o x
h am
ĠmÃ¥ l
Ġhos pital
ĠE x
Ġdess a
Ġc ol
Ġkvinn or
Ġme ant
Ġre f
ut om
Ġ1 8
Ġn atur
Ġt em
iv a
Ġser ious
A fter
Ã¥ ld
p el
Ġbes lut
Ġhon ey
er k
Ġp ot
Ġo pp
d es
Ġr Ã¥d
Ġkill en
ow ing
Ġab sol
Ġperson al
b il
and er
and et
ma zing
Ġty st
iv t
Ġw eren
r al
ar bet
ĠT V
Ġfin ally
G r
ro p
Ġkom m
Ġknow n
Ġe ye
oll a
E ven
h aps
Ġc ap
e ople
Ġcall ing
re y
id ed
N e
ĠQ u
Ġw all
Ġr ob
ter a
Ġl ad
ation al
Ġlook ed
Ġph ot
und a
K l
Ġkoll a
Ġd y
Ġmid dag
ĠD Ã¥
Ġefter som
Ġret urn
ĠdÃ¶r ren
kl art
Ġk ar
Ġh am
Ġ Ã¢
ck s
Ġk ast
Ġ ill
it ies
Ġi kvÃ¤ll
Ġpie ce
ĠH i
Ġkom pis
Ġdis app
Ġany body
Ġutan fÃ¶r
ep t
t s
Ġb ag
Ġd ate
Ġg anska
Ġk ick
ĠH en
ĠA b
ed ding
Ġtid igare
F in
n or
ĠrÃ¤ k
Ġen k
Ġf uture
Ġp ark
i ans
W ow
Ġl ju
ĠkÃ¤n sl
Ġl onger
Ã¤n ger
b ers
Ã¥ s
ĠkÃ¶r a
ĠW H
Ġl y
it er
Ġwh ite
Ġs qu
Ġk or
" ,
and y
Ġam b
b ur
Ġund an
Ġg ri
ĠlÃ¤g ga
Ġm a
Ġexp lain
M e
Ġag ent
o es
Ġquest ions
Ġinv ol
Ġt ank
A M
Ġsh ut
Ġg Ã¤ller
end er
id s
z a
ĠP lease
Ġsome where
ĠkÃ¶ pa
ER E
Ġde j
Ġsee ing
Ġar rest
ĠP aul
Ġs al
ĠM art
Ġto t
Ġb reat
ri v
Ġ (
i us
Ġj oin
ra kt
St op
Ġbr u
Ġen erg
Ġn ed
Ġc ry
Ġor o
Ġpol it
F olk
Ġg entle
Ġp en
ĠS ka
Ã¤nd er
Ġf und
U nder
ly ck
ĠP ro
et ter
os h
Ġsam tal
ĠB E
Ġpos ition
Ġmiss ing
Ġon es
Ġcl os
E r
Ġvikt igt
Ġupp e
Ġr Ã¤cker
Ġv in
Ġc reat
Ġd ark
Ġr an
Ġth anks
Ġmo ving
Ġsjuk h
ĠÃ¤lsk ling
Ġro ad
ĠG ra
ol en
Ġor gan
y ou
ĠfÃ¶l jer
FÃ¶r st
P er
Ġfly g
ĠMich ael
Ġhappen ing
s ch
Ġp an
Ġs ong
Ġsp ring
id ge
S ir
Ġbe at
ĠM m
Ġim or
B y
Ġta pp
Ġnorm al
Ġsound s
U pp
re en
Ġturn ed
Ġword s
ĠV ill
Ġskri va
Ġsh all
P appa
H en
r Ã¤ck
Ġt akes
Ġwork s
ist s
Ġlo ved
Ġa mazing
Ġher r
Ġsm ell
Ġbet ala
Ġr ym
Ġgiv ing
e ar
Ġde ep
Ġs ida
ĠTH AT
Ġvis ar
n al
ta ct
ĠkÃ¶ p
Ġmed del
in er
Ġstr ong
r Ã¤tt
Ġfin t
S Ã¤tt
ĠsÃ¤ker het
d et
Ġin om
F an
Ġs att
Ġpr ison
Ġkont or
in o
ĠCharl ie
Ġlet ar
ĠM a
ĠT a
Ã¥g a
th ers
ĠAN D
z z
ct im
ĠR ich
Ġste p
P l
ĠH ell
Ġsid an
Ġpubl ic
Ġwe ap
S te
Ġco ff
or a
Ġbeg in
s et
ur ch
ĠM e
Ã¶t s
Ġkall ar
ag es
Ġhat ar
et y
ok at
st one
Ġall ow
Ġsn Ã¤lla
Ġf at
Ġes c
C ould
Ġch oice
Ã¤r sk
Ã¶ va
ĠDav id
Ġk opp
Ġmed an
and a
Ġsh ort
Ġwor se
Ġhuvud et
ĠJ oe
Ġj ul
w ood
In ga
Ġkont akt
ect ive
W as
Ġd isk
H el
Ġco ld
ĠS m
Ġig Ã¥r
r am
kt or
Ã¶ sa
um ent
Ġh Ã¥rt
id es
T vÃ¥
ĠÃ¶n skar
Ġf le
Ġg ar
Ġhe al
Ġsky dd
... "
l t
sta ur
ĠO N
ĠfÃ¶l j
C K
Ġfamilj en
ell e
Not hing
op s
ĠTh anks
iv es
Ġi vÃ¤g
c ing
Ġst ri
Ġ1 1
ĠfÃ¶rst Ã¶r
Ġcon ne
ĠO ne
A m
qu e
Ber Ã¤tta
Ġsomet imes
ĠH el
ju k
A v
Ġbuild ing
H allÃ¥
g o
s la
ĠsjÃ¤l va
Ġwor ried
Ġpr is
Ġmind re
ver k
Ġall ihop
ĠsÃ¤tt er
Ġstan nar
ĠF BI
un gen
P r
Ġcolle ge
Ġchang ed
Ġsk rev
Ġm ask
ĠS T
Ġre ach
Ġvi ctim
ĠJ ames
ĠdÃ¶d ar
ĠÃ¤ ter
Ġsl og
w ork
u x
Ġimor gon
Ġupp f
Ġc ook
Ġsur v
Ġsan ningen
Ġf air
Ġ2 00
Ġg iven
Ġde v
Ġof ta
d de
th e
ĠM ike
ĠhÃ¤nd a
AN D
ĠS ch
ĠM on
Ġo thers
Ġdefinit ely
Ġf ail
Ġk napp
ĠlÃ¤m nar
Ġsp Ã¥r
g ga
ste ad
Ġde ar
Ġ4 0
in ed
L Ã¤gg
Ġv Ã¥ld
M iss
Ã¤l t
Ġfa ult
b ror
Ġsy m
ĠhjÃ¤r ta
H a
Det ta
ure d
vÃ¤r r
ĠC he
bl ick
Ġr om
Ġrelation ship
Ã¶r en
Ġin fÃ¶r
ĠfÃ¶rt jÃ¤n
ĠÃ¤lsk ade
Ġjobb at
ĠC o
ac es
Ġwr ite
ct ually
ll a
ff a
ut a
v ak
Ġveck or
Ġresp ect
O L
te s
Ġgl ass
Ġr ather
Ġcon sid
Ġinvest ig
ĠS ara
ĠlÃ¤ t
l ine
Ġn atten
Ġd ar
Ġno body
Ġch o
Ġvil ken
Ġsky dda
Ã¤nd e
c ri
t o
ĠS im
Ġev idence
Ġsnabb t
Ġre staur
ant a
ĠÃ¶pp na
ĠhÃ¶ ll
p ris
op h
ĠJ esus
Ġgif ta
ester day
ĠGe orge
Ġwatch ing
ĠM ax
D ad
Ġmisst ag
Ġk ost
Ġtalk ed
nad en
A K
Ġm outh
ĠI S
Ġk ept
Ġveck a
ĠV il
Ġso v
ed er
Ġg ud
Ġfe et
rum met
V Ã¤l
Ġh id
Ġcon c
Ġforts Ã¤tta
I M
ir s
Ġor ol
ik an
Ã¶l j
Ã¥ ter
ĠfrÃ¥g or
Ġi bland
t an
Ġbl ock
et e
ĠanvÃ¤nd er
Ġso va
ĠM ay
Ġty d
Ġgr ound
ra v
Ġlo var
ol a
and s
Ġmo vie
y le
ĠS u
Ġtitt ar
Ġperfe kt
Ġde cis
Ġ ed
Ġe arly
ĠG er
ĠM ad
d u
Kom mer
Ġtill f
ĠL ou
at ive
l ag
Vil ket
m s
ĠWh en
k are
ĠN ick
S am
Ġfram tid
Ġs il
Ġen joy
Ġrol igt
Ġb jud
ĠfÃ¶r et
Ġmil it
ĠR ay
ĠÃ¥ kte
Ã¤ck a
5 0
C he
sk an
ĠberÃ¤tt ar
l en
Ġsp ace
ĠP eter
ĠA tt
Ġcomm un
Ġdes er
Ġan im
Ġdest roy
Ġex ist
T wo
Ġcon tact
ĠH ere
Ġtr ick
k s
b t
H E
re ci
ĠA t
ĠfÃ¶r m
ĠB o
Ġhand le
Ã¤n gen
ur y
at an
Ġcoff ee
ÃĦ ven
h mm
Ã¤m na
vie w
Ġd iv
Ġs elf
m iss
b ye
Ġres ult
3 0
Ġw edding
Ġgre j
Ġthink s
Ġdr ar
Ġluck y
Ġstopp a
o id
it or
ĠN e
Every thing
Ġst ark
ct ed
Ġd ance
Ġj ump
Ġst ad
Ġtr Ã¶tt
et her
ĠK ing
Ġst yr
Ġsec urity
ĠtrÃ¤ff ade
Ġb ill
ĠW ait
Ġdec ided
Ġf ir
Ġj our
Ġcont in
Ġpro v
Ã¤n ker
S a
ĠM E
ĠtÃ¤n kt
Ġol ika
Ġor s
ĠW al
c a
Ġbro ke
ill ar
ĠTh en
ea ce
b it
or l
Ġlyss na
Ġallt sÃ¥
L e
ute ly
ĠL ord
ur t
P eople
Ġc aught
ĠChrist mas
Ġh om
ĠN Ã¤r
ure s
Ġr is
Ġsing le
Ġthr ow
Ġs itta
Ġv oice
Ġp ort
Ġr app
ond on
Ġk Ã¤m
ĠstÃ¶r re
us en
Ġcomplet ely
um e
Ġst und
Ġresp ons
Ġkill ar
Ġfram fÃ¶r
ĠM aybe
S E
Ġr ide
Ġo p
Ġn ere
jÃ¤l v
Ġst od
ĠM or
o ver
Ġtyck te
Ġs ad
b ord
pr ise
Ġha ll
Ġtot ally
Ġans var
ĠL ike
Ġkonst igt
Ġg as
Ġ X
Ġb i
ĠO n
C l
Ġpro per
Ġmess age
ĠM er
Ġmid dle
Ġob v
om p
ĠT y
Ġst ation
Ġp ush
m t
Ġtal ar
ĠM ary
Ġhistor ia
H opp
ob ody
le m
Ġnum mer
Ġth reat
ul es
Ġsu g
Ġc re
ĠL a
ĠÃ¶gon blick
Ġre qu
Ġspec iell
e en
Ġdro p
Ġp leas
ĠvÃ¤r re
Ġf red
il a
Ġm is
ĠB er
G l
Ġtra ck
Th ose
Ġbr uk
l ish
att le
Ġv inna
r id
Ġsen aste
end a
Ġne ar
Ġgo vern
ĠmÃ¶j ligt
b ara
yss na
Ġh Ã¤
jÃ¤l p
ĠS n
Ġfeel s
Ġn yck
ill er
Ġbl Ã¥
K olla
Ġgod a
Ġvar t
Ġst ore
am ed
ĠO l
ĠfÃ¶rr Ã¤n
Ġc ard
all t
Ġund rar
Ġbirth day
Ġus ing
b ed
k or
l arna
ĠP at
ic es
ĠstÃ¤ll e
Ġt able
k ra
ak et
Ġflick a
Somet hing
it ness
ĠW E
Sk ulle
ĠlÃ¤g ger
Ġd jur
ĠE very
c on
ik te
ĠA s
ĠO f
o gen
T om
Ġmass a
ĠF l
Ġc ross
Ġsl ipp
b ild
ĠsÃ¥ d
Ã¤ ker
ĠfÃ¶rs ikt
Ġm ention
Ġsupp ort
ent y
v Ã¤
S m
Ġu tt
Ġgl as
Ġbru kar
Ġhist ory
om an
ĠW as
ch n
ĠB ill
Ġmilj oner
ĠI nd
Ġbr Ã¶ll
Ġc ost
Ġ1 6
Ã¶ ss
Ġprogr am
K eep
Ġte xt
an ces
Ġbeh and
ĠrÃ¶ st
y er
t ing
Ġt ick
S ure
orl unda
ĠbÃ¶rj an
i ant
Ġp ist
ĠS l
Ġapp reci
ci ous
ĠsÃ¤g s
Ġap olog
Ġk ey
Ġfun kar
ĠM ed
g h
Ġbra in
ce p
s v
t ade
Ġst reet
On ly
Ġadv okat
ward s
s ed
Ġn Ã¶j
pt ion
Ġ1 4
Ġfl oor
Ġl ying
H T
ĠM ark
ĠdÃ¥ ligt
ĠfrÃ¥g ade
Ġkl Ã¤der
ess or
Ġsc en
Ġac ross
ĠL ondon
Ġse arch
ĠA h
ol y
Ġfing er
P ut
Ġtr ip
ri an
Ġl ar
in y
Ġs un
m Ã¥l
Ġfly tta
it u
Ġmob il
ag n
ĠC aptain
M om
ow ers
Ġp ract
ob b
Ġcon s
Ġm ach
Ġbl and
it z
Ġann orlunda
Ġo h
Ġvide o
ke y
u se
Ġvack er
Ġb ath
Ãĸ ver
A d
yck et
j ag
Ġbeh Ã¶va
il es
V ER
Ġmist ake
Ġf ool
b rott
ats en
ĠtjÃ¤n st
Ġy esterday
Ġsl Ã¥r
Ġtr uck
Ġwe ar
Ġac cept
Ġre sten
ĠC arl
Ġk ung
A LL
r ay
Ġbus y
Ġpap er
ĠPh il
Ġf art
g re
in al
Ġw elcome
m on
id en
im ent
Ġsp ark
op er
Ġsv Ã¤r
Ġvis it
Ġass ist
ling en
Ġsky ldig
Ġc amp
Ġcl ub
Ã¤rsk ilt
Every one
ud den
Ġp ur
Ġbarn en
ar ry
f ord
ĠfÃ¶rkl ara
ens ion
Ġbruk ade
un e
M rs
Ġpa id
ment s
ĠfÃ¶rb i
Ġk aff
s as
F irst
all en
I bland
Ġhas n
ci ally
rÃ¤ck ligt
Ġskri v
g n
Ġf i
ĠB ro
Ġe ight
or r
ĠfÃ¤ng else
Sl Ã¤pp
Ġne igh
R em
Ġan led
Ã¤m ma
I LL
Some one
E l
ter na
Ġd ju
Ġacc ident
ĠBe cause
DÃ¤r fÃ¶r
Ġsm Ã¤r
Ġa mer
Ġst ack
V Ã¥r
g es
Ġdanger ous
Ġfor ever
Ġbo ard
Ġre v
Ġqu iet
Ġgr oup
Ġg ett
m are
Pre cis
Ġd ou
stÃ¤ll et
Ġis s
Ã¥n gen
A G
Ã¤nd a
Ġut om
A ctually
oth es
Ġdr unk
Ġst Ã¤mmer
Ġdr ag
kt orn
Ġkid napp
Ġskick ade
Ġa kt
Ġsitt ing
Ġj ack
Ġtr Ã¤n
Ġterri ble
Ġar ri
Ġ1 7
Ġsu c
Ġslut ar
sta irs
Ġkl ockan
Ġany where
Ġst ate
la ce
Ġmon ster
Ġgo l
Ġ ÃĦ
Ġpsy ch
p et
ĠE ll
Ġpr oud
Fr om
Ġdu de
Ġsak en
Ġer k
ĠsÃ¥ na
ĠC al
V art
Ġupp sk
L D
Ġsj un
Ġste al
Ġbes k
u el
Ġwe aring
G ot
in nan
Ġsl ow
Ġhund red
F F
h ole
Ġpa int
Ġsk j
Ġe get
Ġs Ã¥r
on a
Ġr en
D an
ta ble
Ġfor ward
Ġsak nar
ig e
Ġkall a
Ġsy nd
ic o
Ġsh are
f uck
Ġst uck
Ġk ing
Ġr ent
Ġb le
ĠhÃ¤m tar
ĠlÃ¤ sa
ĠfrÃ¥g ar
ĠtrÃ¤ff as
c el
d amn
Ġorol ig
re ad
Ġc at
Ġske pp
min stone
J ack
y an
Ġ 0
dd ie
ĠAmer ican
kom men
Ġbud dy
l it
Ġhem skt
Ġ2 5
Ġdem on
Ã ĥ
Ġcour t
Ġtrev ligt
Ġtv ing
ĠUS A
p at
b ut
ĠD O
cu ss
G ud
tt ing
ĠÃ¥ter vÃ¤nd
Ġkra ft
ro g
Ġreal ize
Ġare a
Ġst ress
Ġel ect
e el
Ġcr ime
Ġsug gest
Ġconsid er
Ġse ven
Ġig Ã¥ng
b Ã¤r
c an
Ġ âĢĵ
ost er
Ġp eace
ĠH E
Ġbl ow
ĠS orry
Q u
Ġskad a
ĠPar is
Ġpr odu
Ġne g
Ġth ous
Ġm un
k on
ul a
Ġlit a
Ġv e
ell y
Ġre sa
an ke
J ohn
Ġs ci
ĠH A
Ġstopp ed
ning arna
Ġpro cess
as Ã¥
a ven
F l
ĠstÃ¶r sta
gent ligen
Ġswe ar
Ġeg na
ĠS an
ĠfÃ¤r d
Ġh Ã¤st
R ing
Ġchar ge
pp ar
Ġrikt ig
Ġskick a
Ġs oul
it ive
ĠG en
Ġch ick
Ġimag ine
Ġdro g
i as
ĠnÃ¥g ons
Ġp iss
ad a
Ġdri cka
Ġv ir
Ġmo ved
Ġa ge
in ation
Ġl im
el ser
Ġdu ring
Ġsp ir
Ġsus pect
Ġl ur
ĠIn gen
Ġh ide
ir ty
os a
Ġc alm
Ġbo at
gen cy
Ġb urn
ĠG O
Ġb an
Ġi r
Ġs nygg
Ġvi ol
re sent
v Ã¤n
Ġfix a
Ġp un
ok us
Ġkill ing
EN T
od er
Ġt uff
ĠC ity
at ure
Ġter ror
ion en
b ol
Ġb ord
T ja
ĠkvÃ¤ll en
Ġcar ry
ĠHen ry
Ġapp ro
M Ã¥
Ġgirl friend
Ġc iv
s amma
Ġb Ã¥t
Ġupp dr
s ikt
b ok
Ġkn ock
U R
Ġlo ss
Ġf ur
Ġf ield
Ã¥ ta
U N
F rÃ¥n
Ġmiss ed
in en
Ã¶ der
Ã¶ ken
Ġhem lighet
p ade
Ġt ired
Ã¤ ss
olis en
Ġe as
Ġk Ã¤
Ġbel ong
at te
Ġbor n
Ġc as
Ġpoj ke
Ġveck an
ĠBl ack
Ġpo or
Ġkill er
g iv
Ġb ought
Ġcl othes
Ġb Ã¤r
ĠR uss
og n
Ġy a
Ġs ens
Ġta x
Ġdi ffic
Ġst Ã¤lla
m ing
L ug
y d
Ġdiffic ult
Ġer bjud
Ġbetal ar
ĠÃ¥ tta
ĠG l
Ġsp ent
ar r
Ġin n
tal et
Ġen ter
Ã¤st er
ay s
Ġin stead
end ing
Ġgo ld
Ġcall s
Ġk yr
er o
n ed
ĠR ed
ĠC la
at en
Ġk ry
I ON
ĠH ave
Ġst Ã¤ng
Ġinvol ved
G en
ĠS a
ĠdÃ¥ lig
Ġforts Ã¤tter
I A
Ġans ikte
Ġkap ten
Ġf oc
Ġev ent
Ġhon or
Ġag ree
Ġfin nas
ĠFr an
Ġb Ã¶
Ġmag ic
Ġfunger ar
Ġtill rÃ¤ckligt
Ġhote l
ce ll
Ġenk elt
Ġfe ar
Ġsna ck
Ġint r
Ġr ound
Ġfix ar
t ime
Ġun ge
Ġsat te
Ġ ide
Ġre ce
L yssna
Ġsur pris
ak ta
ĠfÃ¶r ra
Sh ould
Ġk il
Ġbu tt
Ġsy n
Ġsa ved
klag ar
ĠS w
od uc
ĠlÃ¤g en
r it
Ġw ake
h ood
ĠHell o
g ift
Ġhe j
N ice
Ġs Ã¤ll
Ġkont roll
Ġstart ing
Ġarbet e
h ouse
Ġacc ount
Ġw itness
ĠSt op
Ġrum met
Ġen em
Ġst orm
Ġav sk
uth or
v al
Ġap artment
Ġbl ind
r ask
Ġs Ã¶t
Ġans ikt
Ġh ers
Ġtillf Ã¤ll
Ġappreci ate
ĠF uck
Ġoffic er
Ġwonder ful
Ġf ill
Ġre ser
Ġc ust
ĠkÃ¶p te
ĠF OR
Ġk rÃ¤
Ġi ce
Ġf Ã¥ng
e c
ĠP er
ĠS en
Ġsc rew
ĠS ir
on en
Ġpro p
Ã© n
H old
Ġt ough
b oll
ĠB ur
w ell
Ġ ..
ber t
Ġskri ver
Ġr Ã¥
D itt
Ġpr et
Ġ2 4
ath an
ag o
st ad
Ġst en
ĠD el
Ġo w
ĠE arth
Ġlo s
Ġsc ene
Ġg ay
k el
if y
Ġfight ing
Ġg ry
ick a
Ġeven ing
Ġf att
at al
Ġmus ik
ars h
Ġst jÃ¤r
yck a
ĠE tt
f il
ri es
co ver
Ġvikt iga
Ġprat at
ĠkÃ¶r de
Ġboy friend
Ġmiss ion
OM E
Min ns
ter n
ĠslÃ¤pp a
Ġl Ã¶g
Ex cuse
ĠM al
if ied
e al
p or
I R
s ar
Ġc la
Ġpass ar
n ight
i fter
Ġ1 3
Ġforg ot
Ġl ow
Ġm ent
k ring
Ġdecis ion
b el
Ġatt ention
Ã¤n na
h ow
us an
Ġoper ation
ĠC or
Ġtim me
Ġkid ding
Ġf yll
Ġvil ka
ĠHar ry
Ġsk uld
sh it
ĠlÃ¤ kare
Ġserv ice
I K
Ġperson er
Ġfavor ite
j Ã¤v
st ru
Ġch amp
Ġgovern ment
rÃ¥d et
Ġsu it
Ġv Ã¥g
Ġcop s
Ġun ivers
ro ller
ĠsÃ¤l ja
Ġe gentligen
l at
Ġm ain
Re ally
ĠsÃ¶ ker
Ġc ele
ĠM ex
Ġo k
Ġb ast
ĠR E
Ġc a
ab y
ĠbrÃ¶ll op
Hen nes
end s
Ġdis cuss
Look s
Ġskjut a
Ġrad io
Ġdri ver
ĠS ee
ĠjÃ¤tt e
Ġsl ag
Ġte chn
Ġinterest ed
ĠfÃ¶rtjÃ¤n ar
st on
ĠvÃ¤r d
Ġf ish
as c
ĠÃ¶ver allt
ĠA ny
Ġh ost
Ġs udden
Ġgr ow
Ġbro ken
What ever
Ġland et
h ost
ach el
Ġgill ade
om as
ge ant
Ġkr Ã¤v
Ġplan e
Ġsk Ã¶t
ighet er
il s
Ġpu tting
ri age
Ġmen ade
Ġn Ã¶d
Ġb ase
Ġkaff e
I L
imin al
ĠF re
Ġre ma
Ã¶ts ligt
yck er
ĠRob ert
Ġproblem s
M ay
Ġsim ple
je kt
n ars
Ġl augh
ĠfÃ¶rlor a
k ort
al y
ro te
F Ã¥
ren ch
k ade
ĠnÃ¥gons in
jÃ¤lv klart
Ġag re
Ġsign al
S c
Ġwor st
ĠJe ff
ĠW ith
ol f
in i
ĠtrÃ¤ d
Ġsupp ose
iv al
Ġe qu
Ġf al
Ġcon d
Ġst ab
Ġel d
Ġcare ful
Ġhote ll
Ġv ers
Ġc ute
ĠJ an
ĠT ra
Ġimp ress
Ġlo g
iv et
Ġext re
Ġc ow
Ġskick ar
ĠÃ¥t minstone
Ġm akt
R O
Ġc ash
Ã Ń
Ġfr Ã¤m
Ġlaw yer
M ake
r arna
Ġp il
Ġv att
Ġtv ungen
Ã¶ss es
C all
Ġsk ill
Ġc y
Ġv inner
Ġan ing
Ġcon vers
b s
Ġsecond s
Ġr Ã¶ra
Ã¥ ende
ĠnÃ¥n stans
Ġund ers
Ġm ajor
Ġstand ing
ĠberÃ¤tt at
Ġs and
ĠAng el
2 0
ĠAmer ica
v o
Ã¶j ligt
R A
iv ed
ĠfÃ¶rlor ade
Ġsp ot
sp el
ib ly
Ġhu ge
kt ig
Ġh amn
Ġr ules
Ã¶ ja
ĠM el
N ever
N obody
ĠPre sident
pp na
Ġsk Ã¤mt
Ġfor ce
at is
Ġheal th
C on
L u
ter ar
i ents
Ġf isk
U ST
ĠM ac
l Ã¶s
ak ed
Ġto ppen
Ġsl ags
ed d
Ġbr and
Ġwalk ing
ĠL uc
ire s
Ġpsy k
Ġwind ow
Ġpro ve
ĠWill iam
ĠmÃ¥n ad
ĠmÃ¤nn iska
Ġconc ern
Ġm rs
od en
M m
Ġb other
Ġj ail
app y
Ġexper ience
ĠE ller
ĠH a
ĠT ake
ĠE r
V ery
y g
g ed
Ġinte ll
Ġstol t
ĠRe ally
ish ed
el ess
red it
b ack
ĠÃ¶ver rask
Ġo t
Ġjord en
Ġfavor it
et ch
ĠÃ¤lsk a
Ġb ri
ĠglÃ¶m de
Ġlj us
Ġtra vel
ak ar
IG HT
b is
st Ã¤nd
Ġse at
Ġtill hÃ¶r
Ġ- -
ĠA nt
Ġfall et
Ġadd ress
Ġkl ass
ĠSt reet
el sen
Any way
ess a
Ġjobb ade
p are
Ġpriv ate
ĠM o
Ġgentle men
end ed
Ġfuck in
Ġmisst Ã¤n
C T
K Ã¤nner
ling ar
Ġb unch
st Ã¥r
Ġgu ld
Ġtr ad
ĠfÃ¶ del
Ġfuck ed
Ġlik ed
ĠH all
ĠÃ¶ver le
Ġl ay
Ġhold ing
ĠD NA
sam het
Ġkall as
ĠW ar
ĠP Ã¥
Ġsur prise
Ġlik es
Ġlyck lig
U S
Ġlad ies
Ġdou bt
Ġmar ry
Fin ns
Ġlet a
ĠV et
Rem ember
Ġstr ange
ile y
s ett
Ġopp ortun
ĠtrÃ¤ff at
g Ã¶r
es ome
ĠvÃ¤l ja
ĠhjÃ¤lp te
Ġinterest ing
Ġex akt
Ġhelp ing
at ta
orts Ã¤tt
. '
Gl Ã¶m
Ġc ause
Is n
ĠT ed
kl ar
Ã¤n s
ĠslÃ¥ ss
Ġsk Ã¤m
Ġr Ã¤tta
ĠSc ott
Ġn one
ĠS ome
St anna
g ing
ĠÃ¶gon en
ĠRich ard
kt ar
Ġdrug s
ĠkÃ¤nsl or
Ġb al
Ġex cept
Ġb uck
Ġr ich
Ġte ck
ĠlÃ¶ sa
Ġo cc
Ġmot or
ic ul
Ġdire ct
ru pt
u ch
v ent
Ġup set
Ġst al
' .
f ield
Ġny heter
Ġbl ue
Ġbeg rav
ĠmÃ¶ te
C E
na ck
Ġc ab
ian a
Ġw ood
Ġdri ving
om en
Ġang ry
ĠC r
ag a
ĠD in
Ã¶ ka
ro a
Ġmil es
ĠJim my
Ġw rote
ed s
Ġciv il
ĠS E
Ġexc ited
Ġtar get
Ġrec ogn
Ġhor se
Ġtid igt
ur en
ye ar
Ġfantast isk
ĠAd am
Ġfinish ed
u ra
ib ility
Somet imes
Ġfin al
Ġp al
Ã¶ nt
Ã¥g od
ĠSara h
av y
ĠÃ¥ ld
ĠK im
Ġanled ning
ĠrÃ¤dd ade
Ġslut et
al f
Ġknapp t
O D
Ġsuc cess
Ġb ird
Ġsjukh uset
and on
O j
b ry
B es
Ġlearn ed
ĠL Ã¥t
ap an
j Ã¶r
Ġv it
Ġt unn
Ġgu est
ĠbehÃ¶v s
Ġbarn et
ic ated
Ġt red
s n
ĠB ig
Ã¤ck te
Ġlov ely
Ġlug n
Ġlet ter
te m
Ġk ross
Ġg ard
y a
ĠC omm
Ġliv ed
G reat
ĠP ark
ĠB illy
ĠWe st
Ġp iz
ĠG Ã¶r
bb y
ic ed
Ã¶ ker
Ġor ig
Every body
c ame
ve ck
Ch arl
Ġstud ent
rÃ¤ d
an ger
Ġdra w
ĠJ ess
C ar
P h
T re
Ġfigure d
ĠlÃ¤r de
P P
Ġj oke
pl an
ĠB ara
Ġotro ligt
Ġn Ã¤m
Ġte kn
med i
Ġo van
m i
Ġso ci
NÃ¥g on
Ġsk in
ĠSte ve
l Ã¤g
ĠW il
g in
pl oy
Ġd at
ch er
ĠlÃ¥t sas
id ay
B ack
Ã ¡
Ġre se
ĠT ony
Ġm ater
Ġsv Ã¥r
N OW
St ay
Y OU
Who a
Ġwith in
olog y
G ra
Ġbig ger
Ġth ird
ĠfÃ¶r ber
Ġne ck
r ass
ĠT im
E A
ligt vis
Ġd ying
Ġabsol utely
Ġdis c
id dag
1 0
Ġlo ves
te st
Ġpr ay
ĠW AS
ĠfÃ¶r h
full y
Ġac cep
Ġst y
ea ve
ĠV al
Ġd ick
L ite
in ing
A nt
s an
n ers
ĠH Ã¤r
Ġgr an
Ġv issa
ĠL ee
ord ing
Ġmach ine
Ġcho ose
ĠÃ¤ ld
itt en
ĠV Ã¤nta
Ġvis ade
Ġobv iously
ĠkÃ¤n t
Ġdet ail
Var je
ĠG reat
all a
Sk y
j Ã¶d
sam t
R I
ig er
Th ink
v i
ĠEng lish
ĠT ell
Ġse par
N Ã¥t
ĠA T
Ġtjej er
for table
Ġrem ind
ag ue
Vil ka
Ġa ud
Ġfle sta
ĠS Ã¤g
ĠTH IS
Ġim medi
Ġsu ffer
m Ã¤st
ation er
la x
Ã¤ dd
Ġkro ppen
ĠÃ¥r et
Ġkoll ar
ef ore
Ġrep resent
ĠP ol
Ġv ux
Ġt Ã¤v
Ġal ter
Ġgra b
Ã¤nn ande
E m
ĠnÃ¥n ting
ber g
r Ã¥
Ġsv ara
Ġe st
Ġch urch
ock a
ĠE ur
Ġ Ã¶r
rat ul
On ce
Ġex am
ill en
ĠÃ¶ l
Ġe gg
ĠT e
ĠmÃ¤n sk
Ġhop ing
ĠR on
Ġf okus
ĠN or
ĠD Ã¤r
Ġallow ed
S v
ĠsÃ¤tt et
Ġkv innan
Ġi stÃ¤llet
ĠR ick
M ich
Ġrikt iga
m Ã¤n
Ġex cuse
D amn
Ġgen eral
lighet en
Ġbe came
Ġcon vin
Ġs Ã¤ng
in ne
S pe
Ġt ree
ig ar
f ast
M er
ĠfÃ¶ n
ĠF lor
Ġgod damn
sl ag
Ġris ker
ic le
Ġut red
Ġt ight
Ġo we
Ġn amed
Ġf it
d on
om er
ĠP e
ĠK at
Ġhelp ed
ĠfÃ¶rsv ann
K n
at ic
Ġmor se
Ġour selves
Ġher o
ĠCh ris
J esus
H ade
c us
Ġso ver
j ust
ĠGr and
w ise
Ġso cial
l u
Ġv el
a wn
ĠJ on
ab ri
ubb en
Ġvar e
Ã¤m de
Ġun less
Ġdel ar
Ġcertain ly
se y
Ġskit en
f att
Ġt or
Ġacc ess
Ġe ating
Ja ha
itch en
Ġcoll ect
ĠJ oh
ed ing
H jÃ¤lp
ist an
Ġweap on
Ġom kring
Ġlju ger
i at
Ġpoj kv
ol m
Ġsk il
Ġgr upp
Ut an
ull y
ÃĦ l
Ġe arl
Ġkeep ing
Ġstay ing
L ed
V a
Ġsek under
Ġsk all
Ġc rew
Ġv ol
Ġhers elf
Ġg Ã¤ng
ĠJ u
ate g
ĠMart in
Ġbath room
Ġkn ull
Ġr as
ĠfÃ¶rsÃ¶ kt
Ġste g
i ar
oh ol
Ġgu ard
ĠhÃ¤nd erna
rÃ¤ ff
ĠdÃ¶ tt
Ġsk Ã¤l
ĠÃ¤n t
T ry
Ġgrabb en
W elcome
aj est
D om
Ġtjej en
ch en
Ġh unt
En ligt
Ġwill ing
Ġpick ed
Ġs Ã¤rskilt
ig ger
K Ã¶r
ip e
Ġsk Ã¤r
he art
rev ligt
Ġlyss nar
ord in
Ġcam era
Ġfantast iskt
Ġval de
ĠF in
Ġun f
ĠF rench
Ġle vel
Y o
Ġsh op
Ã¤ck t
um b
Ġv ac
et a
ĠÃ¤nt ligen
ĠM s
T ER
H ela
Ġfull t
D ra
uten ant
ĠL A
NÃ¥g ra
ĠsÃ¶ nder
Ġty pe
Ġg ang
Ġus ually
ĠanvÃ¤nd e
Ġwho a
ĠF ather
ĠS her
Ġmiss lyck
Ġfolk s
Ġass hole
Ġdeser ve
Ġr ik
kten skap
Ġpress ure
n oon
Ġtal at
Ġspel ade
Ġof ten
ĠvÃ¤n ster
MÃ¥ ste
ĠU m
Ġe mer
f est
ĠSt ar
ĠS ure
Ġprof ession
S ay
ĠhÃ¶g t
Ġinn oc
Ġpre par
Ġsa ke
or ld
Per haps
Ġdes per
ch e
ri e
ĠkÃ¶ tt
Ġk yss
Ġtr ots
Ġthem selves
sp l
Ġmar riage
Ġnerv ous
Hopp as
ĠG ive
Ġled er
ĠjÃ¤v el
ĠlÃ¶ s
Ġconvers ation
Ġy ell
itt ing
Ġph ys
Ġfre sh
Ġf ac
ĠCar ol
ara c
Ġh ol
Ġlock ed
Ġinter view
Ġway s
ĠfÃ¶rst Ã¶ra
Ġo sky
Ġlit et
ĠCharl es
ĠQ ue
is hing
Ġfeel ings
ĠJ ane
Ã¤ na
ĠDan iel
Ġh i
d o
Ġst aden
ell t
Ġshow ed
b an
Ġdec ide
Ġser iously
ĠDo ctor
Ġinc red
Ġm amm
Ġkall ade
Ġrom ant
ĠSt an
Ġdiffer ence
Ġbe er
ok ing
Ġcan cer
Ġsk oj
Ġstick er
Ġresp ekt
Ġsort s
D ina
F ar
Ġstra x
F ast
Ġpass ed
Ġr ace
Ġfoc us
ist a
ĠFÃ¶r lÃ¥t
ĠGer man
ĠM ur
Ã¶r ja
Ġev il
Ġo be
ĠfÃ¶ret ag
Ġmother fuck
on el
Did n
Ġupp r
Ġh ole
m ord
st ret
Ġbegin ning
Ġvack ra
u sk
Ġb ow
Ġher rar
ĠH ouse
Ġgott en
Ġbu ilt
ro l
Ġst ole
Ġflick vÃ¤n
Ġkom pl
Ġr akt
Ġwh ether
Ġh Ã¥l
b oy
Ġgiv es
it ter
ĠV isst
g u
Ġbull shit
v Ã¤nt
k ost
ĠfÃ¶r hÃ¥ll
pp ing
F ly
Ġenerg y
eng th
Ġj ur
ĠpÃ¥ gÃ¥r
Ġm ira
Ġneigh bor
av sett
Ġpist ol
T j
en skap
Ġsleep ing
p ress
Ã¤r en
g as
W H
ĠP l
Ġh ind
Ġst jÃ¤l
L ast
r ats
Ġmedic in
oss ible
Ġlit ar
Ġslut ade
ud d
ĠfÃ¶del sed
Ġpro ject
Ġopportun ity
Ġh ook
ĠDan ny
O oh
oth ers
Ġdu bb
Ġspe aking
ĠM Y
in der
ĠF Ã¥r
ĠAn na
Ġm eter
AN T
Ġhad n
Ġre lax
Ġprom ised
Ġapp l
as ed
t ryck
Ġkont roller
g Ã¶ra
ĠS al
am b
int s
Ãĸ R
ĠvÃ¤r sta
ĠhÃ¤l sa
Ġt anke
h an
en ed
ĠDad dy
W E
Ġl ust
re ct
I TH
ot a
Ġ6 0
Ġc up
ĠÃ¤ t
Fr ank
Ġweek end
ar i
Ġjour nal
itt ed
Ġsh oes
ipp ed
Ġsam man
Ġdar ling
Ġn ames
oc ol
Ġw ine
k es
ing er
Ġlit er
Ġa uthor
Ġwonder ing
ĠglÃ¶m ma
Ġins Ã¥g
Ġs ummer
ĠfÃ¶ dd
Th ree
Ġm ate
Ġlev ande
Ġoro a
unn it
Ġim m
ĠkÃ¤r a
Ġfl ight
Ġbre v
ĠfÃ¶rb ann
ĠWh ite
Ġm ix
Ġearl ier
Ġcla im
ĠTom my
itt y
Ġcra ck
ĠEng land
ĠÃ¶ver ty
ĠJ ake
Ġby ta
ma il
ĠKe vin
Ġut s
Ġl jud
Ġlig ga
Ġbook s
Ġsp ar
Ġfru kt
Ġbeh Ã¥ll
Ġvikt ig
P rat
od ay
ars Ã¥god
An nars
Ã¤m ta
Ġv amp
Ġgre en
Ġhid ing
M a
Ġlov ade
Ġst il
Ġplay ed
ett en
ĠSe c
ens ive
Ġin se
Ġt ea
ĠÃ¤nd ra
we et
Ġd ry
... !
Ġr aring
Ġsu ck
Ġtack a
ak s
Ġmin ut
Ġafter noon
v Ã¤l
ogra f
Ġsk ott
Ġcele br
FÃ¶rs Ã¶k
Ġnot ice
ĠV an
Ġw ild
Ġmy ster
mÃ¤r k
Ġpojkv Ã¤n
ĠG ar
Ġlu ft
r ust
Ġdum b
O roa
Ġtrev lig
- "
ĠfÃ¶rlor at
u le
.. ..
th ur
us ion
Ġpl Ã¶tsligt
ĠT ur
Ġfin a
Ġtred je
L A
Ġsvart a
Be h
Ġg ro
Ġjud ge
ĠÃ¤ kta
ĠT er
org an
Ġlos ing
- ...
ĠBob by
Ġquick ly
Ġk itchen
Ġpl ans
Ġst Ã¶d
Ġbes Ã¶k
Ġvi ew
pt y
Ġsc ream
fÃ¶r a
ogra ph
Ġ Ãħ
Ġors ak
ol ution
Ġintell ig
Ġchef en
h ere
Ã¶ da
Ġqu it
Ġn ine
Ġkl ipp
ĠfÃ¶rkl ar
Ġhur ry
Ġlisten ing
s b
ĠtrÃ¤ff ar
Ġbl ame
Ġ ]
ny tt
ĠlÃ¤r t
Ġfire d
kom na
Ġcomp uter
Ġska pa
ĠaffÃ¤r er
Ġdel iver
ĠK NOW
ent ial
Ġo dd
Ġc ock
Ġvatt net
Ġpull ed
Ġcl ient
In nan
ger y
Ġspir it
Ġskj uter
Ġr ain
re sten
Ġni o
Ġin bland
ĠH igh
ĠN E
ĠÃ¶ver ens
ĠvÃ¤rld ens
ĠR oy
ĠÃ¤ ktenskap
Ġsurpris ed
ve y
Ġ5 00
om s
Her r
Ġe arth
Â Ģ
Ġvel at
e ys
Ġne cess
F ortsÃ¤tt
hing ton
Ġcontin ue
Ġpriv at
Ġpleas ure
ĠvÃ¤r t
Ġ2 1
Ã¥ da
Ġm Ã¶t
S y
M Ã¥nga
Ġ ou
âĢ Ķ
Ġsa f
ĠfÃ¶rlor ar
ĠC ent
akt en
Ġre ger
ĠD ar
Ġt our
Ġexpl os
Ġc ode
ont ing
Ġj Ã¤m
Ġevery where
all er
Ġa ut
Ġl ang
Ġd ouble
Ġuppdr ag
Ġesc ape
ĠM att
Ġgre jer
Ġap art
ĠAll a
Ġb red
ĠfÃ¶rl Ã¥t
t r
ĠT ill
ĠHA VE
S ince
Ġdrink ing
ĠÃ¶ver lev
ĠfÃ¶rsÃ¶ k
or i
Ġact ion
od d
ĠH mm
Ġun ga
ans en
Ġpo ol
ĠC am
ra p
ĠbÃ¶rj at
Ġs le
Ġp ath
S jÃ¤lvklart
ĠglÃ¶m t
T Ã¤nker
h us
inc ip
il ty
cent r
m ark
ste met
Ġstra ff
Ġbr ud
Ġtr Ã¥k
vis a
Ġ Ã¥ng
Ġfil men
ĠAll t
ic ide
Ġch air
Ġska ffa
Ã¤r t
Ġwe ak
ĠhÃ¶ ger
Ġper haps
ell er
Ġmem ory
an ter
p Ã¥
Ġbr ut
Ġin fe
Ġg iss
ĠkÃ¶ per
ĠS on
Ġproblem et
Ġ- [
g Ã¥s
Ġdoll ars
Ġkomm un
Ġbe ar
Ġch arac
e ch
Ġbr Ã¶st
st it
gn ant
Ġsam arbet
Ġfur ther
Ġc it
Ġpre gnant
Ġut veck
er m
ĠTh omas
Ġintress ant
ver t
Ġ ers
st Ã¤lla
Ġpicture s
Ġgr Ã¤n
il ar
Ab out
uck y
Ġcra p
" ...
St ill
Ġthous and
Ġg atan
Ġwar m
Ġp ers
Ã¶r j
vel op
sp e
Ġdel a
ĠmÃ¶rd are
Ġby gga
Ġin de
Ġad mit
Ġst Ã¤ller
ĠF ar
os en
N Ã¤sta
Ġkl ient
ĠbÃ¥ de
b ook
ĠJ ud
i ers
Ġhung ry
Ġup on
ĠH old
Ġord ers
al ys
Ġtitt ade
Ġfar ligt
M ore
s fÃ¶r
l ight
Ġme mor
Ġst age
ĠdÃ¶d at
Ġpre s
ap t
Ġwr iting
Ġg um
ĠJohn ny
Ġcl osed
an o
Ġre lig
ĠK ate
V isa
ĠR yan
Ġread ing
Ġta ste
Ġrese arch
T ur
j orde
J im
ĠJ ord
ĠH olly
Ġgra v
ĠjÃ¤tte bra
ĠJ am
Ġk amer
Ġv ann
Ãĸ ppna
Ġact ing
J asÃ¥
Ġcare er
Ġpu ss
Ġkeep s
ĠR ose
Ġimmedi ately
Ġhear ing
u bl
ĠN orth
ic ious
Ġdum p
ĠfÃ¶rsikt ig
n o
ist r
Ġm um
n ande
Ġh Ã¤ng
ĠE ric
Ġsk ogen
ic ago
st ers
Ġvan ligt
am t
ĠW ow
Ġcomp et
Ġlj Ã¶g
Ġcomplet e
St r
ĠsÃ¤l jer
Ġd irty
o om
Ġamer ikan
amp le
Ġc ast
Ġmed vet
Ġmed ical
Ġund v
im ate
Ġmeddel ande
ĠvÃ¤n tade
c um
Ġm aster
Ġse ver
Ġd ata
I ns
1 1
M ycket
k ont
M or
del es
Ġtr u
ĠNot hing
ĠM at
Ġg ym
Ġinnoc ent
Ġtr ial
ĠkÃ¤ ften
Ġpri ce
Ġ #
Ġconf ir
r om
Ġinvestig ation
p ly
ld en
Ġex em
Ġliv s
ĠK n
ar on
ong ratul
Ġb attle
ĠVi ctor
Ġchans en
Ġt Ã¥g
Ġfast er
Ġuppt agen
ĠGra ce
Ġverk ade
ĠJ ac
Ġpl ant
i que
Ġcol or
Ġbe ll
ĠhjÃ¤r tat
Ġk inda
Ġupp en
L Y
Ġty vÃ¤rr
J Ã¶sses
Ġfollow ing
Ġstol en
Ġhopp a
A lex
Ġar r
Ġbu ss
Ġwalk ed
Ġse a
aug hing
Ġgill a
Ġseem ed
am in
bo ard
Ġst re
Ġn Ã¥
Ġcor ner
Ġpl aces
end en
J e
ĠhjÃ¤r t
Ġflick an
Ġgra vid
Ġbast ard
ĠB oy
Ġt um
Ġtrad ition
Ġqu ar
Ġpo Ã¤ng
ĠM il
ĠW in
Ġsus p
I I
Ġaw esome
Ġom rÃ¥det
en ing
R ob
Ġamb ul
ĠE ddie
Ġhell re
Ġdes ign
Ã¶ rel
ĠH is
Ġc igar
ĠC ra
vÃ¤r d
ĠT wo
F Ã¶lj
els et
ĠWH AT
ur ing
ap ed
if orn
N D
Ġ2 2
ĠdÃ¥ liga
ĠS outh
J Ã¤v
ĠdÃ¶d s
am ous
bar rass
es h
Ġc aptain
Ġtur ns
Ġtw ice
Ġfa ith
Ġk us
Ġdum t
Ġlyck ades
ad s
Ġblood y
Ġenem y
Ġg host
ed y
Ġbe com
Ġv ita
att is
Ġloc al
v inn
ab eth
ed el
ĠP et
Ġmurder ed
miss ion
Ġnerv Ã¶s
Ġk Ã¤ll
Ġord na
Ġbild er
ay lor
j Ã¶l
Ġf Ã¥g
B efore
w en
Ġintress erad
Ġw aste
Ġlik ad
ĠlÃ¤gen het
Ġhung rig
Ġli ft
ĠkÃ¤nd es
F ine
Ġpiz za
ĠWas hington
st ra
H mm
ag on
Ġpl ac
d an
Ġsvar ar
Ġp ig
ed om
ĠslÃ¤pp er
ĠJ ones
Ġf ile
Ġup stairs
Ġbreak fast
ĠC all
h ip
Ġe h
Sh it
r ant
D av
Ġgu ilty
ug ga
ion er
Ġreal ized
Ġdream s
Ġkrig et
Ġar my
Ġbes v
Ġalter nat
Ġo d
g Ã¥
f essor
Ġgun s
Ġimp ossible
la w
Ġsm oke
Ġhor ri
V issa
ĠBr it
se c
Ġsp oke
Ġbig gest
Ġhand en
Ġk am
f te
Ġst Ã¶
Ġs our
Ġansikt et
Ġtill stÃ¥nd
ĠfrÃ¥g an
ĠS pe
il ing
ess ed
Ġweap ons
Ġha ck
Ġdet al
Ġemot ion
x y
Ġforg ive
arn as
Ġse m
n i
ie utenant
V is
Ġpur p
ĠkrÃ¤v s
Ġo pt
Ġbo ll
ir k
ĠdÃ¤r ifrÃ¥n
Ġkun nat
Ġbring ing
Ġan m
Ġs ight
Ġpre fer
Ġk amp
im m
Ġc ous
Ġdum ma
Ġdam er
Ġno se
Ġv ote
ĠB rian
b ell
T ro
x a
N Ã¥
S Ã¥g
em s
ĠsÃ¤ kra
g el
OU LD
fÃ¶r s
ĠVil ken
Ġem barrass
kar en
th at
Ġbreat h
bur g
ab b
ĠD ra
ĠYOU R
Ġstor ies
e ared
Ġs um
ĠS il
g gen
ĠB a
ĠS H
Ġsur gery
sp r
Ġkn Ã¤pp
Ġcomm on
ĠP al
Ġdri cker
ie ve
Ġleg s
Ġk ok
ĠD ay
ĠC H
Ġf ars
Ġb od
b arn
ct ions
Ġis land
ĠV a
ĠdÃ¶ l
Ġbek rÃ¤
Ġbe klagar
ĠH Ã¥ll
V id
Ġmark et
if orm
i od
O P
i ally
Ġl etting
Ġto tal
Ġplan ning
Ġstick a
ri Ã¤r
ol an
I E
ĠfÃ¶rs var
Ġry gg
Ġre act
ro f
ĠG Ã¥
Ġs Ã¤ngen
Ġdiv or
J ul
Ġp ants
Ġarm s
Ġpower ful
m iddag
Ġfe ed
Efter som
Ġbott om
Ġclos er
Ġsh irt
Ġh Ã¤nger
ĠmÃ¶r k
art y
Ġem pty
Ġexper t
as ka
Ġrespons ible
Ġj Ã¤mt
VÃ¤l kommen
ĠJ apan
Ġc ake
j ord
Ġut nytt
am s
Ġt aught
ortun ately
Gu ys
ĠÃ¥ld er
z en
ĠhÃ¥r d
F em
ĠI D
Ġsh ock
ent ligt
ĠH it
ĠÃ¤ld re
ĠsÃ¤ll skap
x or
Ġs org
Ġo ly
ĠW ITH
Ġdans a
v ille
Ġtell s
ĠH aw
ĠL o
Ġapolog ize
il i
Ġno te
TH E
Ġavsl ut
ag ne
Ġrapp orter
ĠS luta
it ions
Ġand as
B ob
k arna
Ġknow ing
h Ã¤ll
Ġcle arly
Ġinter v
Ġhell o
Ġframtid en
ĠvÃ¤l jer
Ġf ake
Ġgal et
Ġh inner
Ġarri ved
Ġin ser
nd e
m ande
Ġbevis a
ĠskÃ¶ ter
ĠlÃ¤ sk
Ġhar m
ĠR ock
ĠL O
ott en
ĠnÃ¤r heten
Ġring t
Ġadv ice
ar p
ĠmÃ¤r k
ĠD oug
Ġsw im
ic y
Ġinst ru
h o
Ġphot o
Ġl Ã¤st
Ġto l
al es
ĠSm ith
Ġont o
Ġan klag
Ġarbet ar
Ġh ette
ĠI sl
Ġman ager
Ġsp Ã¶
ÂĢ Â
Ab sol
Ġsurv ive
vin ner
Ġdog s
Ġrequ est
b en
Led sen
h em
Ġab ove
Ġl ok
1 5
Ġnum bers
ĠnÃ¥g onting
Ġrestaur ant
l ock
Ġg ull
pp er
op t
Ġdej t
it ar
Ġcheck ed
ie st
ĠvÃ¤n tat
Ġbest Ã¤mmer
ĠA gent
Ġdis cover
Ġshow s
Ġklar ade
Ġcou n
Ġpo ison
Ġtrain ing
ĠGen eral
op a
B en
ĠCh icago
Ġeng ine
Ġsp ell
Ã¥r d
Ġut man
Ġen orm
ĠJack son
ffic er
ĠlÃ¤m nat
Ġny het
us ing
Ġnamn et
Ġemer gency
Ġsh er
ON E
Ġtyd ligen
lig are
Ġuppsk attar
H as
Ġ ,
Ġpart ic
Ġdro ger
n am
if er
ly n
ĠE ast
Ġt it
v ad
Ġc ru
Ġit self
Ġn Ã¤t
ĠSu per
ĠH uh
Ġop in
ĠL isten
Ġshoot ing
ate st
ĠdÃ¶d en
i ens
Ġpr oduc
f ta
an c
AR E
Ġapp ar
uck les
Ġme at
l erna
Ġde velop
and id
ĠC om
St ick
al ity
Ġhel d
Ġbe bis
st ant
M s
ather ine
Ġhang ing
ĠN OT
Ġo sk
it en
nd ag
ĠglÃ¶m mer
Ġstart s
ĠC IA
Ġg Ã¤st
ic ate
ĠB ea
Ġc ars
ĠnÃ¤r mare
ĠJ UST
au ra
Ġr am
Ġliter ally
T ime
Ġplats en
Ġsp ort
Ġmark en
Ġdro pped
Ġj Ã¤k
Men ar
Ġgr ad
il j
Ġsv ag
ĠG reen
m ond
Ġsur r
Ġk ons
ĠA fri
Ġlu ktar
ĠJ er
Ġst ink
Ġaw are
L Ã¤mna
ĠR a
ĠmÃ¶j lighet
pp et
Ġmatter s
oun tain
Ġham nar
ĠS y
ĠN ice
ĠG ot
ist or
Ġb odde
Ġvar ann
wh at
Ġend ed
Ġvil a
Ġg ames
Ġeas ier
an cy
Ã¤n ning
Ġad ress
Ġbe ach
Any thing
Ġli sta
R Ã¶r
v or
Ġdu ty
Ġli ed
agg ie
Ġmilit ary
Ġchick en
h el
Ġtro ll
Ġteach er
ill ing
ĠA B
Ġfru kost
ĠJ ose
Ġfar bror
ĠfÃ¶rv Ã¥n
um ber
Ġcomm and
Ġlyck as
Ġmater ial
Ġanim al
ĠA ust
Ġanim als
Ġm ut
sk i
Ġbott le
c ue
Ã¥ p
oun ce
IK E
ĠA S
tid igt
ĠH ans
ĠL iz
Ġdro tt
Ġco ach
Ġem ploy
or es
Ġ9 0
Ġn ation
it o
ĠR os
Ġad m
re p
ĠÃ¤r lig
Ġinsp ir
ĠJ en
in ct
ĠÃ¤g er
Ġc al
ĠAnd y
Ġc row
Ġpro cent
ĠIn ter
M ost
rat or
Ġkn ife
P olisen
em pt
Ġcont ract
Ġstr ength
ĠtÃ¤n k
Ġmed ia
Ġdu e
Ġspe ed
ĠM ont
Ġ8 0
Ġkn iv
Ġwas h
an te
Ġig nor
Ġr Ã¥n
Ġf jÃ¤r
Ġfest en
b es
ik anska
Ġd are
ĠC AN
Ġpr ins
l ike
p ass
Ġso ft
b ru
Ġt ape
Ġdo ck
m p
Ġt ab
W atch
sk ling
D ess
Ġaw ful
ri kt
Ġtal as
Ġu g
Ġb id
Ġan stÃ¤ll
d own
y ond
ĠK l
Ġfind ing
ĠfÃ¶rs Ã¤k
ĠMar ia
Ġhy p
Ġpay ing
Ġsher iff
Ġl in
Sh ut
T oday
ch ef
Ġrob ot
Ġdisk ut
er ap
k ins
ĠA sh
Ġpri or
im p
ĠlÃ¶g n
cc a
Ġpract ice
Ġplan en
us hing
Ġdes cri
Ġcommun ity
Ġh Ã¶j
ĠK en
ick s
Ġinne bÃ¤r
is ing
Ġcomm it
Ġuppr Ã¶rd
T e
ĠJ erry
ul ation
ĠlÃ¤ ste
ab el
Ġny ss
Ġun cle
Ġr ac
ld e
pp a
dag s
ĠT ex
amm et
O S
Ġbred vid
Ġv ind
ĠfÃ¶rv ir
Ġha vet
icul ous
Ġcr ash
Ġsjukh us
J u
Ġcry ing
E M
S u
ĠW ay
gr ound
Ġflytt ade
Ġvack ert
Ġfly ga
Ġtru ly
un ny
Ġsl Ã¤kt
air s
Ġo lyck
Ġru le
Ġn or
Ġra ise
Ġnot iced
alt y
ĠfÃ¶rst od
Ġbr Ã¥
Ġc ult
ĠM other
itu de
ĠlÃ¤g g
g y
Ġ2 3
Ġavsl Ã¶j
iz ing
it es
ĠDo es
Ã ±
is es
Ġtv iv
ĠAl ice
Ġk eys
k ter
ĠB ru
ĠA LL
ĠG reg
pe cially
l ud
Ġon d
V Ã¤r
Ġd yr
Ġsur f
Ġball s
Ġarrest ed
Ġc ream
c il
ul s
iell t
ĠB u
Ġexper iment
Ġt ort
ĠM ag
iz abeth
A w
Ġall deles
Ġlag a
H oney
ongratul ations
Ty vÃ¤rr
i bb
ĠUn cle
Ġen c
Ġpass ion
Ġw itch
Ġhe avy
Some body
Ġle ka
ĠfÃ¶ red
u vud
Hel p
Ġde b
Ġb on
Ġcor rect
Du de
' ?
ĠbehÃ¥ll a
g ru
Ġof Ã¶r
Ġsk Ã¥d
ste in
Ġa gg
Ġh o
Ġinter n
Ġinv ited
Ġhem sk
Ġspe ech
ĠEm ily
ĠkrÃ¤ ver
Ġpr incip
ct ors
ri p
A ng
ĠN O
ik o
m o
e es
Ġe ar
ap ten
ĠM ajest
ig en
Ġstr id
ĠCh ief
Ġp et
iv ing
Ġfre ak
V Ã¥ra
Ġmil k
Ġes pecially
Ġw ound
ĠfÃ¶re sl
ĠR achel
Ġfor sk
Ġcom fortable
w ers
ĠJ osh
Ġord nar
eg as
Ġdi am
f ly
Ġk at
ad ed
Ġen ligt
ĠD om
N ew
i erna
Ġgre atest
Ġlight s
Ġeff ect
th ough
ĠH ill
Ġagre ed
Ġbod ies
ĠJ ason
ĠL isa
Ġry ggen
en ces
ĠUn ited
Ġiss ue
ss k
ĠD ave
Ġp ock
in cess
Ġupp mÃ¤rk
Ġb Ã¤ra
U M
l are
ĠT w
ĠLe on
Ne xt
P at
nt il
ĠfÃ¶ ll
i ber
Ġc redit
Ã¶ p
te ck
Ġart ist
ĠT or
ĠGud s
ĠR om
Ġb ust
Ġbar ely
ĠlÃ¤g et
Ġrecord s
Ġtem per
art a
re k
Ġsudden ly
Ġto k
ĠfÃ¶lj de
Ġst ry
n Ã¤r
Ġpre d
ĠfÃ¤r g
1 9
ĠF R
Ġstud y
Ġ et
Ġk o
Ġsek und
Sky nda
Ġto al
Ġpr ot
ĠCh in
Ġsp y
ress ion
Ġvi ld
Ġill eg
Ġsnack ar
Ġh ig
Ġbjud a
ĠfÃ¶rs vinner
K ul
Ġab s
ĠC oll
Ġob ser
Ġmin st
Ġbr Ã¥k
Ġcom b
ĠP a
Ġlju ga
Ġtv Ã¤tt
Ġteck en
ĠLu ke
Ġun iform
Ġn Ã¥d
ĠG ET
ĠLou is
Ġf j
ĠR am
C aptain
ĠB el
Ġsk or
Ġtj Ã¤na
Ġas leep
Ġplan er
Ġaff ord
Ġbil j
Ġbok en
Ġbes vÃ¤r
j an
Ġcr iminal
z o
Ġdo ktorn
ĠEm ma
ĠSp an
R Y
Ġ3 00
Ġfar m
Ġold er
Ã ¼
ĠfÃ¶rstÃ¥ s
Ġst Ã¶tt
ring ar
sid an
Ġa x
Ġshow er
Ġinc lud
ĠF red
Ġcond ition
ĠV er
Ġf ed
Ġon line
Ġn on
Ġcharac ter
ÃĦ n
opp ing
ĠG old
Ġfoot ball
led ge
ĠlÃ¤ ser
Ġappro ach
Ã¤l j
id an
Ġom bord
Ġbull et
Ġt Ã¥r
Ġpoj ken
Ġf amous
st Ã¶v
Ġlug na
ch a
Ġr iver
Ġst ann
ic ation
Ġte eth
V arsÃ¥god
k r
L eave
att an
Ġgr Ã¤
Ġl ung
Ġins ist
Bes ides
Ġabsol ut
Ġt ung
Ġs ne
Ġbr others
L o
T ra
Ġcent er
opp a
Ġsm ak
b a
Ġre cept
Ġg em
Ġli c
ĠD ON
Ġsjun ga
ĠR od
Ġel ev
Ã¤ll de
Ġorig inal
b re
Ġom Ã¶jligt
Ġposs ibly
med el
ĠQue en
bb a
i os
Ġtrans port
Ã¤lt et
ĠB ye
eg an
Ġwe ight
1 2
ĠA RE
ant en
Ã¶ re
Ġal right
Ġp unch
ĠH al
Ġkontor et
Ġpurp ose
Ġd ator
Ġbe yond
m end
H elt
ĠrÃ¤ d
Ġbas ically
Ġlar ge
Ġn ature
Ã Ĥ
Ġr ull
ĠL arry
Ġob ject
Ġconcern ed
ĠfÃ¶rf lut
iv ia
Ġfat ta
Dav id
t ag
ed a
Ġs Ã¶m
ĠÃ¶pp nar
un ior
Ġbas ket
ĠB on
B arn
ĠCl ark
B ring
Ġdad dy
ĠD E
ĠP ut
ĠÃ¶ver vak
opp en
Ġskill nad
erk ligen
OU T
Ġsome how
as ons
Ġo s
T ar
Ġbeh av
ĠW ood
F ick
ĠÃ¶ ga
Ġtra um
Ġkar riÃ¤r
ĠÃ¶verle va
Ġs ize
v ist
Ã ³
Ġsa cri
Ġtur ning
Ġvan liga
Ġvis ion
Ġmo on
ph y
Ġ Ã¤gg
Ġche ese
V Ã¤
Ġ Ãħh
Ġwho se
Ġimp ro
Ġbr Ã¶t
ĠL ady
Ġh ed
Ch rist
ĠS O
Ġaff ect
h uh
Ġre fer
Ġsm ile
Al right
b org
Ġdisapp oint
Ġskad ad
Ġle ader
C om
f aren
Ġp in
Mich ael
Ġcre ate
ĠfÃ¶delsed ag
Ġallt ing
ott er
Ġdep artment
Ġsp Ã¤nnande
Ġsw itch
Ġl Ã¥n
Ġspeciell t
an ie
Ġsp read
r ag
it i
ild a
Ġt all
ĠC le
Ġled a
ĠH am
ug o
Ġpl enty
Ġide as
I F
Ġdu ktig
Ġcous in
Che ck
Ġdestroy ed
Ġconne ction
ĠA v
ĠU nder
Ã¤ng d
Ġwr itten
U G
Ġam ount
h und
Ġvers ion
Ġvar m
Ġsch ed
Ġw arn
Ġpar ker
Ġatt empt
ĠdÃ¶ k
Ġlik som
Ġav oid
Ġlea ves
ĠFran cis
Ġdam age
A P
m od
ĠÃ¤nd a
M ax
Ġsa ving
ĠhjÃ¤r na
ĠB eck
ĠSt ates
Ġl oud
Ġperson en
ven s
ott e
Ġgal na
Ġd ating
ĠSn Ã¤lla
ĠL os
o ci
Ġkost ar
Ġv iss
Ġfly ing
Ġintr odu
Ġtank ar
ĠfÃ¶dd es
Ġv akt
Ġhead s
Ġmorgon en
Ġunder bar
Ġkyr kan
Ġstr ateg
Ġhistor ien
Ġspr ang
K on
Ġsacri f
ent ed
ĠtrÃ¤ff ades
ĠBr ad
Ġdju pt
ord on
Ġsell ing
Ġpil ot
Ġrid iculous
ĠWho a
ÂĢÂ ¦
Ġk att
ĠK eep
ĠfÃ¶rÃ¤nd ras
l oe
eal ous
Ġch ock
Vad Ã¥
Ġnow here
G Ã¥r
Ġf y
bl ing
ĠJoh ns
ĠO UT
ĠIn get
Ġnecess ary
C le
R es
ĠSom et
ĠSim on
iz ation
B ig
B o
v y
Lug n
Ġhan tera
v akt
if ier
Ġsex ual
a ult
ep h
Ġs ats
Ġdo k
Ġmin nas
Ġloc ation
Ġsim ply
b ud
a os
Ġpret end
ĠW ould
Ġsci ence
H Ã¤mta
Ġprepar ed
ĠJ ay
Ġs alt
ĠC ass
ĠT ror
ri b
Ġu lt
Ġdefinit ivt
Till s
Ġsweet heart
ss on
Ġkast a
ĠfÃ¶r bl
NÃ¥g ot
B ye
Ġbelie ved
Ġsh ift
ong en
Ġcur r
Ġmen ing
as er
Ġlot s
k o
ĠU P
it ation
Ġkn ark
. ,
Ġ19 9
Ġex ec
Ġv ag
at o
ĠlÃ¥ na
Ġy o
anna h
im b
ĠC ount
ok en
Ġhel vet
Ġend s
Ġsever al
Ġcop y
an ne
ĠU rsÃ¤kta
T revligt
ĠTex as
P aul
Ġflytt ar
or en
Ġhamn ade
ĠH Ã¶r
Ġst Ã¤nga
Ġqu een
ĠÃ¶ ppen
ĠsjÃ¤lv mord
S ara
ĠW orld
Ġfram gÃ¥ng
ĠJ ew
ash a
Ġsam hÃ¤ll
Ġexem pel
Ġb ond
e ars
Ġto wards
ĠCla ire
Ġgr atis
Ġhe aven
Ġavsl uta
Ġingen stans
Ġvar enda
Ġdes k
Ġst yck
iver se
Ġ Ã¤ck
d ri
ĠS anta
amm e
er ande
ĠhjÃ¤l te
ĠCh uck
ĠSk y
Ġlag t
Ġgod k
Ġincred ible
as ing
Ġm ult
Ġarbet a
ar es
Ġhorri ble
Ġkra fter
Ġreg ret
Ġpapp er
R ed
Ġsu ger
im a
ĠB ern
M ad
ill ed
ĠE v
h av
Ġp ump
Ġbre aking
ri a
dag en
Ġpoint s
ĠAr thur
ĠÃ¥t al
ĠG ary
Ġnatur al
n is
ĠC ap
r Ã¶m
Ġg n
ktion er
Ġtag et
Ġgr own
Ġstar ka
Ġpl us
ĠÃ¥r en
Ġf Ã¥n
ce ed
I ST
Ġeng el
ann en
ĠM ick
v ies
Ġins ane
T oo
Ġdef end
ĠT aylor
Ġpie ces
Ġproper ty
g ifter
y st
Ġsh ame
Ġc ere
Ġmord et
Ġsaf ety
Ġt ask
Ġmamm as
Î ¿
ort en
ĠdÃ¶r r
ĠskÃ¶ nt
Ġam ong
amm y
l Ã¤gg
ĠD a
Ġefter middag
Ġn ar
ol t
Ġse ason
Ġl ord
Ġbet ray
Ġro of
ul en
el and
ĠW all
Ġt usen
Ġact iv
Ġass ume
ris on
W ere
Ġg ather
man nen
Ġme j
T A
Ġth rew
Ġr at
ĠA my
Ġjust ice
Ġr ough
or ney
Ġsub ject
Ġpoj kar
Ġhead ing
n att
j Ã¶
as ion
ĠP ete
Ġopin ion
Ġpapp as
f ather
Ġper iod
Ġlang u
ok es
itt ar
Ġskriv it
ap er
h in
v ap
ĠgÃ¶m ma
S amma
Ġvet enskap
ĠWh ich
Ġru in
ĠÃ¤t it
ĠRo ger
ER S
ra ft
Ġth erap
Ġstr un
gÃ¥r d
om i
ad o
Ġled are
il en
es se
ĠV ir
m ans
ad ies
sy n
ĠsmÃ¤r ta
us es
Ġser ve
Ġmiss ade
Ġtelefon en
Ġper cent
ĠvÃ¤g rar
Does n
Ġsci ent
Ġn orth
Ã¤g et
H Ã¤l
Ġh ust
Ġdy ker
Ġo st
Ġ Ã¤m
Ġopen ed
Ġpro of
Ġsp lit
an ch
ur se
Ġf ys
Ġk ol
Ġou tta
ĠS und
all ey
Ġspring a
ĠHer regud
ĠF el
Ġjobb igt
s na
Ġcreat ed
Ġoly cka
Ġj ealous
Ġh Ã¤nga
p un
Ġp ill
Ã¤ker t
Ġbry ta
at et
one st
Ġw ast
ĠD or
Ġbet e
ip ul
ĠfÃ¶rv Ã¤nt
ad ow
n amn
Ġdel en
Ġkil om
Ġ19 8
Ġpl ast
Ġne ither
Ã¶ kte
Ġvictim s
Ġord et
ab e
Ġmass or
Ġfail ed
Ġdok ument
ĠpÃ¥ ver
Ġli es
D ags
Ġbord et
ĠF an
ĠÃ¶ v
Ġleg al
ĠfÃ¶r hand
Ġh ug
Ġb atter
ĠkÃ¤n sla
Ġsend ing
ĠtjÃ¤n ar
O ut
ĠlÃ¶ ser
Ġtry gg
in et
Ġbreat he
Ġhe at
Un less
M ove
Fuck ing
Ġcap t
T ycker
Ġgri p
utt ing
w ich
am en
Ġt iny
ĠM itch
S edan
ro s
ĠfÃ¶rhÃ¥ll ande
h uset
l Ã¶sa
Ġre lease
Ġresp ek
Ġflick or
Ġsjuk dom
Ġp age
o ved
vÃ¤r t
S ounds
ĠWal ter
op ter
ĠB ell
Ġsam tidigt
G illar
ĠBr own
O H
ĠIt al
Ġt Ã¤nd
ĠBar ry
on der
se ll
K e
Ġsett le
Ġgood bye
Ġgen ast
Ġmotherfuck er
Ġstay ed
el ine
ill iant
Ġtr yck
E d
Ġmo vies
ĠSh ut
ĠlÃ¤tt are
An other
ĠI r
Ġhim len
ce an
ell an
ĠK elly
Ġshow ing
Ġsy ss
Ġk ass
Ġtill gÃ¥ng
ĠvÃ¤r de
Ġab andon
ĠLu cy
Ġgol vet
ĠpÃ¥ min
ĠAnd rew
O l
ktion en
ĠD ep
Ġc ards
Ġlik ely
Ġst ir
ur g
Ġgl Ã¤d
FÃ¶r sta
Ġgre w
m os
Ġa k
Ġmilj on
S nygg
Ġmor mor
Ġi ron
ro at
augh s
Ġch ief
Ġf asc
Ġreg ler
H uh
ĠDet ective
Ġapp ear
us ive
ern as
Ġfram Ã¥t
ÃĦl skling
b ot
ĠS ta
Ġde fe
Ġgr u
Ġsym bol
ld iga
ath y
Ġtapp ade
as ure
Ġkus in
Ġexpl od
Ġdress ed
Ġapp oint
Ġdis p
r ande
ĠL IKE
ĠLe o
Ġfollow ed
P ar
l n
Pro bably
Ġexpect ing
Ġis ol
b on
ta ins
ĠGe org
Ġrol ig
Ġa st
g ress
B et
ĠK al
rat ed
ĠhÃ¶g re
Ġ %
Ġl ately
R o
Ġsign ed
ĠP ier
p an
Ġprof essor
B ar
Ġbr idge
F ind
tel se
W ant
our t
Ġfant as
Ġt and
ĠSte ph
cell ent
Ġr it
Ġsv Ã¥ra
Ġbild en
Ġunge fÃ¤r
ĠvÃ¤x te
d jur
Ġfall er
st ol
Ġunder bart
ĠjÃ¤v eln
s juk
u ce
Ġinf lu
iss ar
Ġpot ential
Ġk al
Ġnorm alt
t rÃ¥d
Ġmat en
Ġextre m
Ġsl app
Ġbet alt
Ã¶j t
Ġne arly
Ġopen ing
Ġvill age
ad ing
ĠM mm
Ġdu sch
Ġ4 5
Ġtrans fer
Beh Ã¶ver
Ġperfect ly
Ġlet ade
A ren
Ġum gÃ¥s
Ġhalv t
Ġy r
ĠAl an
ĠfÃ¤ng elset
Ġhar der
Ġmem bers
Ġre pe
Se x
P S
Ġpap ers
Ġt Ã¥l
Ġind iv
Ġcover ed
Ġneighbor hood
ĠhÃ¤ ft
Ġn et
le ken
ĠD oc
Ġrespons ibility
Ã¤n tar
ong ress
ĠL ove
Ġj ury
ĠL ittle
Ġ Ãĸ
sk or
Ġallvar ligt
Ġan fall
ĠA ri
m el
ĠMc C
Ã¥g an
igh s
Ġans wers
ĠkÃ¶r t
ĠvÃ¥g ar
Ġstr ugg
ĠEx cuse
rÃ¥ de
g l
ri ke
Ġch ok
ĠH ay
ĠkÃ¶ ket
Ġplay er
b um
Ġm jÃ¶l
ad or
st al
Ġbr Ã¶der
P eter
Ġb ett
Ġrec ently
M ark
Ġorgan is
ĠÃ¥ kt
ĠV ery
Ġarr ang
Ġp ir
is en
AR T
Ġdetail s
Ġfl u
c ul
st yr
ĠÃ¤r a
ĠlÃ¤r are
O b
Ġl ille
Ġl aughing
v ir
f an
em on
Dess utom
Ġse es
Ġbed room
vis ion
av es
ea p
Ġenerg i
Ġbor row
Ġdeal ing
Ġst aff
P ol
Ġrym d
Charl ie
av ing
ĠnÃ¶j d
Ġterri f
Ġsem ester
st ood
ĠF ine
ĠskÃ¶ ta
u ed
Ġsweet ie
Ġgr owing
g Ã¥ngen
un ter
Ġskit stÃ¶v
ĠN Ã¥g
Ġord ning
Ġk op
Ġer faren
ĠsÃ¥d an
U L
l ook
S im
Ã¶ kt
ĠD ick
mÃ¤r kt
O ver
Ġrecogn ize
m ber
Ġst ock
Ġs outh
ĠfÃ¶rv and
Ġslipp er
Ġfr isk
O k
ĠAt l
ob y
ĠÃ¶ver l
Ġhopp ades
Ġbuck s
Ġf ira
ĠR eg
h y
Ġper form
Ġl ines
ĠIsl and
Ġto pp
ĠfÃ¶rflut na
ĠS oph
Pl us
p her
S na
ĠK ar
ĠÃ¶ de
Ġp owers
ur al
Ġb ite
Ġfr Ã¶ken
ap a
am pa
Ġbjud er
ol n
Ġgol f
allen ge
Ġk ors
ate ful
ĠU pp
Ġr ena
fÃ¶r ande
Ġlag et
ĠR iver
Ġdis g
Ġmem ber
Ġsil ver
Ġinbland ad
k ing
Ġve h
D el
Ã¤nn isk
fÃ¤r d
Ġm ail
j ar
f iken
Ġiss ues
Ã¤ck en
ĠR em
Sk it
ur ance
Ġung dom
ĠHon or
Ġbeg Ã¤r
Ġu ns
Ġlo ose
ĠL y
ard rÃ¶m
ĠC ast
Ġmean ing
ĠV in
Ġdo ors
Ġleg end
ew is
Ġt ju
Ġm ap
Ġmot stÃ¥nd
il ed
Ġmin nen
Ġcompl icated
Ġtax i
ĠfÃ¶rut om
R ich
Ġbra ve
art s
pr il
Ġfun eral
Ġbri ef
Ġse g
Ġch est
Ġt un
u f
Ġv ul
Ġpart ners
Ġun iverse
i era
Ġpr im
Ġf Ã¥nga
Ġp ension
4 0
ĠB eth
Ġser ver
Ġcas es
ĠrÃ¤tt eg
N ick
re sp
Ġpresent era
Ġphot os
ash ion
ĠlÃ¶ n
Ġour s
Ġtal ade
Ġvar s
Ġmention ed
Ġhurt s
Ex cept
ic ans
ĠstjÃ¤l a
h al
Ġfl o
Ġhonest ly
Ġv Ã¥n
Ġr Ã¶d
am ent
Ġfor e
Ġch ose
Ġsk ur
pe kt
ĠDe an
s ig
Ġlu ften
Ġskol a
w in
ĠV egas
Ġa te
ĠDe v
Ġhem ska
Ã¤st are
Ġbest Ã¤mt
ĠI ns
Ġkoll ade
Ġbe v
Ġsna cka
Ġcon tain
ĠSt r
Ġosky ldig
ak ter
Ġstat ement
ĠS OME
Ġdan cing
N ING
te en
Ġskepp et
ĠÃ¥tervÃ¤nd a
Ġs illy
is ar
M ike
ALL Y
Ġvar mt
Ġexpect ed
Ġhead ed
te ll
th ew
Ġwho ever
Ġfot boll
Ġgry m
ĠR IGHT
yl an
Ġfor ced
ack a
Ġdiskut era
Sh ow
il er
P ass
ct ure
ord s
m at
al itet
An vÃ¤nd
ĠfÃ¶r hÃ¶r
atur day
ĠMex ico
Ġn ational
k ning
Ġn ail
Ġber or
Ġthought s
Ġcre ep
Ġattack ed
Ġcrow d
St Ã¤ll
D eras
Ġwood s
Ġfir m
Ġto il
Ġbab e
as en
ĠPat rick
ik ter
Ġupp lev
full t
gr und
Ġkill arna
Ġsc ary
u be
Ġind ust
bb en
ĠBro ok
ĠAngel es
Gu ess
ĠM id
Ġmot s
Ġr ub
Ġfamil ies
ĠR oss
het s
es pel
Ġdist ra
ci ent
ĠS ol
Ġl on
Ġrece ived
sc ar
bil en
Ġ ought
ĠN athan
Sn art
Ġfly ger
Ġs ons
Ġdisapp eared
is er
ĠA L
h Ã¥l
ĠkÃ¤m pa
Ã¤ng de
I m
Ġvi a
Ġerk Ã¤nna
ian o
Ġex ample
ag ing
Ġatt ract
ĠfÃ¶rstÃ¶r de
IN K
ĠB y
ĠK anske
f ru
Ġpart s
ĠHolly wood
Ġy ng
ĠFr iday
Ġstyr ka
Ġe kon
Ġvar ken
ig ga
Ġinc ident
Ġ7 0
Ġn Ã¤s
Ġbr ors
Ġsle pt
ĠD am
ett a
Ġreal ity
ĠÃ¶verty g
Ġmatch en
ĠdrÃ¶m mar
Ġbl omm
Fr Ã¥ga
Ġorder ed
Ġpos it
Ġb jÃ¶d
ĠkÃ¶ pt
ĠH ank
ĠD un
z ie
se k
Ġord entligt
Ġsecret s
ĠfÃ¶rklar ar
j us
Ġsk um
ĠN ic
Ġdisapp ear
AK E
j or
Ġr Ã¥k
and al
Prat a
Ġcar es
ĠnÃ¥gon stans
ĠL ieutenant
ok er
Ġd ip
ĠH ERE
ĠmÃ¶rd aren
Ġmemor ies
ĠJohns on
F ort
ap h
Ġdr am
The ir
Ġchang es
ĠvÃ¥r d
z er
Ġsk Ã¶n
ĠJul ia
Ġfl owers
c les
Ġe p
Ã¤m p
ug s
od a
ĠC ole
ĠU t
Ġa u
ĠSe an
ĠEur ope
Ġt ip
Ġman ipul
Lug na
pl atsen
Ġfr un
ĠÃ¥r s
ĠvÃ¥ld t
Ġoff ret
Ġl ys
Ġh ud
U ntil
Ġh ired
Ġexc iting
Ġih jÃ¤l
os es
Ġk yck
Ġdest o
Ã¶ gon
Ġy tter
Ġber Ã¶m
Ġe arn
M mm
I V
Ġreg lerna
ĠM um
ĠÃ¶verrask ning
ĠuppmÃ¤rk samhet
Ġut bild
Ġsc r
is ion
Ġfl at
spe cially
Ġn uts
K apten
L a
e ga
ve k
ĠEl izabeth
Ġch em
S ch
Se c
at ors
Ġsp l
Ġvan lig
Ġmot iv
S on
var ande
Ġlo y
Ġca used
om ach
b ro
Ġlangu age
D Ã¶d
Ġbil ar
L ove
l Ã¶st
os ition
at in
Vis ste
Ġla unch
Ġo il
Ġmin ne
FÃ¶rst Ã¥r
ĠG re
V Ã¥rt
Ġfor mer
ikt igt
Ġdo c
Ġv Ã¤nda
Ã¤tt ning
Ġan alys
Ġtick et
ĠjÃ¤k la
Ġpro gress
u ella
F ive
f en
Ġev igt
Ġvap net
Ġgentle man
Ġj erk
ere k
Ġhel gen
R eg
ĠfÃ¶rm od
A B
stÃ¤ll ning
ĠM ama
Ġug ly
Ġh als
Ġglad a
or der
Ġb at
ĠC ould
Ġstri ke
ĠgrÃ¤n sen
ast y
Ġby tt
f s
Ġgr Ã¶
Ġcl ock
ĠS U
Ġsn ow
Ġad ult
Ġch allenge
Ġrema in
ĠT itta
ĠV art
Ġfamil iar
Ġlag en
Ġchamp agne
T alk
ĠR ome
Ġwh eel
ĠnÃ¶d vÃ¤nd
ra k
Ġsol en
ka st
el ia
Ġd ish
E LL
IN D
Ġfell ow
Ġbr ings
Ġlag ar
ĠCo oper
or mer
Al so
Ġyou n
TH ING
Ġstre ets
ur b
Ġgif te
Ġcon v
Ġsu icide
Ġviktiga ste
Ġundv ika
ĠbÃ¥t en
Ġm Ã¶tt
Gr attis
Ġgr Ã¥ta
or ed
ĠsÃ¥ lde
Ġbu tter
Ġfall ing
Ġt ie
Ġf ul
ĠM aggie
Ġbab ies
v ation
ur r
ipp ing
Ġsour ce
Sk icka
Ġpro jekt
Ġbr Ã¶d
ug ust
Ġskydd ar
h ab
Ġbetal ade
ĠSt ate
Ġfem ale
Ġr ap
Ġb ang
Ġfun n
ant ast
H it
ĠB ry
Ġal arm
Ġkompl ic
Ġprofession al
Ġus ual
Ġsold iers
Ġm ardrÃ¶m
Ġom edel
Ġska ff
on i
fatt at
Allt sÃ¥
Ġchar ges
Ġspark en
Ġbes eg
Ġh ors
o ende
Ġgen ius
Ġsan ning
im me
ĠC her
m other
ĠJo ey
Ġo g
Ġpa us
ĠmÃ¶ ta
il ities
Ġhund ra
O ther
ĠvÃ¤g gen
ocol ate
' ,
Ġtr as
ĠHit ler
b ie
Ġska pade
g ger
ppar ently
ĠG OT
Ġn jut
Ġjob s
Ġg ate
Ġwh is
A mer
ĠN ik
ent als
ĠN ever
Ġass um
Ġplan ned
Ġs ed
Ġt ap
ĠF er
ĠTh ree
Ġanm Ã¤l
J Ã¤tt
Ġang el
Ġmod el
k la
ĠAn ne
U nd
ĠM arsh
Ġtr ade
bl ed
Ġr ot
ĠsnÃ¤ll t
Ġtunn el
Ġlyck a
ĠS P
ĠAnd re
A gent
Ġpolis er
Ġbur ied
Ġnyck eln
h Ã¤r
rar y
ĠM amma
ĠÃ¶ver v
ust er
Ġvir us
Ġun it
j ort
Ġwatch ed
Ã¤g are
rat ta
T urn
Ġst omach
ĠK or
F amil
Ġst ars
Ġ3 5
âĻª âĻª
Ġprodu ct
ĠK yle
Ġresult s
c ohol
se x
Ġsm s
all e
ĠP ort
S an
O pen
i per
ĠJac ob
Ġno ise
Ġgar age
th a
ĠChin ese
C ol
ĠA g
ĠD is
Ġintrodu ce
Ġa ger
sp ro
Ġdev il
Ġd ies
Ġal k
ĠCar ter
ĠC a
sl Ã¶s
ns el
ĠrÃ¤tt en
Ġhard ly
k in
ĠO oh
d Ã¥
Ġ ess
Ġfing ers
Ġre asons
Ġh yr
Ġkl ubb
Ġska par
Ġm ood
Ġha v
b ly
Ġmen ingen
Ġr ush
pl ant
ĠhÃ¤l s
Ġm as
Ġre k
ĠSt ay
ĠfÃ¶n stret
be cca
Ġfan cy
ash ed
tt en
Ġsold at
Ġgard en
Ge orge
Ġm Ã¤kt
ĠSp ring
Ġfar far
Ġstud ents
Sp ring
ak an
Ġav tal
Ġdrink s
Ġav l
Ġlo j
ĠJ enny
at u
Ġr Ã¶v
Ġre leas
Ġcelebr ate
Ġrun s
M on
Ġs Ã¥ng
Ġfind s
Ġpri ck
Ġresp ond
Ġpock et
and o
Ġtank en
ĠM ars
ĠOl iver
M ust
ot i
ĠR en
Ġg ig
T w
B oy
T og
Ġpat ients
Ġw et
ĠK aren
Ġspring er
Ġk uk
Ġcam pa
Ġfolk et
Ġbr illiant
Ġmu se
Ġcir cum
vÃ¤ p
Ġbu ying
ĠRuss ian
AR D
F our
al th
Ġeff ekt
us entals
ĠLe x
Ġm ale
N one
Ġvad Ã¥
Ġf ab
th an
skap et
iam i
Ġspec if
Ġterror ist
ĠR ub
ĠB ull
ĠgÃ¶m mer
j o
Ġarm Ã©
ĠE N
Ġs ite
ĠF irst
Ġsh ots
E P
Ġjour ney
Ġsj Ã¶
Ġdo ktor
Ġpro va
EA H
an gen
Ġinterv ju
Ġk ur
ĠO ur
ust ing
ĠfÃ¶rsv inna
iv ely
Ġmet h
Ġlj uset
B aby
Ġsnabb are
ĠG irl
ĠL aura
Ġfre edom
og an
ĠT re
Ġbr ight
ĠFlor ida
AT ION
Ġass ault
ĠJam ie
m ask
Ġmod ern
Ġpiss ed
ĠS aturday
Ġle k
Ġto w
Ġrep orter
Ġbor ing
ĠO R
Ġn Ã¥r
Ġra ised
Ġegg s
Ġl ink
ĠÃ¶n sk
Ġtillb ring
k i
Ġstark are
Ã¤g er
ĠmÃ¤nnisk orna
Ġdiscover ed
n os
Ġkont rakt
Ġthe ory
Ġhelvet et
ĠJord an
Ġgre jen
ĠmÃ¶rd ade
ĠSund ay
Ġt ips
f ort
Th ings
Ġre b
ĠTH ERE
Ġbas ed
al ed
Ġbor g
Ġun gar
w orth
Ġter ms
Ġreach ed
p ack
Ġd jÃ¤v
Ġkun gen
ĠBrit ish
Ġth roat
Ġut fÃ¶r
h Ã¥ller
Ġrev olution
Ġact ual
ĠfÃ¶rÃ¤nd rats
s u
Ġbef Ã¤l
Ġz omb
mor gon
Ġtra pp
ol es
Ġfil mer
B etter
Ġbl ess
A CK
ch uckles
ĠT ime
Ġbl ick
J oe
L adies
st ig
Ã¤ da
Ġobv ious
Ġp rakt
Ã¤m pa
ch es
Ġindiv id
Ġdes ig
an ing
Ġpass a
H and
Ġ Ã¤v
Ġd ise
es a
ĠrÃ¤k na
sk ri
ĠM organ
Ġe ars
Ġfunger a
Ġwe ather
ĠB ud
Ġgr Ã¤s
Ġsitu ationen
Ġsc reen
on ym
Ġkall t
gr am
Ġvak na
ĠAB OUT
Ġk ult
Ġlev de
H itta
ĠfÃ¶red rar
c ia
Ġbest Ã¤mma
ib i
FÃ¶r utom
Ġte en
Ġr ou
Ġsold ier
c ast
Ã¥r ing
ĠB ay
Ġoffer ed
Ġlet ters
os ing
ĠhÃ¤l ften
st jÃ¤r
Ġfr ust
Ġpick ing
vÃ¤g en
Ġoro ar
Ġilleg al
g at
ĠH allÃ¥
ter ade
ĠJe an
ĠEvery thing
6 0
Ġsky nda
Ġ19 7
Ġro le
Ġsch em
Ġm ic
ac on
ĠrÃ¶ da
Ġgr ann
Ġkonst ig
ost on
Ġmag i
et ag
ĠSer geant
Ġkl Ã¤tt
ighet erna
Ġre ven
ĠHel en
ĠidÃ© er
Ġmun nen
Ġinv ite
Ġben ef
R Ã¤tt
is y
ank en
ĠhÃ¥r et
JÃ¤v la
Ġskit er
Ġm ir
ch o
Ġf Ã¤st
tt o
Ġper mission
Ġel ekt
Ġsat ell
Ġvux en
Ġt ong
Ġreg ular
Ġst Ã¤d
Wh ile
Ġf ans
av tryck
G E
l aughs
ĠjÃ¤v ligt
Ġf ann
o oth
ĠCol onel
S K
Ġex act
B ill
man n
ĠL aw
Ġtr i
Ġny ligen
ag ement
Ġdo ctors
ian e
Ġmor al
Sl Ã¥
L ittle
ist ic
Ġsm uts
Ġscrew ed
Ġsh ape
ĠB or
ĠS and
Ġcap able
ĠR ep
VÃ¤ ldigt
ant age
fe ct
Ġinter rupt
Ġoffic ers
k y
Ġp und
Ġkick ed
ĠO b
Ġl add
Ġtol v
Ġens amma
Ġt aket
h es
Ġchar m
em ents
und e
ow een
jÃ¶r n
itt ade
ES S
land s
Ġhum ans
ĠW ANT
K Ã¤ra
Ġstr anden
Ġcam eras
Ġo avsett
out s
pl es
Ġimp oner
Ġstrun tar
ĠnÃ¤r ma
Ġ *
ĠCl ay
ĠbÃ¶ cker
Ġass ign
Ġdef ense
L ou
l im
r ull
ĠfÃ¤rd ig
Ġcr ush
Ġr op
ar ante
ĠHow ard
Ġgem ens
Ġjag a
Ġmed lem
Ġh ous
Ġlist an
Ġpan ik
Ġappar ently
is era
Ġp air
ĠA ir
L O
Ġg iant
ĠFr om
Ġm ax
Ġhal sen
ĠM ajor
Ġsing ing
ĠWil son
Ġl ack
Ġkn Ã¤
ĠB art
ch ie
um s
ĠRob in
ard o
Ġdown stairs
Ġru ined
ĠmÃ¶t et
ĠBru ce
g Ã¤r
B el
Ġfil es
Ġconne cted
ĠM ir
Ġf ader
Ġb ike
Ġdivor ce
ut y
Ġdet ective
Ġled trÃ¥d
Kl ockan
c ons
t own
ĠmÃ¥ let
ĠfÃ¶r tro
Ġbeaut y
ic ia
ut i
Ġcr it
Ġart ik
ĠL ily
Ġskr Ã¤m
ĠhÃ¤r om
Ġdro ve
Ġjack et
Ġob s
h old
j un
ĠsÃ¶ ka
Ã¥r en
He m
ĠtrÃ¥k igt
Ġpen is
Ġpist olen
Ġav ail
Ġf ought
ĠÃ¥ter upp
Ġdet ect
Ġspel et
Ġgo in
Ġjag ar
ĠS ay
Ġengel ska
ĠFr ance
Ġso oner
Ġkr am
IC K
Ġsc are
Ġber edd
ard on
R ay
ĠP ri
ĠgÃ¥ va
Ġright s
Ġp itch
With out
Ġan l
onest ly
Ġg ifter
Ġk em
J ames
ĠS qu
gar et
Ġs Ã¤m
ĠT ar
ĠE le
Ġal bum
Ġche er
Ġamer ikanska
Ġbl ank
ON G
Ġskjut en
Ġ2 7
ent er
Ġvet at
OR E
Ġsm ugg
ĠAn n
Ġkontroller a
I dag
bl es
p lace
Ġman s
Ġe j
Ġburn ed
Ġdra ck
ĠChrist ian
it an
Ġm ama
ĠAr t
ĠL Ã¤gg
Ġphys ical
Ġstr Ã¶m
Ġsand wich
Ġthous ands
Ġforg otten
Ġplats er
N er
Ġsk er
el ax
Ġbry ter
Ġper for
bo x
Ġbeg an
B ry
Ġhotell et
Ġprom en
IC E
Ġf u
Ġtr igger
Ġn Ã¤
ĠD es
n ant
Ġn aked
Ġvak nar
Ġbek ym
Ġp ul
G jorde
Ġk art
B orde
Ġmo ves
on ight
Ġal ien
C arl
p ed
del ningen
st id
L uc
Ġp ills
Ġt orn
Ġslipp a
Ġchok lad
Ġpartic ular
Ġsen ast
Ġk m
full a
Ġscen en
r ot
ack en
ck e
ol o
Al ways
Ġto ast
ee z
ĠslÃ¤pp te
Ġdire ctor
Ġble eding
Ġst ul
ĠskÃ¥d espel
ĠD i
Ġju ice
iga ste
Ġr ab
Ġtoil et
ĠfÃ¶r resten
ĠMar cus
Ġexp ensive
ĠSh it
Ġstann ade
ĠH ER
A cc
Absol ut
Ã ¨
ĠÃ¶ver t
Ġdi agn
p ire
Ġst Ã¤m
Ġgo al
Ġlik nar
Ġbe und
Ġperfe kta
R AT
Ġelect ric
j ung
Ġbe kv
Ġoffic ial
Ġhands ome
att y
Ġsp ion
Ġan ser
ĠM iller
Ġdom are
Ġpos itive
pp le
ĠB aby
ĠfÃ¶ tter
ĠAl f
ere my
ĠdÃ¶l ja
pl ats
Ġless on
ĠSomet hing
Ġhealth y
Ġl id
Ġt Ã¤nder
F re
Ġhund en
Ġman age
Ġsk rÃ¤
tid en
Ġtick ets
Ġhopp ar
Ġst ationen
Ġexper ien
het ic
og s
Ġal cohol
ĠTh ese
gg y
v iously
Ġben en
Ġfor est
Ġex ch
rat ing
Ġsu gar
Ġgr ateful
ĠD ie
C o
Ġnyhet erna
az z
ĠmisstÃ¤n kt
ĠstÃ¤ll de
T id
al er
Ġk ork
Ġre ve
Ġstr onger
Ġdo in
enn ifer
Ġdire ction
Ġhemlighet er
k Ã¤n
Ġlyck liga
Ġfokus era
ĠF ort
y p
ut or
Ġskr att
Ġlik nande
ĠvÃ¤x er
Bl ir
Ġpresident en
Ġkon k
Ġw oke
ak or
ĠM iami
olog i
Ġsold ater
Ġow ner
Ãħ t
Ġstart a
H appy
Ġhid den
ĠH annah
Ġsex y
B ad
Ġman aged
Ġcan cel
Ġchang ing
ĠAb sol
Ġj e
em an
ag ligen
Ġk od
ĠrÃ¶ rel
ĠAn nie
nar are
ĠnÃ¤m nde
Ġneigh b
L ycka
ĠT ri
all ar
la ir
Ġcheck ing
Ġagg ress
Ġpull ing
ĠT Ã¤nk
ard en
A sk
ĠB arn
Ġfr ia
St art
ĠD ID
end ent
Ġtest a
Ġstr u
ĠC amp
ens en
Ġdrott ning
Ġu na
pl ay
4 5
ĠH or
Ġbl uff
Ġinve ster
dd y
B est
Ġgu arante
t ill
Ġtr ash
ĠF e
Ġsvar ade
f in
Ġfar lig
Ġres ist
ĠfÃ¶rÃ¤nd ra
om pl
ĠM olly
ĠJose ph
Ġst one
Ġd im
y o
Ġo cean
Ġ- ...
j i
Gen om
SÃ¤g er
Ġbesv iken
ict ed
C A
ĠG al
Ġconf used
Ġwall s
Ġtuff t
ĠM us
olog ical
ĠPro fessor
Ġj oy
Ġpl ate
Ġstr Ã¥l
Ġcompet ition
m Ã¶rd
Ġom rÃ¥de
V erkligen
ĠB uck
ĠA unt
v ik
Ġtapp at
Ġnight s
ick ed
ĠT erry
Ġno ll
Ġtra p
ĠfÃ¶rsv un
ĠfÃ¶r a
th ony
ĠB at
ĠSh el
Ã¶rel se
Ġn ons
ĠAnt on
c ase
Ġim age
Ġtre es
ĠP en
Ġins urance
Ġbre ad
Ġp unk
Ã¶r er
Ġass oci
m Ã¶
Ġst yle
A ldrig
Ġskoj ar
Ġfantast iska
ĠL ewis
Ġgl ob
r ation
ĠA bby
Ġsc ar
ef ully
ĠIn ga
Ġavail able
sm Ã¤ss
Ġf aces
ĠnÃ¤r mar
Ġmilj ard
M ot
U D
Ġcl imb
ll y
vis st
Ġv aken
Ġb aren
Ġno ga
ie ce
Ġf ro
Ġut l
ĠpÃ¥min ner
OU G
ĠPr ince
Ġen a
Pr etty
Ġborg mÃ¤st
Ġstyck en
Ġo ption
ote l
ĠG abri
ĠL ug
Ġut rust
ĠhjÃ¤r nan
ĠbekrÃ¤ ft
tt on
Ġviol ence
N ah
ster n
Ġsched ule
Ġsol ve
S weet
Ġperson ally
R ep
Ġl Ã¶r
ch ed
. ]
Ġni vÃ¥
eng ar
l iv
Ġinsp ekt
Ġfr amme
Ġgener ation
Ġarg ument
S Ã¥n
Ġsp in
ĠtillfÃ¤ll e
S O
Ġmedic ine
ak na
ĠW OR
Ġdes ert
K Ã¤r
u ell
Ġfull y
ĠE ven
Ġassist ant
IT T
ĠfÃ¶r del
ĠM AN
ĠB ack
D ar
r ades
Ġconf ident
Ġair port
I d
ĠB oston
Ġfill ed
HÃ¶r de
Ġm s
ĠÃ¶ k
Ġmed el
ĠF ÃĸR
ÃĦ R
Ġkvar ter
C ool
ĠS usan
Ġevent ually
Ġalternat iv
ot ed
Ġl Ã¥nga
U p
Ġgod s
EN D
Ġment al
" !
p o
Ġk u
ĠWal ker
in ary
ie ur
ĠB UT
ĠM ove
Ġtack sam
Ġl amp
p erson
im eter
B Ã¤st
Ġr ika
gÃ¥r den
ĠO ut
Ġbreat hing
B u
opp er
Ġrec omm
ighet en
Ġpop ul
Ġtyd ligt
ur o
Ġwar rant
Ġhig her
u ing
ĠCl ub
Ġon da
P D
Ã¥r ig
ress ed
ir ing
Ġcust om
Ġguest s
Ġcool t
Ġall erg
Ã¤g en
ĠWay ne
Ġv alt
ight s
Ġback up
N O
R un
J on
Ġr ate
Ġinc re
us sell
ĠP appa
ĠBer lin
Ġskick at
Ġcit iz
ĠBl ue
ĠG ri
Ġval ue
Ġbygg naden
Ġstud io
Ġund rade
ĠM ake
ĠM et
A pparently
Ġthr owing
ĠT al
Ġhopp ade
Ġfly kt
K illen
Ġmin sta
Ġv ent
Ġsa bb
Ġa utom
Ġeas ily
u a
ud y
Ġsl ip
Ġpro sec
est en
Ġprote ction
Ġpaint ing
ra b
Ġvill kor
ast a
Ġreg istr
ĠAb out
Ġp ounds
m ate
ug an
Ġf ra
Ġtreat ment
Ġv Ã¤st
Ġyour selves
ons ieur
Ġco at
Ġsak na
Ġskad ade
Ser iously
m us
Ġamb ass
Ġt Ã¤ck
iforn ia
ĠF ace
rop ri
ist ern
Ġin jur
Ġch ocolate
ĠLuc as
Ġch at
ang ers
d s
Ġextrem ely
r ough
Ġquar ter
Ġinclud ing
Ġwar ning
I P
Ġdag arna
Ġconvin ce
ĠkÃ¤m par
ĠSh ow
ph a
el ar
ĠhÃ¤m nd
Ġgum man
Ġp ins
D R
Ġsig nat
og ue
Ġta il
Ġsec ure
in ic
Ġlu ra
ĠP op
ĠS un
ĠpÃ¥ m
ett i
Ġbr Ã¥tt
ĠHer r
B ro
Ġsp Ã¥ra
Ġpun ish
Ġemotion al
Ġres cue
S ix
ĠVir gin
ĠhÃ¥ll it
Ġromant ic
Ġsm Ã¶r
V er
an i
8 0
Ġny tta
Ġw ow
Ġle ar
M ary
Ġb one
ĠbrÃ¶llop et
ĠvÃ¤x a
Ġl ower
Sh all
ĠR ing
Ġp ure
ĠA R
ĠCh loe
Ġfamil jer
Ġneg oti
Ġreturn ed
F yra
Ġsol id
g Ã¤ng
l om
ĠR oman
Ġs iff
Ġhors es
Ġpr Ã¤st
Ġslut at
ĠMajest y
Ġres an
end et
Ġuppen bar
ĠTHE Y
Ġn urse
j obb
ast rof
s man
Ġgo sh
Ġhand lade
Ġbest Ã¤mde
ĠN Ã¥n
Ġatt orney
ĠW atch
sta v
Ġmist akes
Ġuppf ost
Ġknow ledge
ist ent
Ġal ert
ĠM aster
ĠfÃ¶rs lag
VÃ¤l komna
Ġcomm itted
Ġs ink
Ġavsl Ã¶ja
Ġc ro
T O
Ġme al
ĠmÃ¶rk ret
U CK
Ġham na
St and
w are
Ġdam en
ur er
Ġfin an
ĠvÃ¤ ska
Ġdev ice
Ġsw ord
r in
Ġkast ar
ig an
Ġpro ced
is her
T er
Ġpop ular
ag ar
Tr ots
ĠfÃ¶ret aget
Fr am
Ġad opt
cl ock
ia c
De f
I VE
Ġconfir m
Ġed ge
ju ka
Ġto ol
Ġm ort
ĠMar ie
Ġble w
ow ns
ĠG ordon
Ġupp gift
Ġadv antage
Ġfri het
Ġb io
Ġtr iv
ĠCh ar
ree k
Ġsamtal et
Ġfantast ic
Ġsvar et
ĠJack ie
ĠÃ¶verle ver
Ġhind ra
Ġin l
Ġst Ã¤nger
TH ER
ĠfÃ¶r d
ĠS Ã¤tt
ĠS HE
n old
Ġd amm
Ġper man
Ġt ve
Ġpar ad
Ġvac ation
Ġsn ut
Ã¤n kte
Ġbud get
Ġbeg Ã¥
Ġre sid
Ġfl ash
ĠSpan ish
ss y
De ar
kom st
Ã¶ ter
N E
2 5
f et
Ġsig ns
ĠÃ¶pp et
Ġmiss ar
Ġsh r
Ġh ated
g irl
ĠG il
Ġrec over
Ġm ountain
Pro blem
Ġsy ns
Ty st
ĠbrÃ¥tt om
Ġhitt ades
Ġskr Ã¤mmer
Ġre pl
ĠT vÃ¥
ĠO fficer
E specially
Ġch ain
ĠC lar
Ġtr aged
Ġkyck ling
ĠI ng
ste g
Ġsu cks
Ġal ibi
St Ã¤ng
ĠM ond
ust en
ĠL ind
mer s
ĠS ant
Ġgr Ã¤l
Ġdubb el
Ġphot ograph
Y ep
Ġm ik
Ġant i
st rar
ĠY ep
ĠJ av
Ġdem and
Ġby gger
th et
ĠDav is
E ll
var ligt
Ã¤ ste
uck er
spl atsen
r are
Ġother wise
Ġg ain
Ġt att
HÃ¤l sa
ĠsÃ¶ kte
ars on
Ġla id
Ã¤ klar
Ġlon ely
l ik
Ġomedel bart
Ġlic ense
Ġveh icle
Ġbehav ior
Ġo v
Ġsv in
Ġher re
ĠN az
Ġfix ed
am i
Ġsoci ety
Ġret ur
ann el
Ãħ k
t ande
m arna
S it
f olk
Ġkamer an
ĠP eople
Ġkilom eter
ĠKom mer
Â ´
Ġmu sk
Ġmilit Ã¤r
Ġfrukt ans
Ġscr atch
ĠR ad
att ack
Ġkast ade
st ar
Ġre pa
Ġknull a
Ġst ood
ĠL ong
ĠD em
Ġcust ody
Ġkil o
Ġcampa ign
ĠB O
b aka
Ġad vis
Ġband et
Ġg all
Ã¶r ren
Ġled de
ĠB re
Ġent r
Ġsak nas
Ġtyck a
ien de
ĠsÃ¤kerhet s
oy d
Ġdist ract
Sk jut
Ġbe gg
ĠMat thew
sn itt
Ġin bjud
Ã¤n ka
Ġassist ent
Ġtal ang
Ġconvin ced
ĠTH INK
Ġrep lace
Ph il
B ER
Ġs ade
is f
ĠI m
ĠA ss
s nack
Ġhand led
Ġcircum st
Ġtong ue
1 00
Ġc ris
Ġb ags
Ġlikad ant
ĠÃ¥ sikt
Ġfun ka
Ġol ag
Ġhunt ing
Ġk na
Ġk ring
Ġannan stans
L Ã¥ter
G irl
Ġaccep tera
ĠS yd
ĠÃ¶pp nade
ĠrÃ¤d sla
ĠJ asÃ¥
Ġtal ent
Ġfi ender
Ġbur ning
ĠfÃ¶rstÃ¥ tt
Ġhem lig
Ġpark ing
Ã¶jt nant
un s
Ġpris et
ĠH IM
Ġvak nade
Ġgrabb ar
Ġsk ratta
ĠD onna
ĠvÃ¤r del
Ġnyck el
Ġn orr
ag an
ry mm
Ġgr ade
Tr ust
o op
ed de
Ġf ate
Ġf et
se m
Ġreg ister
ĠTy ler
ring en
Ġtra pped
ĠHel p
M edan
f ortunately
Ġhelp s
Ġtechn ology
Ġsurr ound
Ġtest s
ĠWilliam s
Ġel imin
ĠON E
Ġyoun ger
Ġconne ct
Ġgrad u
ĠPar ker
Ġc ure
pp y
Ġre ck
ĠkÃ¤n s
Ġsh opping
ri pt
ĠÃ¥tervÃ¤nd er
ĠInter net
Al though
Ġstat us
Ġreven ge
ĠfÃ¶re stÃ¤lla
Ġkr it
Ġ4 00
Ġhum Ã¶r
ĠSl Ã¤pp
M Ã¥r
Ġh et
Ġsist ers
Ġaud ience
b Ã¥t
ff s
ĠR and
r ina
Ġcl ients
Ġapp ears
Ġappoint ment
Ġfr ys
ach e
Ġdirect ly
ĠÃ¥ klag
ĠGr ant
Ġvi ctor
ĠvÃ¤n skap
Ġdu st
Ġf yr
Ġinf ormer
ĠB ow
b age
Ġ20 1
ĠVil ket
Ġinter net
Ġp aket
ĠC O
ĠP R
la us
C or
de st
ĠvÃ¤ skan
b ast
O ff
ĠL inda
IN E
Ġreport s
Ġt ing
Ġsjun ger
Ġglass es
ĠR es
ose x
Ġs ann
am ing
Ġed uc
ĠÃ¤v ent
Ġerfaren het
c ise
Ġv ett
Ġfl ag
ĠM ill
Ġmiddag en
ag ram
Ġli b
Ġinde ed
ĠK r
B E
Ġcoun ter
al ph
ĠS av
f ore
ĠhjÃ¤r n
om y
ol i
H und
Ġcur ious
ut ch
Ġtr ag
ĠTed dy
Any one
ch an
Ġfall en
H oly
d ers
Ġtving ade
M el
Ġsteal ing
» ¿
ï »¿
ase y
ĠhÃ¶ ga
Ġdet er
Hen ry
Ã¤n ningen
Ġacc ompl
Sara h
Ã¥ telse
Ġwh om
Ġs Ã¤nd
ri ct
Ġlur ade
Ġs ny
Gen eral
WH AT
Ġb ail
Ġput s
ĠmÃ¤n nen
Ġalk ohol
Ġfull a
Ġst ake
ivit et
Ġ Â
ot ion
m un
ĠL i
Ġre ag
Sk Ã¥l
Ġrad i
Ġbygg de
Ġenem ies
ĠfÃ¥ng ar
ĠHar vey
Ġb ot
Ġj oint
Ġhum or
Ġpolit ical
ĠfÃ¶rmod ligen
Ġconsider ed
Ġbutt on
v at
Ġupp s
Ġdetal jer
rik es
Ġg ala
Ġbesk y
Ġp aj
Ġpr int
Ġacc ording
op her
ĠA w
fÃ¶r t
pt on
Ġbelong s
Ġav gÃ¶r
en cy
ĠA c
Ġunivers um
ook ie
Ġpriv ile
Ġpre pare
Ġfy ller
spl ats
Ġann oy
Ġbuss en
Ġdise ase
d ra
ĠfÃ¶rvÃ¥n ad
Ġch eap
Ġlead s
Ġan vÃ¤nt
For get
F ru
M other
Ġb om
ri ver
Har ry
Ġreleas ed
at orn
ĠR h
Ġspec ific
ĠT an
Ġjournal ist
Ġmess ed
ĠCount y
ĠB etty
es ar
Ġhund ar
Ġspr Ã¤ng
Ġif red
Ġan ger
Ġotro lig
giv ing
M AN
Ġleg it
ĠnÃ¤t et
ish op
ĠPre cis
Ġchamp ion
V an
Ġpo et
Ġdesper ate
S P
Ġinst all
How ever
Ġbott en
ob er
Ġwin ning
N y
Ġ2 8
nt ligen
Ġpush ed
Ġz ero
ĠmjÃ¶l k
w a
Ġi l
Ġbill ion
Ġban an
ĠT odd
j ej
Ġtel e
ar ge
Ġgra ve
f ik
z zy
Ġbecom ing
Han g
orge ous
v ice
ĠaffÃ¤r en
Ġgood ness
ĠCal ifornia
Ġsy stemet
ĠhÃ¶g sta
Ġcomp an
Ġmost ly
ĠfÃ¶resl Ã¥r
Ġry kte
Ġtouch ed
Ġhem liga
Ġa unt
Ġsk v
j ul
ĠO ver
ĠO scar
ĠT ina
og g
Ġcarry ing
ĠskitstÃ¶v el
Ġor kar
k ul
ap i
Ġspend ing
Ġsc ore
Ġplan erat
Ġenk el
ĠÃ¥r atal
Ġmet al
Ġn av
Ġdel icious
var o
Ġdet samma
Ġbl om
Ġs op
ĠF our
Ġscream ing
Ġmurder er
ĠfÃ¥g el
ĠT IM
fe kt
Ġste ps
Ġvitt nes
h uvud
Ġtreat ed
ĠsÃ¶m n
Ġtyck s
as ch
ĠSec ret
ON NA
Ġkl Ã¤
K ill
tt ag
Ġpri est
Ġp ub
And ra
Ġpol icy
Ġfed eral
els erna
Ġsne ak
Ġfr ight
Ġtra ffic
M art
Ġk ines
ie v
ga v
h ar
ĠrÃ¥ kar
dr ag
Ġt ak
ge on
Ġ4 8
B or
Ġbas ement
B Ã¶rja
se qu
ĠfÃ¶ tt
S ame
c ar
ĠE ve
ri er
M A
ĠU N
Ġmag az
St an
Ġmir ror
Ġde ce
io te
Ġp ed
Ġunder stood
Ġvamp yr
ĠRo ad
T E
u ellt
Ġmag en
for ce
Ġsmell s
Ġav s
Ġherr n
Ġn ut
Ġc os
els on
Ġsl av
Ġbad ly
In t
pect or
vir on
ĠK ent
amm ed
ĠtÃ¥g et
ĠAm anda
Ġsp are
T im
ĠK rist
Ġw ire
U gh
Ġ2 6
Ġ âĢĲ
Ġsw ing
Ġgam le
ĠPol ice
Ġbr own
ĠfÃ¶rst Ã¤r
C la
Ġwhen ever
Ġbr oder
Ġb ound
Ġsh ake
ĠJul ie
Ġtid s
ĠA p
D es
Ġm ath
all s
Ġj Ã¤r
iv an
Ġkl Ã¤nning
Ġplay s
Ġsm akar
Ġsuccess ful
Ġexch ange
Ġr are
Ġcigar ette
ĠsÃ¥d ant
Ġbecom es
vap en
st at
ĠSt one
ĠfÃ¶rsv ara
ĠL ake
lev ant
Tr odde
Ġhan n
Ġt usan
Ġtjej erna
O avsett
ĠN ight
ĠstjÃ¤r n
Ġgr ant
ak u
Ġvol un
p re
Ġfoot age
W ork
Ġmiss a
ĠY o
Ġter m
ĠC ourt
Ġreger ingen
ĠAmer icans
all ow
ĠmÃ¥n aden
ĠSh ould
Ġre akt
K ont
5 00
Snygg t
S A
Ġsam t
ĠR uth
Ġcomp lain
Ġcook ing
sh ot
Ġlyck ats
Ġnet work
Ġbar ns
Ġl ade
Ġwant ing
ĠN ancy
Ġb Ã¶g
Ġsju ka
ĠAng ela
od s
St ack
ĠfÃ¶r sk
Ġtoal etten
Ġexplos ion
Ġby ter
Ġprote st
Ġswe at
c olm
Ġgod is
J ess
Ġb ump
ip ment
Ġefter Ã¥t
H ad
f el
Ġb ones
In gent
Ġbor der
ĠVi et
Ġter min
b i
ĠE X
TH AT
or et
ĠOl ivia
Ġsm oking
Ġclean ing
Ingent ing
al ien
Ġbek ant
Hur ry
Ġaff air
Ġv Ã¤nder
st olen
Ġp urs
Ġsp o
Ã¥ st
ĠrÃ¤dd ar
Ġv ans
Ġv ink
Ġi cke
Ġn a
ĠG rey
Ġrob ber
Ġst Ã¤da
ra pp
ĠCharl otte
Ġs ikt
Ġdist ance
Ġfr ig
ans chen
Ġstopp ar
ĠG ONNA
Ġny fiken
Ġstand ard
agg ed
ek s
fil m
Ġrou te
Ġmed borg
Ġtj ock
ĠSte ven
Ġaw ake
Ġher oin
Ġbe gr
M c
um an
Ġg issa
ĠMom my
F ull
Ġwait ed
Ġarm Ã©n
Ġse ger
Ġfl Ã¶g
Ġhem ligt
Ġre kl
Ġt ied
Ġt ent
ro ck
Ġhal va
ir al
ĠSoph ie
Ġekon om
b ass
isk y
by gg
Ġmy st
Ġconf er
Ġstar kt
Ġeff ort
ta v
i ste
Ġr and
Ġutt al
ra el
Je ff
Ġsk allen
AN K
Sk riv
Ġplanet en
am as
Ġsom m
qu es
S her
ĠA fter
Ġrestaur ang
Ġk yl
ĠTe am
Tom orrow
sk arna
Ġsqu are
M Ã¤nnisk
Ġsp oken
Ġvikt igare
Ġig n
Ġfot o
Ġin j
Ġfl ask
x orna
Ġch ap
Ġl es
red s
f isk
itt i
Ġpl ock
Ġsist one
ĠsÃ¶ ta
ĠD amn
L Ã¤get
Ġf as
Ġin uti
x ter
Ġp ushing
Ġboll en
Ã¤m d
kom mend
Ġperfor man
Ġst yra
Ġmay or
T S
Ġfl oden
pen cer
Ġmult ip
ĠD ef
Ġsju kt
K at
ĠM eg
Her re
Ġsym pt
Ġstab il
Ġcon stant
Ġmom ents
H onestly
er ob
ĠO ff
ff in
Ġsacrif ice
P lan
Ġle ks
ĠJ esse
kl are
T en
Acc ording
ĠJess ica
ĠnÃ¶dvÃ¤nd igt
Ġfav our
Ġv unnit
Ġgu ards
h ib
Ġg at
Ġreg ard
ĠH ard
i als
ning sk
ĠÃ¤nd rar
Ġbi bl
f it
ĠS v
Ġno tes
ĠÃ¤r ligt
G er
Ġav bry
Ja visst
Ġspr Ã¥k
Ġsat isf
Ã¥ pet
Ġag ents
l ers
Ġavsk yr
Ġshould er
ĠDen nis
Ġskr attar
T ony
Ġmitt en
Ġsent ence
ĠMich elle
Ġber g
Ġf oster
Ġp or
Ġdr ama
E ver
Ġw inner
Ġn aken
Ġwh ore
ĠMond ay
Ġin ner
Ġequ ipment
Ġplay ers
ĠjÃ¤tt ef
Ġl ake
Ġar k
n ity
ry m
Ġc andy
viron ment
ĠHar ris
Ġbygg nad
ĠSher iff
Ġtr ou
Ġs etting
Ġp ip
h m
Ã¥g as
Ġroom s
Ġfin ans
Ġh ire
ĠEl i
ot ic
Ġpe e
Ġgrand father
ok ed
Ġfor ces
Ġe ast
Ġdecis ions
B oth
Ġser geant
up s
ĠOn ly
Ġf iende
Ġadv ent
Ġser ved
Ġs or
l ie
Ġprotect ing
Ġintellig ence
ĠS A
ĠfÃ¶rl Ã¥ta
ĠrÃ¤k nar
Ġclos et
gg ie
Ġpuss y
ĠL as
ĠmÃ¶r kt
n ummer
Ġp ink
ĠrÃ¤tt visa
Ġsol ution
ĠS ab
om a
Ġst airs
ab lish
ĠlÃ¥g t
Ġprov ide
Ġyng re
Ġd irt
ar ma
ĠhÃ¥ll et
ĠAmer ika
Ġsl Ã¤
end y
ĠsÃ¤ s
H al
am man
ipp a
Ġhel g
ĠBer Ã¤tta
Ġcl own
Ġh eder
ĠfÃ¶r var
ĠfÃ¶rb jud
ĠrÃ¥k ade
Ġupp re
Ġnew sp
Ġli ar
Ġrema ins
Ġcou ch
ĠN ational
ĠIs n
Ġr im
ĠD erek
oth y
Ġkat astrof
Ġcircumst ances
Ġun us
Ġuppdr aget
ĠlÃ¶r dag
C omm
ĠF ive
Ã³ n
ĠAr my
er ingen
ĠComm ander
ĠR ey
Ã ¸
Ġkom ment
Ġbes Ã¶ka
Ġsim ilar
Ġdu n
kn own
E ra
Ġrepe at
Dan iel
ĠfÃ¶rvir rad
Ġsk ills
Ġfr id
am an
Ġat mos
Ġkl ubben
Ġstr etch
Ġsupp l
E le
op y
ĠO ld
Ġgen et
u v
Ġr ow
ea st
Ġperson ligt
Ġcle ver
ĠCarl os
m ade
ĠW y
Ġli ber
Ġdemon str
ug it
ĠmÃ¤r ker
w oman
ĠfÃ¶n ster
iell a
Ġj akt
Ġre kommend
Ġblomm or
Ġar ch
Ġj ung
Ġav stÃ¥nd
ĠT ry
Ġtem por
Ġan x
ĠN obody
Ġpres ence
Ġcon du
fall et
Ã¤l s
ĠFrancis co
Ġre view
Rich ard
Ġad min
K alla
Ġpar an
ĠAust ral
Ġan cient
Ġne ur
Ġtw ist
ly ss
Ġas ide
c os
M at
on se
s he
Ġch ances
i ance
Ġs el
Ġb ug
Ã¤r er
Th ought
Ġst ro
Ty p
ĠG U
Su per
ĠEd ward
ab ility
Ġgj ord
Ġav und
Kl art
ĠfÃ¶rstÃ¶r t
ĠfÃ¶r ne
ut ation
Ġsl ump
stit ute
H S
E ither
G lad
f oot
2 00
Ġf Ã¤lla
Ġb ly
ĠW es
rig et
Ġtju v
Ġhand ling
Ġmill ions
Ġtherap y
Ġex cellent
Ġtrust ed
Ġac qu
ĠI F
Ad am
ĠmÃ¶ ter
ĠbrÃ¥ ka
an sk
ĠNo ah
ĠM ort
ĠM ina
Ġsak erna
Ġlyss nade
Dad dy
Ġin k
F ather
ĠB ab
te e
ĠRe becca
Ġrid ing
Ġm aj
Ġbak grund
ut an
Ġsuffer ing
Ġsk Ã¥p
ĠH oly
Ġr ak
na st
ĠlÃ¤ng s
Ġhigh ly
Ġmyster y
ĠI sa
Ġpart ies
Ġph ones
ĠfÃ¶r ol
Ġunder hÃ¥ll
Ġc orn
Ġbel ow
Ġjud g
a ver
Ġmira cle
Ġm art
ĠM O
un o
inc oln
b jÃ¶d
Ġstill a
Be ing
Ġn ick
A kta
Ġg Ã¤ster
Ġvil se
Ġle ker
ĠP L
res se
ick an
sl aget
uck it
ĠlÃ¶ st
Ġfre aking
re ck
Ġm ars
Ġled igt
tro ligt
ock s
Ġfort une
Ġm el
Ġovan ligt
ĠH y
S S
An na
Fly tta
Ġt end
Ġve get
AN G
Ġte ar
Ġinst it
b Ã¶rj
Ġar med
Ġuppf att
Ġan onym
id ing
Ġtving a
Ġrem ove
FÃ¶rs Ã¶ker
ĠsjÃ¤lv klart
ĠM itt
Ġmobil en
Ġskri ker
Ġprogr ammet
Ch ris
Ġt usentals
OU ND
Ġc art
os ite
ĠB R
Ġab ility
sl ut
Ġj ew
Ġdetal j
ĠK arl
ar ily
Ġneg at
od ge
Ġtid ningen
Ã¥ la
R a
Ġmask in
ĠP o
Ġtraum a
Ġconfer ence
Ġsong s
ĠWh it
ĠfÃ¶rv Ã¤ntar
* *
ĠstÃ¶r a
Ġreg el
l s
re ster
Ġgrand mother
Ġtom t
ĠnÃ¶j e
bok en
Ġdisg usting
ock ey
Ġp orn
Ġbl ast
ropri ate
stru ction
Ġser ie
ĠWhat ever
Ġf ej
Ġsk am
wh ile
Ġuppt Ã¤ckte
U SE
ĠM ore
ĠsvÃ¥r are
Ġlear ning
ed ay
ber ry
Ġbrott sl
ann on
h opp
or er
r ater
Ġsam la
t ra
al et
Ġwin ter
Ġsh el
Ġfl aska
M o
ĠhjÃ¤l pt
Ġel ak
ĠsÃ¶ ndag
ĠÃ¤vent yr
Ġest ate
ĠBa iley
w ater
Ġfriend ship
Ġmind s
ĠmÃ¶r ka
L ord
sk Ã¤r
Ġsk rek
ark s
Ġkind s
ĠlÃ¶s ning
F el
Ġlo ser
Ste ve
yn am
Ġt ast
od es
Ġhel ik
ĠT em
Ġbird s
Ġex er
Ġco inc
S w
ĠCent ral
Ġ Ã
Ġopt ions
Ke vin
Ġdans ar
ĠL es
Ġkoll at
stÃ¥ ende
ind y
Ġplan erar
Ġint ens
ĠmÃ¶r da
Ġsk Ã¤ra
Un fortunately
Re ady
Ġhous es
ĠfÃ¶rf att
Ġsepar ate
Ġgr Ã¥ter
ĠlÃ¥ dan
ĠmÃ¤rk ligt
ĠA ven
ĠN ate
Ġfred ag
Ġcom fort
ia h
au ff
Ġ19 6
Ġl au
Ġtalk s
Ġcour age
ĠrÃ¶ k
ĠK ay
Ġv en
ĠCh urch
Ġintellig ent
Ġl t
Ġfyll a
ri ch
ÃĦn nu
Ġan str
p ite
ĠÃ¶ d
Ġbeh ov
Ġz one
Ġmin im
Ġsal es
Ġhundred s
T oppen
Ġship s
Ġsk ar
Ġav st
Ġrol iga
Ġdip lom
at ers
Ġg orgeous
ĠC OM
Ġsp ons
Ġspel are
Ã¶l jer
Ġbes att
Ġr ange
Ġkonst nÃ¤r
Ġgu ide
Ġh ates
S Ã¤kert
la ine
Ġbank en
Ġcurr ent
M annen
Ġlet at
Ġdark ness
Ġto ler
av in
g or
Ġhurt ing
p art
Ġre jÃ¤l
Ã¤k are
Ġhit s
Ġfot ograf
pun kt
Ġj unk
Ġs ale
Ġu rsÃ¤kta
Ġdel i
ĠFrank ie
ĠL or
ĠAN Y
Ġor Ã¤tt
Ġunders Ã¶ka
Ġsurf ace
Ġyell ow
J ord
w ith
Ġev ents
Ġp iano
Ġlo ad
Ġnight mare
ĠC ir
ul ed
Ġann ounce
ĠtrÃ¤ na
Ġcon cl
Ġli qu
ĠFrank rike
B re
Ġsh out
st ill
Ġbegrav ning
Ġperforman ce
ag ent
ĠdÃ¶ m
cle ar
ĠHall oween
ed da
Ġentire ly
ess an
Ġvux na
Ġsak nade
ĠAr m
Ġskri ka
ĠP an
Ġabandon ed
Ġint im
Ġr ise
Ġreg n
g lar
unt s
Ġtele vision
ĠTr ump
ic ing
Ġin kl
ĠB ad
P erson
Ġcou nsel
Ġen vironment
Ġt atu
D Ã¶da
b in
Ġdec ent
Ġcir cle
ĠC ON
he w
Ġinst rum
ĠL ang
Pre sident
ĠlÃ¤gen heten
v atten
ir urg
Ġska p
olog ist
Ġp y
Ġgiss lan
K en
T T
ĠO wen
Jim my
ĠL and
ĠH appy
T ed
Ġskr Ã¤mde
L ivet
Tj ej
ack er
Ġro y
Ġs oup
Ġd ed
Ġskr Ã¤mma
Ġbase ball
Ġerbjud a
v ard
Ġkr on
Ġskad ar
Ġbe ast
Ġang Ã¥ende
ĠmÃ¤r ke
ĠH IS
j as
Ġgr at
Ġin it
Ġpass ing
ĠT ro
e els
Ġc utting
A ss
B ort
Ġfinger avtryck
r iter
ĠS ally
ĠD R
ĠC ool
Sy nd
Ġsyss lar
gy pt
J an
ling s
Ġkn ees
Ġansvar ig
Se ems
M ag
Ġdisc ip
Ġvolun te
ĠSw ed
Ġr out
S itt
ĠKe ith
in ter
Ġb ens
Ã¥g or
Ġlead ing
Ġkomm issar
iss ion
Ġambul ance
C ongratulations
Ġbro ad
ĠJ oy
ĠrÃ¶r de
Ġtra il
Ġkross a
ĠViet nam
Ġge vÃ¤r
AT E
Ġsid es
arbet e
v Ã¤tt
Ġmod ell
ĠfÃ¶r Ã¤lsk
Ġw ide
Ġdiam ond
Ġcl ue
Ġ3 2
Ġr ens
Ġfal se
Ġperman ent
Ġbe vÃ¤p
sk l
Ant ingen
d ar
Ġverk liga
Ġskit snack
Ġmotor cy
Ġsv ett
Ġutred ningen
Ã¤n ns
Ġenter tain
ÃĦ N
ĠH ope
Ġh iss
ot o
Ġblod et
g ree
Ġk ys
ĠN OW
Ġall mÃ¤n
ĠP RO
ĠDie go
Ġpro vid
Ġhust ru
Ġlok al
ĠS ix
Ġsur ve
Ġallt ihop
ĠG ene
Ġskuld en
D is
ĠS id
Ġfru it
Ġbild erna
Ġru de
Ġdr uckit
Bl i
as m
Ġfail ure
E h
re ll
A in
ĠE rs
ĠR ussell
pl et
we ar
Ġesc aped
ĠMar garet
tem ber
Ġsen ior
ur i
Ġlab or
Ġutred ning
Ġtra ce
un ger
Ġslow ly
Ġtv Ã¤tta
Ġf ashion
ick ing
Ġsm ooth
Ġknapp ast
' '
ect ion
od ka
al ar
ĠUn ivers
ill ance
Ġwe st
Ġpan ic
Ġut mÃ¤rkt
Ġbet er
Ġsc an
F il
ĠlÃ¥ng samt
ÃĦr ligt
Ġkropp ar
Ġsp ott
ĠvÃ¤l komna
M Ã¤n
ins on
Ġel ever
ĠC omp
Ġut by
Ġer bjÃ¶d
Ġdeser ves
iker na
ĠÃ¶ver vÃ¤g
Ex actly
Ġmess ages
sk en
ÃĦ ntligen
U s
ĠBl ake
Ġcl oud
Hel vete
os al
Ġtrain ed
Ġvitt ne
ĠsmÃ¤r t
yn n
E nd
B LE
Ġso ff
Ġrapp ort
ĠN ina
Ġknock ed
Ġmon itor
Ġkon f
Ġmot ion
ĠfÃ¶rl ov
Ġd a
Ġkund er
Ġde bt
ĠP am
Ġleg at
Ġl er
Ġb ol
at ory
ing o
ĠA f
ĠO w
m Ã¥n
Ġres our
ĠfÃ¶rh ind
K r
Ġbra ins
ĠMc G
Ġb itti
Ġ15 0
Ġr ack
Ġstack ars
z on
u na
al i
s ighs
Ġdu ger
Ã¡ n
Ġdoc ument
Ġmus iken
Ġdo tt
Ġidiot er
Ġpr incess
Ġkont akta
Ġser ies
Ġlo ving
P oj
v Ã¤ll
Ġn igga
Ġvis at
com ing
Ġbo o
Ġkyss a
Ġast ron
ĠM ig
h i
ĠI an
ar ens
Ġb Ã¶n
Ġfore ign
ĠL E
Ġpatient er
ci ence
Ġar men
ĠA ud
Bl ack
Ġinsp el
Ġskriv bord
Ġexec ut
ĠDep artment
ur ser
FÃ¶r resten
Ġmiss hand
lo ad
ab lo
b id
ĠF ly
Ġsj Ã¶n
Ġunus ual
Ġv and
R ick
T onight
ĠgÃ¶m de
ob s
St ra
Ġfar mor
un ge
Ġcreat ure
Ãħ ter
A ns
n el
Ġatt ach
Ġsupp ly
ĠAn thony
tt it
p ower
Ġmy nd
Ġsh arp
Ġh Ã¤v
Ġuse ful
Ġmiss fÃ¶r
Hopp a
SÃ¥n t
ĠstjÃ¤r na
Ġkn uff
Ġfar vÃ¤l
rÃ¤ dd
St Ã¥
F Ã¶re
ĠSh h
Ġide al
Ġunderstand ing
Ġpack age
ĠsvÃ¤r d
ĠMart y
B Ã¥da
ĠB each
i ction
Ġf akta
Rob ert
B UT
N atur
Ġcra w
G ick
ĠC at
ft on
t are
ĠgrÃ¤ va
Ġw ise
Ġlead ers
ĠEvery body
Ġagre ement
ĠSome one
Ġbel Ã¶
ĠtrÃ¤d gÃ¥rd
ĠE va
Ġr ubb
an ny
ĠWH O
Ġled ig
kl Ã¤der
B ru
Ġvet er
Ġval et
ĠL ock
9 0
W al
En ough
Ġco oper
Ġre hab
Ġviol ent
Ġosk uld
Ġest ablish
Ġsk ugg
Ġsu ttit
Ġob lig
Ġch osen
ĠVirgin ia
Ġfr is
ĠglÃ¤d je
del ning
Ġkoll ega
Ġsp ill
Ã¶n ster
Ġex ha
Ġbr inner
E asy
ĠF ord
ob by
S H
Ġdom in
ire kt
ĠH as
Ġspel at
kom mer
ĠAl bert
ri ve
Ġcent ury
ĠJ unior
Ġbl ink
ĠnÃ¤s an
Ġstry k
Ġdra bb
Ġthreat ened
b ow
ĠF air
Ġn asty
Ġresult at
Ġmira kel
Ġpl ikt
Ġtid er
Ġpress en
ĠE fter
L ife
ĠC as
und en
b ul
ĠCh ina
Ġstand s
ĠD ale
Ġfull stÃ¤nd
Ġu ne
Ġfriend ly
ĠlÃ¶g ner
ĠÃ¶verlev de
ĠC oun
w an
Ġdo zen
ĠH otel
ĠG us
af Ã©
Ġupp gifter
Ġf uel
Ġerbjud er
Ġint resse
ay a
ĠdÃ¶d ad
ĠSa int
Ġrelig ion
B illy
ĠtillfÃ¤ll et
Ġv ess
T io
Ġfe g
Good bye
v ag
Ġexpl an
ĠsÃ¶ der
Ġorig in
Ġin brott
Ġto oth
Ġh ip
Ġgr ill
sp ir
Ġdag ens
Ġatt end
Ġstay s
Ġslag it
ĠpÃ¥ verk
Ġan lit
Ġte ater
Ġv ig
Ġl ej
Ġeng aged
Ġunivers itet
ĠE VER
ĠhÃ¶r net
ĠHar old
Ġgr ader
ic ations
Ġfl esh
Ġfact s
Ġopp osite
ĠD ylan
Ġim pa
Ġend ast
ĠEur opa
ĠJ ennifer
Ġsp orts
amm are
Ġsak nat
Ġsqu ad
1 8
Ġfr iv
Ġfact ory
k ward
Ġsin ne
Ġkar akt
Ġsurv ived
ch ester
if iera
Ġkl ok
Ġord en
Ġmag n
ĠMin ister
Ġremember ed
Ġp ry
ĠRick y
entle men
ĠV alley
ĠZ e
Ġmass ive
Ġben et
he st
Ġarbet et
Dan ny
ĠSte w
ĠhÃ¶j d
ĠL ight
ĠkÃ¤ll aren
ĠL eave
ud ge
Ġsm aka
Ġre ward
ar ies
A C
Ġvictor y
Ġst aring
ic les
Ġcab in
ĠF ire
Ġkompis ar
Ġcon sequ
Do ctor
bast ian
r Ã¥gas
Ġne ut
ĠfÃ¶rb Ã¤tt
Ġpris oner
Ġt ub
Ġk la
ĠFÃ¶r s
Ġkonst iga
ĠstÃ¤ll en
Ġdist urb
Ġhitt ing
v Ã¥n
Ġocc asion
c Ã©
Ġconf idence
in te
ĠEl ena
ag ine
Ġso cker
P ull
Ġh Ã¤n
rat als
Ġrand om
Du m
ĠT R
Ġch ill
Ġskil smÃ¤ss
ag na
Ġty sta
Ġgamm alt
Ġclos ing
Ġp j
Ġt enn
Ġn Ã¥tt
B ea
ĠÃĦ R
y ers
ant ic
Ġch ips
1 3
M ight
nings vis
Ġk rist
Ġen de
ĠH ug
ĠklÃ¤der na
ed i
gru pp
Ġber oende
nar en
Bob by
p ost
ĠEn ter
Ġfund era
Ġto x
Ġfall a
ĠVil ka
oll ar
ĠlÃ¤ng st
R on
S Ã¤rskilt
lor ia
jÃ¤n st
Ġr Ã¥tt
r ence
ĠN a
ĠhÃ¤m nas
Ġrel at
ĠdÃ¶ ende
s f
z ed
ĠInd ian
ĠZ oe
ĠT en
op at
ĠJ une
Ġass ass
Ġkun skap
if th
Ġguarante e
Ġgen i
f ish
Ġl app
Ġlo va
alk ing
Ġproper ly
Ġsid or
ĠJapan ese
Ã¤n kt
Ã¶ gen
ĠLou ise
ath ers
Ġfakt um
ĠGu y
b al
Ġbe ating
Ġjoin ed
Ġlib rary
ĠBe h
ÃŃ a
ĠA M
ĠTh ink
A sh
Ġy ard
ĠK enny
Ġg ross
ot ch
Ġreport ed
OU R
F antast
Ġrym den
ĠFR OM
all ad
Ġsm Ã¤l
Ġins ult
Ġhor a
Ġmisslyck as
J ob
ĠK id
Ġtack ar
ĠvÃ¤n nen
M ind
y ard
Ġfl ott
Ġgri pa
Ġkill s
Ġgar bage
Ġli ps
Ġdat ab
as es
ĠfjÃ¤r de
Ã¤ dda
Ã¶j er
ĠD ark
Ġmin or
Ġch ip
Ġch asing
ĠVal ent
ĠhÃ¤ft igt
ab et
Ġfar liga
look ing
ist erna
ĠU p
Ġarri ve
am ber
ĠkÃ¤r leken
Ġpre vent
ĠPier ce
p ol
Ġbu bb
Ġsearch ing
Ġmod ig
i Ã¶st
Ġass ure
ĠJ eremy
Ġfun kade
ĠjÃ¤tt eg
Ġom stÃ¤nd
Ġident ity
Ġjump ed
ĠrÃ¶ ka
Ġkomplic erat
u able
ĠL in
iv or
sl agen
Ġta v
Ġles b
ĠS ing
bel iev
Ġr ape
FÃ¶rs vinn
ĠItal ian
P a
c ies
Ġre he
Ġvi ce
osa ur
ĠfrÃ¥g at
Ġb ars
ues day
Ġqu al
Ġskjut s
an j
stand ing
Ġsl ight
init ely
ĠEll en
Ġhol iday
ĠMur phy
Ġodd s
" -
ipp er
oun tains
Ġsystem s
ĠskÃ¶n het
ri or
Ġfour th
ĠSk ulle
ĠmÃ¶rd ad
ĠE than
Ġbel t
Ġpoj k
ham ed
Ġoff ering
Ġrep utation
Ġnons ense
rig a
Ġru tt
F akt
Ġun com
D A
Ġc e
S lut
V Ã¤n
Ġgr Ã¤v
Ġ Ãĸver
Ġas hamed
j amin
Ġin b
ke ep
ĠR oll
ĠmÃ¤r kte
1 7
Ġverk ligheten
Ġpar ent
ĠC atherine
ĠfÃ¶rbann ad
ĠT imes
ret er
Ġut k
Ġwhere ver
Ġdisappoint ed
Ġab ort
d ale
Ġsk ru
Ġre in
Ġn ag
Sv ara
Ġc and
i ro
Ġar v
Ġauthor ity
ĠfÃ¶r k
ĠR andy
ĠrÃ¤tteg Ã¥ng
Ġp ara
Ġmin ister
ol as
bb ie
Ġm ile
at erna
Ġl ider
ĠGerman y
Ġstr anger
Ġresp onse
Ġmid night
Ġst all
Ġfund erat
ĠP ac
Ġtro tt
ĠÃ¥ng rar
ant ha
Ġreact ion
Ġde ck
ĠW ild
Ġcult ure
Ġpo Ã¤ngen
Ġf ishing
ret s
Ġhalvt imme
ish a
ĠdÃ¶d ades
Ġcon test
Ġir rit
atal ie
ĠLO OK
Upp fattat
es k
ĠTh ose
ĠS el
Ġgru ppen
ĠEvery one
ĠA aron
ĠIn st
ĠsÃ¶t nos
ĠC y
ĠK Ã¤nner
sl et
ĠVin cent
Ġdeli very
ĠC ru
ph one
ĠM iles
1 4
ĠSo v
ĠsÃ¥d ana
F ri
az e
he im
Ġpre mi
ĠvÃ¤g g
urs day
g ers
ĠVad Ã¥
Ġsk Ã¥l
ĠF ox
Ġring en
ĠBar bara
pro v
Ġcor por
Ġp ant
Ġpre cious
N or
p oint
Ġan teck
our s
ĠE gypt
Ġocc ur
v il
Ġsiff ror
Ġby e
Den na
Ġflick orna
ĠE arl
Ġme sta
Ġins ats
sk r
gh an
am od
se ende
Ġfin na
Ġdeter min
Other wise
Ġp le
ĠR O
ĠlÃ¥ st
ĠGr ay
Tom my
ood y
Ġbarn barn
orter a
Ġtapp ar
ist isk
al o
Ġheart s
b u
m ony
Ġhapp iness
Ġrock s
f ire
de m
Ġsa il
ĠA pril
Ġupp le
c raft
Ġth ief
g s
t ur
Ġgard erob
ĠT ok
Ġm Ã¤stare
C ra
Ġpun kt
ĠMar tha
ĠJer sey
c ut
Ġa ch
ing ton
ÃĦ t
Ġnjut a
D essa
iet y
rev or
Ġfram t
Ġw ra
Ġw ins
J ake
p ers
ĠM ason
ul u
ift y
Ġmiss at
ĠCo ach
ĠsmÃ¤r tan
Ġbe ord
Ġavsk ed
ĠV ince
Ġmur ders
Ġskad or
Ġhand la
Ġrec all
ĠB ert
pro blem
WE LL
Ġbibl iote
l Ã¤nd
Ġj et
Ġsom mar
Ġfr anska
Ġ3 6
ĠKal iforn
Ġt akt
All varligt
Ġcur se
Ġdesign ed
Ġinte gr
ĠH oney
f ace
Ġkl o
Ġeat en
Ġsl ott
Ġforts Ã¤tt
Ġmove ment
uff y
K vinn
ver ket
Ġrecomm end
u ge
Ġr ip
Ġpleas ed
Ġunder bara
Ġpark en
Ġdess ert
Ġn j
Ġeg o
k at
Ġit alien
ĠK ai
Ġart icle
Ġan ar
ol et
Ġfr ag
Ġkv itt
Ġextra ordin
vin nan
Ãħ N
Ġparan oid
Ġm age
Ġnum ret
e bra
ĠAl i
Ġcow boy
ĠO pen
ale b
Ġ19 4
Ġsurve illance
Ġaw kward
Ġup d
j ack
Ġatt itude
ĠR un
an or
ĠC ont
Kon st
F attar
Ġotro gen
Ġcris is
Ġmin nes
Ġerk Ã¤nner
H ope
Ġpl at
ĠKat ie
ĠÃ¥ng ra
Ġn ap
Ġambul ans
Ġby n
Ġrespek terar
S al
sh irt
Ġut rymm
Who ever
Ã¤ karen
ull en
Ġtekn ik
F red
M al
opp y
Ġbehand lar
Ġs narare
ĠD iana
Ġsm Ã¤ll
Ġprof ile
Ġver ka
Ġsh oe
Ġstopp ing
ĠA ugust
Ġf la
Ġt as
ĠLeon ard
Ġex it
ab or
Till baka
Ġembarrass ing
Ġtre asure
ĠL incoln
ĠJust in
Ġsc ript
Ġstop s
Ġvind en
Ã¥ ste
M il
Ġw ave
ip a
N Ã¤stan
ĠÃ¤r an
ide on
Ġbest Ã¤ll
ĠQu inn
Bra vo
ĠDu ke
Ġutt ry
Ġit u
Ġbr on
giv are
un ker
ĠSE E
Ġcar ried
Ġp od
av a
AT H
Ġb aj
se e
Ġk redit
ĠkÃ¤n nas
Ġident ifier
n ow
ver se
kl ubb
Ro ger
E ric
ĠDid n
ĠMex iko
Ġk urs
S ju
et ers
Ġnu clear
Ob viously
Ġwr iter
on ica
B lev
Ġsk att
Ġk ock
as hing
ĠM ass
row s
Ġut re
Ġm elt
ĠSh awn
ĠR u
Ġgr Ã¤t
Ġcross ed
Ġc andid
ĠvÃ¤l sig
s ign
Ġj okes
Ġfix ade
Ġarbet ade
Ġrece ive
x an
Ġb rick
Ġcr imes
os c
Ġk andid
ĠBrook lyn
ĠCar rie
Ġung arna
r Ã¥k
sp lan
Ġfly dde
Ġant ingen
Ġteach ing
K im
h jÃ¤l
Ġc ave
Ġdistra her
ĠF rÃ¥n
Ġbete ende
all eng
Ġsp an
ĠSch ool
Ġkost ym
Ġif all
Ġbit ter
ĠpÃ¥ver kar
Ġmuse um
A ST
Ġincred ibly
Ġbytt e
g iven
ĠfÃ¶rsikt igt
Ġim per
Ġcomp rom
ĠAll en
Ġcho ices
Ġtok ig
ĠtrÃ¤ff ats
L ong
T ala
ĠK ong
ĠG un
Ġspar ka
ĠmÃ¤r kt
kom ma
Ġref use
i ju
Ġhat ade
F ix
M ajor
l ats
ta il
ĠK enn
Ġsomet ime
Ġkon sek
ĠThanks giving
Ġtr Ã¶
ĠÃ¶ver ste
Gr and
Ġpromen ad
% .
Ġint ention
Ġbur y
ĠfÃ¶rkl aring
Ġmer cy
Ġbry dde
f amil
ĠlÃ¥ da
Ġoffic ially
ĠSh aw
ĠD iane
M att
Ġmed al
mer a
ĠChe ck
P e
Ġv Ã¤cka
Ġbelie ves
Ġpri ze
Ġwind ows
ĠtrÃ¤n ing
er ed
Ġbo ot
Ġin led
Ġbl ond
Ġteam et
Ġr ope
ĠK olla
a ins
Ġend ing
all as
ĠW elcome
V EN
sk land
Ġdep ends
ĠGO OD
p olisen
Pl ay
Ġdes ire
Ġconf ess
Ġfunn its
R elax
S end
Ġguess ing
Ġflytt at
p ot
RAT OR
Ġteam s
Ġmon key
Ġn ic
Ġupp fÃ¶r
S il
P oor
Ġs anna
Ġ Ã¥n
Ġp it
ĠSe attle
ĠhÃ¤l sar
Ġhom es
ĠAfri ca
ĠvÃ¤g rade
ĠFace book
ct ing
Ġor ange
Ġtim ing
C ut
Ġt Ã¶nt
itet en
E AR
Ġj oking
Ġlev t
Ġflyg platsen
ĠfÃ¶r de
Ġmark s
LE Y
Ġvide on
Ġexam en
ĠpÃ¥ stÃ¥r
Ġdri va
gre es
sk omm
qu ar
Ġmag net
ĠJul ian
ĠS pencer
ĠIns pector
Ġin re
p it
el er
Ġunders Ã¶k
ĠWar ren
c in
ĠvÃ¤l kommen
b ad
Ġdef in
Ã¶ var
Ġsen ator
Ġimpress ive
B rian
Ġspr it
Ġkvinn orna
Would n
) :
Ġk aos
ail y
Ġexplan ation
ĠA na
AR RATOR
Ġkidnapp ed
ĠO k
ĠmÃ¥n en
Ġlag er
band et
ĠÃ¶verty ga
ĠÃ¶r on
Ġthe ater
amer on
Ġreser v
Ġimpress ed
ĠS us
Ġsm ar
Ġs ession
Ġs vek
er able
ĠAsh ley
ĠfÃ¶r Ã¶d
Ġkor rid
ĠTh or
ĠfÃ¶re mÃ¥l
ag h
Ġrisker a
Ġus eless
Ġthr own
Ġtun ga
p se
Ġrec ent
hÃ¥ll a
Ġfasc in
Ġwh isky
Ġt Ã¶m
Ġgr ind
urt is
Ġneg ative
ade my
ĠG R
ĠG all
ĠL eg
Ġtro ligen
ĠD al
Ġel ement
Ġfac ility
Ġuncom fortable
C are
r igt
ÃĦ nd
Ġw ing
stÃ¤ll ningen
ĠFor ce
Ġself ish
Ġt ors
Ġfund erar
ĠCra ig
Ġfal ska
Ã¤ sk
Ġtatt oo
Ġoper ationen
ĠE ver
Ġopt im
AN S
Ġun its
Ġtog s
Ġant agligen
Ġth ick
ĠM arl
Ġlate st
Ġperson liga
Ġkiss ed
ĠR alph
ĠskÃ¤m tar
Ġuppen bart
Ġbr itt
ĠTIM E
at ar
Ġtra cks
kra ft
Ġsens itive
Ġsh ell
Ġexp ress
U r
ĠN ar
Ã¤m tar
Ã¶j lig
Ġcap ital
ĠÃ¶ gat
nar rator
ific ation
ĠH oll
Ġk ris
or ies
Ġstart ade
M ur
Ġmo ttag
Ġsl Ã¶s
bl er
ĠjÃ¤v lar
Ġking dom
spr ung
ĠEll iot
Ġnyck larna
Ġdram at
agg ing
Ġintr oduc
ĠD J
B as
l ife
Ġfunger ade
Ġst Ã¤mma
Ġav sikt
Ġuppenbar ligen
S uch
Ġcomp la
Ġkok ain
ĠB ACK
Ġunder rÃ¤tt
del se
ĠSteph en
D own
Ġde grees
ow der
Ġperson ligen
u ga
Ġsil ence
Ġsamarbet a
Ġimpress ion
Ġinst inct
Ġn at
Ġmost er
Ġjudg ment
Ġe pis
ĠrÃ¶ tt
Ġfriv ill
al ing
Ġforts atte
ch eck
Ġland s
Ġsusp icious
b elt
Ġse ction
Ġbl Ã¶d
Ġconc ert
Ġs ly
ln te
ring s
Ġord fÃ¶rande
Ġlab bet
Ġdig ging
ac y
Ġwast ing
Ã¶j d
Ġdy g
Ġbal ance
Ġdy ka
Ġf ond
P o
ĠVi c
L ES
ct ic
Ġcare fully
Ġcomp lex
Ġpr ide
Ġgu ilt
Ġmo le
ĠrÃ¤k nas
P olis
. ?
Ġgreat er
ĠAny thing
Ã¶ ser
Ġco ast
Ġdis aster
Ġsna ke
ord et
ĠSt u
Ġbe vak
Ġsomm aren
ri en
ĠvÃ¥n ingen
ing arna
iz z
Ġallihop a
Ġcons ult
B Ã¤ttre
Ġre ject
Ġby xor
Ġdu ck
ĠrÃ¤tt vist
mÃ¶rd are
Ġb acon
Ġkontroll en
Ġmet ers
ĠmÃ¥ ndag
Ġcom mer
ekt iv
v it
Ġre par
Ġback ground
ĠlÃ¥t en
OW N
Ġr os
Ġcoinc idence
Ġge ar
Ġn om
Ġsh itty
Ġun ique
ĠSh a
ĠS na
Stack ars
R ad
ĠSo f
Ġsn Ã¶
Ġvitt nen
Ġr ar
Ġconsid ering
p ir
Ġdest ru
Ġbesky dd
W ay
Ġref le
Ġr ut
Ġsy strar
Ġsam vete
Ġsee k
ump an
Ġhum ili
Ġth in
Ġcustom ers
Ġa im
Ġbre vet
ĠGabri el
h attan
ĠmÃ¤nsk liga
ĠlÃ¤sk igt
Ġmagaz ine
Ġchild hood
Ġbre ast
Ġhistor ier
Ġarbet s
Ġbilj etter
Ġspec ies
ĠMick ey
Ġsy fte
Ġcle ared
Ġte ars
ĠkÃ¤r n
Ġb in
ok rat
ĠMitch ell
Ġsoff an
Ġim pl
Ġbety da
ĠjÃ¤r n
ut iful
ĠN Y
ĠK Ã¶r
c red
OR T
ugg ed
Ġrisk en
ĠKaliforn ien
ĠSt ill
Ġsny gga
Ġel den
vÃ¤r der
ĠMal colm
ibb s
ĠF il
Ġhelp ful
ĠGO ING
Ġwitness es
ĠfÃ¶rber eda
Ġif rÃ¥gas
ĠPhil ip
Ġsty rel
Ġpol are
Ġconfir med
Ġkon centr
7 0
ĠBe at
Ġbef inner
Ġlo ver
ĠF inn
min ister
Ġav lÃ¤g
Ġrobber y
sel n
ĠlÃ¤ karen
opp ed
ier ade
Ġsa bot
ĠBra vo
Ġosky ldiga
or ing
rÃ¤ der
ĠmisstÃ¤n kte
v ill
Ġlo an
Ġrec ru
Ġoff ense
or se
ub be
Ġposs ibility
H jÃ¤r
Ġsv Ã¤l
th is
ve mber
ĠL il
rÃ¤d are
L y
ĠFrank lin
Ġerbjud ande
Ã¶ tter
Pro fessor
hel st
Ġv o
Ġutnytt j
Ġsh ield
Ġacc ent
ĠA C
ĠhÃ¶r s
Ġout fit
Ġsex ig
ĠB enn
ĠP enny
Ġt iger
oe be
ĠskrÃ¤m mande
ĠkÃ¤nsl an
L ady
Ġl Ã¶jligt
ĠM oon
2 2
Ġh ill
at Ã¶r
Ġskr Ã¤ck
Ġh orn
ĠP lan
ĠhÃ¤m tade
K ate
Ġp oker
ubl ic
Ġk ej
eng arna
ick en
Ġimm un
Ġign ore
ĠfÃ¶rr Ã¥d
Bel ieve
ĠOF F
O troligt
Ġr ust
au er
Ġl apt
ĠA k
T iden
ri sten
ĠA G
ĠD own
pher d
Ġkr imin
S la
J am
Ġv inn
ĠA V
Ġact ions
ĠMay a
ĠB rig
Ġ2 9
Ġinform ationen
er ades
iss es
ĠlÃ¥t it
Ġ eter
ĠT ILL
ĠGrand ma
Ġsa uce
Ã¥r iga
Ġrep et
L ita
Ġupp h
D em
kl ass
ĠH um
ĠEx actly
Ġpret ending
ri ce
gre jen
l ades
el et
ĠPl ay
Ġrekl am
U E
Ġch ase
ĠnÃ¤rma ste
Ġch alleng
Ġbrott s
Charl es
ot en
ĠS jÃ¤lvklart
ĠE M
k Ã¤nn
Ġver kt
AM E
Ġtr unk
ĠskrÃ¤ p
Ġsm y
ja h
K ar
l opp
Ġd Ã¤ck
ĠM ia
ĠT uesday
Ġaccept ed
believ able
Ġfot on
ĠD ur
Ġbox es
Ġgr is
Ġfell a
Ġgu vern
Ġfall s
j et
Ġtrack ing
1 6
im ately
ĠidÃ© n
b ing
g un
Ã¤ ft
Ġprot ocol
ĠAven ue
ut her
op en
ĠN ad
ri ka
Ġcontro ll
ly s
Ġska pat
ne st
sk on
Ġcom ment
Ġact or
Ġgemens amt
Ġon Ã¶d
ĠH art
Ġeg end
Ġmic ro
ĠbrÃ¶ll ops
ĠLo is
ĠJ os
Ġindust ry
Ġe con
Ġtill Ã¥ter
Ġl ida
ban an
ore an
Ġval uable
ĠT oo
B O
or f
Ġh Ã¤kt
Ġha st
Ġcollect ion
Ġreg ion
Ġo vÃ¤nt
ĠS yl
ĠW OULD
Ġs amm
ĠL iam
Ġco ordin
yd ia
Ġpins amt
ver na
oy le
Ġty ska
Ġbes ides
ist ry
eg or
Ġtv ingar
ĠTh ursday
Ġkyr k
Ġw olf
ub a
Vi ctor
Ġfell as
Ġmad am
Ġfoc used
F eel
ĠD aw
Ġte ori
v ia
our se
u gen
Ġmor far
Ġfun ction
Ġret ire
Ġrisker ar
Ġtit le
c ie
ger na
ĠV en
Ġrequ ire
t og
Ġtrick s
ure au
ar io
ĠsÃ¥g s
Sc ott
ĠAf ghan
ĠL ana
p rat
Ġcount ing
Ġelect ion
Ġenc our
Ġbar nd
ĠH AD
Ġrem oved
Ġnorm ally
Ġreger ing
Ġcast le
Ġbok stav
sc ri
k opp
r er
ĠC asey
Ġing red
Ġkul or
ĠvÃ¤ d
F int
ĠO ly
Ġtr ubb
Ġdesper at
Ġhot ade
Ġslapp na
Ġlast bil
Ġbeg ra
C al
OL D
r un
ĠB all
Ġvap nen
ve ll
ĠgÃ¶r as
Ġh mm
Ġlaw yers
G re
st ic
Ġk arl
Ġav gÃ¶ra
Ġmod er
Ġmark nad
Ġr ail
Ġcon sp
Ġfor th
ĠN ich
ĠdÃ¶ ma
Ġolag ligt
ĠPh ill
ne ath
p ing
Ġtrans p
ĠhÃ¤r ligt
Ġactiv ity
M us
Ġarg ue
Ġbygg t
Ġcru el
K lar
Ġprison ers
Ġh ood
ĠS ea
Ġte ch
Ġcell s
Ġav snitt
ĠF a
pr im
Ġentr ance
Ġaud ition
ĠK urt
st il
Ġin iti
os is
ire ctor
ĠgrÃ¶ na
ĠGu ard
ĠdÃ¶l jer
ĠsÃ¤m re
Ġv odka
Ġupp n
ous ly
ĠLe ague
Ġtenn is
min istern
st ick
N Ã¤m
I nd
Spe aking
Ġkam era
Ġav f
Ġty pen
Ġmix ed
ĠG ina
Ġhome work
es en
Ġuppt Ã¤ckt
ild ren
ve st
Ġqu ality
p oj
Ġfi enden
Vill e
ĠfÃ¶rÃ¤nd ring
Ġtro ops
Ġchar ged
Ġstr and
Ġfin ner
Ġsoci ala
Ġverk ligt
Ġkn y
g Ã¶ren
Ġfl ock
ĠW ant
Ġkr iminal
Ġli fet
Ġall eg
Ġc ats
Ġbe ef
ĠSt anna
Ġjur id
ĠG i
Ġel eg
Ġgrand ma
ĠMon ica
Ġexist erar
Ġcreep y
Ġmor g
Ġfly r
ar ka
pr ints
ĠN ord
ro st
or ta
ĠH end
Ġannoy ing
Ja c
ĠR y
ĠCla ud
Ġembarrass ed
ĠSil ver
Ġvamp ire
stit ution
Ġl ap
ĠCh an
Ġpl ocka
Ġbr ide
ĠfÃ¶r g
Ã¤tt ningen
Ġto y
ĠE rik
ur d
Ġden y
Ġqu e
Al most
Ã¤kt en
Ġk nack
Ġpat tern
Ġkul a
Ġmedvet en
Ġdro pping
Ġsil ent
ĠSpe cial
O ld
ĠNE ED
Ġwarn ed
ri va
Ġplast ic
ion a
ĠS K
u i
Ġp atch
Ġelev ator
ĠRem ember
à ¸
per t
Ġbor ed
Ġbo ots
ĠA ctually
Ġsm ek
V in
V Ã¤nd
ĠSt ick
ĠN Ã¥t
Ġhom osex
u ary
te le
Ġapp ly
Man y
stÃ¤ll d
ĠM agn
Ġdeal er
Ġsov rum
ĠF olk
Ser geant
K ind
Ġp oll
Ġrecord ing
D oug
Ġpre v
Ġd ent
Ġint end
Ġrem ote
ĠDon ald
cons cious
Ġneighb ors
Ġsh ared
ĠpÃ¥ g
Ġche ating
ĠStan ley
Ġytter ligare
IS H
Ġpolit ics
Ġbetray ed
U se
Ġacc used
ĠInst agram
ĠF E
Ġpack a
Ġa gency
ĠL ogan
C alm
Ġstri p
Ġto ss
an en
Ġsett led
l ande
Ġflyg plan
Ġe va
Ġgl o
oun ced
L Ã¤r
ĠA le
Ġinspekt Ã¶r
ĠCon nor
Ġcow ard
Ġpubl iken
ĠframgÃ¥ng s
Ġ7 5
ĠYou ng
g eln
Ġutom jord
Ġm ud
Ġgry mt
f ir
os it
Ġenjoy ing
Car ol
Ġut press
Ã¥g ar
h oles
Ġp orr
Fr Ã¶ken
ĠP RE
ĠsÃ¥ hÃ¤r
Ġmiljard er
Ġsound ed
ĠIs rael
Ġgod e
ĠskÃ¶ ld
Ġrestaur angen
unt ing
Ġglas Ã¶gon
v ida
Ġpot ent
ĠL ane
ĠUnivers ity
ĠS C
Ġos Ã¤ker
Ġdu ss
th ey
Ġgl or
AL K
Ġproced ure
ver age
Ġcele b
ĠstÃ¤ng t
Ġvill ig
Ġswim ming
H Ã¶g
lighet er
Ġinter rog
Ã¥r s
Ġconf ession
Ġd ynam
ĠlÃ¤g e
t io
Ġins idan
ik ation
Ġklar at
Ġpat hetic
ĠCent er
Ġsn ur
Ġdr own
Ġur gent
Ġv Ã¤nde
OR D
Ġkopp ling
V al
C ont
d ad
ras ka
A gain
Ġfinan cial
Ġg est
E rs
U RE
Ġb um
EN S
Ġlim it
ĠÃ¶n skan
Ġsov it
Ġshel ter
Ġtrans l
Che fen
Ġinstrum ent
st ud
AR K
Ġg Ã¤r
Ġkl Ã¤r
ĠW ILL
chef en
Ġmultip le
J Ã¤klar
b ag
ĠanstÃ¤ll da
H op
iju ana
f ive
Ã© s
im ony
Ġupp d
Ġkopp la
FF FF
Ã¤k ter
ĠH em
Ġv irt
ĠH o
ĠE st
Ġmess ing
ĠhÃ¶g st
g ot
Ġfl ower
ĠtÃ¥l amod
Ġf Ã¤ll
Ġst Ã¤nd
ot ing
Ġsh adow
p son
Ġar mar
Ġhund ratals
C am
Ġdom aren
ĠRay mond
Ġm ister
Ã¤nd erna
ĠCh o
v itt
ph ere
Go ing
ĠLa ur
ĠfÃ¶rsvun nen
is c
ak ers
Ġvitt na
m unt
Ġo xy
Ġinj ured
ĠRon nie
ĠK h
Ġh att
Ġfil ma
ad da
b as
VÃ¤r lden
ĠH ol
Ġring s
ĠO s
ĠmisstÃ¤n kta
on de
Ġsk al
ĠGl Ã¶m
Ġvittnes mÃ¥l
Ġbreak s
Ġmark naden
ĠtÃ¤v ling
ri x
Ġar rester
vÃ¤r lden
Ġclean ed
ber ed
w as
Ġtr Ã¥d
ĠL ed
ft et
ĠhÃ¤st ar
Ġstrugg le
Ġar rog
Ġmeant ime
ĠSec urity
Ġsk ip
ĠT urn
Ġanswer ing
Ġb ills
Ġand ras
ĠCol in
ĠRub y
Ġl ill
Ġobs essed
ag ues
Fin ally
ent lig
ĠfÃ¶tt erna
E ach
Ġwe ed
Ġstopp ade
iz es
Mart in
ĠF itz
o en
Ġhitt ills
ĠAlex ander
ĠRuss ia
ĠL iv
AD E
ĠNic ole
Ġdet on
Ġapolog y
on ed
ĠM ust
Ġhel iga
Ġloy al
{ \
ĠH omer
Ġutt ryck
ĠmÃ¤nsk lig
D O
Ġtr ycka
ĠW olf
ĠMan hattan
Ġgen u
b ird
Ġel va
ĠH and
Ġinv ent
Ġbens in
S ur
k as
f a
F ollow
Det ective
Ġgr ass
Ġur sprung
ĠS it
ĠIsa ac
Ġstro ke
ĠdÃ¤r inne
Problem et
Ġw reck
ĠV Ã¤l
L isa
Ġall as
ĠCarol ine
Ġm Ã¤ster
ĠCast le
Ġsom eday
ĠK a
ĠK ina
ĠB ren
Ġserv ices
Ġpaper work
E O
ĠJ ill
ĠJul iet
Ġident ify
Ġw rap
Ġbu ff
Ġkl Ã¤d
ĠSt ra
Ġbety dde
Ġd iss
Ġse ats
Ġus es
Ġlaw s
m ates
ik es
A pp
ĠC ard
Ġrec on
âĢĲ âĢĲ
Ġpain ful
f yll
o ard
v ara
Ġav rÃ¤tt
Ġsuc ceed
sk ade
Ġt Ã¶r
ĠD A
ĠGo vern
Ġutrust ning
ĠsamhÃ¤ll et
Ġw ings
Ġle ende
Ġcon cer
Ġfl irt
ĠbehÃ¶v t
F BI
ĠB ishop
Ġextre mt
Ġme chan
Ġtouch ing
ix on
Ġadv ance
Ġpl Ã¥n
rev lig
Ġsl it
ĠJon athan
Ġm al
Ġm juk
ĠAnd erson
Ġkap it
olog iska
Ġhow ever
Ġbast ards
K id
Ġtot alt
icul arly
ad el
ĠL ite
ang el
San ningen
Ġstud ying
Ġbeg ins
Â ¶
Ã¤ng t
ely n
ĠJud y
Ġly fta
Ġbr Ã¤nna
Ġrit ual
ĠW ater
Ġdeep ly
Em ma
Ġner ve
Ġmis under
Ġpoj karna
R yan
Ġdom stol
Ġljud et
Ġw ore
ĠAl right
ĠRoy al
ĠC OULD
Ġlust igt
Ġident itet
z i
Ġg y
Ġmakt en
ru ption
ĠÃ¤nd rade
Ġattack s
Ġbl own
Ġgr en
Ġmid natt
and es
ĠP Ãħ
Ġut fÃ¶ra
en ger
ĠM add
ĠR yss
Ġto wer
bur y
Ġdescri be
Ġdyr t
ĠB et
le e
Ġkn iven
l ict
Ġcl inic
S ol
v ere
ch ing
Y S
Ġr yss
ĠfÃ¶r en
Ġan aly
Ġbetal at
or ma
Ġn in
Ġkl ag
G etting
Ġh eta
is ke
Absol utely
ĠB as
Don ald
S pr
ect or
Ġdat orn
ĠGu ys
ri f
ĠPr incess
m juk
Ha ven
Ġconsequ ences
J ane
em ed
ĠfÃ¶rm Ã¥ga
Im agine
ĠK on
Ġsy r
ĠHar per
Ġun gen
s or
sk alle
ĠL yssna
Ġsa v
Ġsam lar
ĠsÃ¶ k
Ã¥ lar
ett s
Ġwalk s
ĠSim pson
ĠlÃ¶ fte
Ġexha ust
Ġt utt
Ġkv art
Ġlu kten
And y
app er
L iz
Ġcreat ures
Ġask s
ĠDan i
mm et
ĠdrÃ¶m de
rit ory
ĠhÃ¥r da
em at
ip ed
Ġbo om
ĠP apa
ĠR og
Ġforg iven
Ġtapp a
ou ston
ĠD iv
ĠS ur
ĠS weet
Ġdel ay
Ġkn ee
ker na
h ag
Ġm ast
Ġter r
Ġbitch es
ĠCh ap
Ã¥l et
Ġkry p
Ġklipp a
Ġhim mel
Ġwish es
ĠFin ns
Ġesc ort
ak i
ĠHaw ai
Ġresour ces
Ġbeh alf
Ġsign ific
Ġbehand la
ĠspÃ¶ ke
ĠF ri
ĠTH ING
Ġcir k
ĠH jÃ¤lp
Qu ick
G entlemen
Ġto ward
mÃ¤r ken
Ġm Ã¤
Ġutrymm e
ĠgÃ¥r den
Ġamerikan sk
Ġrout ine
P ick
ĠM em
Ġpre c
Ġhall uc
Y EAH
Ġaccep terar
Ã¥ na
ĠSn ow
Ġun h
S ub
ĠHar vard
ĠBE EN
O w
Ġwall et
l ur
t le
Ġdraw ing
Ġex cl
Ġund ra
ĠrÃ¤tt igheter
Ġcar ed
S ta
ĠF eder
ĠMarsh all
b Ã¶
Go tta
Ġow ns
st Ã¤ller
Ġroll ing
Ġr us
d uk
gen er
Ġland ed
Ġde gree
sl uta
K unde
at on
Ġexer cise
John ny
Ġwast ed
Ġbort om
ri al
ĠP rat
Any body
Ġli p
Ġkl ocka
Ġemot ions
Ġv Ã¤nd
orm al
Ġcost ume
ĠTur ner
Ġcompan ies
E CT
n are
Ġbull ets
x en
Ġbit ar
W AY
ĠDu de
Ġinf ly
Ã¤t et
ist iska
Ġsomet hin
ĠpÃ¥m inna
Ġc ert
re sa
ag ger
Ġjobb ig
Ġtr upp
Ġsk orna
Ġfir ar
Ġdec or
Ġutbild ning
ĠBon nie
Ġf ence
am rat
Ġsh own
Ġdi al
Ġvar na
Ġta j
Ġexp and
fer ens
ĠS ummer
ĠTra vis
Ġrid d
B ud
ĠS AY
ĠH unter
ĠR ita
Ġgran ne
Ġsk ith
Ġord inary
Ġfr ank
Ġc age
ĠmÃ¶j liga
Ġkra v
ed ith
ĠC ross
Bl od
ĠKor ea
as a
Ġser ial
Ġin her
ro e
Ġnewsp aper
g ive
Ġrad ion
Ġpro ceed
Or d
Ġimpa ct
Ġk ond
ĠGeorg ia
ĠVictor ia
an ced
ct ive
ĠhÃ¤ng de
ra ce
Ġdi et
ĠN ora
H ard
N ic
Ġp our
Ġgr Ã¶n
ens on
st od
Ġc red
Th ough
Ġdefe at
Ġlifet ime
R oy
ĠvÃ¤l gÃ¶ren
Ġvul ner
IS S
ĠBo oth
Ġdeliver ed
Ġtviv el
Ġbad rummet
Ġjoin ing
ĠNe il
c ake
Ġm ajest
ĠDa isy
Ġmedborg are
Ġfr ame
ĠF amil
M ig
P art
Ġhat a
am et
Ġcost s
Ġdel ight
Ġach ieve
U ng
p ut
Â ©
ĠCh amp
Ġfantas i
ag le
Ġmet all
s ay
Hej san
Ġearn ed
ĠH OW
ans as
Ġhem ifrÃ¥n
ĠO j
Ġto a
ink a
Ġsurr ender
Ġil ska
k var
Ġar ga
ĠD ina
Ġvide os
Me et
ĠlÃ¶gn are
Ġha bit
Ġran ch
ĠTy skland
ĠOly mp
Ġfem in
Ġty der
Ġenk la
ĠCr ane
Ġlev els
Ġpat rol
ĠGra ham
w ord
Ġan tal
Ġr und
ĠÃ¤lsk at
Ġdest iny
Ġbow l
um a
Ġfruktans vÃ¤rt
Ġf old
ĠEm pire
ĠR iley
Ġfl ow
Ġh oly
Ġbeh Ã¥ller
ĠSt and
G ar
Ġrehe ars
ĠÃ¤n gel
Ġbak sidan
Â ¤
Ġimponer ande
ĠC row
B on
Should n
Ġst Ã¤der
Ġab oard
Ġbed r
Ġb att
Look ing
Ġmon sters
ĠP OL
ĠW ERE
ĠAfghan istan
T est
act ion
Ġh yll
i able
att net
Ġlapt op
Ġvar ning
ĠS ue
E ddie
r isk
Ġfort are
Mor ning
ĠS pa
Ġtr Ã¶st
ĠG ro
ĠZ ach
Ġprotect ed
is erar
op sy
Ġunder neath
Ġmake up
vis or
ĠLook s
ell ing
Ġpract ically
m Ã¤ss
Ġmain tain
Ġm ountains
ĠH ome
T ot
Ġs ample
ĠÃ¥ k
Ar t
ov an
Ġr ank
ĠMor ning
Ġall ra
In stead
bl od
Ġchar ity
Could n
te ment
Ġsp ect
ever ly
ura lly
Ġcoun cil
Ġbehand ling
i Ã¶s
sl an
Ġdump ed
m ot
im ul
ĠK irk
Ġsu its
Ġbekv Ã¤m
k ass
Ġkom p
ĠK o
Ġcons cious
Ġfre qu
Ġrecept ion
Ġbef ord
n ades
Ġstart ar
ab les
Ġstr unt
Ġuppsk att
Sim on
ĠKenn edy
ĠjÃ¤tt es
Ġclass ic
Ġtort ure
Ġgull igt
Ġtrapp an
2 1
stÃ¥ tt
w ar
Ġw id
Ġsak ta
w r
ĠstÃ¤ll t
Ġzomb ie
ĠB ook
ĠF em
ĠE nd
Ġsuffer ed
Ġinf o
Ġcitiz ens
ra h
Fr an
Ġsuppl ies
Ġp ud
atter ed
sk olan
Ġinflu ence
al in
ĠU r
Ġoffic iellt
Ġvin st
Ġwhis key
Ġmis erable
Ġunf ortunately
D rop
te kn
ed nes
ĠL am
Ġst able
Ġsk Ã¶tt
ĠfÃ¶rtjÃ¤n ade
Ġn az
Will iam
kt ur
Ġhel ic
ĠT ob
Ġh yra
Ġb ul
lev eland
Ġpack ed
Ġbon us
ednes day
ĠG host
Ġcon centr
Ġc ri
are st
Ġtr ycker
ĠN ed
Ġnatur ligtvis
Ġyell ing
ĠAl pha
Ġpre m
Ġcere mony
Ġapp eal
ĠM ot
ĠM ah
K Ã¶p
Ġdej ta
um m
ic ian
Ġ6 00
Ġsh aring
Sp ela
Ġ )
Ġkv ittar
ĠskÃ¤m s
on ing
Ġfil th
Ġforsk ning
Ġter ritory
c all
ĠfÃ¶ da
Ġd ates
Ġenjoy ed
k ed
Ġb rist
u it
Ġmet e
Ġeng ag
Ġskaff ar
ĠL ast
e ge
ĠH ang
ĠG ret
Ber Ã¤tt
A IN
Ġom t
Ġhop ed
Ġe mail
ER Y
Ġpass port
ĠGer mans
w ing
g ro
Se ven
Ġo syn
Ġinne hÃ¥ller
Ġbasket ball
c orn
ĠC ath
Ġgal ning
Ġn Ã¤mna
ĠI nt
Ġsim ma
Ġakt iver
Ġbom ber
So on
ĠlÃ¥t s
Ġadd ition
er i
Ġbl owing
Ã¥d an
Ġsky ldiga
Ġlisten ed
OUG H
om et
Ġsky tt
Ġgener ous
S ign
sl Ã¶st
ĠP ass
a int
ok ater
ĠRE ALLY
Ġkl in
ĠSt ock
is erade
En joy
Ġdju p
ĠfÃ¶rfatt are
ĠÃ¶gonblick et
Ġcamp us
L ik
Ġskum t
FÃ¶r ra
ar ian
ĠA x
AS E
gre j
Th omas
h olm
Ġaccount s
nd ry
Ġadvent ure
Ġbly g
ĠvÃ¤n lig
zz le
Ġ4 2
ĠG PS
Ġmar ker
Ġbef ri
ĠlÃ¥ sa
A c
Ġwork ers
ĠÃ¤nd rat
r ate
Ġsecret ary
Com ing
at oes
R achel
w ife
Ġh ipp
Ġt orr
bb ar
jÃ¤r n
Ġsignat ure
ĠfÃ¶rst Ã¶rd
ĠJa ha
Ġinvestig ating
ĠD itt
Ġt is
Ġident ifiera
ĠdrÃ¶m mer
ĠB ird
ĠrÃ¶ ster
ĠNew s
Do ktorn
Ġindivid ual
Ġatt ra
ĠlÃ¤g er
ĠpÃ¥ver ka
Ġstul it
ĠB Y
ĠN y
Ġpr ints
St ar
Ġweak ness
st ation
ĠHe ad
ach er
Ġcr imin
Ar thur
j our
ne w
Ġfram steg
ĠmÃ¶rd ades
Ġnot hin
are house
Ġo er
arbet are
ĠfÃ¤rd igt
Ġfl ip
g ud
3 5
Ġrel ated
Ġpriv ata
Ġsvart sjuk
ĠdÃ¤r ute
Ġbab ys
Kn ow
Sec ond
Ġk reat
Ġr ival
Ġdo cum
fÃ¤r g
ĠÃ¥ s
Ġdivor ced
und y
Ġkoll egor
iv ity
Ã¤m nar
ĠB ond
ĠCh ase
Ġmod e
ĠV ita
Ġy tt
ild e
Ġtviv lar
Ġkop ia
ĠBen ny
e fter
wh o
Ġbak Ã¥t
ĠAn nars
ig o
Ġorgan ization
Ġpur se
ĠvÃ¥ldt Ã¤kt
r ont
Ġli kt
ĠH olm
Ġremind s
Ġreg ul
Ġallvar lig
v iv
Ġmy nt
Ġman us
Ġint ense
ĠW endy
orn as
C I
Tw enty
ĠL en
ĠlÃ¤ kar
pro gram
St oppa
Natur ligtvis
Ġem ellan
jÃ¤n sten
W ar
Ġshow en
ĠS eth
Ġbety delse
Ġkomment ar
st orm
Ġl arm
Ġsuspect s
ol ved
Ġbegr Ã¤ns
Ġadress en
a way
t ies
z an
art en
ĠlÃ¤ xa
ĠstÃ¤ng de
G reg
et en
Ġth or
ĠChrist opher
ĠG lad
Ġr ig
ater ial
sp Ã¥r
ĠSe x
Ġkonk urr
Ġsen a
Ġsk ak
Ġfor don
Ġgu bben
Ġgift s
Ġad just
Ġw ounds
ro pp
P R
ĠD og
ĠWill ie
c ock
ĠD ana
st an
Ġgu itar
Ġland ing
Ġexcept ion
ons ider
Ġcon cept
ĠRod ney
Ġsing el
p hew
Ġfr itt
ung na
Ġbomb en
Ġwe alth
Ġbas ic
Ġgold en
Ġfe ver
H A
ĠY ear
ea ven
Ġhost age
H alf
Ġa h
Ġjag ade
ĠP ic
Ġsk ift
C r
Per fekt
OU S
ĠWall ace
Ġlyck ligt
Ġst ream
Red o
ĠH ong
Ġsmall er
Ġinspir ation
f ig
Ġupp munt
Ġrad ar
Ġtest ing
C O
ivers ary
ÃĦl skar
Ġstor lek
ĠSon ny
Ġspir its
Ġutnytt ja
Ġstrateg y
Ġsm itt
om Ã¤ss
resp ect
, ..
ace y
Ġcurr ently
ĠM all
Re al
stÃ¤ll e
ĠkÃ¤nd a
Ġkarakt Ã¤r
ĠS M
M um
Ġrelationship s
N ope
Ġm all
ut red
Ġdis ag
Ġmass age
ĠkÃ¤m pade
ĠSe bastian
Ġre bell
Ġtill Ã¥t
Ġtillbring a
Ġm arsh
Ġy tan
Ġdo pe
ĠJu an
Ġhol es
ĠPal mer
ĠsÃ¥r ad
st aden
ang le
igg y
ĠL ance
Ġact ive
Ġtrubb el
Ã¶r da
ĠI ra
ld er
ren e
Ġtras ig
Ġeduc ation
ĠH om
ĠT oby
bl ad
som helst
ag ers
ĠvÃ¤ der
ĠfÃ¶rut s
ĠsÃ¤ll an
E K
Ġvis ual
Ġry kt
im al
Ġref used
Ġtyd lig
Ġbr Ã¥d
Ġocc up
Ġbegg ing
en omen
Ġme x
ĠHe ather
Ġbenef it
CA USE
ĠlÃ¤m p
Er t
So v
ĠP ad
ek n
ĠfÃ¶rsv unnit
ĠH opp
em a
Ġm es
Ġprof it
Ġkomm end
rÃ¤d ande
ĠNor man
Ġegend om
S oph
sk ott
H ot
ĠbekrÃ¤ fta
at um
Ġkl Ã¤nningen
form ation
Ġextraordin ary
Ġh ockey
amil ton
Ġtel eph
Ġchar ming
Ġpersonal ity
Ġpr ince
ĠfÃ¶rs Ã¤lj
Ġkont akter
ĠSe ven
Ste p
Em ily
Ġorsak ade
Ġfr it
Ġorol iga
Ġbeg Ã¥tt
Ġne phew
d am
per ation
Ġr if
Ġan k
ĠCher yl
Ġsp ara
Ġut for
Ġverk lig
Ġm ak
J osh
T or
om ise
Ġshe ep
Ġtv ungna
ly st
Ġinde p
Ġbell y
Ġt Ã¤cker
Ġyou th
sky dd
ro ad
ens es
ĠfÃ¶rf ly
J ason
Ġang le
Ġcr own
Ġgra ce
ĠRuss ians
S jÃ¤lv
d Ã¶m
Ġ2 000
im mer
ĠG oth
ĠO ct
ĠjÃ¤v las
Ġbeseg ra
Ġh ett
ĠLu ci
Ġeva cu
Sa id
H jÃ¤l
kl ara
Ne ither
ĠlÃ¤ng tar
Ġdess utom
Ġstink er
ent a
ĠF ore
xt on
c akes
Ġk Ã¤lla
Ġdel ta
ĠIs ab
Ġenter ed
ĠsÃ¥ lt
ĠF al
amm ar
ĠT roy
Ġre ste
Ġg rott
Ġint ent
ering ar
ĠH unt
ft ar
Be en
Ġlur ar
ol ves
Ġre levant
Ġly der
Ġcontin ues
ĠMig uel
ĠtÃ¤v lingen
Ġsurround ed
if est
Ã¥ng t
Ġfot ot
utt le
Ġg uts
Ġidiot s
Y et
Ġst Ã¥l
Ġsur geon
V akna
M ac
Ġle ak
ĠVi v
Ġimp on
l ass
Ġp ity
ĠÃ¶ver en
Un cle
Ġtr Ã¶ja
Ġtechn ically
Ġtest ify
Ġclaim s
Ġplan erade
K ay
Ġdown town
ol ic
Sk Ã¶nt
L ieutenant
ĠA very
Ġr aped
Ġfix at
l aget
re m
ĠB ank
Ġmag ical
ĠfÃ¶rÃ¤nd rar
ill o
aught ers
ĠfÃ¶lj t
rÃ¤ k
HÃ¶r ni
Ġr od
Ġmot ive
Ġkiss ing
ĠhÃ¤ xa
ĠS andy
i ffer
ok a
RE D
ĠCoun cil
p ark
ĠfÃ¶rsv ars
Ġgrabb ed
Ġmor bror
Ġpat ri
Ġsurv ival
ĠmÃ¶jlighet er
Ġspeak s
Ġpunish ment
e at
Ġc ore
th let
Ġdis co
Ġneut ral
Ġp iller
W anna
ĠÃ¶ kar
Ġspeciell a
SÃ¥ na
Ġan pass
Ġinf ilt
Ġager a
B A
ter at
ĠB an
iv Ã¥
ĠBro ad
ĠtÃ¤nd erna
aph ne
g ra
ĠD ee
ĠL ife
ĠrÃ¤tt vis
f ight
op ard
ĠF Ã¥
Ġkick ing
Ġut sikt
Gra ce
Ġk ed
ĠRe ady
ĠVan essa
Ġp ound
ĠSh ane
Ġstol ta
Sh h
ĠBr idge
i y
b urn
Ġt one
Ġv r
ĠC OME
Ġsoul s
Ġglob al
Ġskri k
ĠberÃ¤tt else
Ġartik el
um n
ĠmÃ¥ dde
ĠSer vice
kÃ¤n sla
d ligen
Ġsal ad
Ã¶r t
Ġvir gin
ĠnÃ¤r varo
Ġtr Ã¶j
sk Ã¶ter
kv Ã¥rd
Ġmeddel a
Ste ph
b ble
Ġg aller
Ġbest Ã¤lla
Ġbust ed
AS S
ĠColl ins
M Y
Ġno vel
Ġber gen
Ġspr ay
Ġstil ig
ĠAud rey
ĠAm ber
Ġintern ational
ĠT am
ink y
ĠÃ¤ck ligt
Ġs ven
Ġbr ush
Ġ3 3
ea u
ĠVi ck
ic in
ĠrÃ¶ ker
Was n
Ġfra ud
Ġdocum ents
h ers
stjÃ¤r na
A ye
Ġinst ant
b our
Ġs ack
Ġl emon
ĠH os
Allt id
ĠfrÃ¤m ling
it ors
W on
la ced
Ġb jÃ¶rn
Ġpr in
Ġansvar et
Ġ âĢ
ĠC orn
Ġor ph
D a
Ġw rest
Ġreakt ion
A p
ĠBen jamin
B ak
ĠK night
Ġkult ur
re al
Ġlo aded
ess orn
ĠsÃ¶ ner
Ġbad ge
Ġus el
ik i
per or
Ġ3 7
Ġavslut ar
in ent
Ġmag iska
Ġdifferent ly
Ġlo cker
ree ze
Ġappl Ã¥d
Ġbre ach
Ġcond itions
G issa
L iv
w ick
h op
ĠS atan
riter ande
Ġmeddel anden
Ġrac ing
g age
Ġpart icularly
Ġapp le
ĠDo ktor
Ġl n
In ter
Ġfl ood
g las
F ire
Ġnorm ala
Ġloy alty
ĠH ud
ĠvÃ¤g ar
ĠN elson
Pl Ã¶tsligt
Ġunder ground
wh el
Ġkommun ic
vÃ¤r k
Ġpat et
Ġm and
ry cket
Ġdr ill
rev iously
A my
T el
Ã¤n ge
akt ig
ĠhjÃ¤r tan
ĠE asy
Ġk y
Ġh obby
ĠrÃ¤tteg Ã¥ngen
un i
ĠY e
ĠI van
ĠEm il
Ġklo kt
ett o
T V
Ġst ats
Ġlys ande
ĠmÃ¶tt e
Ġsure ly
ĠGri ffin
Ġhuman ity
edding ton
s es
qu ila
Ġlit ade
Ġd ikt
ĠK laus
Ġl at
ID E
Ġplac ed
Ġcan n
IT Y
as in
Al ice
Ġtr ib
ĠPr ime
ĠtrÃ¤ det
ĠG loria
ĠA z
Ne ed
Ġagent er
Ġb art
Ġing Ã¥r
if ying
ĠDe ad
Ġbesv ik
em ang
ĠU gh
ĠfÃ¶rtro ende
Ġbr un
reter are
ĠC os
D rick
ĠO VER
ĠfÃ¥ng ade
ri but
ĠL ion
g ate
ĠlÃ¤g ret
br idge
Ġ9 11
str Ã¶m
d og
Ġfac ing
Ġexp osed
Ġeffect s
Ġoxy gen
Ġback a
inn ande
Ġch annel
Ġg ut
as ier
Ġand e
ĠY EAH
Ġtra fik
ĠBr andon
Ġam mun
iga il
Ġev aku
W r
Ġf ian
Ġallt fÃ¶r
Ġcon ven
Ġuppf yll
Ang el
Ġe ur
Ġthrough out
Ġdeep er
Ġan ty
Ġmedic ation
Ġfle w
Ġtemper ature
Ad jÃ¶
ĠAl icia
Ġauthor ities
ĠM u
Pol ice
Ġfair y
Ġinstru ctions
Ġw ipe
Ġstra w
ĠtrÃ¤d gÃ¥rden
ĠEVER Y
oen ix
Lu ke
M ass
ĠB ring
Ġdom stolen
Ġry ska
Ġen klare
Ġskill naden
Ġdrott ningen
ce st
Ġkn ep
j ob
Ġinte l
ĠW alt
Ġinstit ution
Ġw is
Ġcook ies
Ġhig hest
Ġn ord
Ġimag ined
Ġverkt yg
Ġph il
Ġbrut it
Ġl Ã¤tta
uck s
ced es
Ġpro st
Ġkontakt en
ĠfÃ¶rhind ra
ell ow
ĠC ut
rÃ¤ff ade
ĠMajest Ã¤t
Ġw ard
Ġsl akt
ĠUn ion
ĠbrÃ¥ kar
Ġfro zen
ĠP E
Ġcust omer
Ġdri ft
ĠO d
Ġ8 00
G ary
H Ã¥ller
Ġab use
Ġun known
ĠHur ry
h istor
bl ock
Ġblack mail
Ġf o
Ġr Ã¤cka
Ġann iversary
Ġovan fÃ¶r
ĠC ameron
Ġtalk in
ek ul
Ġ3 8
5 5
ee ze
ĠfÃ¶rl ust
ĠO UR
Ġcheck s
uld er
ĠY u
Ġkrig are
Ġexperien ced
ĠM egan
Ġle ktion
Ġblock s
ĠanvÃ¤nd s
p in
Ġbl Ã¶der
mÃ¤n nen
Ġroy al
M ama
Ġqu ote
gg an
yr am
Sher iff
ĠK ill
Ġvis iting
Ġmor s
ape ut
ĠC L
Ġgri pen
abri ken
Ġbes Ã¶kte
va cy
Ġhand lingar
ĠÃ¥t gÃ¤r
vis ible
ĠS ammy
Ġemploy ees
on erna
Ġpl ain
ĠJew ish
Ġr ib
ct s
P ER
Ġwh ist
ĠN at
ĠO CH
sl in
Ġanswer ed
Ġassum ed
ĠWy att
A j
Ġb unker
Ġch aos
Ġher regud
Ġbut iken
ĠFel ix
ĠJan et
Ġtravel ing
Ġsty v
ĠI I
m atch
ĠfÃ¶rl Ã¥ter
str id
ed ro
ĠSte fan
C omp
ĠanmÃ¤l a
ĠrÃ¶ sta
ĠRyss land
ĠWH EN
J erry
Ġfem te
Ġbevis ar
Ġh inna
Ġsl ave
ĠT alk
Ġgat orna
ad ows
ats on
Ġkr asch
Ġu rs
S ave
u tter
Ġm os
Ġclass es
Ġutby te
D ave
l ist
Ġch ew
ĠsjÃ¤lv fÃ¶r
rÃ¤ de
ĠM ess
Ġt ugg
b out
Ġlau ndry
t et
Ġa ck
Ã¤r k
Ġfant asy
Mar ia
Ġt iss
ill ade
L Ã¤s
Ġtr ies
Back a
ĠT revor
Ġrek ry
it ate
uff s
Ġz oo
Ġprior ity
H ittade
ĠP ope
FÃ¶r r
ĠmÃ¥l tid
ĠM un
Ã¤st aren
ĠlÃ¤ pp
ĠDÃ¤r fÃ¶r
ass an
9 9
J obb
ĠAust in
Ġstri ct
Ġsk inn
ĠL au
Ġsol o
Ġanled ningen
Ġpass ager
ety der
Ġskil ja
ia z
be at
Ġautom at
Ġpro ffs
ĠC yr
Ġstund en
arr ett
P ress
ĠD rew
bol ag
l oyd
S ista
h our
Ġinv ented
K or
Ġjung le
ĠM IN
Tr ans
r Ã¤tta
Ġch auff
ĠkÃ¶ n
Ġcomm ander
ĠavslÃ¶j ar
Ġmin us
Ġn urs
app ar
ĠsjÃ¶ ng
mÃ¤st are
cu it
Ġcent ral
Ġpri vacy
Ġtom ma
Ġham mer
Ġattract ive
hÃ¶r t
ĠInd ia
H igh
Ġab du
Ġro ller
Ġsk og
Ġreason able
Cla ire
Ġp ile
Ġslog s
Ġfatt ade
T ryck
ĠB ible
Ġev ighet
ira cy
Ġmin net
ĠK ul
Ġcon struction
ĠBr on
Ġrapporter a
g t
Ġ3 4
Ġsw eep
Ġwonder ed
Ġst Ã¥tt
omp son
sk ont
Ġbr Ã¤nde
R en
ĠmÃ¤nnisk an
Ġdubb elt
ap ers
ĠkÃ¤nsl omÃ¤ss
ĠTok yo
B ur
Ġpro b
Ġel eph
R ock
ĠrÃ¶rel se
Ġskv all
r Ã¶r
Ġhop es
s Ã¤ker
Ġcir ka
y our
ĠrÃ¶ sten
ĠfÃ¶rsikt iga
ent in
Ġall ey
Ġfing rar
Ġnatur ligt
ĠfÃ¶rm Ã¶gen
G am
Ġpr Ã¶v
Ġord nat
F i
Ġstr uck
ĠfÃ¶rbann ade
sk al
Ġbr Ã¤nner
ab l
ĠAr k
Ġret reat
b orn
Ġk av
ist iskt
ĠChrist ine
ĠPa ige
ĠnÃ¤ sa
Ġune x
Ġca using
Ġp ra
ĠT revligt
Ġdat um
ĠfÃ¶r nu
Ġtyst nad
Ġot ur
Ġj unior
ĠV era
ĠGrand pa
Ġvess el
ĠEnter prise
ĠB aker
Ġwound ed
Ġsome place
Ġf ack
it ary
ĠJo an
b Ã¥g
Ġw rist
Ġby xorna
rÃ¤ da
Ġhalv Ã¥r
R ose
ĠfÃ¶r gift
ĠL ET
Ġar ter
Ġlu kt
Ġs Ã¤rsk
ch i
Ġdr agged
Ġfot en
or able
ĠÃ¶veren skomm
ĠN ah
ĠK er
Ġstud era
Ġser ving
ĠDe ath
ĠÃ¥ter h
Ġgiss ar
c at
Ch ief
l Ã¤kare
spel are
Ġp ardon
ĠN atalie
ĠÃ¶ver dri
Ġdej tar
Ġintern ation
ul f
Ġp uck
Ġunder wear
Ġsw allow
ĠFuck ing
ĠfÃ¶rvÃ¤nt ade
Ġinjur y
Ġcrimin als
Ġen orma
ĠB al
ĠN er
int on
2 4
Ġsk etch
ye ong
F all
ĠL an
Ġreg iss
Ġen vis
t as
Ġhe ck
B C
ĠG ibbs
Ġdr ank
Ġammun ition
G osh
Ġ3 1
ĠH ot
Ġa verage
im o
Ġkross ade
Ġnav ig
Ġdetermin ed
ĠF ull
ĠBr id
Ġdist rikt
Ġunivers ity
mÃ¤st aren
ĠAbsol utely
le ans
ol ycka
ĠR ow
ske pp
Ġconf lict
Ġb ene
ĠI d
ĠMay or
ĠMar co
ĠMir anda
ĠN ev
ĠV arsÃ¥god
Ġal iens
Ġgr Ã¤ns
Ġin ject
ĠM Ã¥ste
um ret
Spe c
Ġpl att
Ġtr on
ĠJ in
ĠF A
Ġosk add
w est
Ġr osa
Ġterrif ied
Ġfr idge
Ġkor v
Ġjew el
Ġdel ade
ĠlÃ¥ d
Ġkart an
Ġsl Ã¤ngde
For give
ĠgÃ¤ng et
Famil jen
p ool
Ġsk ry
Sh oot
id i
Ġsv amp
j uset
ang o
Ġd ome
Ġfr us
Ġor m
Ã¥l en
im i
Ġcover ing
Ġknull ar
ĠS ar
Ġinfe ction
tele f
ĠM ack
Ġsh y
ĠmÃ¥ la
Ã¶rel sen
ĠMan ny
Ġimpro vis
un ning
Ġun ion
ĠrÃ¶ ven
g jort
ĠWOR K
Ġmisslyck ades
w orld
Ġli ver
ĠD AY
ipp i
ĠSome body
Ġreve al
ĠP ost
Ġdr as
Ġmete or
Ġr ast
le et
Ġm att
id d
ĠK ir
iss y
Ġbas en
ĠCa esar
Ġtriv s
ĠAlf red
Ġ _
Ġpost ed
ĠAT T
J ay
on ent
Ġj am
Ġtid ning
ah l
out her
Ġunder cover
f Ã¶lj
Ġgl ory
ĠSte lla
Ġadv okater
ĠFre ddy
ĠBenn ett
ry stal
ĠS ad
Ġtill gÃ¤ng
Ġinvol ve
R y
Ġkl ant
st ationen
hand ling
J ose
Ġsk o
ĠK itty
ĠvÃ¤ xt
ĠA D
ĠD U
Ġste pped
ĠBeck y
iz a
ĠHer re
R um
ĠD I
Do ktor
Ġob jekt
Ġsm ink
ĠCl ara
Ġimpro ve
Ġmeet ings
d oor
ĠT E
ne ys
ĠTra cy
ĠÃ¶ det
Qu ite
el ve
Ġtr ist
var et
ĠCol omb
ĠÃĦ l
ĠDis ney
Ġvulner able
ut ers
Ġdyg net
Ġfir ing
Ġspr Ã¤nga
Ġgett in
j in
Ġvar nade
ĠB est
ĠVer onica
Ġm amman
ĠC D
sp ekt
Ġequ al
D ag
ĠH ade
ĠMar ch
Ġgovern or
f ree
ĠG a
Ġfor bid
Ġut pl
Ġco ca
Ġimm ig
Ġse qu
inn ie
ĠGl enn
ĠM ycket
2 3
Ġt ant
ĠAll ison
Ġpapp ers
Ġj an
ull ivan
my nd
ĠOr leans
n ame
vis ning
Ġnatur en
Ġpresent ation
ĠÃ¶n ska
MÃ¤nnisk or
Ġf Ã¤lt
st ren
Ġvak ter
Wal ter
ĠH ad
Ġover whel
ĠRand all
St or
Ġd er
ĠkÃ¶ k
Ġsnabb a
h on
Ġf urn
ri et
ĠW ednesday
Ġfal sk
Ġdevelop ed
Ġmilj Ã¶
Ġcere mon
Ġsc out
Ġfatt ig
Ġghost s
Ġbut ik
am tal
Ġant ib
N Y
ĠWe b
Ġma id
Tur ns
ĠWell s
Ġir riterande
Ġl Ã¶jtnant
Ġscient ist
Ġrev ol
Ã¥ de
Ġv Ã¤ster
ĠD OWN
ĠfÃ¥n ge
Ġje ans
m att
ĠM ath
ĠCamp bell
ĠAnton io
Ġf ifth
Ã¶j liga
roll en
it ure
ĠrÃ¤dd at
Ġbevis en
ĠNick y
Ġtool s
ĠvÃ¤rdel Ã¶s
d Ã¶rren
eral d
ĠLa uren
Ġprins essan
Ġd awn
ĠN avy
ell s
Ġkont anter
Ġstab bed
ll e
ĠM ED
Ch uck
Ġlov at
Ġcom in
Ġbal ans
v ig
Ġp urch
Ã¤m nade
Ġpan el
c en
ĠH op
ud ing
ĠTHE M
Ġhold s
Ġmej l
im ents
Ġand etag
Ġav talet
Ġsm iling
v Ã¥rd
Ġh orm
Ġbomb s
fil mer
Ġme as
m es
Ġtr amp
qu is
ro v
ĠDam on
ou ps
ĠK el
ĠtÃ¥r ta
Ġbli xt
Ġimag ination
ĠLes lie
Ġpl ugg
pect ed
Ġthreat ening
Ġlej on
he y
ĠgrÃ¤n ser
Ġloj alitet
Ġhind rar
Ġambass ad
av delningen
Ġtra itor
skap en
ĠMa e
Ġlaugh s
ĠLaw rence
re pp
ly de
Ġmus cle
g Ã¤ld
ĠC EO
Ġverk lighet
Ġpopul Ã¤r
ĠC T
Ġexist ence
Ġkons ert
S ist
Ġbud d
Ġcapt ured
b und
m id
Ġexp ed
Ġrel ief
Ġbeg ick
Ġinl Ã¥st
ĠP ablo
ron ic
D E
Ġsamarbet ar
ĠR osa
Ġhop efully
Ġvar dags
Ġind ian
ĠAbsol ut
Ġk alk
Ã¶rd u
Ġuppt Ã¤ck
Ġbety g
Ġdin osaur
Ġnar c
fr ont
Ġofta st
Ġbr anch
D am
Ġf itta
n Ã¤st
ĠB lair
ĠSt or
ĠBr other
Cl ose
n k
Ġj o
ĠCh ad
quar ters
Ġenorm t
Ġb ay
Ġr aka
Ġsh ed
Ġst amp
ĠV isa
Ã± or
ĠÃ¥klag aren
ĠO AK
St opp
ĠHen nes
Ġdis miss
Ġroll en
Ġbesk riva
Ġkyr ka
ĠShel don
Ġbo stad
Ġposs ession
Ġk atter
ed e
Ġbit en
Ġreck on
Ġstat en
ĠHawai i
B Y
ĠW ork
Ġtitt at
Ġkrig s
Ġfest ival
Ġgri ef
Ġsnygg t
ent on
Ġbit s
v okat
Ġskydd ade
S aker
oun ter
ĠH Ã¶g
Ġcon qu
ĠJ r
ĠkÃ¤ ft
ĠsÃ¤l j
Ġobe kv
Ġatt ity
Ġre un
ul pt
Ġp owder
ĠvÃ¤l kom
Ġd aughters
Fr Ã¥gan
Ġmask inen
Ġl un
ck erna
ĠAtl anta
ĠA sk
Ġstr ing
oj ar
Ġwor ries
Ġconf ront
Ġskad at
Ġfamil je
L ock
Ã¤r d
Ġinbjud an
ĠM AR
ĠH ills
ep s
Ġsignific ant
Ġf ula
Ġsats a
Ġpr ime
ĠÃ¶ va
Ins pekt
Ġpartic ip
Ġcommer cial
sk om
Ġjur yn
amm en
Ġpubl ik
Ġastron aut
M Ã¶rd
lÃ¤g e
Ġinterest s
ĠdjÃ¤v ulen
And re
Ġm iste
Ġhalf way
Ġansikt en
ĠB efore
ĠÃ¶ver s
Ġlok ala
ĠN av
Ġjul en
ĠfÃ¶rÃ¤ld rarna
Sla ppna
Ġabsol ute
ĠS ide
Ġgo ss
ĠD utch
Han na
Ġbrut al
Ġa thlet
ce y
Ġp ing
Ġsmart a
Ġhy per
st able
ITT LE
ĠEl vis
G onna
Ġt an
Ġfight er
ĠB erg
SÃ¥ ja
Ġlid ande
Ġtel ep
Ġtraged y
Sp elar
N ARRATOR
Ġc m
Ġop ens
Ġslipp ed
Ġskratt ade
Sk Ã¤r
Ġsent iment
m ak
ge fÃ¤r
Ġpast or
ĠfÃ¶rÃ¤lsk ad
Ġsl ita
Ġupple va
as per
Ġsy d
ĠtrÃ¤n ar
ĠhÃ¥l et
b est
Gra b
Ġinvol ver
ĠF ern
ans on
ĠSam antha
Ġang Ã¥r
Ġlo gg
au de
Ġsn uten
Ã¶d ra
ĠfÃ¶rbl ir
Ġd itch
Ġlj ugit
Ġex ists
ĠRo om
ig el
Ġtherap ist
Ġty ng
h oo
ĠMex ican
Prat ar
Ġjack a
Ġassign ment
Ġp ages
Ġtem pt
L yck
Ġb Ã¤ste
Ġn ark
Ġbes l
Ġill usion
Ġport al
b ann
En g
ĠgÃ¶m t
ĠR ain
Ġtest imony
H aving
ĠOAK LEY
Ġsp it
Ġvag ina
Ġvo ices
ir m
Ġav sky
ĠP ick
Ġpl ants
Ġoff ren
Ġsc ale
ĠLug n
il ot
Ġpsych iat
Ġmiss bru
Ġdes pite
B ull
ig i
Ġsaf ely
Ġdel st
Ġmach ines
ĠS lo
an ut
ĠP erry
ĠDet ta
ĠÃ¶ver st
Ġche at
ad der
Ġfl Ã¤ck
Ġrepresent erar
Ġepis ode
Ġinfe cted
Ġcrit ical
Ġbarn vakt
ĠfullstÃ¤nd igt
ĠT ara
Ġsu cc
God damn
Ġdrag on
ĠT ELL
Ġcy kel
Ġyo ga
E xt
ĠD Ã¶d
ĠD allas
Ġtillb aks
Ġprof il
Ġadd ict
Ġkost ade
ĠDoes n
ĠBern ard
Ġprodu ction
Ġa ward
ĠH AS
ust y
Ġher oes
An n
ĠPh oebe
op ath
ĠW onder
Ġty per
ut ar
Spe cial
Ġklient er
Ġkorrid oren
Ġdem ons
Ġass holes
gas ps
Ġde prim
Ġne st
ĠO H
irst y
D ER
ĠF oster
Ġperson lighet
E ight
ĠofÃ¶r sk
Ġand re
Ġslut s
Ġres ign
Ġarrang ed
Ġk ongress
Ġdest ro
Ġment or
j am
ĠhjÃ¤l pen
Kvinn or
ĠH u
fÃ¶r tiden
Ġdri ves
S es
is se
Ġste el
ĠC urtis
ĠnÃ¤r varande
Ġrapp orten
Ġm aff
ĠR af
Ġschool s
Le on
Ġpsych o
in erna
Ġw arehouse
fÃ¶r etag
ĠdrÃ¶m t
ĠkÃ¤rlek s
Ġcreat ive
Ġrequ ires
Ġkamer or
ĠP iper
Ġkl Ã¤dd
ys on
ĠSen ator
Ġsk edde
Ġverk samhet
Ġp ipe
Ġst av
ĠhÃ¶g ra
v t
ĠS ounds
Ġconstant ly
Ġapp ropriate
ĠNe xt
ĠS Ã¥g
ĠD irector
Ġpar as
Ġn acken
ĠÃ¶ ster
Ġattach ed
f y
ĠH ouston
Ġkra ften
Ġton Ã¥r
Ġcomp ass
f Ã¶ll
Ġs ets
ĠP oint
ĠHer ren
ĠsÃ¤ k
Ġp ic
Ġfian cÃ©
f Ã¤lt
Ġcommun ication
sl or
Ġinvestig ate
ĠNE W
Ġwar p
Ġor g
Gu y
Ġrelig ious
AS A
ĠbrÃ¶st et
ok oll
ĠEv ans
Ġs oda
Ġoff ra
ĠAr chie
ĠJ i
Ġbl ah
Ġag es
Ġsatell ite
ĠBr uno
ID S
Ġpremi Ã¤r
Ġt ons
om ic
Ġcoca ine
Ġd jung
Ġp enny
Ġnear by
Ġh es
v and
akes pe
ĠJul es
ĠIt aly
Ġ2 50
TH IS
Ġt u
Ġsn iff
Ġrab bit
ic ip
ĠMor ris
ĠBe ar
ĠborgmÃ¤st are
Ġimponer ad
Ġd ough
Ġpat rull
ĠMa ur
Ġteleph one
ffic ient
Ġme asure
Ã¤r are
ĠC re
ĠK ling
ress ant
Ġdri ck
per ing
ĠTh ompson
Ġly x
Ġbe ard
ĠV Ã¥r
Ġpres ents
ĠsÃ¥ ra
ĠW AY
os ure
Ġbor gen
Ġsorg ligt
Ġutman ing
Ġd rev
an er
Ġbest Ã¤llde
Ġstick s
ĠCass ie
Ġwar rior
Ġtest ed
F L
Ġp Ã¤r
ĠF ick
ĠfÃ¶rs en
vis ar
Ã¶k an
Q ue
ow ell
Ġmatch ar
ĠCol umb
Ġs Ã¤nka
pr om
ĠMin ns
Ġskil jer
Ġtreat ing
ĠkÃ¤ns lig
ĠW ol
ĠMad ison
w ight
ĠM as
LA UG
Ġstr ids
Ġcolle ague
Ġh atch
Ġr ida
Ġan ta
Ġstar ving
Ġbarnd om
re kt
um es
ĠmÃ¥ tt
i j
Ġmatch es
Ġkontroller ar
Ġr att
Ġsp Ã¶ken
L ucky
Ġjump ing
Ġspark ade
I stÃ¤llet
ĠT op
ĠF ortsÃ¤tt
Ġtj ugo
Ġrec o
Ġsh ine
Ġgr Ã¶nt
Ġs i
Ġsa fer
ul ous
And as
ĠK atherine
ĠW ere
Ġrequ ired
Ġr ose
Ġav anc
7 5
Ġmisst Ã¤nker
Ex akt
ĠÃ¶vert ala
D ig
ĠCar men
Ġforsk are
ĠD C
ĠN iles
Ġsna p
ĠJud ge
ĠN ap
B a
tal ade
ĠB everly
Ġse al
Ġcon ce
Ġclose st
Ġfatt iga
Ġlung s
Ġen het
rib ution
B ilen
ĠN ash
IL Y
I gÃ¥r
Ġ eth
ĠS ister
Ġman ifest
Ġno ble
ĠlÃ¤ s
Ġdrag it
Ġdefend ant
Ġstol thet
Ġbeslut et
Ġidiot en
N umber
ĠHe ctor
or in
Ġak ut
ĠskÃ¥despel are
Ġis Ã¤r
ĠL ar
Ġdist rict
l on
Ġr ats
Ġkv al
ĠB os
ĠL ITTLE
ĠSp ock
Dr ink
Ġless ons
Ġextre me
ik al
st ift
Ġr age
Ġfatt at
W O
ĠRich ie
Ġbilj ett
outher n
Ġto ys
ĠSpa in
ĠF ast
Ġth y
ĠF all
Ġown ed
Ġmed ium
Ġstr angers
Ġeleg ant
Ġfl od
Ġnorr ut
ĠmÃ¶j ligheten
gru ppen
K Ã¤nns
Ġdam aged
J en
h ard
FÃ¶rs iktigt
Ġst ates
Ġtors dag
Ġl aser
la ins
vÃ¤ ska
Ġj azz
Ġpay s
Ġemploy ee
Ġr ode
ĠR Ã¶r
Ġdamn ed
Ġcolle agues
Ġmyster ious
Jo ey
al u
Ġsov rummet
g ood
Ġk it
tt ar
ild ing
Ġres urser
L arry
Ġin visible
Ġafter wards
Ġvil ar
Who o
HÃ¤r ligt
Ġmax im
Ġsl Ã¤nga
Ġtving as
I morgon
ĠL ab
Ġring ing
Ġst Ã¶t
Ġbel oved
ter ing
ic ity
Ġann ans
Lo va
Ġr ang
Ġe k
ĠValent ine
Vem s
ĠP u
ib ilities
Lu cy
t is
or p
ĠN ope
Ġtal ented
Ġfe eding
Ġors aka
ĠhÃ¥rd are
tement et
ĠI ran
Ġlikad ana
Ġabs or
Ġspecif ically
sc reen
Ġso ber
Ġbook ed
Ġha unt
Ġhe av
sk orna
Ġuppd ater
ĠM ount
ĠL ena
Ġcount y
Ġquestion ing
ĠfÃ¶rnu ft
d Ã¤r
h jÃ¤r
sk ola
ĠPe ggy
ĠfÃ¶rstÃ¤r kning
H o
ull a
ĠÃ¤lsk are
ĠComp any
Ġp arl
ĠCh a
Ġfool ish
Ġber edda
ell o
Ġpers u
Ġl as
ĠmÃ¶t en
ag ra
ĠB oss
k od
Ġhy ster
ĠSk it
Ġquar ters
Ġber get
Ġspe geln
Ġsh o
Ġbrott splatsen
Ġneck lace
Ġp ann
Ġany time
Per fect
Ġsh ark
ĠdÃ¶r rar
Ġbur st
s le
Ġmo tel
Fantast iskt
kvar ter
ĠC are
Ġbo te
ĠSer ena
Job bar
c cer
ĠC leveland
ou red
ĠEll ie
Ġprev ious
u z
iz er
Col onel
land et
r imin
Ġhar ass
ga cy
Ġsl ide
Ġcount ries
Ġrob bed
C her
Ġli on
ro it
F TER
ick ar
ul era
ĠÃ¤ pp
ĠBar ney
Ġwe bs
Ġcommit tee
Ġgar aget
ĠA ren
Ġmom my
Ġinvest ment
in as
Ġoper ations
Ġnar row
Ġhelic opter
Ġen bart
Ġsol ved
Ġdep ression
ĠIr ish
Ġt upp
Ġtung t
Ġsa cred
Ġpot atis
Ã¤ ver
Ġwith dra
kt iga
ĠU tan
Ġsn ett
Ġavund sjuk
Ġp uls
Ġk irurg
ĠMen ar
Ġkung ar
Ġsheriff en
ĠS andra
Ġsam las
else a
Ġl ame
ia o
Ġors akar
Ġlin je
r d
Ġr ipped
ĠC arson
sl ed
Ġent ry
ĠV erkligen
Ġy ards
Ã¤tt are
ĠME AN
R esten
bet al
Ġbeat en
ĠC ab
in stein
Ġste ady
Ã¶ dd
Wh ite
Ġutnytt jar
ac o
Und rar
Ġconcer ns
N athan
Ġaw ait
ĠNÃ¥g ra
Ġst ig
Ġsn usk
Ġinjur ies
Ġfor ens
f Ã¶d
Ġdri ven
Ġinbland ade
ĠanvÃ¤nd as
Ġr ice
t wo
Ġm Ã¶nster
Ġworth y
ĠfrÃ¤m st
arsh ip
er ings
Ġl Ã¤cker
Ġsuggest ing
P A
ant is
ma ster
Ġinv itation
Ġel ef
Ġstor age
ĠBro oke
ĠdÃ¶tt rar
P reviously
Ġk atten
ĠPr etty
l ov
Ġb ind
C ass
Tj ena
S HE
Ġmen u
ĠG ard
hav are
h h
Ġbuck et
R et
ĠP arty
Ġrock et
Ġprodu kt
ĠT ower
ĠV is
N ar
M ick
d otter
ĠC alm
un ta
Med del
im s
ĠBr ady
z ona
Ġk akor
ĠBr enda
Ġserv it
st ock
Ġph ase
Ġsc ru
Ġbother ing
h jÃ¤lp
ĠF isher
ung ar
Ġworry ing
K ids
Ã¤tt e
Ġcreat ing
Ġrym de
Ġp ad
ĠSt ation
ĠTr ust
Ġvar ma
amm aren
Ġbrud en
ĠB ang
fr Ã¥ga
ĠgÃ¥r d
Ġcal cul
I ES
k illen
ĠB ol
v ade
ĠBat man
Ġslight ly
Ġvar elser
ab by
ĠTr ans
Ġpul se
ĠB yr
miss ar
pp e
ĠH m
ĠE van
og le
Ġtest ar
ĠAdam s
m ic
Ġgr oups
ĠfÃ¶rber eder
Ġhot ar
Ġamb ition
v as
re h
ĠpÃ¥ h
ĠL iber
Ġsu ga
Ġex hib
Ty dligen
ĠT ess
ĠP ay
ĠlÃ¥t ar
Ã¤k ra
p es
Ġant og
Ġintress erade
F ÃĸR
JÃ¤v lar
Ġbatter y
l Ã¤s
st Ã¶r
ĠF ind
cept ion
Ġche ated
S Ã¤ker
b omb
ĠT AKE
upp e
Ġsn or
ĠlÃ¤ng esen
ĠC up
el d
Ġdiv ision
Ġeff ective
Ġdisk ret
Ġst ubb
Ġpolit ik
ĠhÃ¤st en
N orm
st ance
Ġfe ber
ci o
ĠRe ggie
Ġinform ed
ĠK ath
ain ed
Ġpapp an
ĠB L
Ġtj all
stra ff
ĠT Ã¤nker
Ġbud skap
c ine
ĠRe ed
Ġf ract
Ġy og
ĠC aleb
ĠH amilton
Ġkor ta
Ġgull ig
Ġdem okrat
Ġble ed
Ġpal ace
Ġsu ff
Ġpers pect
ĠbrÃ¥k ade
Ġkork ad
Ġb ait
ĠpÃ¥ bÃ¶rj
ric ia
ĠSer iously
ĠMo ore
B R
ing ly
Ġact ress
Se an
Ġskjut it
let ter
Ġuppsk atta
bry t
Ġd aily
Ġr ost
Ġnog gr
Ġglo ves
Ġdo l
Ġad jÃ¶
Ġrym ma
ĠDun can
ĠC ur
br anschen
Ġkys ste
Ġste ak
Ġtw ins
Ã¶ser i
r od
ĠA ct
ĠE s
ing u
ot hing
ĠC ALL
Ġcount s
Ã¤ns le
B art
u ous
op ed
I Z
Ġl Ã¤nder
Ġbu zz
Ġsch ol
Ġvans inn
ik ar
gr ammet
Ġgiv et
adel ph
r ase
ĠtÃ¤v la
Ġpre scri
Ġcomb at
Ġupp rÃ¤tt
ÃĦ nda
oll o
ĠShe pherd
Ġrid er
spr Ã¥k
Ġsn ubb
ĠmÃ¤nsk ligheten
Ġh ugg
Ġun c
ĠG am
ĠtrÃ¤n are
Ġstann at
F ader
Ã §
le en
J ud
ĠOh io
Ġbur den
Ġtelef ons
rÃ¥d en
Ġrepa ir
Ġavst Ã¤ngd
Ã¶ ket
or erna
Ġg ir
Ġcatch ing
ĠrejÃ¤l t
Ġv est
Ġc av
ĠP atty
Ġcock tail
Ġf ett
Ġlab b
H all
ĠO p
Ġshock ed
T Ã¤nkte
Ġsky lla
ĠDID N
ĠA dd
any a
okus era
Ġfrust r
ĠorÃ¤tt vist
M aster
n ic
St Ã¶r
ĠH ugo
ĠT iff
Ġconsp iracy
B rad
ĠS ig
Ã¥r den
bild er
Try ing
Ġtill verk
ĠCl iff
Ġ19 5
L ee
m ind
Al an
Ġterri bly
ĠItal ien
Ġmy th
Ġgr Ã¥
Ġsv aga
l oss
ed ge
ĠG ust
Id iot
f ot
Ġs ar
Ġstru cture
Care ful
k all
Ġbow ling
ĠTur k
nold s
ertain ly
Ġhom eless
Ġkn ipa
ĠV id
Ġstrugg ling
Ġtast es
Ġattack erade
Ġcons cience
Ġdeser ved
Ã¤ld e
Ġstick ing
P L
No g
ĠstjÃ¤rn orna
ad ern
Ġsk ett
sch ool
ĠWh oo
Ġcol ors
v on
ĠK ara
ĠÃ¶ver d
ĠDaw son
Ġst imul
Ġpay ment
Ġliv rÃ¤dd
Ġsk aka
ĠC AR
Ġsympt oms
Ġf Ã¥ngen
ĠG ill
Ġnyck lar
Ġtempor ary
G R
Ġsym pat
ĠgrÃ¶ ns
ind el
Ġolyck an
g al
Ġretur ning
au x
el ett
Ġdream ing
Ġny kter
ĠfÃ¶rh opp
Ġh jul
Ġgar an
Ġarr ange
te xt
ĠF at
ell ed
Ġtiss ue
ir ley
ĠB alt
ĠAc ademy
Ġbene ath
Ġrum pa
ĠklÃ¤tt ra
Ġdis play
um in
Ġgr id
Ġfight s
Ġst unt
Ġpl ates
Ġreal ise
Ġgran nar
ĠF ab
Ġmeddel andet
ĠCh en
ĠFl ash
Ġident ified
F e
ĠstÃ¶tt e
Ġd ive
ven ser
qu ir
ĠSqu are
w alk
Ġlo bby
force ment
Ãħ R
oc o
Ġmin i
Ġdis respect
IF E
Ġf its
Ġr abb
ĠB ush
ĠW ard
Ġkon spir
ĠAfri ka
O fficer
ĠstÃ¤nd igt
ĠpÃ¥ stÃ¥
Ġdestru ction
H uvud
OU N
Ã¶t et
ĠblÃ¥ ser
ugen e
Ġpo olen
Ġshould ers
Ġter api
ĠtjÃ¤n ade
Ġpleas ant
ĠRos ie
Ġv Ã¤cker
Ġbeh ave
Ġotro liga
Ġprop ose
in ch
Ġwor ker
H y
v agn
Ġkej s
ĠK end
Ġcapt ure
R ub
Ġlab el
ĠBur ns
yn th
, ...
P op
ĠvÃ¤r st
ĠCon nie
ĠL is
Ġo j
ĠF ound
kn ow
Sna bb
ĠC ad
Ġgro cer
ÃĦnd Ã¥
akespe are
Ã¶ ld
p engar
sy stem
Ġsing er
Ġst iger
ch ant
M akes
n yck
ĠBur ke
Ġcivil is
Ġkamp anj
ĠJav isst
ĠJ Ã¤v
bol aget
Ġk issa
ĠlÃ¤ ke
B etyder
h en
un na
eng ers
B oss
c ers
ra ck
ĠW ind
B it
Ġe uro
Ġli ck
ĠSh ar
ĠÃ¶k nen
F O
Ġry kten
Ġskj ort
ĠsjÃ¤l ar
ĠR ory
Ġinkl usive
ĠD er
ĠK am
orter s
F OR
lu de
Ġog illar
Ġd yra
ĠA ma
un ction
Ġcra ft
HE Y
Ġgang ster
Ã º
B S
ĠH od
man tel
go ing
Ġk oden
ĠAnd ers
Lou is
Ġrum ors
Ġsats ar
ĠJo el
f Ã¤ltet
ĠfÃ¤rd iga
Ġtoal ett
Ġadd ed
add le
S I
Ġc ongratulations
ĠT itan
Ġneed le
aff e
Ã¤ x
id el
vÃ¤ xt
Ġdress ing
ĠNÃ¥g on
ĠmÃ¥l tav
ĠlÃ¥ts ades
Ġantib iot
H uset
S us
ĠL ucky
Ġhopp et
Ġpray er
Ġtransfer red
E at
Ġ9 9
. -
h s
Ja pp
Ġtra iler
ub s
Ġir re
ĠM ORE
OD Y
ĠSt ark
Ġassass in
er ats
Ġm era
ĠfÃ¶rl Ã¥telse
br and
ĠfÃ¶rf Ã¶lj
g od
Ver kar
Ġk os
iss ioner
Ġcont ra
M ENT
er ta
Ġgill at
r ans
amp an
Ġinter nal
Ġprodu ce
ad ers
Ġbeing s
ĠSyd ney
er ie
ĠP ak
ĠP ower
ĠCh ang
ĠsÃ¤s ong
ĠL ay
Do c
ur ies
ĠC rist
Ġprom otion
W ake
Ġn ack
Ġch amber
ĠDe bbie
ĠZ ack
ĠWin ston
ĠB ri
st age
Ġund ant
K asta
Ġkv Ã¤v
Ġmajest Ã¤t
Ġsk ugga
ĠlÃ¥ s
Ġrel ie
Ġkvinn liga
Ġare as
ĠJust ice
Ġexhaust ed
Ã¥r et
Ġsp anska
Ġfl it
ĠfÃ¶rhand la
Ġfin est
Ġupp er
ĠdÃ¶ mer
M aggie
Ġf eder
ĠÃ¥ stad
Ġbeund rar
Ġdiscip lin
ĠR aven
ĠK ry
h ill
ĠThe o
Ġbar rel
ĠstÃ¶ tta
Ġinv asion
Ġfurn iture
Ġun believable
Ġpop corn
iner ande
ĠvÃ¤d ret
M od
Ã ł
id ers
th ere
Ġsv Ã¤ng
Ġroom mate
Ġfright ened
AR A
ĠBarn es
ĠJew s
st opp
ĠjÃ¤v larna
Ġbar be
Ġfing rarna
ĠÃ¤g de
Sm art
Ġhan terar
N ik
P ete
ĠT ALK
Ġmet a
Ġrecord ed
achel or
f em
re sh
Ġfuck er
sh ine
Ġb ark
bil j
Ġslags mÃ¥l
Ġvild a
Barn en
Ġwra pped
U H
ir it
ĠN umber
F y
Ġlook in
Ġand el
Ġpro vet
sh ire
ĠfÃ¶rbl i
Ġavbry ta
adelph ia
Ġw aves
ĠB es
Ġta ct
ĠPh oenix
Ġoccur red
ĠD ist
Ġors aken
Ġfilth y
ĠhÃ¤r lig
ortun ate
Ġgr Ã¥t
Ġmar ijuana
Ġdec lar
itu ation
Ġvar g
ĠM Ã¥r
ĠG Ã¥r
And rew
Ġoper ating
om ed
ĠI ris
Ġdev ast
ĠDor othy
Ġgott gÃ¶ra
Ġvak terna
Ġbesk riv
ĠskÃ¤m mas
m ons
oc al
ĠStew art
Klar ar
d ro
p olis
Ġman agement
Ġal though
Ġem bra
T ING
Ġspr ider
ĠDev il
Ġtis dag
K Ã¤nde
Ġe ase
ist ers
Ġfl agg
OM AN
E nda
Ġwh eels
Ġdim ension
k ind
ĠI ce
Ġbe ans
Jul ia
C oll
Ġtom ten
pun kten
Ã £
ĠO x
ĠF Ã¶lj
Ġas sem
ĠtillhÃ¶r de
Ġs Ã¤nder
Ġmob ile
Ġers Ã¤tta
burg are
Ã¤m par
ĠsÃ¶ kt
Ġtving ades
Ġamerikan er
Ġperspect ive
RE AT
ĠS in
ĠMar c
ĠAl ison
ÃŃ n
w all
Ġhand ed
ys st
ter ad
Ġch op
Ġobe hag
3 00
is ch
as ant
Ġkan al
Ġpl ugga
ob el
ĠGold en
J oh
ĠV ol
Ġsna cks
Ġtillf reds
VÃ¤l j
Ġlim ited
Ġ 00
Ġid rott
Ġmight y
Ġeng agement
Ġduss in
Ar bet
Ġdott ers
Ġlo op
Ġad ren
G O
Ġcut s
Ġarbet at
hopp ningsvis
Ġn Ã¤st
Ġthe e
ĠR eddington
ĠvÃ¤ t
Ġass es
Ġsl aughter
var ar
ĠFr ances
Ġ4 4
ĠH im
Amer ican
Ġvinn are
S upp
Ġsh orts
ĠW atson
B arry
k Ã¤r
Ġw a
ĠC ongress
ĠhÃ¤nd else
Ġdrink ar
ĠstÃ¶tt ar
Ġaggress ive
Ġt Ã¥rt
Ġd ated
ĠHal ey
N ummer
Le o
Ġg or
ĠGovern or
G anska
Ġk ab
Ġfree ze
Ġbase boll
Ġt its
Ġbekym mer
ĠCir cle
Ġs oph
ĠO mar
Ġscen ario
ĠHA PP
ĠB ir
Ġinter f
ĠSecret ary
Ġn igger
Ġhook ed
ĠavgÃ¶r ande
Ġle ague
Ġplan era
rÃ¤ff ar
ĠCra w
Ġtve kan
Ġt in
Ġlo pp
Ġthr one
Ġlever ans
Ġsend s
sm Ã¤n
Ġpig s
Ġco ke
Ġmord en
Ġpred ict
Ġa id
Ġatmos phere
ĠM ost
Ġpro ven
Ġag enda
vÃ¤r da
Ġw ives
Ġlin jen
Ġst am
P ay
Ġf usk
Ġfinger prints
H Ã¶rdu
Ġact s
Fly g
F T
h ur
ĠW ars
ĠSp ace
Ġkomm ande
Ġoer hÃ¶rt
kar l
Ġposs ess
Ġapproach ing
S ak
Ġsit s
Ġuniversitet et
H am
pr int
Ġtel eg
Ġg in
pt en
Ġva ult
w on
ĠK le
Ġtra kass
ĠCru z
ĠfÃ¶r rÃ¤dare
att s
Ġfle et
erm ine
ĠmissfÃ¶r stÃ¥nd
ĠS ullivan
Ġav tryck
ĠÃ¥tervÃ¤nd e
Ġgrant ed
L ING
ĠD um
Ġso ccer
Ġback wards
Ġrem arka
ĠfrÃ¤m lingar
Ġtv Ã¤rt
Ġspr ida
Ġdeb ate
h Ã¤ng
ĠB and
Ġinsp ired
Ġflask an
Ġtur key
Ġarm arna
Ġpolit iker
m oon
Ġl ind
Ġint ryck
ĠdrÃ¶m men
ĠmÃ¶r ker
Ġcompl iment
ĠHolm es
M ine
P ier
Ġg Ã¤llde
ĠM oss
ĠSOME THING
ĠBeh Ã¶ver
U LL
Ġon s
ĠEd gar
s ug
Ġteach ers
Ġfab ric
Ġform al
Je an
Ġkredit kort
d i
M ade
Ġstr ider
Ġsusp ic
ĠR ol
ĠMer edith
ĠP ur
Ġposit ivt
Ġstir rar
ot y
ff Ã¤r
ĠK ev
Ġdevelop ment
ld a
ĠD oyle
ĠWE LL
ĠÃ¶vertyg ad
us ions
AG E
Jam ie
ĠS ep
ann ed
Ġdetalj erna
le g
ĠA pp
ÃĦ L
klag aren
Ġresult atet
W il
Ġprote in
ĠCon rad
W omen
ĠI ll
od Ã¥
ĠTer esa
Ġradi ation
K ing
Ġp ace
Ġdra wn
Ġdju pare
Ġwash ed
Ġunh appy
Ġtill Ã¤g
ĠLu is
g na
ĠD ea
ĠMar io
Ġshort ly
Ġkidnapp ing
Ġse p
vÃ¤g s
Ġfree zing
Ġtill Ã¥telse
ĠovÃ¤nt at
ĠF ed
ĠgÃ¥ng s
Ġdream ed
b oth
Ã¤ck ande
ump or
sam heten
sla pp
ĠTy st
JÃ¤tt ebra
Ġupd ate
ĠO ak
Ġloj al
ĠÃ¶ ka
Ġbebis en
Ġk g
Ġsort ens
Mom my
Ġhiss en
ĠblÃ¥ sa
Ġmust n
Ġno lla
THE Y
Ġbl ows
Ġ ÃĦven
Ġp yram
ĠT el
itch es
Ġuttry cka
ĠPaul a
ĠI V
ik at
R am
Ġt ube
Ġso cks
ĠComm and
H ands
ĠstjÃ¤r nor
Ġdram atic
iz ard
Ġro ot
Ġinf l
Ġly fter
kvÃ¤ll en
Tid igare
f art
it able
ĠT j
Ġbak l
Ġoper ate
ĠAfri can
Ġhelik opter
Ġpl ug
Ġpu ppy
re j
ress ing
Ġdra ft
Ġexplain ed
Ġjul kla
Ġdet ermine
ac ity
Ġf oul
fÃ¶r ing
Ġbless ing
ma ils
ip end
ĠsÃ¥r ade
ĠDoug las
Ġungdom ar
L eg
ast or
ĠLug na
Ġnu fÃ¶rtiden
ĠVi olet
Ġdeath s
Ġkropp s
ĠM AKE
Ġsm yck
m ont
ĠL loyd
ĠH EL
ĠfÃ¶ d
Ġ6 5
ĠÃ¶r onen
Ġpill ow
ĠP ent
Ġor gas
Ġsam ples
ĠDra ke
Ġbibliote ket
ĠY EAR
ru p
Ġlyss nat
Ġpark ed
Ãĸ n
T ekn
Ġwor m
ret e
I kvÃ¤ll
Kom missar
Ġcitiz en
qu et
Ġsy skon
ĠMon roe
Ġtal es
ĠstÃ¥ nd
KÃ¤r lek
Ġb is
ĠB auer
Ġac id
Ġassist ance
at isk
sh ow
Ġapp et
Ġspl itt
F ler
K Ã¤nn
st y
Ġsl iter
k ant
fÃ¶r en
Ġpre ser
ĠHar rison
Ġbott les
ĠhÃ¤ x
bord et
Ġcrash ed
Ġincre ase
Ġinit ial
w al
Ġc ried
ĠsÃ¥d Ã¤r
Ġadult s
ĠFor get
kr Ã¤kt
N ER
Ġdu g
ans ar
cl ass
pekt iv
O SE
v ning
r Ã¶st
Ġpol isst
AT ER
hand ed
Ġo Ã¤nd
B eth
Ġpsyk olog
U K
Ġunex pected
ĠA rab
ĠCar la
Ġassum ing
Ġsh aking
L aura
id ays
You ng
ĠMer cedes
Ġb lek
Ġanalys is
z il
Ã¥ ket
or ier
Ġfigure s
ĠBo ys
Cl ark
en ced
Ġr ounds
Ġleks ak
Ġcandid ate
R od
ĠQue ens
ĠtÃ¤ck mantel
4 7
led are
ĠS i
ab il
Ġun ik
lyn n
Ġkass ask
f Ã¤ng
Ġmedlem mar
ĠBroad way
Ġstress ad
Ġbroad cast
ĠÃ¥s ikter
Ġst um
pl ar
Ġhuvud vÃ¤rk
R aring
ĠÃ¶ver gav
Ġsn ubbe
Ġ7 2
Ġc unt
Ġko ordin
F ound
Ġer r
ĠfÃ¤ng sl
os of
ĠT og
Ġown ers
sch ef
Ġcrit ic
ou rist
Ġkont o
Ġcir cus
Ġsuggest ed
ĠN one
Ã¤ll ande
ĠsÃ¶ tt
Ġdjur en
Ġsh h
Ġup side
ous y
Ġdri v
ĠAn other
à ¦
ush i
Ġf etch
Ã¶ ma
ĠK ansas
Ġdescri ption
gr ade
M O
Ġsqu eeze
Ġceleb rating
kl Ã¤dd
ĠHud son
D or
J enny
Ġs Ã¶dra
Ġoff entligt
Ġenter ing
Ġkompl im
R om
em ot
Ġsl Ã¶sa
Ġmor on
ĠCarol ina
Ġpolit iska
m ad
ĠAr cher
Ġorganis ation
Ġreco very
Ġtal e
ĠsÃ¤s ongen
Ġst er
ĠJ ung
M AR
Ġut ifrÃ¥n
Ġlille bror
el ing
ur f
Ġste get
Ġfyll de
Ġlog iskt
K elly
and ler
Ã¥n ing
ul ate
Ġmist aken
Ġbr Ã¤nn
Ġgr ay
ry gg
sk ning
bre ak
ag i
sid a
ĠÃĦ n
k akor
Ġav delning
ĠMike y
ĠJord en
ĠKn ow
Ġgarderob en
er v
Ġenc ounter
K aren
s Ã¤ck
Ġb ugg
Ġc ig
Ġel aka
ĠrÃ¶ nt
ĠHigh ness
Det samma
Ġframt ida
r Ã¤n
id o
Ġthreat s
Ġprop osal
Ġs ou
Ġl em
ĠfÃ¶r gÃ¶ra
Ġrif le
st art
ĠD ong
Ġbegrav ningen
Ġcommun icate
ĠWin ter
th us
ĠfÃ¶rf al
Ġimmedi ate
H m
Ġterrif ic
Girl s
N Ã¤
Ã¤ ser
ur ate
ion de
Ġexpl o
Ġb ik
on da
ĠY ang
ĠDet roit
igg s
n Ã¤m
ist ol
he e
Ġpen na
u als
Ġf og
ĠA ye
ĠMar vin
Ġinc lude
Ġorgan ized
ĠlÃ¶ sen
sk att
ĠF u
ĠvÃ¤n t
ĠMar ian
Ġpaint ed
Ġg ap
Ġsu bba
ĠO z
So ld
Ġsp Ã¤r
Ġmer ely
ĠD ET
k eln
Ġpe pp
Ġsex uella
ĠEll is
ĠÃ¤m ne
Ġutnyttj ade
Ġto es
Ġstubb orn
ĠpÃ¥ lit
Ġbegra va
Ġsin s
ĠhjÃ¤l tar
Ġerk Ã¤nde
ĠMel issa
Ġv Ã¤ck
Ska ffa
Ġhamn at
o tta
Ġr aket
Ġchans er
Ġpop ulation
Me an
Ġsk atte
Ġpro ver
ĠT ucker
Ġfrys er
Ġadmin istr
m outh
Ġm onsieur
ik it
ĠdÃ¥ re
ivit ies
ec il
i ago
Let a
ĠDo ktorn
Ġ4 7
Ġcool a
Ġdig ital
Ġso ck
Ġutt rÃ¥k
Ġit ems
ĠD awn
ud er
pen se
ĠomstÃ¤nd igheter
R os
T ube
ĠG reek
ĠP il
iv il
Ġskick ades
Ġskur k
Ġk arta
ĠW ade
Ġad orable
Ġanx ious
d in
Ġsk ate
Ġkort et
Ġsjun ker
ĠY anke
Ġfilm s
St ud
ov ely
Ġgym nas
ĠvÃ¤l sign
ĠFre ddie
Ġblank et
ol ph
ĠA va
ĠBern ie
Ġsk en
ĠH elt
ĠE h
Ġord nade
Ġbas is
Ġn iece
ĠPier re
S ing
ĠSam uel
Ġtw enty
ĠJon ah
A bby
ĠSky nda
Ġh unger
ĠB etter
ĠSc ot
ĠV Ã¤r
ĠT ja
ĠP otter
Ġd Ã¥r
Ġgo at
ort on
Ġby te
min ute
utt on
Ġtill ver
ĠL atin
ĠkÃ¶r kort
Ġlig g
uk i
ĠOff ice
Ġn Ã¤tt
Ġber Ã¤k
Ġboo ze
ĠG jorde
Ġret ired
sk jut
us iness
Sl ow
Ġsmart are
Ġadm ire
Ġregister ed
Ġthor ough
ĠH amm
Ġmo tell
oc a
styr kan
ĠRog ers
Ġun lock
Ġsmar ter
ol ve
ĠP in
Ġful f
Ġrep ubl
ĠJon as
Ġsk Ã¶ts
Ġrequest ed
Hop efully
Ġe y
ĠEle anor
Ġt ja
Ġvar else
sk Ã¥d
Ġdju pa
ĠGoth am
Ġk in
Ġkill ers
Ġpe kar
ĠÃ¥r hund
Ġbuild ings
Ġdistract ed
n ick
Ġj apan
Ġmed ier
Ġle gacy
Ġcom a
Ġprior it
sk ad
ĠG em
ĠL ydia
la c
ĠGr oup
Ġsearch ed
Ġcorpor ate
int en
Ġsol ar
Ġstri pp
Ġmot hers
iz za
Ch loe
ĠAri zona
b be
w ill
ow ning
Ġdec ades
Ġunf air
Ġcommit ment
ĠM od
ĠL ola
Ġhe ight
Ġgre et
ĠRe x
ĠtjÃ¤n ster
Ġhamn en
Ġbl ade
if ta
Ġhost ages
ĠfÃ¶rsÃ¤k ring
v Ã¤st
Ġkon fl
ĠrÃ¶st ar
Ġphys ically
ĠpÃ¥ se
Ġhon our
Ġsl Ã¶seri
Ġra ising
im ore
ell i
Ġlie utenant
Ġod jur
ĠRome o
Ġt ire
sk are
Ġsu e
Ġm ild
Ġvis et
Ġform s
Ġsym p
ĠMar ge
nad er
An nie
ĠvÃ¥ld sam
E ns
ĠS ven
ĠledtrÃ¥d ar
st or
Ġr aw
Ġper imeter
str ong
Ġspark ar
Th row
ĠP O
Ġtrans plant
Ġflott an
S ad
Ġc ater
Ġsam lade
Ġcigarette s
Ġsum mon
Bea utiful
R Ã¤k
Ġh Ã¥ng
Ġbar gain
Ġcor rupt
Ġfys iskt
Ġm Ã¶ts
Ġshr ink
Ġse aled
Ġut gÃ¥ng
Ġfokus erar
f Ã¤ll
iam ond
Ġsuspect ed
Ġpr on
ĠPro bably
Ġbrottsl ing
ĠG illar
Ġdisk uter
Ġcharac ters
Ġadm itted
Ġl atin
Ġrens a
Ġf rakt
F un
Ġpart i
ĠBren nan
H um
ĠAr nold
yl on
ĠslÃ¤pp t
Ġill ness
ĠanstÃ¤ll d
ĠP itt
Ġimp uls
Ġstress ed
Ġkniv h
ĠHopp as
Ġpl ot
Ġlay ing
D uring
uc ed
ĠAndre a
S ant
Ġf eta
ĠS W
Ġre ly
ĠSh aron
ĠAr ch
a a
Ġtill t
Ġfrank ly
ĠfÃ¶rfly tt
Ġref uge
m iral
il yn
Ġtem ple
Ġsmuts iga
2 8
c up
Ġsk iv
Ġpick up
Ġdiscuss ion
Ġkommissar ien
Ġle kte
ib eln
Ġmar ch
Ġpoison ed
Ġp ier
Ġbl anda
j on
Ġd rew
ow e
Ġhy res
u um
m aker
Ġacc eler
ro ppen
ynth ia
St ora
Ġdish es
Ġarg uing
Ġlar gest
Ġintroduc ed
Ġut sidan
Ġperson lig
alt ies
K illar
Ġdo s
ple x
ĠdrÃ¶m ma
L ev
Ġsy nder
ĠAl ways
ri cka
Ġm ock
Ġbur ns
Bre ak
Ġbokstav ligen
ett le
Ġlit ter
Ġbok a
IC H
Ġdesig ner
P engarna
Ġf law
ĠD ig
Ġrikt ning
Ġsep tember
Ġover night
Ġpass es
im er
Ġsig ner
ĠdÃ¶r rarna
Ġstud ied
Ġscient ists
ĠBud dy
ĠC indy
ĠN et
Ġol ja
Ġs ag
ĠK ane
med lem
Ġunf ortunate
ograph y
Ġlever era
S ab
ump y
ĠslÃ¶s ar
T R
Ġv ana
Ġcom edy
ont o
Ġgre ps
Ġmus h
Ġkross ar
in spekt
Ġr h
Ġbest Ã¥r
Ge org
lin jen
Ġm Ã¤ng
ĠH eaven
Ġshe et
Ġmot orn
Ġcar go
ĠRock y
Ġphil os
C ON
v els
Ġsig ning
ĠvÃ¤n ja
ĠBr and
ka pten
pr odu
Ġserv ant
ĠtrÃ¥k ig
Ġe c
Ġvi br
Ġliv stid
Ġmus ical
P H
in ny
Mar cus
Ġtr ium
ic ians
Ġsepar ated
fest en
if teen
ĠJeff erson
K yle
N ed
Â ¥
Ġ5 1
ĠN eg
Ġskj orta
Ġupplev t
ĠL at
Ġpass age
tel n
V ore
ĠD aphne
Ġvi be
Ġton Ã¥ring
Ġmisst Ã¤nk
ald o
ĠfrÃ¤m sta
Ġser ien
Sna cka
Ġst ones
ĠhÃ¤v dar
ĠfÃ¶rhÃ¥ll anden
in kt
Ġh unter
AK ING
gu ard
Ġuppre par
Han k
sy nt
Ġwis dom
ĠD EA
Ġwebs ite
c re
Ġit em
fr itt
ch y
Ġhit Ã¥t
ĠP ull
ĠR ic
ran ger
ĠhÃ¤rom dagen
ĠCar m
NÃ¥ vÃ¤l
Ġinfly tande
A V
es i
Ġal gor
ĠhÃ¶r n
del ar
st op
ĠfÃ¶r se
ĠS asha
ĠF ader
liga ste
Ġsch ack
Ġart ists
D AY
Ġar slet
ĠvÃ¤r da
Ġtor ped
w ang
Ġsuper hjÃ¤l
Ġvis ited
Wh ose
Ġdan cer
Ġg it
Ã¤n ken
r ine
Ġf rog
Ġlet s
ĠMad rid
Ġe ats
Ġapp eared
ĠÃ¶verenskomm else
Ġun conscious
ĠfÃ¶rmÃ¶gen het
F ot
ink le
Ġte quila
ĠRobert s
Ġunders Ã¶ker
Ġr igg
oll en
ĠskÃ¤m ta
ch ar
id ents
ĠE th
ĠJeff rey
ĠrÃ¶r t
ĠmÃ¤kt ig
Ġg ul
and ras
Ġsl ips
Ġny heten
ait lin
ever end
Ġheal ing
Ġm ull
ĠJ Ã¶sses
iv ande
d aughter
is co
ĠA gain
Ġint ended
FÃ¶r bered
Ġsex uellt
Ġbeg un
Ã¼ h
h aw
Ġr ans
ĠH aven
Ġassign ed
Ġanx iety
ĠM ach
Ġprom ises
ĠborgmÃ¤st aren
ĠM ountain
Ġefter namn
on n
ĠO ther
Var enda
Ġca uses
3 8
K ry
T old
ĠI M
ter m
ĠA ldrig
ĠD re
Ġlo tter
Ġtrans form
ĠÃ¤g are
Ġram lade
ol v
Ġut matt
Ġfe ars
An ne
Ġskick as
Ġsten en
Ã¤ft igt
A g
ĠvÃ¤g er
Ġunderstand s
Ġsuper ior
Ġsek reterare
Ġsam ling
Ġb are
Ġhom icide
Ġorph an
ug gen
ĠvÃ¤lgÃ¶ren het
Ġkommend Ã¶r
ĠP edro
Ġfil ed
vÃ¤ x
ĠSpan ien
Ġland ar
ĠMad ame
su it
C ir
g ins
Ġm attan
Ġlu x
e ve
Ġl ength
Ġbl essed
head s
Ġkontrakt et
A CH
Ġl ett
Ġang ri
Ġimag es
ĠC ro
Ġum g
bra ham
ut et
Ġso il
Ġun like
Ġph arma
Ġben ch
Ġuttal ande
Ġsju kvÃ¥rd
ĠRey nolds
ke ys
ĠPhil adelphia
Ġpun ished
Ġtor ka
Ġdep ressed
t aget
Fort farande
isk en
R est
ĠF ield
av ed
Ġbes ide
Ġarrog ant
ĠS ame
Ġall ierade
Ġa na
Ġ- "
ic als
ĠK han
ĠmÃ¤r ka
Ã¤ va
Ġpeace ful
Ġupp off
Ġchock ad
Ġb anks
Ġst ations
Ġtill it
Ġhapp ier
jÃ¤v lar
Ġcoordin ates
Ġinv Ã¥n
ĠBl ood
ĠCan ada
Ġprepar ing
Str unt
ĠE mer
ib al
Ġres cu
ok o
ĠTH EN
He ad
Ġadv anced
Ġpack ing
T ook
ĠH ood
th rough
ont als
Ġuppt Ã¤cka
OP LE
Ġpock ets
Ġkl aga
Ġ12 0
Ġnj uter
Ġgl am
ĠstÃ¤ng d
Ġparker ing
Ġsabb ade
ĠFeder ation
De p
Ġshoot er
Ġre verse
ther n
Ġcomp ared
ĠQu ick
ĠfrÃ¤m mande
Te am
Ġste am
Ġult imate
ĠÃ¶nsk ade
ist ics
ĠavslÃ¶j ade
Ã¶l ja
Ġappro ve
ĠC ob
ĠhÃ¥ll s
Ġsym b
st ream
ank ar
Ġpat ience
mask in
Ġso ppa
Ġconcentr ate
Ã¥t en
ĠSh all
Ġfre aked
Ġsvag het
ĠSt ud
Ġcomp uters
De ad
Ġslut Ã¤nd
Ġwitch es
v ars
ett io
s se
Ġsam band
AT T
D onna
W onder
ru pp
mod ligen
ĠSab rina
U B
ĠC lyde
3 2
ob e
ĠskÃ¶tt e
Ġf Ã¤ltet
Ġom gÃ¥ng
Ġbo ats
Ġind ic
ĠfÃ¥g lar
Cle ar
Ġbe am
erg us
Sure ly
Ġquiet ly
Ġtrag ic
Ġrisk s
ĠrÃ¤k nade
Ġolyck lig
ĠdÃ¶d as
Ġstr iden
ssy stem
V ir
ĠDen ise
Ġly da
Ġst ing
J isses
Y esterday
Ġvin tern
Ġliqu or
ĠFÃ¶rs Ã¶k
. !
G ee
l aughing
Ġworld s
Ġdra in
yll ene
Ġmad ame
Ġland ets
ĠAg nes
call ed
Ġb und
Ġdro ps
Ġregard ing
Inspekt Ã¶r
ra cy
Ãħ r
uk ter
IG H
ĠhÃ¤r nÃ¤st
z el
ing ham
Ġperson nel
L ots
ĠL Ã¤mna
ĠS ince
Ġupp Ã¥t
Ġspr id
ratul erar
Ġengine er
Ġh unnit
ow ski
Ġkl ock
ĠI da
Ġ Ãĸppna
ĠfÃ¶r vÃ¤g
Ġterror ists
ĠJu ly
Ġnecess arily
ask in
Ġrecover ed
M ess
ant on
Ġpar et
Ġm ats
Ġi v
Ġsa us
sl Ã¶sa
orn et
G abri
S et
ipp ar
Ġbok at
Mich elle
Ġmynd igheterna
G av
G Ã¶m
ĠfÃ¶r ste
ĠB ET
Ġdr Ã¶jer
Ar m
arm ing
ĠCal vin
ĠfÃ¶rbann else
Ġscient ific
Ã¶ na
Ã¤n ningar
Ġoper a
k Ã¶r
Ġt Ã¤cka
sk op
Ġsp a
Ġm ouse
Ġcar pet
Ġvem s
Ã¤v ling
Ġsuck ed
Ġabs urd
Ã¥ der
Hel en
Ġakt iv
o ons
Ġf ert
Ġkan on
Ġsc rap
ĠFÃ¶r stÃ¥r
Ġdefin ition
ĠÃ¶pp nat
am era
ĠT own
ĠrÃ¶v hÃ¥l
H os
g ard
Ġw aters
ĠLiz zie
Ol iver
ĠClaud ia
Ġfart yg
ĠStock holm
Ġbudd ies
m itt
Ġr ug
ĠÃ¥r ets
bur gh
Ġno on
Ġkost y
Ġmed s
ĠP orter
ĠSomet imes
Comm ander
P ris
Ġkl iva
mid t
ĠB ella
lar en
vap net
ĠNik ki
Ġtow el
Ġd read
Ġv Ã¤ckte
ĠlÃ¥ ste
r era
Ġsm ick
Ġorsak at
Ġsk ra
ĠSh akespeare
Ġsuper her
Ġmots atsen
Ġprojekt et
Ġslott et
Ġkom pan
Ġdem ands
Ġpar ole
Ġ7 00
ĠMadd ie
Ġrelie ved
P T
ĠA bb
ĠO roa
Ġdiscuss ed
sh uset
Dar ling
Ġfavour ite
Ġc able
Ġsn ubben
Ġcent rum
ĠAb igail
ĠJen na
Ġgather ed
ĠsÃ¶der ut
ĠDO ES
ĠÃ¶verl Ã¤mna
Ġt orter
ag el
Ġut vÃ¤g
sfÃ¶r bud
osc ow
Ġgood s
Ġland a
Ġfl ies
Ġpre p
ye on
Ġsju tton
ogra pher
Ġfisk ar
ĠsamhÃ¤ll e
Ġth umb
ĠF rost
Ġdead ly
ĠEn ough
Ġplant ed
M et
Ġv on
Ġcomm ission
ĠInd ien
Ġg el
ĠvÃ¤r der
Sk Ã¶t
Ġreport ing
Ġbr anschen
Ġsel ect
ĠA y
ĠCo ast
or da
net h
Ġprocess en
ĠÃ¶verlev nad
Ġbev ara
ĠvÃ¤r me
ĠÃ¤g aren
ĠU s
ball s
Ġnor ra
Ġcor pse
B Ã¥de
Ġa pa
f Ã¶re
ĠIra q
i ast
ĠL ud
ĠlÃ¤ ppar
ĠfÃ¶rstÃ¥ nd
Ġblick en
ĠC HE
ac ed
Ġkall ades
H im
Ġas pir
Ġf ink
N ight
Ġkonst ap
ĠstrÃ¶m men
ĠskilsmÃ¤ss a
F R
Ġwe ars
Ġdum pade
ld ens
Ġde als
de f
ĠsÃ¤ kr
ĠDom in
c al
Ġpr od
Ġspirit ual
ĠC e
ĠK orean
ĠÃ¶ m
Ġcl ar
ĠfÃ¶rt just
Pat rick
ĠP art
ĠE sc
Ġcas ino
wo o
Ġact ed
Ġfal skt
Ġprincip al
ĠtÃ¥r ar
ĠM ira
Ġfe e
Ġsch yst
ĠAng ie
Ġkommissar ie
l jud
Ġ Ã¤l
um man
Ġpl Ã¥g
Ġtyp es
N jut
Ġn it
Ġbl onde
Ġsl ap
Ġloc ated
N amn
ĠS nygg
S ays
Ġt Ã¤nda
uck le
Ġinst ance
Ġaut opsy
Ġkat ol
Ġt ourist
ĠE laine
Ġpre g
Ġutom lands
Be hÃ¥ll
ĠBr ett
Under bart
ĠdjÃ¤v ul
Ġanlit ade
Ġegen skap
Ġlikad an
ĠstÃ¤d ar
Ġrecogn ized
Ġv ital
ig s
ĠD ream
Ġcheer le
ĠL yn
ĠCh i
amm ing
W in
Ġblock ed
Ġcamp ing
Ġcancel ed
T em
j ol
o os
st Ã¤m
ss a
Ġsp Ã¤nd
b ak
h Ã¶ll
ĠA pple
Ġuna ble
Ġex ter
ikt en
ann es
Def initely
I O
Ġmarry ing
ĠTO O
Ġf ester
ĠS up
ĠvÃ¥n ing
ĠnÃ¶j da
Ġc arn
Ġter apeut
ot er
Mad am
Ġse vere
stÃ¤ll t
Ġchem ical
b la
k Ã¶rd
Ġprivat liv
Ġundv iker
End ast
BerÃ¤tt ade
Ġha j
ne j
ble ep
ving a
Ġtap es
Ġkna ppen
Ġtox ic
B ab
h art
at i
ĠS aw
c or
ar med
Ġpatient en
Ġfield s
Ġmotherfuck ers
ĠberÃ¶m da
Ġfla vor
oc us
Mar ie
ĠfÃ¶rber ed
Ġsky l
r us
ĠV el
ĠYou Tube
ĠsÃ¤kr are
Ã¶r jer
am rater
ĠO tto
Ġhonor ed
ĠDiv ision
M oney
Ġd il
wh en
Ġes k
Ġproduc er
Ġo ath
ak y
Ġspe ci
ĠÃ¥ter stÃ¥r
ĠkÃ¤m pat
ĠPet ers
Ġmas ker
Ġrest ra
Ġintress anta
M olly
Ġw and
Ġthem e
ĠtjÃ¤n are
Ġgrand pa
Fl ick
Ġpers pektiv
ĠJ ared
Ġgener ations
Ġvin ter
Ġlar ger
Ġau ction
B eck
ut o
Ġre ktor
ĠA del
Ġbelong ed
ĠT ycker
Ġcry stal
zz o
Ġcompla int
L ily
r ett
Ġfl ush
Ġhem met
ĠU ber
Ġstr ang
Ġro ast
Ġexp ression
Ġpsych ic
K A
M itch
N a
Ġfick an
ĠFamil y
Ġattity d
ĠH AR
ĠC ody
ĠJ Ã¤tt
ĠjÃ¤tt el
ĠC ou
aught y
ote ll
ĠChe ers
Ġgud s
ĠÃ¤ktenskap et
ĠT oday
Ġnail s
Ġen heter
Ġfr ans
Ġstorm en
Ġmeth od
Ġc ities
ĠK ings
ĠSim one
Ġspott ed
ĠtvÃ¤rt om
ing e
Ġsp aces
Ãĸver ste
ĠDel ta
ĠIng enting
ĠK ap
Ġbad a
ib el
ĠÃ¥ter gÃ¥
AD Y
re me
Th rough
iz zy
Ġrull ar
Ġtim men
net te
Ġme kan
ĠDr agon
K vinnan
w ide
fÃ¶r Ã¤ld
l ang
Un gefÃ¤r
Ġyr kes
Ġl Ã¤ck
Ġan cest
Ġtro vÃ¤rd
ĠF ay
rad en
ĠlÃ¥n ade
Ġb jÃ¶r
os er
ĠlÃ¶ ste
Ġbur nt
Ġcent uries
R ol
it eter
Ġin ch
ka pp
ib an
Ġbjud it
ĠhjÃ¤rt attack
v ention
in fl
Ġd ing
B abe
Ġre ar
ĠG wen
ĠF ru
ĠlÃ¥ ser
ĠGar cia
ill ion
Ġrec ipe
Ġkap abel
ĠOn ce
Ġintim id
ĠB org
ĠfÃ¶rlor are
Ġmedvet slÃ¶s
Ġack now
ĠC R
ĠV IP
Ġdep art
r Ã©
Ġsk akar
ic it
Ġn Ã¤tter
ie ves
Ġdem oner
gre pp
Ġsten ar
Ġp ork
ĠW on
Ġcoll aps
ĠÃ¶pp nas
Ġtruck s
ĠHos pital
ĠmÃ¥nad erna
n ut
s ann
ass a
Ġchap ter
Ġden ied
ĠK ang
Ġprovid ed
r ome
Ġlad s
Ġtext ed
Ġannounce ment
Ġ1 000
Ġroad s
ĠTw itter
A IT
Wh ether
Ġhem s
Ġsk Ã¤gg
Ġrac ist
C os
Ġbe ars
ĠM ik
Ġthreat en
W alk
ilar ious
Ġstrateg i
is elle
ast Ã¥ende
hy th
K opp
ĠI ron
ĠG ideon
Ġkor rekt
Ġprivile ge
Ġjewel ry
Ġdans en
Ġutre der
b ana
Ġhoney moon
Ġdiamond s
ow ed
ĠA ns
Ġdis gu
Ġlight ning
ĠLO VE
ch or
ĠB ox
Ġover d
ĠfÃ¶rÃ¤ld er
Ġla zy
Ġuppn Ã¥
Ġgr ounds
Ġny e
Ġdy gn
riv ate
ĠPer fect
Ġtradition al
ĠjÃ¤ttef in
B ern
Ġv isk
pl ess
Ġaccident ally
w ald
is men
ay er
be e
ĠplÃ¥n bok
Ġhead quarters
Ġans Ã¥g
Ġclub s
B land
I mp
Ġso ap
Ãħ tta
Ġfi ction
Ġgre p
ĠAr gent
ĠfÃ¤r gen
Ġcelebr ation
V D
sk riv
Ġplan es
Ġled ningen
ĠColl ege
Ġkol on
Ġback s
nan cy
ĠRe al
Ġcook ie
ĠJ O
âĢ «
ĠPe arl
ist ret
akt iga
Ġexpl ode
kl ubben
ĠSec ond
ĠsÃ¥ klart
ĠR elax
F okusera
ĠÃ¶ st
Fl era
ĠLed sen
j t
sk ador
Ġad vert
Ġsjuk skÃ¶ter
IR ST
Co ach
Ġundant ag
sp ass
Ġ4 3
Ġprogram mer
ĠNaz i
ĠsjÃ¤lvfÃ¶r tro
Ġbed rag
ighet s
ĠMur ray
ĠK E
Ġkall at
Ġspons or
Ġnat urally
Ġ Ã¶ra
Ġdem oc
Ġche ek
Ġcontact s
sk ande
Ġtid ig
Ġa ster
ol in
Ġgud arna
ĠPet erson
n Ã¶t
M ir
Ġav slapp
uc ci
Ġb end
ĠN ASA
Ġcl iff
ju v
Ġforgiven ess
Soph ie
ĠH ela
Ġhall way
Ġcomb ination
Ġbr inna
Ġens ure
end ar
St upid
Ġtuff a
nam ent
ick ade
Ġdra wer
Ġfire s
ĠRob inson
Ġvent il
ĠG or
Ġle an
Ã¤ld ig
Ġdestro ying
ĠSH OULD
Ġman ner
Ãħt minstone
G B
Ġw el
ĠN olan
Ġle ather
ach t
Ġdest ination
P app
ight y
ĠF iona
ĠShe ila
Ġut seende
Ġjord ens
m aterial
L ever
Ġdisag ree
Ġen forcement
Ġint ill
Ġdr Ã¤kt
f leet
Ġr ul
ĠB ureau
ĠL ars
Ġpo op
Ġcont ent
ĠvÃ¤n stra
med let
Ġfrivill igt
V I
Ġf uss
Ġu th
Ġbef ria
az el
Ġbr Ã¤nsle
Ġvisit ors
ĠÃ¤r r
Ġbe ats
Ġupp ror
Ġpress a
Ġbother ed
ĠUpp fattat
ĠE R
Ġsv or
Ġupplev else
Ġwhist le
skom pis
Ġm m
It s
Ġpar ade
ĠS S
Ġsp ots
Ġle cture
Ġconne ctions
Ġport en
c H
et on
Ġindep endent
T erry
Ġsnygg ing
Ġsa bba
ĠNe al
Ġspar ar
Ġinstru ktioner
Ġond ska
Ġthr illed
Ã¶j de
Ġfix ing
ĠVÃ¤l kommen
ĠLau rel
Ġl akan
ĠK y
Ġskith Ã¶g
r idge
ĠWh eel
yl van
H OW
Ġ :
end an
ber oende
FÃ¶r hoppningsvis
SÃ¥ vida
ond en
ĠrÃ¤tt fÃ¤rd
Ġsurpris es
Ġod Ã¶d
Ġappear ance
as p
Ġt am
Ġc ul
Ġres on
ĠDon ovan
Ġed itor
Ġo ven
Ġreag erar
Ġr ag
Ġattack en
Ġenorm ous
Ġaffect ed
Ã¤ger i
Fakt um
ed r
Ġcook ed
bass y
Ġun w
Ġro tten
EN CE
ĠRe c
ĠbevÃ¤p nad
ring ton
Ġexp lains
room s
S usan
Ġr unda
ĠL enn
ĠrÃ¤dd ning
Ġtrev liga
Ġpal ats
ust in
iell e
ĠfÃ¶rsÃ¤k ra
Ġreb u
Ġm ol
om ing
ĠFer rar
ĠG avin
IT E
Ġprins essa
F ree
ĠR io
Ġco in
Ġmat te
Ġtyp ical
Ġspect ac
f red
ĠB udd
Ġuppt agna
T ina
Ġpass engers
Ġcl im
pro of
Ġa pt
Ġde alt
ĠJul ien
Ġt une
Ġbo ld
kl Ã¤d
Ġ5 5
sy stemet
ĠMich a
asm ine
ĠStu art
G Ã¤rna
is le
Ġsl Ã¤nger
Ġfort un
ĠtrÃ¤ den
aut ion
Ġbehand lade
it ated
Ġbr anden
V AR
ats er
oot er
Ġstyrel sen
Ġsh uttle
ĠMcG ee
Ġt Ã¤ckt
Ġp ian
ĠhÃ¤r inne
ĠfrÃ¥g orna
Gra bben
ĠsmÃ¤l ta
Ġty sk
Ġarch ite
ĠP H
Ġer ror
ier ra
Ġr iv
head ed
ĠL uther
Ġner ves
ĠT iger
Ġkommun ikation
Ġgl Ã¶d
Ġob du
ĠnÃ¤m nt
E va
Ġhead ache
Ġrim ligt
ph ine
Ġpot atoes
f i
f ars
Ġlugn ande
ĠAtl antic
Ġhar dest
ĠG len
ĠbelÃ¶ ning
o a
Ġlo cka
Ġshe ets
Ġkonsek vens
R el
Ġk Ã¥l
Ġoff entlig
Far bror
Ġfascin ating
v ous
Ġtill Ã¥ta
Ġav lyss
Ġfing ret
L ika
t or
am ling
ĠM AY
ĠL enny
ouch e
Ġexist ed
Ġgry ningen
E v
ĠÃ¥ter f
Ġpast a
I RE
Ġlast bilen
Ġdel tag
Ġgam bling
HÃ¶r ru
Ġelectric ity
Ġr iot
ĠF alls
its nack
Ġromant iskt
ĠI zzy
Ġcomp ound
ĠrÃ¥ der
ĠMo sk
Tills ammans
Ġprosec utor
A dd
Ġkl im
ĠskÃ¤l et
Ġeleph ant
Ġp up
Ġar se
ĠWH ERE
Ġvers us
Ġexec ution
Ġmik rof
Ġryss arna
Ġatmos fÃ¤r
m und
ut bild
Ã¤g aren
ĠvÃ¤rld sk
Mean while
Ġbeg Ã¥r
c s
Ġkontakt ade
Pr omise
ĠpÃ¥h itt
Ġattack ing
bo ys
B rien
ĠS ong
Bl ue
fer ence
El izabeth
od i
ĠH av
ĠR ico
ee ves
Ġgrej erna
itz er
Ġok Ã¤nd
F ight
Ġpo le
ĠFin ch
C ou
Ġar riv
Ġsm ack
ond ition
Ġt ork
Ġv agn
Ġsamarbet e
D est
ĠComm un
M uch
c ont
ĠM oh
ĠfÃ¶rÃ¤nd ringar
ĠspÃ¥r en
ĠtrÃ¶ tta
Ġk lev
Ġu tter
ĠCh ip
Ġold est
Ġclaim ed
ĠstrÃ¥l ande
S D
Ġw agon
ĠK eller
ank y
ang ed
Ġfollow ers
ĠNE VER
ĠB oo
Ġhus djur
Ġbritt iska
T al
Ġtra ff
Ġur in
ĠaffÃ¤r s
ĠallmÃ¤n heten
ĠMich igan
yck te
ier ar
Ġbelie ving
D agen
Ġw iped
Pass a
Ġplock ar
2 7
Ġsp erm
Ġgener ator
ND ER
Ġhar sh
P sy
Ã© er
G al
ig ence
ĠS ub
ĠDe c
Ġfast nat
RE E
Ġsmy ga
ĠA ld
Ġcontrol s
or ado
am ine
Ġconf using
Ġhuvud en
Ġrom ance
Ġhand y
Ġcrush ed
id y
us a
Ġrep laced
orm or
Ã¤st en
Ã¶k ning
V ap
Î ½
Ġk itt
Ġtv illing
ĠCor por
Hanna h
ĠW oo
B Ã¶rj
Ġv ed
Ġkom a
Ġmon stret
Ġcol on
IR L
ĠJam al
Ġprim ary
r age
Ã¤ng ning
Ġdi ct
ĠlÃ¶ ften
Ġciv ila
Ġo av
ur u
Ġfa int
l ord
ĠI l
ĠnÃ¥n s
Ġlunch en
ĠAtt orney
ĠH oo
Ġrol igare
ĠHay es
ĠSof ia
Ġmisunder standing
Ġterr itor
ĠC reek
ap se
Ġfri ed
Ġs ve
Ġb iff
ĠfÃ¶rol Ã¤mp
N ame
Ġj uni
sÃ¥ ld
ond o
Ġbart ender
Ġr amp
Ġav br
Ġlag ade
Ġdans ade
Ġrev ben
ĠfÃ¶rvand las
Ġj ar
Spec iellt
Ġb ass
De ath
Ġloc ate
Ġfab ulous
Ġgoss ip
z u
Ġwe e
ĠsÃ¶ nd
Ġcondu ct
Ġsign alen
ĠK apten
Ġperson s
d Ã¶d
om on
ast ers
ach es
gr ad
ĠanvÃ¤nd es
Ġann ons
Ġtillbring ade
Ġrelation er
ĠD eep
Ġnamn en
Ġspend era
Ġadvokat en
Ġtemper atur
ĠberÃ¶m d
Ġgu id
ĠfÃ¤r ger
h um
ob i
Ġbad rum
Ġbo oth
ys er
Ġsly na
Ġd orm
Ġbes Ã¶ker
zz i
Ġpiz z
L ater
De an
Ash ley
ma id
Ġtry gga
h is
ĠM ulder
Ġthere fore
ĠnÃ¤m ner
Ġobser vation
Ġst ere
uf act
p ret
Ġv Ã¤v
Ġtab les
D ie
as il
Ġde af
ri ker
Ġnu varande
Ġcon dom
Ġ3 9
Ã¶n stret
ik et
Ġkonf ron
ĠF ish
Ġmex ikan
Ġb ota
ck en
b ull
is erad
ok al
Ġer Ã¶v
Le ft
Ġkon vers
asy ster
Pro va
off ee
G un
P en
v are
Ġup s
Ġsu ite
Ġtid punkt
Ġmu ff
Ġbu bble
ĠWH Y
Ġko sta
ĠM ain
ĠFre der
Ġtutt ar
v akten
ĠfÃ¶resl og
ĠgrÃ¤ ver
OUG HT
S EL
Ġspecial ist
Ġignor era
R uss
iker n
ĠNa omi
Ġ x
Ġst iga
Ġpen et
end o
Ġmat a
dr aget
Ġrisk y
im en
uss en
S juk
Ġcur sed
US A
um my
Ġpo em
ey er
ĠRe id
Ġfi end
Ġvans inne
G old
J AG
d ig
ĠG ib
Ġfin aste
Ġvackra ste
Ġsky lt
ĠKn ox
mÃ¶ te
b rev
Ġunder ligt
ric s
Ġremind ed
Ġcrack ed
Ġbarbe cue
Ġsky nd
Ġrop ar
Ġm app
ĠO re
Ġpot ato
Ġskin ny
ĠCont rol
Ġgri per
t it
ut ions
Ġpu zzle
br Ã¶d
Ġris ing
D ay
S Ã¶k
ĠIs abel
Ġvars Ã¥god
ĠT ills
ĠSp irit
Ġnegoti ate
H Ã¤ng
it ann
Ġvar andras
ĠsmÃ¶r gÃ¥s
Be klagar
T v
ĠT u
Ġas h
ĠEr in
Ġa uth
ax ter
Konst igt
Ġl ax
ĠM I
ans a
ĠfÃ¶rÃ¤nd rades
Am anda
Ġkam rat
Ġanonym ous
Ġcooper ate
ĠU H
ĠTh er
ert o
v orna
LÃ¥t sas
Ġclimb ing
F unny
Ä º
Ġfil mar
Ġpost er
hund ra
ĠP A
Ġmess y
Ġattract ed
Ġm og
ĠÃ¤r liga
Ġback pack
fl icka
Jack ie
Ġshout ing
ĠE ld
Ġbra cel
Ġty skarna
Ã¥k igt
Ġfund s
e ven
Ġund erest
Ġjul i
Ġsom nade
um pa
ĠbesÃ¶k are
ĠfÃ¶rtro ll
ĠLind say
Ġb Ã¥r
ĠB urn
Ġcy ber
ĠNich olas
P O
v Ã¤nner
Ġs ust
Ġupp g
ĠKan ada
ag d
bet e
fl Ã¶d
u de
Ġen astÃ¥ende
est ion
Ġsty gg
C OME
Ġh inder
ĠPak istan
ĠÃ¤r ende
ĠB anks
Ġkan in
Ġsim ul
Ġfair ly
Ġang els
Ġforg etting
ri ors
Ġce iling
Ġhel met
Ġal tar
Ġkoll aps
keep er
g om
Ġr Ã¤ck
ĠspÃ¥r ade
ĠHen rik
AND E
h ang
in ity
Ġdep th
ĠIN TE
Ste ven
Ġt ies
ĠM oscow
Ġpe pper
Ġkall ad
ĠaffÃ¤r erna
Ġhungrig a
Ġin krÃ¤kt
Ġst Ã¶v
Ġor ch
Ġstud ies
ĠOK AY
ĠBalt imore
Ġre sident
Ġverk et
Ġretur ns
g ie
Ġh atten
Ġra id
Ġcross ing
Ġtav lan
Ġl ousy
Ġunder klÃ¤der
ĠGo ogle
ĠGood bye
Ġw aking
Ġv om
Ġwh ip
em bers
Ġbill igt
G EN
ĠOb ama
Ġsv al
Ġsc andal
Ġpass ade
Ġhor ror
Ġfest a
ĠMad am
ĠÃ¥r t
Ġplat form
Ġn anny
ĠA be
Ġom dÃ¶m
mar es
Ġpray ing
Ġn Ã¶rd
ill es
Ġfast nade
Ġlad der
Ġteen ager
ĠvÃ¤l j
Ġent it
Ġrece ip
Ġknull ade
Ġsatisf ied
Ġnic ely
ĠC and
Ġappl ication
Ġsusp ended
Ġkl agar
Ġfru ktar
2 6
Ġtechn ical
Ġcomplain ing
ĠtrÃ¶j an
Ġpaint ings
m Ã¶r
ord en
Ġcl othing
ĠSte in
Ġalternat ive
Ġre ass
ĠP as
Ġpro stitute
Ġspe gel
ĠtjÃ¤n ste
ĠA I
L inda
Ġlag ligt
Ġaccompl ish
Ġlug nar
Ġmik ro
K al
h ot
Ã¤ cket
Ġdu des
Ġsk irt
ĠF lynn
All ihop
ĠS at
Ġsv ika
Ġstr ida
ash i
ĠS amma
Ġpos itions
ĠfÃ¶rsvun na
Ġvolunte er
Ġr iska
ĠframgÃ¥ngs rik
Ġm Ã¤ss
Ġdep osit
Ġskuld er
omm es
ĠmÃ¶rd ar
Ġfil osof
Ġvir uset
Ġremarka ble
M aking
Ġhe els
op tern
Ġskick lig
Ġappro val
Ġamong st
Ġrespek tera
Ġliqu id
Ġgit arr
Ġu bÃ¥t
Ġfill ing
ĠÃ¤ld sta
ĠGirl s
Ġnark ot
Ġsp ont
Sk r
ĠÃ¶verrask ad
Ġv egan
ĠlÃ¤g re
Ġcomplet ed
w s
Ġf ox
Ġdes c
ĠB oth
ug ar
rat ic
Ġnom in
o is
Ġin ches
ĠsjÃ¤lv isk
Ġmedic inen
ĠPE OPLE
ĠM and
Ġdescri bed
ĠBrad ley
ĠI bland
Ġsk i
Ġal ias
Ġdisk uss
ĠSte vens
Ġknock ing
Bo ys
ĠS pr
akt igt
vis ade
fÃ¶rs Ã¤lj
Ġv Ã¥ga
Ġvar nar
ĠH il
Ġpro ved
When ever
Ġdit Ã¥t
ĠSte vie
Ġmening slÃ¶st
id al
ĠSe o
Ġgrand son
ĠAm elia
bor ne
Ġadopt ed
h all
m itted
Ġo x
Ġsom na
Ġguvern Ã¶r
ĠCath olic
Ġcom ic
Ġdi abet
ĠvÃ¥g ade
ĠlÃ¶s ningen
ĠkÃ¤ll an
Ġsamm ant
is erat
ris en
Ġcontact ed
Ġpol ite
resp ond
ĠBrook s
Ġp alm
sk ada
ĠF un
ĠhÃ¤nd elser
o va
Ġw icked
ĠCh elsea
Che ers
Ġutveck las
Ġinsist ed
l orna
Ġtax es
Fakt iskt
Ã¥g et
Ġsm al
Ġsqu ir
Ġtrick y
ific ent
ĠÃ¶verv Ã¤ldig
P et
s juka
ĠhÃ¶ ja
ĠG ay
ff e
ĠSt art
Ġgenet ic
R iktigt
Ġoper era
Ġir lÃ¤nd
Ġmamm or
us ch
Ġax el
d ess
Ġdri cks
Ġtechn ique
Fix a
Ġn ud
Ġst ipend
AN CE
Ġimportant ly
Ġdatab ase
Ġpreg nancy
Ġp enn
ĠR ud
Ġpro var
ĠsvÃ¤r det
Ġflo ating
us al
Sh el
Ġstra ffa
ĠjÃ¤tt ekul
let on
ivet vis
l am
ĠsjÃ¤lv stÃ¤nd
Ġthe ft
kt ober
Ġkamp en
ĠmotstÃ¥nd are
ĠMaur ice
Ã¤ sen
ĠM ic
AT CH
ĠkÃ¶r d
ashion ed
ĠbekrÃ¤ft ar
Ġint rig
Ġrehears al
ĠIn tern
ĠRob bie
mÃ¤r ke
ĠC oh
ĠP alm
Ġcar tel
Ġdef ending
ount y
om rÃ¥det
Ġis en
ĠH arl
Ġkn Ã¤cka
ab i
etch up
g Ã¥ende
ĠM ind
work s
ĠMag ic
ey ton
D irekt
Ġr ike
ute s
ĠF antast
Ġdel icate
Ġtarget s
Ġprost itu
I LD
Ġth irsty
ĠPL AY
ĠSteph anie
ĠNÃ¥g ot
Ġhyr an
ĠL on
vel t
ĠG arrett
ĠSh adow
Ġtum or
jÃ¶l k
G ET
H ome
Ġb ugs
ĠfÃ¶r fÃ¤r
ĠK ra
Ġprof essorn
Ġleaders hip
ĠvÃ¤gg arna
L uck
ĠVi ce
Qu iet
Ġlos ers
ud a
Ġsm ash
D ick
ĠReg ina
Ġytt re
te ous
ĠA ah
Ġav t
Ġdr one
ĠrÃ¤k nat
j ug
Ġacc urate
Ġpop s
L and
h Ã¶g
y get
Ġlo tt
Ġstud ion
Ġattack era
Re ad
ĠAustral ia
F ig
Ġtw in
Ġscrew ing
Ġcontroll ed
Ġg room
Ġdusch en
Ġth ou
Ġvar ar
Ġfle e
Ant on
ĠF ree
Ġsl um
ĠstÃ¤ll ning
Ã¤ var
N yck
Ġatt rakt
ĠfÃ¶rÃ¤nd rade
ĠfÃ¶rÃ¶d mjuk
s al
Ġwe igh
Ġfound ation
Ġgala xy
ĠD iaz
ĠSwed ish
ĠB ee
ST A
ĠSer v
z ard
Ġf lex
un ters
um i
Ġcon sent
ĠÃ¶ver ge
ĠWe stern
Que en
Ġveck orna
Ġtwist ed
ĠS L
Ġvett igt
Ġk aka
ri ft
Ġtrack ed
Ġto e
Du ktig
ĠhÃ¶g het
ĠDen ver
Bl ood
Ut mÃ¤rkt
Br other
Ġbekv Ã¤mt
Ġsp Ã¶k
Ġhigh way
Q U
ĠtvÃ¤tt ar
Ġgather ing
B Ã¤sta
T rÃ¤
Ġs ore
Ġoff ers
Ġbad kar
ĠBr others
el ey
Ġbid rag
Ġconv icted
ĠSwed en
c ere
Ġr umpan
ĠÃ¶ver raska
fl ott
Ġren over
Ġvamp ires
Ġfars a
Ġsched uled
ĠHay ley
ĠT it
Ġkid ney
ĠPort land
ĠbevÃ¤p nade
Ġpass word
na p
ST ER
Ġv akten
Ġallvar liga
L i
Ġst ulen
ĠS ver
ĠD rive
Ġkapten en
Ġobser ver
ĠBl oom
etter na
h im
ĠC ongratulations
Ġkl ump
ĠstÃ¶ ld
Ġf er
sk as
ĠT ot
Ġbrud ar
Ġr eng
Ġut brott
Ġcon tem
ens er
Ġcop ies
Ġeng ines
Ġtext s
Ġrema ining
Ġk ara
Ġcomp ete
G ER
ĠD wight
Ġdag bok
am bers
de ll
ĠL oren
ĠShel by
Ġ âĢĶ
Ã¤ng da
ĠhÃ¶ gg
ikt a
zz ie
Ġresist ance
Ġsl aves
Ġk ret
el in
Ġboard ing
Ġst ugan
Ġkons er
fly g
M ER
Ġand an
Ġass ess
Ġswe ater
Ġexped ition
M ill
ce mber
ink s
ĠL Ã¤get
Ġbef ann
C ap
Ġwe b
ss p
Ġg ates
re de
for mer
dom ar
Ġkyrk og
ut rust
ĠP olly
ĠjÃ¤tt em
af eter
Ġutveck ling
Ġsl ice
br itann
ĠstÃ¶ ter
Ġgrym ma
ĠsÃ¥n gen
ĠuttrÃ¥k ad
ĠH Ã¤mta
ĠA men
ĠHug h
sk it
lig g
Ġminim um
ĠSov iet
Ġingen jÃ¶r
Ġson en
Ġacc us
R Ã¤dd
ĠCh andler
ann i
Ġclos ely
Ġpj Ã¤s
Ġbev itt
Ġassoci ate
Ġurs Ã¤kter
te x
ĠSuper man
ĠdÃ¶m d
Nic ole
Ġb unk
ĠA th
ans ch
Ġprof et
ograf i
Ġsour ces
Ġult im
ĠD est
Ġla wn
ĠmardrÃ¶m mar
Ġf abriken
Ġsy re
Ġgra ven
Ġinkl ud
d ist
Ġn an
ĠHamm ond
Ġdel iber
l i
Ġland ade
Ġeng age
styr ka
A ah
Ġv d
Ġar sle
Ġskit a
Ġprov oc
Ġfr ies
ĠL uthor
Ġpl as
Ġsl ing
Ġser iÃ¶st
-- ?
Ġfool s
ĠAndrew s
Poj ken
ĠnÃ¤tt erna
sten en
ĠIN TO
Ġamb ush
ĠvÃ¤rde full
j ording
ĠJ un
ĠhÃ¶r ni
Ġpresent er
ĠBoy d
it ets
ĠE ugene
Ġdead line
Ġtj us
Ut om
ĠS Ã¤kert
Ġsitu ations
et aget
jus ande
ĠBow l
f our
um bo
ĠV Ã¤
ĠhÃ¥ll as
ĠfÃ¶rklar ade
Ġgjord es
ONE Y
Ġsympt om
ag nar
Ġsu gen
Ġfj ol
Ġtung an
gom ery
Ġj og
Ġha cka
Ġtr ump
Ġarrang ement
ĠBry ce
ad Ã¥
Ġby rÃ¥n
Hej dÃ¥
ĠSher lock
3 7
ĠSc ully
Ġlegit im
r ars
Ġrapporter ar
Ġcert ific
k ille
ĠG arden
Ġant icip
Ġmist ress
Ġmad ness
Ġsuit case
and rar
ci le
ĠN SA
fÃ¶r de
av i
Ġgj orda
Ġkommunic era
CH UCK
Jac ob
D og
Ġc ents
ĠM au
Ġse ed
ĠC rystal
ĠW u
ĠdÃ¶d lig
Ġkul an
ĠtjÃ¤n sten
Ġban ana
g il
Ġp and
Ġsh ove
res ult
ĠPal ace
Ġhalluc in
H Ã¶
Ġr Ã¤ckte
ĠR aj
ĠU ntil
ĠÃ¶vervak nings
Ġded icated
Ġveter in
N ine
Ġt anks
Ġsk id
Ġpoint ed
A unt
K napp
o z
ĠH anna
Ġch atter
Ġkys st
Ġconven ient
cri pt
ĠGr attis
Ġrull a
I r
L Ã¥s
Ġdin ing
reat he
Ġlim its
Ġs ikte
Ġhav s
ĠFr asier
Ġbar bar
fr Ã¥g
rat es
ĠdÃ¶ds fall
Ã¥ning om
P ush
ĠN orm
ĠSh irley
Ġapolog ies
h Ã¤rt
S leep
Ġb alen
Ġst are
Ġpass ande
Ġlaugh ed
U CH
Ġb ac
ĠK ung
Ġass et
amp s
Ġskoj ade
Ġinformer a
Ġwid ow
re z
Ġsa x
Ġgrabb arna
ĠBra zil
tem ot
Ġkyl en
ylvan ia
H olly
od or
Ġfin ishing
ĠPri ce
Ġb achelor
ort al
yck e
ĠvÃ¤rld s
Ġchampion ship
Ġeff orts
Ġspin ning
ĠKrist us
Tel ef
ĠAl aska
rÃ¤ff ande
Ġflu id
Ġretire ment
Ġtank arna
Ġkaff et
Ġekon omi
Ġk ak
Ġman ufact
ator er
ĠmÃ¤kt iga
ĠG on
Ġupp hets
Ġm ac
Ġsm Ã¥ningom
TH ERE
Ġjud ges
Ġbil arna
ĠZ o
Ġpoint ing
Ġcy cle
Ġlys er
Ġh ilarious
sl ing
par tementet
Ġrym t
Ġparad is
Ġm our
Ġm unt
ut ed
Ġgr ows
Ex p
Ġgrund en
Ġan talet
ĠC ow
ĠlÃ¤ ka
ĠfÃ¶del se
Ġgenom s
ĠslutÃ¤nd an
Ġvar ious
Ġfig ur
ĠmÃ¶rd at
ĠrÃ¥d givare
mask inen
Ġphilos oph
Ġkopp lar
f ashioned
Ġm Ã¶d
ĠMon te
Ġhed ra
ĠL ester
Ġsex igt
Ġche ering
Kn ock
fÃ¶rs var
Ġvardags rummet
ĠH off
Ġkom prom
Ġclass ified
Ġavslut at
Ang ela
Ġsatell it
ĠB ian
ide o
Ġscen es
ĠLion el
Ġw ander
od o
ĠÃ¶verlev t
Ġattempt ed
Ġconfident ial
Ġons dag
R oll
Ġsp ook
ĠD ew
but ik
Jul ie
Ġutk ik
Ġc ord
ĠJ ob
Ġinterv jun
L illa
Â ĸ
ĠLuc a
ĠMagn us
ling arna
T aking
Ġf ax
Ġy nk
Ġdi vers
Ġaw fully
ĠD rop
ĠF ry
RI END
Ġleks aker
D S
it ement
het erna
g i
be cause
lin ed
oj i
Ġavbry ter
ĠfÃ¶rk ross
ĠvÃ¤lsign else
Â ¡
ul Ã¤r
Ġmet aph
Ġlock ar
Ġfund erade
ĠLuc ifer
Ġskaff ade
A na
B ild
N ancy
Ġball oon
ĠtillfÃ¤ll igt
ĠPer haps
Ġklass en
Ġvag nen
Tr ue
Ġpen alty
ĠjÃ¤m fÃ¶rt
Ġax eln
Ġfys iska
Jord an
u ct
ar o
kom mande
ĠRod rig
ĠCon n
Ġcigar ett
ĠsÃ¶m nen
T ri
Ġp est
Ġpr ank
ĠMus lim
at re
Ġact ivities
Ġl Ã¶jlig
Ġof tare
Ã¥n ingen
ĠGu ess
Allt ing
ĠON LY
ĠsÃ¥r bar
Ġhol idays
en o
Ġst under
Ġall m
ĠB ones
Ġev olution
ĠhÃ¶g kvarter
tr ans
ĠÃ¥n gest
ĠE VEN
St Ã¤mmer
as se
ĠS co
cent ret
ĠjÃ¤tt ed
Ġtort ured
Ġacqu aint
Ġmeddel ar
Ġfl ing
old at
W ater
o ft
st ate
ĠChe ster
Ġmars ch
Ġm i
3 6
ol ikt
ĠD ata
ass istent
oot s
Ġyr ke
Ġpoet ry
ĠScot land
ĠÃ¥ter kommer
ĠÃ¤g a
k ill
ĠE p
Ġsl et
ĠFlor ence
President en
N at
Ġbe ers
sp ect
Ġem pire
sky tt
ĠrÃ¥ na
Ġsk andal
Ġback yard
Ġph rase
Ġconc rete
Ol ivia
Ġg ula
ob al
Ġsl aget
ĠÃ¥klag are
R Ã¤dda
Ġch in
ner na
ass o
Ġpract icing
ĠT oppen
Ġhapp ily
Ġper pet
Ġpass era
Ġrum or
Ġstuck it
Ġanm Ã¤lde
Cle arly
Ġtransp orter
u ke
sh op
Ġkilom eters
ent ially
ĠH ind
Ġfilm ing
init ivt
Ġproduc ent
Ġrub ber
Ġallerg ic
vag nen
Ã¤l ten
gr unts
Ġtest er
Ġobe y
Ġbrors an
Ġv ingar
Ġcou ples
u in
Ġc aps
Ġj aw
Ġal ike
ĠB orde
Ġbr ann
ĠSt orm
v ikt
ĠP M
Ġst uga
ĠF L
ĠSh annon
Ġgodk Ã¤nt
ĠÃ¶vervÃ¤g a
Ġbef olk
r ants
Ġf ier
Ġf ib
Ġimpon era
n ik
Ġexpl ore
f Ã¥ng
Ġsal ary
Fl ickan
ĠPrat a
Ġconscious ness
en ch
ĠT ru
Ġvill a
Pre pare
j amas
is d
em eter
Ġmur en
Ġru ining
ĠursÃ¤kt ar
ĠLA UG
red je
Ġnight mares
C C
P engar
Ġan al
Ġmark ed
erest ing
Ġmilj ontals
ĠMon a
Ġkidnapp ade
e z
am o
ĠV augh
Ã¶ ta
He ar
Ġpr Ã¶va
Ġskall e
Bet ween
Charl otte
9 5
ĠF IND
ĠW r
Ġconv ention
Ġproduct s
ĠClar ke
T an
Ġbl Ã¤ck
ĠvÃ¤g nar
Ġartik eln
ĠPen ns
ĠOx ford
Ġr ally
Ġi ak
Ġdig nity
Ġpl und
ĠvÃ¤r men
Ġfyll t
c ard
Ġsett s
Ġbenef its
Ġb ald
Ġbes Ã¤ttningen
Ġfall it
ĠOr der
Ġexc uses
Ġarri ves
Ġprosec ution
Ġt ense
ĠG ang
Ġsw ore
Ġcoll ar
Ġarriv al
ĠC arly
udden ly
ey ed
A ir
om Ã¥l
ĠV ern
ĠW oman
Ġju de
rat ive
fl ick
Ġcab inet
ĠHend erson
hyth m
ĠL im
Ġhum ble
D i
ror na
Ġs opt
vent h
er ska
Ġsvett as
Ġf ist
Ġwh ack
ĠV ERY
Ġbr om
Ġreach ing
Ġutom hus
b ring
Ġp on
ĠB ou
int y
ry n
ĠE ste
Ġdep end
ĠbestÃ¤ll t
Nar rator
Ġexp ose
ĠRo z
Ġbek Ã¤mpa
Ġterrif ying
L ight
t vÃ¤tt
Th irty
bit ar
ĠspÃ¶ a
t ons
be y
ĠWood s
Ġt ig
ĠL ea
Ġmem o
Ġcol onel
Ã¶var en
FÃ¶r klara
Ġreg net
Ġvar i
ĠR och
ĠSA ID
ĠF ergus
Ġart s
erg io
OT T
vÃ¤ll en
Ġfamilj ens
Ġdeal ers
ĠspÃ¥r ar
Con nor
Rob in
rott ningen
Ġspr Ã¥ket
m ars
Ġb our
ĠL ill
Ġsp ik
Ġim plant
hand el
Ġpost en
ĠfÃ¶rh Ã¶ra
Ġover he
Ġtv Ã¤r
St Ã¥r
c row
ose velt
Ġdis order
rad ition
Spe ak
Ġvote s
Ġkonsek venser
ĠS alt
sh ake
ĠLu cious
El i
Ġwor n
Ġmus lim
Ġbl ad
Ġer m
und ers
Ġstuff ed
Ġfem ton
Ġguld et
ĠmÃ¤rk lig
ĠsÃ¤m sta
Ã¶ te
Ġber us
ult om
Ġdou b
Ġkvarter et
Ġrib s
Ġn igg
ĠN ine
ju kt
G us
u ka
ĠB erk
Ġtj ur
Ġdemonstr ation
Us ually
b ank
p arty
Ġan lÃ¤gg
Ġsupp er
p iece
ĠJoh an
Ġavf yr
ĠÃ¥tgÃ¤r der
Ġadministr ation
ĠP el
Ġmet od
b at
Ã¤ ten
ll ie
ĠJ ar
FÃ¶r modligen
oo f
Ġsix th
Ġcontin ued
Ġdator er
W N
s ak
Ġg Ã¤llande
Ġp uff
Ġback ar
L ay
Ġk usten
oc aly
ĠhÃ¤ls ade
ĠArm strong
ul se
ast ings
l ong
le ys
ul an
Ġdisco very
O G
ĠG ame
vel ope
Ġmas ken
Ġv ast
Ġsn o
Ġcap acity
Ġsurv iv
Ġtrupp er
T op
ĠN ico
br id
Ġdo cka
ust igt
ĠF IRST
ug h
Ġcent imeter
Ġlad da
ĠSu z
ĠTiff any
Ġber Ã¶r
Ġstr ings
ĠrÃ¥ tta
B omb
V ID
ot et
ĠCh ild
Ġak uten
L ET
el en
ĠB elle
ĠV D
Att ention
cel ona
ĠF let
Ġtro ligt
ĠgrÃ¤v de
Ġsc ra
ĠsÃ¥r et
h or
way ne
D erek
Ġt ension
Ġins ett
ĠPer cy
sÃ¥ld ern
ĠB ald
ĠL ynn
ĠO la
hÃ¥ll et
ĠWith out
ĠJoy ce
Ġuppre pa
J eez
Ġtv Ã¥ng
Ġjack an
Ans wer
N ya
it as
Ġav led
Ġint u
Ġinc on
Famil y
Ġkines iska
M E
ch t
ste p
fÃ¶rs Ã¤k
Ġsor gen
Ġomt Ã¤nk
l ets
Ġhe ars
Ġbus h
Ġlag at
dom en
ĠHe ar
ari q
Ġborrow ed
f ession
Ġpro s
ĠCom ing
C opy
Ġly ft
i Ã¶sa
Ġbe e
ĠM os
sh istor
ĠGil bert
Ġh ugga
Ġk up
Ġliv ets
ĠDe b
Sk ojar
m ary
ĠW ally
Ġkv alitet
bet h
bor ta
EL Y
ĠW alk
ĠfÃ¶ ds
Ġtry in
Ġqu ant
atter son
S C
Ġtr um
Ġdec ides
ĠM ills
app ropriate
Ġste pping
Ġentertain ment
I AN
p te
th ree
ta ke
Ġbl ott
ster dam
Pro te
ĠsvÃ¥ra ste
Ġconv ict
Ġkoncentr era
Ġridd are
A ud
ĠK em
ser v
s Ã¥r
uck an
Ġstor es
Ġmag isk
ĠSep tember
ag net
ĠB la
ĠL em
bjud ande
Ġakt ivitet
Luc as
Ġg yllene
kom pis
Ġstad s
ĠNad ia
Ġc odes
Ġgrow th
ĠfÃ¶rsvar ar
ĠPac ific
Ġank le
ch air
Ġsl ar
ĠRad io
Ġrutt na
N ina
qu el
Ġam p
Ġban ker
Ġfunn it
ĠfÃ¤st mÃ¶
ĠM R
ĠM oses
Ġut slag
ĠÂ £
ĠHug hes
ĠB ah
Ġnu mera
Ġle ken
Ġpu pp
Ġcent r
Ġkv ad
ĠBr itt
Ġrefer ence
Ġreve aled
Kl iv
Ġreser vation
cH FFFF
Ġcomprom ised
Ġs aga
Ġbr unch
Ġacc omp
by xor
Ã¶k at
Ġdej tade
ĠfÃ¶rne ka
L ex
ĠT on
l id
ĠChe f
Ġas hes
Ġdr um
Ġant ik
Ġkontakt ar
Ġvar or
Ġgre k
Ġadvis e
Ġk een
il o
ĠmÃ¥ lar
om ber
Ġst Ã¤r
ke pp
Ġfr Ã¤ck
ĠEx cept
stru ct
I X
l ast
Ġsk ed
Ġtr an
ĠF ra
ĠST ART
Ġtext ing
O wen
Ġs ang
ĠvÃ¤g led
Ġcivil ian
ĠBre ak
Ġen velope
Ġkn ight
Ġcou p
ĠBr ight
ĠbÃ¶ ckerna
Sc rew
agh etti
k Ã¶tt
ĠP ART
ĠK az
be k
Ġap ote
Ġcelebr ity
3 4
ue z
ph rey
ran ns
Cl ay
bru k
Ġprakt iskt
ĠAma zon
Ġman ners
âĢ ķ
B an
Ġp opped
Ġdu ties
ĠnÃ¤r m
Ġdec ade
ĠJess ie
ĠsÃ¤rsk ild
ĠH orn
ĠK ey
ĠMel anie
ĠnÃ¤t verk
H istor
Ġde er
ol s
Ġa kade
Ġh int
Ġact ors
ĠTh ings
Ġmom s
Ġrece iving
Ġsmek namn
Ġwas hing
FÃ¶r bann
arry l
ud ed
Ġinstinct s
en stein
Ġwh ale
ath a
Ġs od
Ġne at
ĠE lla
Ġplock ade
Ġmot iver
Ġad opter
ĠÃ¤nd ras
Ġl end
Re becca
Ġgrav ity
Ġpud ding
Ġc ows
Ġbelie f
Ġhund arna
ĠAd rian
Ne il
L aw
ant ing
sk at
ĠF O
ĠU lt
iss ippi
Pr ins
Ġavoid ing
ĠNo vember
Ġfar mer
Ġend less
ĠTr ent
Ġsoft ware
Ġbl Ã¶t
Ġch ess
Ġch att
Ġskydd s
ĠMid dle
Ġom ring
Ġmin sann
Ġuppf ann
ĠRep ubl
Ġcraw l
V atten
ĠG erald
sp Ã¤r
ĠCla us
Ġexecut ed
C at
ed o
Ġlos es
Ġkyss er
" '
Ġut gÃ¶r
âĻ «
Ġgre pp
Ġsp ets
G reen
l ow
ic us
Ġutfor ska
L IG
â Ħ
Ġconcl usion
Ġdisturb ing
and ro
ik as
Ġtryck te
Ġsiffror na
yl t
Ġuppfatt at
v ald
ĠR udy
Ġgr am
lev el
ĠCon ne
bÃ¶ cker
F und
Ġv alley
Ġ4 6
Ġgall ery
B ODY
ff ekt
ĠI rak
ĠO M
old ater
Ġtunn eln
B ek
ĠM i
Ġuppt Ã¤cker
Bru ce
ĠD iamond
Ġperson alen
ĠjÃ¤tt est
bo at
Ġparad ise
ĠsjÃ¤lvfÃ¶rtro ende
C ertainly
Ġtatu ering
ĠM ist
kt ions
ĠU NDER
bil ar
Ġvol can
K rist
Ġde ploy
ĠC it
âĦ ¢
d ict
Ġin ev
um met
Ġirre levant
H or
ĠbegÃ¤r an
Ġle ktionen
ĠvÃ¤n ligt
ĠU l
ĠnÃ¥d de
Ġswitch ed
ĠB axter
h u
v inna
Ġs Ã¤nde
ĠA P
How ard
Ġstat ements
Ġentit led
id em
Ġblomm orna
ĠV ul
Ġexc itement
Ġmedic iner
ad ens
ĠA cc
ĠC andy
Ġaff airs
Ex cellent
Ġglas et
Ġestablish ed
Ġing Ã¥ng
Ġdiscuss ing
Ġm asc
Ġkry dd
G ott
Ġa chie
an terna
ĠkÃ¤nd is
ĠtrÃ¤n ingen
Ġship ment
ĠfÃ¶rber ett
Ġspread ing
Ġrek ord
Ġdoub ts
B ef
ĠSc arl
ĠSqu ad
C y
T anken
Ġl amb
ra ine
ĠM ate
ĠFr Ã¥ga
Ġappro ved
Ġinclud ed
Ġfasc inerande
Ġtid ningar
L Ã¤ng
ĠHaw k
ĠCle ar
os am
ĠCl ass
ĠStar fleet
Ġfeg is
Ġinher it
Ġb iz
ĠvÃ¤ kt
Ġroll ed
Ġfisk en
C OM
ĠD ol
Ġtr ycket
ĠB undy
ĠL ing
ĠBl an
Ġkung liga
Ġsop orna
fel d
ĠMosk va
ans var
Ġeter nal
Ġth read
ĠJa x
ĠCol orado
telef on
Ġan klagar
Ġpl Ã¥ga
Ġass ets
ĠFl oyd
Ġaster oid
L Ã¥ng
Ġn aughty
Ġch ili
AS H
ĠAny way
Ġconvin cing
Ġwor ship
Ġchick ens
Ġlic ens
L es
Ġom rÃ¥den
ĠTh under
yr Ã¥
Ġinter cept
Ġlux ury
h ave
ĠH ands
ĠV I
Ġhaunt ed
ĠCraw ford
J eremy
Ġvar ifrÃ¥n
f und
Ġ% .
V ING
m Ã¤t
Ġr ita
ĠE z
ipp e
Ġpract ical
Ġschem a
Ġkind ness
osh i
ĠAle c
ĠlÃ¥d or
D U
Ġa pril
ap es
Ġprot okoll
p ek
Ġe ager
Ġbed Ã¶m
ĠjÃ¤tt et
ĠMer lin
ĠTor res
Ġskjort an
at ures
I an
j erna
Ġth ieves
al ia
Ġhim la
ĠJen kins
F Ã¶ljer
l ack
Ġw olves
Ġi kapp
Ġdi ary
Ġper f
Ġtur ner
Ġbur k
ĠkÃ¤rn vapen
2 9
Ġtest et
az or
Ġkur sen
I sa
re ction
Ġbo obs
jej en
ĠB IG
Ã¤v lingen
Ġsy sters
ĠTH R
Ġair craft
Ġmilit Ã¤ren
Ġcas u
ĠÃ¶verlev ande
Ġk ust
get s
ĠMar cel
ĠMc K
ĠWes ley
G ratulerar
y stem
ĠM ika
ĠT WO
Ġok Ã¤nda
ĠK u
ĠDan te
Br and
d ligt
Ġtheir s
ĠBill ie
Ġw akes
Ġha ul
ĠG h
ap anska
ĠInd ust
ament et
Ġinspel ningen
ĠI vy
ion e
cl uding
Ġfail ing
V itt
z ens
ĠC ons
Ġkl ing
ang s
Ġjud ging
Ġprakt ik
Ġlesb ian
Ġn akna
Ġfr Ã¤ls
Ġbeslut at
Ġorg ans
G ordon
ar skap
Ġtr im
Ġab ilities
ark ost
Dr Ã¶m
ĠMont ana
Ġdome stic
ĠK it
Ġper mit
Ġgradu ate
ĠDani els
ra ff
del en
Ġcho osing
Kom mend
Ġbri ster
Ġheav ily
A H
ĠB unny
gr Ã¤ns
Ġmus cles
Ġfilm ade
Ġauth ent
Ġfun ktion
Ġpar all
a ire
ĠN atur
ap ing
g jorde
Ġmy t
pl os
ĠKe en
Ġchick s
ssy stemet
Ġsurviv ors
Ġg h
Ġme ets
Ġmilit Ã¤ra
Ġc yn
ĠT RY
Do ing
Ġfru ar
Ġperform ing
Ġgenu ine
Ġu dda
ĠS or
ĠF i
ĠfÃ¶rbÃ¤tt ra
Ġexcl usive
i ors
Ġdubb la
Ġdu gg
Ġbe ep
ĠA ff
Ġol Ã¤mp
ĠslÃ¤pp s
Ġarri ving
Ġau ktor
Ġbrottsl ingar
ĠB ed
Far vÃ¤l
ĠS ac
Ġsc ent
Ġval ues
ĠPro te
Ġpsyk opat
Ġpir ate
ĠCourt ney
Ġbaj s
L igg
Ġtravel ed
Ġdistra ction
Ġcand le
HjÃ¤l per
ve ster
Ġan tid
ĠB ates
Ġled sna
Ġpur ple
Ġanklag elser
Ġoffret s
Ġtrou bles
Ġfej k
Ġsh adows
Ġ" ...
Ġsu cker
ĠEurope an
Jess ica
Ġmaxim um
Ġsou ven
U P
ĠG abe
ĠL ib
iv alen
St ig
amer ikan
Ġk inder
our nal
ĠÃ¶ver fall
Ġbed s
Ġjud ar
Ġstul na
Ġkvinn lig
Ġgalen skap
Ly ft
H ay
Ġt oug
om in
we iz
wh y
ĠtjÃ¤n at
Barn et
Ġbe es
ĠB omb
Ġsl agen
Ġtro phy
Ġnatur liga
ĠWal sh
Ġcons um
ĠknÃ¤pp t
S ER
Ġexplos ives
Ġf are
akt ar
Ġstat ue
Ġdress es
gre jer
a id
ĠsÃ¤ker heten
Ch ar
ĠfÃ¶delsed agen
irk eln
f Ã¥g
ob ile
du kar
Ġn jur
ĠfÃ¶r ned
ĠÃ¶verv Ã¥ningen
K ung
oun ge
Ġallerg isk
Ġb ounce
Ġst iff
ul et
Ġow ed
ke ppet
ĠC athy
God e
Ġsuggest ion
Ġbell s
ĠundersÃ¶k ning
Ġdeprim erad
L Ã¤tt
ĠCh annel
OR RY
Ġdist ress
ĠBar b
Ġcontain er
folk et
ĠStor britann
Ġto ps
Ġwait ress
Ġbur ger
ĠDO ING
Ġkamer orna
ĠlÃ¤sk ig
Ġkropp arna
ĠCall ie
ĠknÃ¤pp a
Ġ8 5
amer an
ĠHaw kins
g ilt
Ġv oted
Ġn Ã¶t
Ã¤l te
Ġupp hÃ¶r
ĠTHE IR
Carl os
ĠB ass
ĠR everend
Ġev alu
Ġconf essed
Ġpray ers
emeter y
Ġlo ppet
Ġbag age
ĠgÃ¤st erna
Ġexplod erar
Ġintent ions
4 00
Ġall ows
ĠÃ¶ver lÃ¤g
Ġmet oder
A y
Ġ /
ast ro
rott ning
obb s
Ġsurpris ing
Ġconvers ations
Par ker
ĠA ce
Ġkl iver
Ted dy
cHFFFF FF
Ġk etchup
ĠA braham
ĠSh in
Ġet ik
Rick y
Ġtelefons amtal
l ett
ĠfÃ¶rÃ¤ld ral
vert ed
Ġm oln
lik ely
ĠB ak
Ġher t
Ġled iga
ĠfÃ¶rbjud et
Ġow es
Ġpaket et
Ġprote ster
Ġsj Ã¤tte
giv ning
Mad ame
Ġfris yr
Ġdjung eln
le ver
Ġsk on
Ġfr ansk
th ink
Ġark ite
C lar
h at
Ġled aren
Ġhall Ã¥
Ġinterrog ation
Ġm it
ĠS arge
ĠB it
ĠE mm
Ġpubl ished
r iska
Ġcl ues
Ġreck less
ĠHEL P
ĠT ab
Ġju vel
ope z
af ia
Tjej en
ĠPent agon
P ad
ĠT ard
bur ger
Ġa f
Ġman nar
ĠMan chester
Ġschem e
Ġsucc Ã©
Ġman ual
amm it
ĠslÃ¤kt ingar
M organ
ĠfÃ¶r are
Ġdo ft
Ġgo sse
Ġpro c
Ġpre y
Ġecon omy
ĠServ ices
N eg
Ġsh ore
ĠC ecil
ĠF arm
Ġhud en
ĠK ILL
ĠvÃ¤rld ar
lin es
ĠA CT
Ġworth less
Ġutom jording
Ġt ang
Ġk ly
im ated
ĠfÃ¶rlor ad
Ġlight er
Ġcir c
uf us
Ġcloud s
Ġo ktober
Ġsh ave
Ġhand c
fil men
ir ur
oc ate
Ins er
Ġprivile g
Ã¤ll an
Ġ4 9
Ġdep uty
ĠfÃ¤st man
Ġserie mÃ¶rdare
E arl
Ġm unk
ĠtrÃ¥k iga
Ġcol our
ĠvÃ¤rd ighet
Ġgym nast
Ġposit iv
ĠrÃ¶nt gen
K iss
S akta
sk ak
HT ER
ĠfÃ¶rd Ã¶m
Ġr inner
ĠP ink
Sh awn
Ġsk ild
ĠT ol
ĠHar riet
ĠSk icka
B il
Ġ ere
Ġmar in
Ġcoff in
Ġromant isk
ĠG IRL
Ġkont ant
ĠWill y
ĠCarl ton
Ġuppfatt ning
ĠHoll and
d ollar
Ġdet ektiv
ard i
Ġjur isd
Ġh ay
Ġpre sid
oy a
UR N
Ġviktig ast
Ġabs ence
Ã¸ r
ĠFerrar i
B etty
L in
l Ã¶
Ġsens es
ĠÃ¶v ning
Ġen thus
MÃ¶rd aren
ĠNaz is
I nde
j akt
ĠN ya
ĠR ab
Var ken
ĠfÃ¶lj ande
UN G
ĠW ake
Ġfly tande
ĠSte p
lo aded
ĠOct ober
sk o
Ġfat al
ĠPl us
D ro
ĠW ON
og ie
Ġintress en
ĠAustral ien
ĠpÃ¥g ick
Ġchauff Ã¶r
H omer
S yd
oy ager
ĠTy vÃ¤rr
ĠbrÃ¥d skande
T ok
h Ã¤
ĠH olt
ĠE den
Ġattack erar
ĠAb u
f u
Ġst up
ph ic
ING S
Ġkar ate
rÃ¤der i
Ġpsychiat rist
F ORE
T odd
f at
Ġf n
Ġgo ose
ĠL amb
Ġpolice man
ĠMont gomery
Ġsentiment al
H om
pl ane
Ã© e
Ty ler
ĠB uff
Ġbland ar
Ġveh icles
Ġt uck
Ġk anten
Ã¶r r
He ja
ĠHe art
Ġtag g
C ole
Ġr iva
Ġco al
Ġbrott splats
S aken
ĠHar lem
ias m
Ġcigar etter
ĠVÃ¤ ldigt
Ġskjut sa
Ġs allad
Ġdon ation
ord nade
Ġel ements
Ġshot gun
Ġhed ers
ATH ER
P ort
Ġc ong
ĠO peration
Ġvis itor
ĠBo om
ĠWood y
ĠEli jah
im it
ab outs
Ġsv iker
port s
Ġin appropriate
ĠF eel
fr am
NÃ¥ ja
Ġpro ves
ĠsjÃ¤l en
on gest
ĠP eg
ĠR ik
Ġc afÃ©
Ġr ibb
ĠS unny
Ġsp ider
Ġsky ller
Ġmatch er
Ġansikt s
ĠfÃ¶rs Ã¶rja
Ġdetect ives
ĠvÃ¤rdel Ã¶sa
ĠPhill ip
Ġj akten
ri ble
Ġut sl
Ġor bit
Ġsl ampa
ĠfÃ¥ng at
Ġexperien ces
Ġvampyr er
Ġhar vest
ĠK hal
Ġbes Ã¤ttning
alt on
Ġep ic
ĠST ILL
ĠRon ald
ĠC opy
Ġmotherfuck ing
Ġexecut ive
p y
OU SE
C a
Ġut vÃ¤rder
pro jekt
Ġ ound
ss alen
Ġbesl Ã¶t
u an
Ġt Ã¤lt
Ġfr y
Ġver dict
Ġam ate
Jack son
F air
M Ã¶t
ell en
Ġinv iting
Ġfool ed
Ġy acht
Ġst rikes
ĠM onsieur
Ġch er
Ġgr Ã¤nd
ĠRe ese
IC T
N ate
ĠâĻª âĻª
Ġres ort
Ġinsist erar
ĠS end
ĠEm peror
ĠJud ith
Ġku vert
ĠDist rict
ens ions
Ġaut o
ĠAG AIN
NÃ¤m en
J esse
Ġfr Ã¤s
Steph en
ĠGust av
A ri
ĠSP E
Ġosyn lig
Ġkom b
ende z
Ġpsych opath
ĠEr nest
H ittar
ĠN Ã¤sta
Ġkonst ru
Ġbe arbet
Ġsex ually
ĠTr ue
Ġsuggest s
Ġchair s
Ġr ash
ak ota
Ġtr ipp
ri cker
Ġbehand las
ĠÃ¶vertyg ande
Ġtraged i
Ġtal et
IN T
ĠSh ang
al ine
Ġse iz
ĠU kra
Ġinst inkt
ĠRich ards
Ġteen age
ĠT our
Ã¶ll op
Ġ18 0
che z
ĠSus ie
A k
E ld
r ill
Ġb inda
Ġbok st
Ġreplace ment
Ġutre da
D ON
Ġch art
Ġsex iga
Ġspo il
Ġdrown ed
D EN
Ġuts Ã¶kt
Ġdiskut erar
3 3
ĠC ook
la im
Ġty g
AR Y
ĠomstÃ¤nd igheterna
pp ade
amm ation
ĠRep ublic
o ven
Ġw ax
ĠM A
Den nis
ĠJan ice
Ġcompass ion
K arl
Ġhel gon
Ġass ured
Ġtekn iskt
Ġbote medel
s ome
el da
ry ing
Ġar ranger
Ġdel eg
Ġdusch a
Ġmisshand el
Ġreject ed
Ġkomp ens
Ġancest ors
T aylor
Ġk app
Ġutomjord ingar
F lor
N am
ĠM UCH
ff y
Ġfac ed
S L
ĠgÃ¶r s
ka h
Ġbry ggan
Ġske pt
ĠSim mons
use um
Tot ally
Ġt ass
IN A
ĠS EN
Ġsh ares
ĠW i
Ġvak ta
ĠfÃ¶rtjÃ¤n at
Tr uth
ĠJul ius
x imately
Ġbar m
ĠrÃ¶r an
ĠrÃ¥d et
Ġrop ade
ĠArt ie
Ã¥ lig
Ġmin uten
Ġno vember
Ġpat ter
Ġsign als
Ġwish ed
Ġinom hus
Cra zy
Ġorgas m
ĠHÃ¶r de
Ġf ient
ĠB EL
Ã¤g arna
Ġflo at
ĠCyr us
ĠC ookie
Ġstud erar
upp drag
Ġerk Ã¤nnande
ĠBrit ain
Ġbreast s
Ġv rede
ound ed
Ġval id
Ġhop eless
Inde ed
L ess
Ġakt ie
ĠbegÃ¥ vad
Ġkron or
C ount
Ġs ushi
Ġd ryck
ĠJ es
Ġcomp are
ubb y
L ana
we ed
Ġbrors on
Ġound vik
Ġnick name
Y e
Ġsp oon
end ers
el p
Ġbo ost
Fr un
Ġart ific
Ġd jÃ¤r
Ġb oun
um mi
ord ning
Ġhos pit
Ġaccompl ished
G G
S at
ĠK athy
Ġpat ron
Ġvac cin
C ourse
n Ã¶d
en ne
Ġo oh
Ġfir ma
ĠJu de
Sy ster
s Ã¤tet
ll ar
Ġpresent erar
ĠkÃ¶tt et
Ġresid ence
Ġanteck ningar
re sident
ĠFÃ¶r sv
ĠHel ena
Ph one
Ġstrun ta
ĠtillgÃ¥ng ar
Ġresid ents
ĠPenns ylvania
Ġh Ã¥n
Ġch ased
ĠPar ad
c r
ĠvÃ¤r den
ĠÃ¥ter skap
Ġquestion ed
ĠAs ian
Sv Ã¥rt
Ġutl Ã¤nd
Ġingred iens
Ġdam erna
Ġhyp not
Ġkonsekvens erna
ĠAll y
Ã± a
ĠDea con
ĠFl int
k rig
Ġm Ã¤ngd
Ġfl ames
rest on
Ġgrupp er
Ġgy mmet
Ġembra ce
I ER
s d
y eah
Ġp add
gr an
Ġkr as
ĠCl inton
Ġskol or
Ġemotion ally
Ġind icate
Ġsandwich es
Ġreun ion
l add
De ep
inn ers
Ġelse where
g rav
w ait
Ġbl og
ĠRo osevelt
Ġgener ationer
Ġanl Ã¤nder
M ellan
Ġp el
ĠM ol
Ġfr iska
Pat ient
Ġphotograph s
Ġriska belt
C R
u ari
Ġtill kÃ¤nn
ĠL ycka
Ġint imate
dr Ã¤kt
ĠBar celona
ĠvÃ¥ldt og
Ġsmy ger
D ist
Ġin ifrÃ¥n
Ġbit er
OR Y
Ġret rie
ĠUn less
Ġhack ed
P ower
Ġman n
ĠAd miral
but iken
ĠP sy
ĠU nd
ang ing
ĠTom orrow
Ġsaus age
Ġoff ensive
Ġdum pa
ĠCo sta
ĠbefÃ¤l et
Jose ph
ĠJ em
Har vey
Car rie
ĠbefÃ¤l havare
Ã¥ nd
Ġsin nen
Be at
Ġleg ally
Ġt ires
Ġvar v
ĠB uster
ĠK ah
ĠAll ah
ĠAm sterdam
Ġtunn els
In om
Ġtom b
ĠMiss issippi
ĠSn art
ĠstÃ¤m ningen
i ater
ĠF ight
act ive
ĠBl ir
ĠGreg ory
Ġsp er
ĠberÃ¤tt elsen
ĠgÃ¶m stÃ¤lle
ĠkÃ¤ll or
Ġco vers
Ġent rep
Ġitalien ska
Ġcontroll ing
Ġdu ll
ĠJuliet te
Ġp ang
ĠR oth
o ffic
Ġc od
ĠMc Donald
Ġdirect ions
Ġa ma
ĠT onight
ĠW right
Ġser um
rÃ¤ det
Sen ator
th en
IS E
Ġstad ens
Ġh alt
Ġg yn
ic ial
av an
ĠfÃ¶rsv inn
con ne
E vent
Ġp ommes
Ġlo vers
ik lar
Ġh olog
Ġuppt rÃ¤da
Ġplan ets
nat ur
nat ural
gr im
Ġbuy er
Ġcand les
a ft
Var ifrÃ¥n
gl ass
ĠSoph ia
Ġhals band
Ġsmuts ig
Ġpassager are
A aron
M eg
Ġst ash
ĠGe off
ĠBeck ett
Ġrekommend erar
sk in
ĠlÃ¥ng s
ĠFÃ¶r st
med del
l aughter
Bl oody
ĠMort y
ĠfÃ¶r vÃ¤r
Ġmiss ile
Ġtre mend
stÃ¤ll de
Sp el
S U
j Ã¤gare
Ġr ation
ic ating
ĠBar bie
Ġwhis per
ĠTan ner
ess ler
Ġsome what
God a
Ġliber ty
ĠSha un
Ġgest ure
z ar
Ġsky m
Ġf iska
ĠY ale
Ġent us
Ġpy jamas
s Ã¤nd
ĠD eck
ĠR Ã¤tt
Ã© l
See ing
kr Ã¤m
Ġvig il
Ġp ank
Ġpl ague
ĠDon nie
Ġhalv vÃ¤gs
Ġguard ian
u mer
Ġex or
Ġcent re
Ġsuperher o
ĠN ixon
ĠdÃ¤r uppe
Ġtort yr
ep ar
Ġsw amp
Ġsvar at
ĠfÃ¶resl Ã¥
Ġkork ade
Ġmagn ificent
Ġschol arship
R uth
v attnet
ĠS la
Ġav delningen
Ġtra ces
Ġproject s
Ġappl ied
Ġuppfost ra
B itch
L ive
Ġh ink
ri Ã¤ren
C ons
h ales
Ġp aw
te sy
ly ing
und ar
Ġsc ram
ĠRe agan
Ġsol ned
Ġcir cles
Ġteleg ram
Ġdri vers
ĠAp ollo
t rÃ¤ff
Ġh j
Ġf ont
ĠL IFE
ĠÃ¶ver huvud
kon st
ĠsÃ¤ll synt
Ġslav ar
Ġbad ass
ĠÃ¤m net
at iskt
ĠD ag
ĠN IGHT
Ġsp ol
ĠdÃ¶d ens
Ġpurs ue
F Ã¤r
Ġh Ã¶v
ĠB il
ka p
Ġsc oop
Ġbill ig
Ġrent ed
Ġje opard
R app
Ġ ore
ul in
Ġsu ver
Ġstud ie
ĠJosh ua
Stra ight
c ro
Ġse min
ĠN Ã¥
Ġkom bin
Ġcar bon
cu its
Ġbrott et
Ã¥r sÃ¥ldern
sk Ã¥pet
ĠT rey
Ġso pp
ĠEric a
glas Ã¶gon
Ġtra vell
Ġprecis ely
Ġstyr kan
ĠH OME
ĠT est
Ġspe kt
ĠNe ed
imm ade
ĠÃ¥n ger
ĠCoh en
b jÃ¶rn
Ġcar ing
Te chn
ĠR anger
ĠgÃ¥ vor
Ġkid do
Mar garet
Ġplas ma
Ġc attle
ĠH astings
ĠB ey
Ġvill ain
ĠSm all
Ġplac era
Ġeur os
Ġbracel et
ad ian
ĠhÃ¶ st
Ġovan pÃ¥
Int ressant
ĠP UT
Ġut rot
Ġstr ongest
yr kan
Ġarm or
ĠkrÃ¤ k
Ã¤g ge
Po Ã¤ngen
Ġsmek mÃ¥n
bund et
D Ã¶rren
M Ã¥let
at ives
ĠGr an
res ents
Ġvitt net
P al
Ġfr anc
ĠdÃ¶d liga
ĠrÃ¥ ka
Ġinterf ere
ĠW ag
Ġ9 5
ĠmÃ¤r ken
Ġrelat ives
ĠB arna
be vis
ha i
Sm Ã¥
Ġpoison ing
Ġelectric al
Ġall ians
he j
vet et
Ġmyst iska
E VER
ĠA in
med icin
Ġstory n
ĠfÃ¶rt jusande
centr alen
Ġposit iva
ĠpÃ¥m inn
Ġf east
ass er
Ġelect ed
Ġmotorcy cle
Ġst Ã¤mde
Ġgo als
Ġtv ill
LE ASE
Ġmask iner
M onsieur
ĠN ell
Ġturn Ã©
Ġtour nament
ERS ON
Ġsabb ar
Ġas yl
Ġmis ery
Ġzomb ies
w ind
w olf
Ġs Ã¶g
ut on
Ġlea p
ann ie
Ġap els
ĠSk jut
Ġpan cakes
Ġopportun ities
ĠVal erie
mÃ¤r ks
ĠkrÃ¤ va
Ġknuff ade
Ġa ugust
ĠG ord
ci ety
Ġsc ores
ĠMar ine
Ġmisslyck ats
Ġcomprom ise
L ea
ol er
Ġhon ung
Ġsm id
Ġday light
Ġpack ar
ĠKl art
Ġbegg ed
Des pite
Ġwrest ling
Ġa irl
Ġfl ed
Ġned er
ĠÃ¶verrask ningar
ĠsmÃ¤l ter
Ġgymnas iet
Ġ Ãĥ
Ġtack ade
ĠfÃ¶rf Ã¤der
Ġbi ological
ĠkrÃ¤v de
Ġjulkla pp
Ġan om
Ġwe bb
Ġbl aming
ĠBen ed
tr Ã¤n
Ġpassion ate
ĠC ynthia
ĠP ul
heim er
Ġm ount
Ġl ou
ĠfÃ¶rt j
Ġblom ma
Ġdent ist
S qu
o ine
Ġtelefon nummer
Ġple a
Ġklag omÃ¥l
Ġpyram id
ĠD IG
ĠP olisen
Ġcra z
que z
ĠDep uty
or al
ore y
ĠanvÃ¤nd ning
Ġcoll apse
ĠhÃ¤ft ig
Ġelekt ron
Ġmorg ond
od ie
ne cess
ĠE instein
Ġbas erat
Ġmedicin ska
Ġlamp an
Ġcertific ate
W ord
s ir
Ġs Ã¤nda
Ġk afÃ©
ara ble
ĠP owell
ob o
Ġcl ip
ĠsÃ¥n ger
Ġn un
ĠH assan
Ġom fatt
Ġrem embers
v Ã¥rt
Ġel der
fr isk
Ġgl Ã¤der
ey e
ppen bar
l Ã¤pp
Ġel Ã¤nd
Ġbur glar
Ġdece mber
inten ance
ob il
ĠBrid get
om eter
am ot
bb an
ĠJe ong
ĠSU RE
Ġlink ed
Ġp ale
Ã¤v es
ĠlÃ¶n n
Ġbr Ã¤nd
Ġpass erar
ĠtrÃ¤n ade
u y
Ġsne aking
Y up
ĠL az
ĠW is
ĠhÃ¤st arna
Ġkrimin ella
ar re
as is
Ġsk atten
tog ether
ĠGU YS
ĠEst her
ou ri
ll or
ant i
ĠP la
ĠSch midt
p ent
r ise
Ġf ult
Ġo vÃ¤
ff en
ĠmÃ¶j lig
Ġeter nity
Ġpic nic
Ġintellig ens
Ġutveck la
ult ure
ĠSpring s
Ġnurs es
ĠT ah
Ġher d
Ġan stÃ¤lla
ind ust
Ġtid ningarna
Ġsv ikit
ĠDe xter
Ġexplod era
ick er
Ġcool er
loss ning
Ġbeh Ã¶ll
Ġpol y
Frank ie
Ġscar f
ĠP D
ĠR ap
Ġdum my
Ġekonom iska
ĠBrig gs
F ace
f ald
g ien
ĠVi ktor
Ġdi arr
Ġskil jas
Ġappl ause
Ġinfe kter
Ġnons ens
Ã£ o
ĠÃ¶ver fÃ¶r
ĠÃ¥ter vÃ¤nt
Ġhonest y
rib ute
Ġklin iken
ĠvÃ¤rldsk riget
M id
m amma
s ituation
it is
Ġc ement
Ġimport ance
ĠBE CAUSE
I l
p nad
Ġext ract
Ġspeak er
Ġmask s
Ġexplos ionen
fÃ¶rs Ã¶k
ĠA PP
ge vÃ¤r
ĠCh r
Let ar
Ġ5 2
kom mit
kont roll
ĠtillgÃ¤ng lig
G ift
S IG
ĠF AM
Ġgud om
Ġy t
Ã¤n sa
Ġmat ure
Ġrel ations
Cl ass
Ġcivil ians
Ġdo ften
Ġoff ended
ĠZ ero
Ġcor rid
Ġvul kan
Ġsk ilda
Ġvar ul
Ġwr it
Ġfy nd
Ġbl a
ĠHor se
Ġna ive
Ġt ed
Ġkul orna
Ġrh ym
m ors
ĠY up
Ġcomp ens
Sweet heart
Ġsequ ence
e aring
ĠM oney
ĠlÃ¤ xor
Ġtrip le
W es
c as
ĠG ree
ĠJ ama
Ġlag ret
ĠstÃ¶r de
Ġarbet are
ĠgrÃ¤s et
ĠP lace
ĠK ind
ĠSh ell
Ġmod et
Ġeftermiddag en
Ġmart yr
Ġin att
ĠR ES
aket et
K yss
Ġv int
ĠB urt
ĠHe ights
Ġkapit el
Ġh ott
ry mt
Ġbesvik else
Ġdr owning
ĠDe cember
Ġprov at
ĠGO D
Mat thew
h as
Ġcommun ications
Ġterror ism
ĠstÃ¶ ta
Ġdroger na
Ġager ar
ĠvÃ¤ster ut
J ennifer
h ol
and el
Ġval p
g ang
ĠB enson
ea per
Ġcl o
ĠSt ack
ĠbÃ¶r da
Ġproblem en
Ġinterview s
V Ã¤ntar
c are
ĠD y
Ġmin t
IN S
Sweet ie
ĠomdÃ¶m e
Ġparker ingen
Ġm ug
fÃ¶r l
ĠHar bor
Ġhair cut
Ġin tact
Ġan fÃ¶ll
ach ing
ĠtrÃ¤n at
Ġras ande
g ubb
Ġg on
ĠR ip
Ġbr Ã¤n
kont oret
Ġqual ified
Ġsoph ist
l istan
Ġc ough
ĠF orm
Ã¤ll t
olog isk
Ġutpl Ã¥n
A le
Ġupp ri
Ġbet rakt
ĠgevÃ¤r et
wr iting
ĠT ammy
Ġupp rikt
ĠBe cca
Ġmater ials
ĠpÃ¥min de
M arty
Ġf ots
ĠL ila
em ploy
ole y
uk o
Ġdiv ine
w atch
Ġm aken
le mm
ĠE ight
Ġsm oked
Ġdel arna
ĠlÃ¤ karna
amer or
Par is
y ren
Ġt amp
ĠHe h
Ġimor se
Cle an
ĠSver ige
ĠB U
ĠL EA
Ġbl Ã¥s
Ġk ore
oc co
Ġcir cuit
Ġspar at
ĠtÃ¶r stig
Kopp la
Ġhopp ats
Ġstud erade
Ġglor ious
Ġd ys
Ġk als
k al
Ġh Ã¤ck
or ker
ok ay
ju ice
Ã¤k la
Ġmob b
ĠnÃ¶j es
G iven
J odÃ¥
FÃ¶r lor
ug or
Ġsn atch
so ever
ĠskÃ¤r men
Ġmotorcy kel
ĠC old
ĠB ug
Ġbut cher
ĠÃ¶ver grepp
Ġrum skompis
ĠQ U
sm ak
Bas ically
ĠFE EL
Ġan stÃ¤nd
ĠT ate
Ġsw orn
Ġexpect ations
Ġmedvet ande
Ġcri cket
fÃ¶rÃ¤ld rar
s r
ĠhÃ¶j er
S un
c ra
sk amrat
ĠP i
Ġgu bbe
Ġfund ament
ĠLA ST
Ġarrang ements
Ġpurs uit
n ivÃ¥
ĠS ER
ĠLe v
ĠSk ott
Ġviol ation
ĠTem ple
L Ã¶jtnant
ou x
ĠJ AG
ĠF est
ens a
Ġsm aken
ĠTHE SE
Ġprescri ption
ĠtÃ¥rt an
Ġr uled
Ġde but
Ġle ve
Ġspr Ã¤ngde
Ġstarka ste
ail and
Ġgud ar
ĠfÃ¶rrÃ¥d de
T ouch
ĠA IDS
ĠK ira
ĠkrÃ¤v des
ĠBor is
Dum ma
Ġkommentar er
ĠIntern ational
Ġm Ã¥ng
Ġf asen
ow itz
ĠSy nd
3 9
K L
Ġk ub
bl Ã¥
Ġaffect ion
av or
ĠRe v
ĠD uck
ĠBr ody
Ġnic er
Ġroll s
ĠColomb ia
C ent
ans er
ĠtrÃ¤ sk
p x
ĠR et
ĠFed eral
Ġb ounty
ab out
Ġbr ilj
Ġkon ferens
ĠkvÃ¤ll ens
Ġchef s
Ġkap ital
Ġkort en
ĠSW AT
B less
H aw
is cher
Ġsam lat
Ġtyp iskt
Ġmort al
St at
ole on
aste st
gÃ¥ng sfÃ¶rbud
Ġsub way
Ġrespect ed
Ġhug ger
Just in
ĠfÃ¤rd as
ĠstjÃ¤r nan
Prat ade
Ġexplod erade
ĠofÃ¶rsk Ã¤md
ĠI II
op ol
qu in
Ġgl ove
Ġro ots
Ġsid orna
Ġflo ors
Ġskaff at
J ur
M S
st Ã¶d
Ġwitness ed
Ġshr imp
Ġh ats
el ope
ĠB ul
de partementet
Ġkl andrar
Ġrad era
igg le
Ġlog ic
Ġstudent er
e ur
ok s
ĠE sp
Ġgrind en
ĠF yra
Ġsm ashed
Ġkr ama
str Ã¥
ĠSer ge
Ġchem istry
Ġneighb our
M ont
ing le
ry pt
ĠEv elyn
Ġb os
Ġde kor
ĠIn nan
Ġrom an
Ġsacrif iced
worth y
M agn
ce ller
ĠD AD
ĠP ack
ock er
Ġp ige
ĠInd ians
CHUCK LES
X T
Ġs Ã¤ck
ea ble
kl us
Ġfars an
ĠtonÃ¥r ingar
opp ar
Ġtest ade
ĠsmÃ¤rt samt
ĠfÃ¶rg Ã¤ves
ur bed
ĠL ow
Ġobject s
Ġcounsel or
Y E
ĠN in
pr Ã¥k
By gg
Ġsnack ade
Ġpatri ot
M M
T vinga
Ġt ender
an m
Ġg la
ĠS OM
ĠN an
Or der
Ġinne b
hand lare
Ġfab rik
bass ador
ĠNY PD
Ġguvern Ã¶ren
f ym
ĠS ak
Ã¤m da
Ġro v
ĠjÃ¤ttef int
B org
in ea
am on
Ġsh ith
ĠbekrÃ¤ft at
âĢ« âĢ«
P oint
ĠfÃ¶rb ry
Ġj apanska
Ġphot ographer
Ġenerg in
Ġkons ul
ĠB ast
Ġbest Ã¤ller
ON T
ĠfÃ¶rÃ¤ld rars
Ġmajor ity
Ġd ime
Ġcom ed
ĠÃ¤lsk ad
Ġfly get
Ġhus ranns
Ġrefer ring
ĠrÃ¶rel ser
E than
Work ing
O ffic
p op
ĠB AR
Ġbl Ã¥tt
ĠE ns
ĠSk Ã¥l
Ġment ally
S ig
m inn
ĠM OM
ol ogen
Ġsh iny
un skap
ĠT i
ab led
Ġun likely
Ġover come
ĠSe oul
Ġku ken
Ġsmyck en
No ah
Ġfl Ã¤sk
Ġun re
ous in
Ġad op
Ġclear ance
Ġmeth ods
H us
Ġt ej
Ġsl ant
av ier
Ġgen gÃ¤ld
Ġfil t
stÃ¤ll ningar
Ġtext en
Ġobser v
K allar
ch arge
ĠS leep
um bs
amil a
bl ood
Ġappet ite
Ã¶r erna
sp resent
Ġste l
ĠGl ass
ĠvÃ¤rd ig
ĠSup reme
K enny
ĠM andy
ĠM IL
em o
ĠfÃ¤r re
jÃ¤v el
Ġcous ins
Ġas pect
ĠSl ow
Hit ler
4 2
c od
Ġt ide
Ġdin er
Ġpe anut
Ġask a
ĠstÃ¶r t
igg ins
ĠSpring field
ĠMus ic
Ġintegr ity
Ġv Ã¥t
ĠH ann
ĠO tis
ist ory
ess ions
ĠÃ¶r at
b one
Be vis
ĠCarl o
Ġrelax ed
Fri ends
g ick
Ġa er
Ġp ent
ud en
Ġmotor vÃ¤gen
Ġkross at
Ġhar mon
Ed ward
Ġreag era
Ġmedal j
T revlig
Ġmyster ium
Ġrans om
Ġaugust i
Ġh ant
ĠB uffy
ac ing
ĠfÃ¶rsvar et
st jÃ¤nst
re ag
ĠV as
Ġneed ing
Ġvan ligtvis
LO OK
Ġmag iskt
ĠSp ider
D ouble
ĠB ort
Ġsens ors
Ġsquir rel
Ġr ader
ĠmÃ¥ lade
Ġfl ame
Ġerbjud andet
Ġharm less
ĠrÃ¥tt or
r ent
Ġto an
Ġli la
Ġopp onent
Str unta
lÃ¤gg ande
Ġfrag ile
ĠRol and
ong o
ĠvÃ¤n liga
Ġcl imate
Ġskri ft
atter ing
off s
Cher yl
n umret
sk raft
Ġmin der
incip al
h l
Ġf ifty
ĠD VD
ud i
Ġrest ore
Ġj elly
Ġle ktioner
Ġvil t
Ġprotect ive
Ã¤nnisk or
Ġrar ely
Ġrut in
ĠS outhern
Ġhe ir
Ġout er
kra fter
Ġcons istent
Ġsk Ã¥pet
Ġpass enger
Ġfart yget
Ġdefe ated
Ġanty der
Ġk Ã¥t
Ġsc ares
ĠhjÃ¤r nor
Ġmusk ler
b ab
h Ã¤nt
Ġh unch
Ġl ane
Ġst air
Ġmat es
Ġtro p
Ġanklag ade
ĠÃ¶vertyg ade
mÃ¤ss igt
K ungen
R unt
Ġne arest
Ġrehab il
K ort
o i
ĠB ag
Ġsay in
Ġunder gÃ¥ng
we ight
Ġb Ã¥g
ĠlÃ¤tt nad
CH O
mus ik
Ġadopt ion
ow a
Ġdr Ã¶n
pr al
ĠInd iana
ĠIm per
ĠOre gon
ocaly pse
Ġa fton
Ġwhat soever
ĠK ab
ĠfÃ¶re lÃ¤s
IS K
Ġsell s
ĠE L
Ġfir man
ĠWal es
Sec urity
ĠL Ã¥ter
ĠE un
sp ort
Ġfil ter
Ġinter pret
lighet ens
ĠfÃ¶rm Ã¥n
ĠSher man
ĠCam ille
ĠanmÃ¤l an
ĠWhit ney
Ġpatter ns
E rik
Ġmind es
Ġbur g
ĠSl Ã¥
ĠStan ford
Ġtrygg t
V Ã¤nner
ĠM Ã¥nga
Ġkl andra
ĠhÃ¶ ns
Ġbull y
Ġsettle ment
Ġperform ed
Ġdott ern
Ġutpress ning
ĠL OT
ĠR el
ote s
ĠJan uary
Ġkny ta
P ark
ĠH ollow
Ġupp mÃ¤rks
Ġcom ments
Ġser iÃ¶s
ĠmÃ¤nnisk ors
Ġgr in
Ġcru ise
ĠDev on
Ġk ik
Ġk itty
ĠfÃ¶delsed ags
Ġsuspic ion
Ġbarm hÃ¤rt
opp et
ĠMarsh al
Ġcann on
M egan
r ous
and ena
ĠQu entin
Ġkry ss
ben et
ĠSyl via
ĠCho i
Ġp ung
Ġl am
ro be
ĠP ere
Ġsm ut
ĠvÃ¤n s
Ġlu kta
Ġpunch ed
Ġbol ag
Ġhast ighet
Bak om
ĠS IG
Ġslut ligen
Ġreg nar
ĠrÃ¶ kte
Ġ9 00
Tjej er
Ġfrequ ency
Ġattra her
Ġlun atic
Ġw ig
Ġen rum
cep resident
Ġterror ister
ous es
be f
Ġfre aks
You rs
ĠrÃ¶ kt
Ġcraw ling
H ouse
Ġr ational
Ġstyr kor
ĠSE C
fig ur
Ġguid ance
ĠP ress
Ġsc am
ric ane
Ġlov ande
Ġintell ect
G ri
J oy
ist inct
bb ing
ĠS ave
ĠF ollow
Ġess ential
ĠAx el
ĠPu erto
ĠYEAR S
G A
ĠL opez
ĠP erson
els ed
ĠÃ¶ster ut
fÃ¶r m
Ġbo g
Ġefter rÃ¤tt
Ġans Ã¶kan
fr om
ĠVill age
ĠlÃ¤sk iga
ĠfÃ¶rvÃ¥n ar
ĠrÃ¥n ade
Ġrespond ing
Ã¼h rer
SEL F
Y ES
ĠK lar
K rig
am y
ĠS ign
ĠR um
ĠGo ing
O per
r ors
ĠC ode
ĠG ates
Ġprop ag
Ġview s
Ġsjukdom ar
Ġkomplim ang
Ġp ose
Ġha kan
ĠP ER
Ġsl ang
ĠvÃ¤ skor
Ġry sk
A kt
h uman
Ġb a
ard ed
land o
Ġvin et
Ġtorn et
Ġhospit als
Ġsl ock
Ġfight ers
Ġbomb ing
Ġabort ion
ĠvÃ¤lsig ne
l Ã¥dan
ĠA da
He ard
Ġtri be
Ġd na
ĠS aul
Ġan ade
Ġvi st
ĠB og
Ġfick a
ek an
ĠGo tta
n in
ĠF ried
Ġinsp ector
Ġcollect ing
Ġmut ual
Bud dy
We st
Ġcon dem
ĠMar ilyn
B all
ĠC ash
ĠGo a
Ġlever erar
Sp ara
ĠMad eline
Ġserver a
Ġbedrag are
' !
ter ling
ĠL eah
ikt ig
ĠmÃ¶j ligen
Hand lar
ĠChamp ion
Ġjan uari
Ġall ig
ak o
Ġsur g
Ant agligen
Jon athan
C Y
J os
Ġp imp
Ġbang ing
Ġse ctor
Ġab road
DÃ¶d ade
R and
a fton
c ules
ĠM ISS
Ġefter lyst
Ġskol ans
Ġpress kon
Ġform ula
ĠfÃ¶lj are
Ġhemlighet en
Ġexam ine
ĠskÃ¥d is
ome z
ĠJa e
Some where
Sv art
ĠanstÃ¤ll de
ĠAtl antis
tt e
Ġan at
ud de
Ġus la
Ġhost ile
Ġlegit imate
ent liga
Ã¤l sa
Ġkr Ã¥ng
Ġopin ions
ĠFlet cher
Ġmo ld
RE AM
rick s
Ġcell ar
Ġrecru it
Ġvis as
Ġcl erk
ĠSÃ¤g er
Ins ide
ĠTH AN
ald i
ĠfÃ¶rne kar
ĠHAPP EN
Du bb
Ġunder jord
Ġkon cept
M atch
M arsh
Ġsa int
ĠMich el
Ġsecret ly
ĠstÃ¶d ja
es is
ĠH und
ĠL ass
ĠÃ¶ver sv
Ġann ounced
RE SS
yst ring
Ġsh arks
Ġsee king
ĠSh oot
ĠfÃ¶rv Ã¤nta
Ġsun shine
ĠskÃ¶ld p
P ack
Ġs Ã¶rjer
Ġc ub
ĠI rene
Ġre ktorn
Ġdo se
Ġrep resents
ĠLu na
Ġst ain
Ġsk et
Ġtim eline
ĠvÃ¥r an
Ġad apt
aj en
Ġpress ar
ĠHen ri
ĠÃħ R
Jul ian
Ġaddition al
ar ina
Ġsu nd
ĠMar ion
brott et
Ġcorrect ly
Ġambass ador
S par
Z oe
Ġw ars
va h
ĠkÃ¤r e
Ġcal endar
Ġschem at
Ġdon or
Ġfly ter
mit tee
Ġinvestig ator
Cla ud
ĠonÃ¶d igt
S Ã¤nk
ĠY a
Kat ie
an es
Ġstand ards
S uddenly
n ere
Ġs Ã¶rja
ĠK omm
av el
ors aken
ette s
ĠfÃ¥n ig
ĠAss oci
P am
Ġf itt
Ġfr an
ĠN am
Ġout rage
Ġdej ten
Ġstad ium
Ġgivet vis
ĠD ixon
Ġinc omp
Ġlur at
Ġdismiss ed
C atherine
M est
There fore
Ġclean er
Ġbi ologiska
ĠhÃ¤ xor
ĠZe ke
R ena
ĠR ena
Ġgl itter
Ġvan ished
ĠChrist ina
Ġlaw suit
Ġsmell ed
Ġdece ased
Ġhelik optern
ĠkÃ¤nslomÃ¤ss igt
G L
P apa
h jul
Ġfre st
Ġpress ing
Stra x
Ġhand ika
Ġmod erna
z es
Ġc ateg
ver ker
ĠJ edi
Ni o
ov ich
Ġdisc ount
ĠfÃ¶rvand la
SkÃ¤r p
ĠStorbritann ien
Ã¶j or
ĠfÃ¶rsk ott
Ġmod els
ĠDar ius
StÃ¤ll et
h oma
Ġt ore
Ġt ugga
Ġp each
ĠK iss
qu est
led ningen
L or
ubb a
Ġmod iga
Ġhor ny
fuck er
ĠfÃ¶rvÃ¤nt ningar
Ġmotiv ation
V IN
Ġg ent
is ering
ĠvÃ¤n tan
pl ing
ons o
Ġbil olycka
Ch ange
nal ise
Ġstink s
G ene
Ġb apt
ĠK iller
H itt
ner ligen
ĠblÃ¥ ste
ning ss
sl ar
ĠTh ought
Ġhorri f
Ġskur kar
Ġp ony
ĠP ra
ĠP ep
ĠWh ile
ĠIn n
ĠEd wards
h ea
ere m
Ġli fest
ĠG REAT
ĠR osen
ank ing
Ġun necess
Ġattack er
Ġdirekt Ã¶r
S ally
h als
at iv
el ed
Ġut val
bour ne
B oom
Ġhand ful
AT S
OR N
Ġdist ant
Ġpubl ish
S id
Ġdr Ã¤kten
Ġbit a
Ġph enomen
f old
ent al
Ġdiffer ences
ĠLiber ty
M ormor
g Ã¤st
un ken
Ġbl oss
qu al
be h
ET S
ĠTob ias
en en
Ġf athers
Ġj Ã¤gare
ro gen
Ġav vik
Ġred akt
fer ensen
Ġrescu ed
ĠVaugh n
ol vet
ĠT rum
ĠW ong
Ġfav ors
Ġult imately
h orn
Ġb alk
Ġtr ips
ĠG ick
Ġsm yg
Ġcle aring
Ġbak ter
Ġisol ated
Ġsabot age
ĠÃĦl skling
ge ance
ĠPro ject
ĠHel vete
Ġbebis ar
ĠBu zz
in ely
Ġfri heten
Ġret a
arbet et
ip es
Ġrem inder
Ġdec lare
Ġol j
mind ed
C IS
E st
Ġb ureau
Ġli ket
Ġout sid
og y
ib u
Ġmus iker
Ġmaff ian
W ish
Ġm ack
Ġpr ett
Ġdis rupt
Ġinvest ors
ĠIsab ella
ĠfÃ¶re stÃ¤llning
ĠfÃ¶rm Ã¥gan
bes Ã¶k
Lik som
s ix
ĠO S
Ġ4 1
Ġtekn ologi
Ġtit el
ĠBea st
Ġinflu en
ĠinvÃ¥n are
f un
Ġta cos
ivit eter
Ġfollow s
Ġrain ing
es c
Ġwr ites
Ġtack samma
Ġuppf in
ĠfÃ¶rvir rande
ĠTh ailand
Ġem bassy
Ġsouven ir
F eels
im ension
are k
Ġwar riors
br ush
Ġtrans mission
Ne ill
ĠColumb ia
B i
ill ac
skri ft
F yll
m ass
ĠC art
Ġlo bb
Ġut rikes
Ġgjort s
Ġrel ative
Ġlang are
C onsider
M Ã¤r
Ġbl oke
tro om
Ġpat ent
Ġrest ri
vak ta
Ġp etty
ff el
Ġrob ots
Ġbri cka
ĠÃ¤r enden
Ġfast nar
Ġobekv Ã¤m
ter as
Ġlik ing
Ġstud ier
Ġchalleng ing
Ġcollaps ed
r ens
ar in
Ġco tt
ĠvÃ¤x el
Ġnewsp apers
ĠpÃ¥lit lig
o ise
Ġatt ic
ĠSt Ã¤ll
Ġsur ge
ctic ut
G ina
ad ays
sk ift
Ġstopp at
Cont in
J er
n ell
Ġl ump
ĠÃ¤ del
AN N
Ġfull m
by te
ĠfÃ¥n igt
Ġveget arian
Ã¶ sta
Ġl od
ĠO cean
ĠV lad
Ġsc ulpt
ĠSo cial
ĠAl most
Ġsituation er
A ct
B uck
Ã¤tt ra
jÃ¤v eln
ĠB ibeln
ĠT s
ple asant
Ġob tain
Ġtrans ition
vak ter
spro blem
Ġskv aller
Ġbedr Ã¤geri
ĠSad ie
s ens
ap o
ĠW anna
SÃ¥ klart
Ġsak es
Ġbeg Ã¤rt
alm on
ĠhÃ¤ng iven
Ġlift ed
Ġdelight ed
Ġmetaph or
Ġin quir
te xter
Ġdo zens
sk ed
Ã¤nd else
sp ace
uk as
Ġpolit isk
Ġdev ices
Ġdiam ant
ĠH O
ĠV e
ĠsjÃ¤lv sÃ¤ker
ott om
Ġsna kes
Ġtrust ing
ĠÃ¥ld ern
Ġanl ita
ĠPhill ips
K a
M ia
v art
end ern
Ġsc um
ĠCr own
L ewis
r ound
Ġs ip
Ġall iance
Ġoffic es
Ġkvinn as
Ġutman ingen
Ġanfall er
FÃ¶re stÃ¤ll
Ġbatt les
C ER
Ġc emetery
ĠG erry
Ġlo b
Ġsat an
arth y
inc lair
Ġinn ov
Ġforbid den
Ġg ator
ant om
Ġsn itch
ĠTe ch
Ġtupp lur
k alla
ĠdÃ¶ v
IN AL
Ġsh elf
Ġsl ack
ĠSa id
Ġearth qu
l ista
Ġf ug
olog in
uss y
Ġsick ness
ed ly
ĠC ay
ĠtrÃ¤ff ad
Ġself ie
Ell iot
Ġmuff ins
on ia
Ġr hythm
ab ama
Ġintr Ã¥ng
Ġdevelop ing
Ġt i
Ġintell ekt
8 00
Ġr oses
ant ine
leas ure
Jobb a
Ġabdu cted
L Ã¤g
ĠC ele
ĠE cho
ĠkÃ¶ ns
Ġtag en
El ena
ok i
Ġsan ct
ĠKl ockan
Grand ma
d id
Ġdig it
Ã¶v ning
Ġkonst ant
ĠAny one
ĠDor is
Ġserver ar
Ġhot a
Ã¤k arna
Ġlight ing
hus band
ĠFa ith
I LE
O scar
ĠC ott
Ġbr Ã¤nt
ĠslÃ¤pp tes
Ġbank rupt
ĠFR ÃħN
Ġincre asing
H Ã¤nderna
Ġv as
Ġsch iz
Ġwatch es
Ġpen cil
fuck ing
ĠgÃ¤r nings
Ġnarc iss
t rycket
ĠG ail
Ġhel pless
Ã¤m nen
Ġlug gage
ĠMatt y
Ġ ~
et hing
ot ics
ĠdÃ¤r efter
ĠW el
Ġback ed
vÃ¤r re
Ġfact or
Ġstal ker
ios ity
m om
t v
Ġj eep
Ġre gr
ÂĢ ÂĻ
Typ iskt
F al
an ium
Ġc in
ĠO P
Ġlar met
Ġpsych ological
ĠÃ¶vervak ningsk
ĠP eyton
Ġfast ighet
ĠmÃ¤nsk ligt
ĠLy on
ĠgrÃ¶ns aker
Ġdeclar ed
k ande
Ġthe ories
and an
Ġbl ivande
Ġtre spass
ĠspÃ¥r et
ĠRos al
Ġbekym rad
ĠBron x
ĠO THER
Ġinform ant
ĠfÃ¥ng arna
ĠfÃ¶rsÃ¤k rar
Ġsubject s
p os
t il
it ious
ĠJac ques
ĠrÃ¥k at
ag ande
ĠP ike
ĠP LA
ud es
Some how
Ġvux it
Ġshirt s
Ġgrat itude
Ġdemoc racy
Ġsp Ã¤nning
ĠK in
Ġmat emat
Sen are
ĠEr nie
Ġgrann arna
Ġkn ives
Ġsm et
Ġskad as
By t
ĠMil o
Ġh ills
Ġground ed
Ġkommun ik
gro ans
f o
ĠF ix
ikt iga
A men
b Ã¶rja
c ol
et o
Ġse eds
ah an
Ġfa cial
it ol
Ġpar ano
Ġexper ts
Ġpull s
Ġgener Ã¶s
Ġkandid at
S and
Ġn Ã¥l
Ġgr ades
int endent
Ġorgan ic
ĠfÃ¶rm Ã¥gor
ĠLA PD
Ġb ent
is i
Ġst ans
Ġman uset
Ġman iac
Ġhor iz
Ġcy kl
Ġcollect ed
Ġcooper ation
ĠO ri
Ġpol arn
Ġsvar en
tel sen
Ġtrad ing
Ġf enomen
Ġst alking
ĠB row
ĠfÃ¶rl am
ĠLe ft
Tr Ã¤n
f ing
p ants
Ġp ond
Ġkar ma
ĠkÃ¤nsl orna
ĠMart ine
Ġavl id
ĠCT U
Ġkara oke
Ġmiss es
Ġres ent
Ġob sc
ĠfÃ¤r sk
rel ated
Ġs Ã¤nker
Ġs udd
ll igence
hÃ¥ll en
Ġnatur lig
Ġgradu ated
Ġt Ã¤r
as ia
ĠT all
Ġany ways
ST E
ĠEl ias
Ġbesk rev
b Ã¤v
ĠhjÃ¤l pl
Ġvir al
ĠmÃ¤rk liga
Ġgull et
Ġflask or
S el
T ag
b yrÃ¥
Ã¤ ma
ĠÃ¶ stra
Ġhouse hold
Sh a
ĠRo x
ĠstÃ¤m ning
k elt
Ġmen at
bl ings
Ġfys isk
Ġanpass a
Ġpurch ase
ĠB abe
Ġbl amed
Ġtem pel
ĠPort ug
k aka
Ġr opa
ĠW R
ĠW ick
Ġblack out
J UST
Ġc akes
Ġcour troom
Ġ5 4
amer ika
Ġignor ed
L ag
a ur
an nan
Ġre form
Ġair plane
ĠWin chester
Ġdisp atch
ĠW AIT
OK AY
Ġprop osed
ĠViv ian
ger ingen
Ġkna cka
ĠKay la
k ok
Ã ī
Ã¶ sten
ipp y
l Ã¤mna
Ġb ana
Ġlur ad
Ġmorg ue
ol ine
Ġar row
Ġnu mer
S narare
ĠS au
od ore
ĠK ur
Ġsm Ã¶g
ĠBE FORE
Ġd al
kont akt
inspekt Ã¶r
D ylan
Ġme als
ĠC ord
ĠCh ance
Ġpol ar
Ġtack samhet
ĠPh illy
ĠmÃ¶ ss
WH ERE
Ġsoldat erna
Ġaggress iv
Ġutrust ningen
M iddag
Ġsk ala
ĠM ON
ĠM ellan
ĠP ors
utt ers
ĠKing dom
still stÃ¥nd
B Ã¤r
l Ã¥da
t ack
Ġb inder
im on
CT V
C IA
it te
gr ader
Ãĸ gon
Ġcol umn
Ġdy kt
Ġbo ende
SÃ¥ dÃ¤r
Ġmove ments
Ġwheel chair
Ġsnur rar
ĠFern ando
P ost
is ionen
ĠWill ow
Ġug nen
ultom ten
Ġt we
Ġc ongratul
Ġpolis erna
Ġquick er
Ġstat ist
Ġbutt ons
Ġgradu ation
Ġcirk us
Ġcig arr
Ġth under
ĠM ans
ĠA FTER
ĠsÃ¥ s
ĠP rop
ĠA ur
ĠV oyager
Ġbesk river
Ġavs ikter
job bet
Ġdu ktiga
Ġund rat
So f
Ġsc aring
Ġprom ising
Ġuppfost rade
6 5
ĠE agle
Mar tha
Ġshift s
Cool t
ĠKr amer
Ġha jar
Ġgo og
ĠW omen
gl Ã¶m
m art
Ġro a
ĠDem oc
ĠHum phrey
l agen
Ġh Ã¤cken
Ġal t
if act
ost ret
lÃ¥t ande
Ġbusiness man
ĠPlan et
ir i
Ġfr ik
Ġtim marna
gen cies
Ġover re
Ġposs essed
Ġtall rik
Hem ma
Ġand ar
Ġsom nar
Ġall ies
Ġman kind
Ġpre cise
ĠSen ate
Ġpolisst ationen
L ovely
S olen
Ġstr umpor
Ġexplain ing
hem met
ĠSU V
m ill
as i
ĠT RA
He ather
ob ar
ĠTH OUGHT
Ġfig uring
Ġsim mar
Ġoffic ials
ĠfÃ¶rt viv
Ġblock ing
ĠÃ¶verd os
t re
i ary
Ġmy s
ĠD AG
sk ur
ĠK are
Ġpol ish
stÃ¤ll da
Ġl amm
Ġkid nap
Ã¥ ka
Ġw edd
ĠS ey
ett on
ĠF RIEND
inn or
C atch
l ivet
ĠC ub
arl ene
Ġ9 8
ĠEast ern
Ġtow els
ĠGray son
Kommissar ie
P ardon
Ġt weet
Ġk ru
Ġref lex
Ġers Ã¤ttare
Ġrap id
Ġl atte
ĠG as
ink el
back s
Ġnote book
ĠÂ ¶
ĠNar rator
Ġmatt ress
ĠArgent ina
ĠjÃ¤ttem ycket
ul k
Ġmo tto
ĠmÃ¶tt es
M Ã¤rk
ĠK IND
ĠU T
Ġfall skÃ¤r
Ġscream s
Ġstraff as
ĠbrÃ¶der na
Ġdisappear ance
Ġyoun gest
ĠGri ff
Ġdet ention
ol ja
Ġsh ack
ĠD EN
Ġout come
Ġbo skap
Ġdel vis
Ġweek ends
ĠNew ton
Car ter
D Ã¶
d riv
m il
Ġb olt
Ġk ings
Ġe kor
ĠM ine
ĠM ister
ĠR id
Ġmar vel
ĠUn it
ĠlÃ¥g a
plan et
ĠprÃ¤st en
Ġkomb ination
E gentligen
Ġtillb ringar
Rem ind
Ġassault ed
Ġsnut ar
Ġgrott an
C ast
M ord
M iles
Ġse Ã±or
Ġun stable
aw a
ĠjÃ¤tt er
Ġoffic iella
iffer ent
g rip
w art
st in
Ġin come
ot isk
Ġhand duk
ĠWe ek
ĠjÃ¤m nt
ĠAS K
C ES
Ġv andal
ĠH AND
ĠL ori
D iane
Ġg aff
An thony
ĠÃ¥ter igen
AS ON
fl Ã¤ck
ĠBur ton
Ġinse c
Ġexem plar
N ad
O i
Ã ¦
Ġupp fÃ¶rande
uc c
ĠDam ien
m al
Ġd vÃ¤r
FÃ¶r Ã¤ld
Ġfund ing
May a
ĠJer ome
Vin cent
S in
Ġk a
Ġom k
ĠP atterson
Ġch erry
Ġex cess
Al bert
ĠBl ock
ĠsÃ¤nd ning
S j
Ġp issa
Ġr atten
ĠN igel
Ġbeg Ã¤ra
Ch ildren
Ġcre ation
Sm all
R andy
Ġhitt as
ĠifrÃ¥gas Ã¤tta
H O
Ġb etting
Ġfor k
ant ed
Ġdr agging
Ġprofession ell
Ġlifest yle
ĠSt ory
Ġcont rary
Ġdans are
vi ction
Ġtremend ous
t op
ch ild
el u
Ġner fÃ¶r
ĠCl ive
Tr Ã¥kigt
you ng
Ġgro v
Ġodd sen
ĠkÃ¤ll are
Tog ether
k ov
Ġmed hjÃ¤lp
ĠT roll
ĠR est
Kommend Ã¶r
ĠE specially
Ġmot stÃ¥
ĠCl ose
Tro ligen
4 8
cess en
M erry
in is
ĠP eace
row ing
ĠBr endan
Ġbygg des
ĠfÃ¥g eln
ĠMont y
lang are
ĠT ree
Ġtreat s
ĠsÃ¤ng s
Ġuts att
Ġcompan ion
Ġpj Ã¤sen
C over
Ã¤ ta
ĠP y
Ġby rÃ¥
Ġun ika
Ġtj at
Ã© r
ĠQu iet
Ġresult aten
ĠRE AL
asc al
Ġkop ior
Ġess entially
yp sy
Ġdiscip line
B at
ĠM ade
Ġno od
Ġteater n
G ivetvis
Al i
Ġorder n
ĠEd ith
ĠCol t
lag d
Ġdocument ary
Ġgrand daughter
Ġstir ra
Ġindivid uals
ĠfÃ¶rd Ã¤r
or ous
Ġsk atter
Ġex agger
Ġex klus
Ġfl Ã¶r
ĠTh ird
Ġgener ally
Ġaut ograph
ĠO per
Ġm ugg
Ġre vis
ĠT id
ĠG ate
ĠP ops
ĠV at
igh teous
Ġveget ables
Ġcan cell
um per
Vil a
R edan
g um
ĠDu b
ĠST R
Ġtab let
Ell en
ĠKent ucky
T ON
sk inn
Ġch opper
Ġbr ass
Tack a
R ym
sm Ã¤stare
Ġcru cial
Ġdiagn ost
Ġskyl ten
I VER
ĠD IS
Ġso ffa
Ġsv ull
Ġencour age
A pril
ie g
Ġsl am
ek ing
Ġeffekt ivt
Lou ise
Ġelimin ate
Ġchalleng es
Ġprec inct
ĠM ara
ĠA j
ĠT oni
Har old
Ġbild a
Ġlock s
ĠmÃ¤ng der
Ġskynd ar
Ġfor med
un kt
Ġ11 0
Ġobject ive
Ġconfirm ation
Ġsophist icated
par ents
Ġry t
Ġsikt ar
Ġoverwhel ming
s co
ĠG IVE
Ġmiss n
ĠnÃ¤m ligen
ĠFore st
j uter
p istol
ĠI R
Ġsk Ã¶r
ĠC er
Ġpu ppet
Ġarbet slÃ¶s
Ġcir kel
Ġstrong ly
teck en
HÃ¤l ften
ĠSlo an
ĠD ill
ĠMar issa
Ġpe ka
Ġham burgare
Ġkick s
FÃ¶rst Ã¶r
ĠTy p
BÃ¶rj ar
S ug
Ġsk iva
ĠÃ¥ tt
St y
Ġsj unde
Ġsuck ing
Ġprior itet
Ġheaven s
resp ons
G i
Ġst Ã¶rd
Ġbl ues
io v
Ġpresent ed
ĠTr ish
Ġambul ansen
Ġkungen s
ĠHy de
ĠL ive
Ġun pleasant
Ġserv ants
ĠHam mer
end id
ĠAn vÃ¤nd
Ġfre k
ĠQu in
Ġgar anter
Dag ens
i i
st ed
Ġner d
ĠkÃ¶r s
ino is
Ġskuld kÃ¤n
Ġpotent ially
Ġf astest
ĠH ung
ĠU FO
Ġexist ens
Ġspar ade
ĠGeorg ie
ĠClay ton
ĠEth el
D ale
Ġro ar
ĠlÃ¥ng sam
Ġhall en
Ġprincip le
Start ing
Luck ily
Ġl ac
Ġin kom
Ġdel stat
Ġcour tesy
Ġbegrav de
mo iselle
Ġmeta for
ĠConne cticut
Ġsh ining
ind en
sh us
Ġste gen
AR S
ĠtillfÃ¤ll en
ĠÃ¶verst Ã¶kat
Ġgrocer y
Ġtr onen
Ġjust it
Ã¤tt s
ow ner
Ġfire fight
Ġpan nan
Gen er
ĠhÃ¤kt et
in u
ĠB attle
ĠL ONG
Ġmen yn
Ġint rÃ¤ffade
ĠlÃ¤ ker
wh ich
Ġchef er
ĠPat ricia
Ġobser ve
Ġsjukdom en
ĠJÃ¤v la
Ġa ye
Ġa isle
Ġmed ge
ĠH ook
ud dy
ĠSh ay
Ġres or
Ġtelef oner
L Ã¤karen
Ġhel s
Ġsc al
Ã¤kt ige
Ġcas ual
ro c
Ġfamilj s
Ġpick s
Ġkidnapp ning
Ġ201 6
ĠANY THING
U ALLY
ĠI mp
ve stig
em y
Sk Ã¤mtar
Ġsupport ing
Tj ugo
ĠCass idy
t alk
ĠL ie
Ġbry t
Ġfur ious
Ġhyp oc
Ġvakt ar
ĠjÃ¤tteg ott
Ġvi cious
Ġimp rison
Ġspr uta
Ġsens ation
Ġwealth y
Ġkvad rat
Ġre de
ĠJ up
var en
ĠLook ing
Ġpuss el
en te
ĠS ierra
ĠB M
Ġupp man
St orm
Ġapp les
Ġrel iable
Ġinvest ed
Ġamerikan erna
G il
Ġg ender
ock en
Ġbu ys
rym d
V erk
ĠSnygg t
Ġtraff icking
ta h
Ġute gÃ¥ngsfÃ¶rbud
ĠkÃ¶p are
Ġfart en
Ġtroll karl
Lo is
ĠClar ence
r ide
am us
ĠS ang
Ġse venth
ĠrÃ¤tt s
Ġfatt as
Ġbatter ies
Ġtrou bled
BLE EP
Ġbeord rade
Ġb Ã¤gge
ra in
ĠT anya
ĠhÃ¶g ljud
ĠanmÃ¤l er
rapp orten
ĠLoren zo
b ac
Ġm ere
ĠpÃ¥ sen
im an
sh ore
Ġev igheter
Ġdist urbed
pro vet
fly kt
Ġflirt ing
H av
Ġs orters
Ġmin es
Ġnarkot ika
ro par
ĠC aitlin
ĠK alla
ĠvÃ¤n jer
Ġpri ces
Ġrisk ing
ĠvÃ¤x ter
Ġrestaur ants
Ġme ga
Ġsleep s
Ġiss ued
ĠAnt ar
hard t
Ġfeder ala
i qu
l ins
Ġv ant
te am
op erat
Ġche ers
Ġmagic ian
ĠMal ik
Ġh iring
Ġgenom fÃ¶ra
ekt or
ĠutfÃ¶r de
ot yp
fÃ¶r d
Ġdist ribut
Sam tidigt
ĠfÃ¶rhÃ¥ll andet
Ġmedicin sk
Ġpres um
S ister
Ġc alf
Ġtill tal
Ġbr uten
ĠnÃ¤r ing
Ġwhere abouts
Ġny Ã¥r
Ġmobil er
Ġkomplic erad
ĠGard ner
ĠG ert
ĠJ asper
Ġ5 7
gÃ¥ng ar
Ġr ookie
Ġom Ã¶jlig
Ġch im
ĠsjÃ¤l vis
ĠTH ANK
jud et
Ġbox ing
Ġcott age
iss ors
ult en
FÃ¶rs Ã¶kte
ĠCra zy
Ġnail ed
Def initivt
rapp ort
ĠB i
Ġoff rade
app ed
Ġred og
Ġcoll abor
ĠfÃ¶n stren
B ased
s aker
ok ument
Ã¥t gÃ¤r
Ġans es
ĠPe pper
Ġinterrupt ing
ĠskÃ¥p bil
ĠG onna
ĠF N
ktion erna
Ġkonspir ation
Ġd aw
Ġp es
Ġk ista
Ġbe aring
Ġom f
Ġsp ying
mark en
Ġrepe ated
ĠSid ney
F a
Ġt utor
ant o
Ġreal m
ĠvÃ¥ld samma
Ġperf ume
L ystring
ĠS ORRY
Ġsp aghetti
any on
ĠbÃ¶ ner
Ġeffekt iv
Ġmeas ures
Ġsv Ã¤ra
irst en
amm al
ĠIn stitute
ĠFÃ¶r sta
Ġset up
ĠgÃ¶m d
ĠÃ ģ
ĠH OUSE
Ġthr ows
Ġans vars
Ġacc using
ĠMc L
ĠhÃ¤ xan
ĠChurch ill
f ist
h Ã¥r
Ġw al
it era
ĠC ost
Ġvart enda
Ġwand ering
ĠÃ¶versv Ã¤m
an alys
ĠR ach
Ġrest ing
Ġjul afton
ĠBo ard
Ġcivil ization
ĠrÃ¤d slan
R Ã¤cker
ht ag
ĠH alf
Ġsy nt
Ġgun shot
Ġoper eras
Ġappro ximately
Ġuniform s
Ġsaving s
Ġadvis ed
Ġa kta
ĠSt jÃ¤rn
Ġskri vet
ĠÃ¤ck lig
end ence
Ġpu tt
Ġrecogn ise
Ġengine ering
Ke ith
Ġdiabet es
Ġsj ung
Ġovan lig
ĠtÃ¤v lar
ĠStew ie
L iam
Ġmiss f
Ġtest at
ĠLe vi
ram s
ĠhÃ¤rom kvÃ¤llen
k ur
Ġe fficient
Ġvar elsen
Ġan th
ĠL er
Ġperson erna
Ġpresent erade
Ġinvest era
Ġsum ma
la pp
Hur somhelst
Ġny bÃ¶rj
ĠlÃ¶ ne
Qu it
WH O
V it
Ġst ap
ĠL adies
Ġflyg ande
ĠvÃ¤t ska
Ġg Ã¥t
Ġfram sidan
oss a
Ġkro ck
ĠfÃ¶rhopp ningsvis
Ġsper ma
ad i
ith a
Ġun ikt
Ġcl ick
vÃ¤ skan
N orth
ĠJ ade
Ġbeslut en
Ġpres ume
ĠIng rid
V Ã¥ld
ĠGra cie
Ġtow ns
Ġforens ic
Ġlotter y
V e
ol ik
Ġer ase
ater al
land ers
Ġhot et
Ġport ion
vÃ¤r m
Bl Ã¥
Ġheal ed
Ġm juka
ad vokat
ood le
Ġport ra
ĠSpe ed
Ġavslut ade
Ġreag erade
Ġkalk on
e ed
Ġsp ite
Ġar ena
Ġlever age
Ġpolit icians
Ġvand rar
mynd igheten
ĠVis ste
Ġinev itable
ĠO kla
ĠThe ir
ĠunderrÃ¤tt elset
m ighty
Ġc afeter
St arta
Ġtra ins
Ġreal ised
Ġball et
famil jen
T Y
st jÃ¤nsten
ĠfÃ¶r in
ĠJ ed
ĠberÃ¤tt elser
ĠEn joy
Ġimm une
Ġrubb ish
Ġgr attis
Re c
ĠhÃ¥r dd
Ġbrief case
ĠJ app
ation erna
ĠaffÃ¤r sman
Ġlad an
Event ually
L ustigt
ri per
Ġcon tains
Ġhand skar
Ġkraft full
Ġexplod ed
ĠÃ¶verl Ã¤mnar
ĠÃ¶verv aka
ĠfÃ¶rkross ad
C asey
D iana
p appa
Ġspr Ã¤nger
Ġpolit iskt
Ġadmin ist
flott an
3 1
Ġch oke
Ġbr at
Ġlog ical
ĠjÃ¤m fÃ¶ra
Ġpant ies
t om
if all
Ġfl our
Ġeng Ã¥ng
VÃ¤r ldens
ĠnÃ¤rma st
Ġdisgu ise
d ans
ĠM C
Ġmin eral
ĠV o
gr Ã¤v
Ġcell en
Ġax lar
Ġpub en
V attnet
Ġk ax
Ġl Ã¶jliga
ust ers
ĠZ one
ĠlÃ¥n ar
ĠGret a
Ġal f
Ġbr ansch
Ġstud erat
ĠbÃ¤st is
WH Y
OP E
Ġlon gest
Ġelef ant
utrust ning
Ġs is
Ġcy keln
Ġveter an
ĠPitt s
E X
G Ã¶ra
Ġbe an
Ġby pass
ĠVar je
Ġexper iments
Kill arna
ĠP ot
Ġtra ppa
Of ta
Ġmist a
ĠEng ine
Ġtit eln
Ġkrist all
F aster
n ats
ĠÃ¶ver given
ĠDo e
ĠbehÃ¶v des
CH E
Ġoro ade
ĠfÃ¶rber edd
Ġfilmer na
Ġtermin al
Ġwork shop
ĠsmÃ¤ll en
Gam la
D rive
Ġt Ã¥
Ġl s
ĠL ag
Ġsu pers
da fri
Ġsv im
med vet
Ġbusiness es
Ġtop ic
kort et
Ġtekn iken
ĠfiancÃ© e
ste ll
Ġkont on
Ġswe ating
ov al
ĠDan ielle
nings order
Ġactiv ated
ĠMatthew s
ĠJos Ã©
F at
n ia
ĠS Ã¥n
ro teln
ĠE aster
Oh h
ac re
Ġfaith ful
Ġth erm
Ġg a
Ġg ur
ĠÃ¤n glar
Ġpar fym
Ġdisg race
Ġteen agers
Off ret
vÃ¥n ingen
Ġdol ph
ĠWheel er
at iska
Ġexp osure
Ġkrist na
is ker
Ġsl ug
Ser iÃ¶st
Ġcol ony
cover ed
Ġrecogn ition
ĠD arryl
ĠL illy
Ġbu k
Ã¶t en
Ġkry m
Pol it
Ġf itting
Ġel akt
Ġchar ging
Ġtouch es
Ã¤d de
Ġkomm and
ĠSant iago
k Ã¤nd
ĠvÃ¤g arna
Ġins an
olog iskt
Ġot ill
Gabri el
S aw
se ok
rig er
Ġunder l
Ġkind ly
Ġshoot s
ĠGra b
Ġstre j
f ack
Ġfamilj emed
ĠCar r
Ġsub stance
fr Ã¥gan
Christ ian
Ġep idem
Ġpod cast
Ġbevak ar
Ġem p
ain es
Ġtyck t
ION S
bry tare
Ã¡ s
ĠavlÃ¤g sna
ĠJ orge
Ġte orin
rel sen
A x
ing a
ĠB ash
ĠP aw
ĠR ush
Ã¤m nd
Ġcr ashing
Ġconf usion
Ġbur en
R oss
ĠS ax
ĠJos ie
ĠMIN UT
Ġconqu er
L yss
ĠR idge
Ġback ing
Ġsn uck
Sam la
Ġursprung liga
Ġkval ific
ĠÃ¥rt ion
b elle
ĠG OLD
ta ils
ild red
Ġgirlfriend s
Ġhyr de
ĠÃ¶ver talade
Ġfree zer
ĠNev ada
9 8
T oby
Ġan chor
Ġsit es
Ġste k
ĠBar on
bor ah
ĠbÃ¶ ter
J ones
R ita
R alph
ent en
ent an
Ġsp ind
Ġco tton
Ġthought ful
uff le
Ġ20 12
Ġfire works
Mar co
Ġmed arbetare
itt Ã©n
ĠG ru
ĠR A
Ġpro port
att i
Ġtra vels
Ġdick s
Ġfrig iv
ĠfÃ¶r ny
ĠM OR
ĠJ J
Ġle ase
Ġmer ch
ĠCo op
imm el
Ġtjall are
Ġs ammans
Ġd ouche
Ġto ll
ĠM yr
Ġtre ason
Ġv ek
ĠM erry
if ies
var ade
ĠMum my
Cou ple
Ġth irty
Ġsn odde
iver a
ĠhjÃ¤r nt
ĠlÃ¤tt ad
Ġsun set
Ġexplos ive
Ġkassask Ã¥pet
ppenbar ligen
Ġl ined
Ġac ademy
vÃ¤nd a
ĠScott y
Ġstrict ly
D ET
ĠP oppy
Ġch ains
ress en
oo ch
Ġupple ver
ĠonÃ¶d an
RÃ¤k na
Ġtrium ph
Ġse w
Ġpack ade
Ġappreci ated
Ġorigin ally
Ġrepet ition
Ġprin sen
ĠsuperhjÃ¤l te
v Ã¥g
ĠF en
Ġsp ies
Ġsl Ã¤cka
ĠrÃ¶st ade
Ġkonk urs
Ġmagaz ines
l og
Ġv ing
Ġhat red
pro grammet
ĠBur g
Ġdetect ed
T on
ĠS um
ĠT asha
ĠR UN
Ġcon viction
ĠfjÃ¤r r
Ġsammant rÃ¤ffande
P E
Ġdo omed
Ġman liga
ĠsjÃ¤l s
Ġcompet itive
Ġskrivbord et
Ġgaran tera
pr oduc
ĠhÃ¶g tal
Ġvin sten
H ING
k oll
Ġgri e
ĠmÃ¥ltav la
b its
te f
es on
la v
Ġrit ade
ĠAunt ie
Ġingred ients
i ques
k ungen
ject ion
Ġlju v
Ġattrakt iv
in ar
Ġb ake
Ġvis its
ĠmÃ¤r ks
Ġpsyk iat
ĠD M
Ġcan s
ĠhÃ¤m tat
light s
k ons
l ay
Ġqu itting
ĠÃ¶nsk at
Ġfrust rated
6 00
Ġall owing
kl and
ĠAl abama
vare z
Ġphilosoph y
ĠBarna by
Ġg inger
ĠE xt
Ġthank ful
Ġma intenance
Ġram lar
u per
ĠD ow
Ġunder teck
Ġpor ch
Ġhes itate
Ġk istan
kl ipp
ĠPic ard
K roppen
O peration
ph is
Ġtro f
ĠÃ¤nd en
ern ess
Ġkoll ekt
Ġart ifact
ĠfÃ¶rÃ¤nd rat
Ġunders Ã¶kte
Ġna iv
s ik
ĠJ ensen
Ġtid iga
Ġdis cl
ĠjÃ¤k ligt
ĠJav ier
Ext ra
S varet
V Ã¥ga
nad erna
Ġposs ibilities
Ġband en
Ġfrukt an
Phil ip
Ġb unny
lig h
fÃ¶r are
Ġfil er
Ġot Ã¤ckt
a ud
ail s
Ġbak ifrÃ¥n
Ġread s
Ġdisc reet
Ġinvester are
usal em
kt igt
ĠFrank enstein
Ġrelig iÃ¶s
Ġreceip t
it os
Ġtrick ed
ĠRE M
Ġskak ade
L ind
R id
Ġm op
ĠS we
ĠC ul
Ġav en
ĠN ob
Ġfyll d
ĠD ags
ĠT ai
ĠJ ak
ĠF attar
ĠW ang
Ġhy dro
Ġinterview ed
Ġkrasch ade
Ġsp ioner
olog ies
Ġtrans mit
Ġsim pl
dr agen
Ġgemens amma
Ġbound aries
ĠLaur ie
ou fl
Ġsy nas
Ġtur en
at own
ust ral
ĠK ids
Ġsak nad
ĠEl is
Ġhy fs
Ġphys ics
Ġspo iled
R akt
c ony
Ġh ike
Ġcl oth
ĠSo ciety
Ġfore head
bro ok
ou te
Ġr av
ĠK GB
sy ns
Ġsort ed
arm s
Ġsal u
C e
c ular
Ġme ll
ĠC CTV
Ġbet edde
cis m
ane ous
Ġcor on
jÃ¤v ulen
Ġbek anta
ĠstÃ¥ lar
Ġcontract s
Ġhous ing
ar ro
Ġb agg
Ġsk elet
dag ar
Ġstopp as
Ġlock down
Und an
S i
ĠbÃ¥t ar
Ġcorn ers
ĠovÃ¤ sen
Ġo bet
Ġvis ions
Ġopp osed
ĠFran co
Ġcock s
Ġdisappoint ment
Ġobs ession
vÃ¤g ar
Ġvak nat
Ġvac uum
ĠDar ren
Ġshock ing
Ġuppri ktig
am Ã¥ende
im us
Ġfor cing
Ġcon text
ĠBro ck
ĠCom mittee
H Ã¤ftigt
K ap
Ġn app
le ment
Ġhar bor
ER ING
Ġann ual
Ġorder ing
ĠCle o
Ġ ï»¿
Ġl ans
Ġbur rit
Ġhor or
igg les
bÃ¤r are
ĠBea u
F er
U FF
Ġsp ine
Ġsch ysst
Ġcor ruption
Ġtw elve
Ġstore bror
Ġlur en
ĠOkla homa
ĠS ugar
iss en
ĠAlex is
Ġanfall a
Ġtyng d
S itter
Ġm uta
ĠfÃ¶r aren
ĠM useum
Ġclos es
Ġpartners hip
Ġtrag iskt
Ġmarsh m
Ġachie ved
Ġl ure
ri ving
Ġmust asch
Ġsymp athy
Ġr aces
ĠP reston
Ġfe ared
ru tt
rom agnet
Ġmottag ning
ĠC ara
ĠB ot
ĠO llie
Ġmen s
ret ion
ets y
Ġ19 0
[...]
