#version: 0.2
č Ċ
Ġ t
i n
Ġ s
e r
Ġ a
Ġ d
Ġ h
e n
Ã ¤
a r
Ġ m
o u
e t
a n
Ġt h
l l
Ġ f
Ã ¥
Ġ b
o n
Ġ w
a t
Ã ¶
o r
o m
i t
Ġ v
Ġ g
Ã¤ r
in g
a g
s t
r e
Ġ p
Ġ y
i g
Ġ n
Ġ k
Ġ l
Ġy ou
i s
Ġ o
Ġth e
Ġ in
. .
e d
Ġ c
t t
Ġt o
Ã¶ r
a d
n d
Ġ I
Ġ j
Ġ Ã¤r
c h
t e
c k
i ll
e s
a s
' s
Ġ u
Ġa tt
o w
o t
Ġd et
J ag
e l
v e
i d
Ġd u
.. .
a l
Ġin te
Ġb e
Ġ en
Ġ r
Ġf Ã¶r
a y
a m
Ġo f
l e
Ġj ag
Ġ i
Ġ it
T h
l d
er e
' t
k e
Ġs t
Ġ e
v er
Ġa nd
u t
Ġth at
n a
p p
Ġs om
Ġw h
D et
Ġs k
Ġh a
Ġm e
Ġ on
r a
Ã¤ n
Ġp Ã¥
Ġv ar
Ġo ch
Ġh ar
Y ou
Ġ is
Ġ S
Ġ re
i m
ad e
u r
s e
an d
o d
Ġf or
Ġh e
Ġa n
Ġd o
ou t
Ġl i
h t
Ġ M
Ġw e
Ġd e
Ã¥ r
a ll
en t
i l
Ġa ll
Ġm ed
r o
u st
c e
Ġg o
Ġ H
i r
Ġf r
Ġt ill
a k
t er
i on
Ġm y
Ã¥ n
o l
Ġ A
W h
Ġm ig
Ġw as
Ġs h
Ġk n
Ġ D
Ġ -
W e
Ġv i
s s
Ġ om
Ġh Ã¤r
an t
Ġth is
it t
et t
' m
Ġyou r
it h
Ġ C
Ġs e
Ġt r
Ġha ve
ig ht
' re
Ġk an
Ġ B
Ġd ig
u n
Ġkn ow
Ġn ot
ou ld
Ġs Ã¥
r i
s k
c t
Ġw ith
Ġn e
l y
a ck
d e
V i
Ã¤ l
k t
D u
Ġm in
Th e
Ġd en
Ġa v
Ġc an
o p
o k
l ig
Ġ T
e a
Ġd on
Ġh an
Ġh on
Ġ N
Ġ G
Ġj ust
Ġl o
u s
t h
i c
Ġ J
om m
Ġ L
i ck
Ġwh at
st e
Ã¤ tt
ar t
ar a
Ġa re
Ġ O
Ã¤ g
Ġa b
t a
Ġb l
u ll
Ġli ke
i e
Ġm an
ar e
Ġ P
Ġs o
e m
Ġ ett
Ġv ill
om e
Ġ out
H e
I t
r y
f f
n ing
Ã¥ t
Ġs a
in k
Ġs p
Ġ F
u l
Ġg et
Ġc h
Ġsk a
er s
a ke
Ã¥ g
u m
Ġg Ã¶r
Ġu p
e ll
Ġu t
Ġn o
Ġ R
Ġh ere
Wh at
k a
' ll
or t
on e
ou r
Ġab out
Ġm en
i st
Ġn i
n e
A nd
Ġw ant
Ġk omm
es s
Ġh im
Ġf in
Ġh er
h er
Ġp l
Ġd id
a st
or e
Ã¤ nd
all y
Ġa t
Ġr ight
Ġv et
Ġ or
Ġth ere
Ã¶ ver
H an
Ġ K
u d
Ġ E
Ġw or
Ġm Ã¥
g a
Ġ V
Ġth ink
at ion
o b
Ġb ara
Ġb ut
Th at
ou g
Ġ "
Ġp r
ea h
Ġon e
Ġh el
a b
f Ã¶r
an s
a p
Ġu pp
a u
Ġd in
' ve
Ġthe y
ll er
m a
o s
Ġg ot
k er
Ġs u
Ġi f
v en
Ġa l
ĠmÃ¥ ste
Ġ Jag
en d
Ġan y
Ġd Ã¤r
Ġu s
g e
n s
Ġp ro
Ġs l
h ing
Ġb r
h e
Ġa r
Ġt im
e j
Ġkomm er
Ġ W
Ã¤ ll
Ã¤ m
Ġhon om
f ter
Ġe x
Ġsom e
i ve
Ġsh e
d a
Ġv ad
Ġsk ull
Ġ ing
Ġ er
j Ã¤l
Y eah
u ck
u nd
i v
Ġ You
i f
ar d
on na
at e
on g
Ġe ver
Ġn u
Ġa s
Ġfr om
Ġg onna
Ġn ow
Ġskull e
M en
We ll
Ġne ed
Ġl e
V ad
Ġb ack
Ġwh o
Ã Ħ
is s
it e
Ġw ill
Ġw ould
g er
am e
Ġvar a
at t
Ġse e
Ġn Ã¤r
O ch
Ġg u
n er
Ġall t
k ay
Ġv er
l a
e st
e p
ou nd
Ġs ay
Ġh is
Ġu nd
Ġt al
Ġs ig
B ut
Ġbe h
Ġtim e
an k
Ġo ss
D e
g en
q u
Ġof f
Ġh en
S o
I n
as s
Ġde m
Ġthe m
Ġ Det
. "
st a
Ġlo ok
Ġ 1
Ġc on
and e
Ġgo ing
Ġn Ã¥g
Ġf Ã¥r
Ġw ere
Ġc ould
or d
ow n
au se
N o
ig t
Ġbe en
b le
ĠgÃ¶r a
Ġh ad
Ġg r
w ay
en s
Ġ Ã¶ver
Ġth ing
Ġb o
d er
Ġh ade
Ġb ra
O h
lig t
i k
Ġb et
Th is
Ġd Ã¶
Ġk l
Ġgo od
Ġb y
ar s
or de
Ġh ur
Ġfr Ã¥n
o ll
Ġs Ã¤g
in d
Ġf e
f t
u re
h et
Ġin t
Ġc om
Ġ our
V ar
Ġt a
The y
J a
Ġever y
as e
Ġ ig
0 0
c ause
th ing
f e
r ig
a v
Ġf Ã¥
Ġs er
p er
o se
Ġwh en
o st
id e
Ġf l
oug h
in e
y s
ÃĦ r
Ġp re
Ġu n
H on
Ġt ell
Ġsom et
' d
b er
ou s
F Ã¶r
Ġj ob
Ġd Ã¥
Ġund er
A ll
Ġg j
i re
Ġh and
i ce
i p
o od
b e
Ġre ally
Ġdid n
Ġhen ne
Ġh ow
Ã¥n g
ar na
Ġw ay
Ġl et
Ġn Ã¥t
Ġs m
ot her
Ġc ome
Ġwor k
Ġe ller
ĠI t
ĠfÃ¶r s
Ġk ill
Ġh as
Ġm ake
Ġsomet hing
O m
Ġd r
a pp
Ġd own
o ck
Ġp e
Ġig en
Ġ Y
Ġt ake
o pp
Ġk v
Ġv Ã¤n
Ġtal k
u g
op le
is k
Ġall a
Ġ Ã¤n
y ck
m er
ke j
Ġli v
S Ã¥
E n
Ġm ore
ar n
i es
ĠC h
ar k
am ma
o g
Ġg Ã¥
re at
a ce
Ġha pp
i a
Ġv is
Ġs en
N ej
Ġt v
Ġo ver
Ġc all
S he
Ã¤n g
Ġsh ould
it y
itt le
Ġn Ã¥n
n y
Ġk Ã¤n
â Ļ
Ġp o
j a
Ġhe m
Th ere
er na
Ġ Ã¥
o ok
Ġme an
âĻ ª
Ġ Ã¶
Ġth en
i ch
Ġs in
Ġne ver
v a
Ġs v
g et
s p
Ġpe ople
Ġa m
Ġt id
ĠH e
Ġg Ã¥r
Ġto o
Ġk om
D en
n t
ck et
oug ht
e ct
Ġl ittle
Ġc l
Ġe fter
ld rig
i ld
Ġtr or
Ġ What
Ġ id
od y
Ġd ag
Ġdo es
d d
I f
Ġbeh Ã¶ver
Ġsa id
Ġ We
s el
w o
on t
Ġd ay
is h
Ġ 2
b b
n an
Ġb er
er a
Ġpr at
at s
Ġt Ã¤n
Ġa ldrig
Ġg l
ĠN o
Ġmy cket
Ġ U
Ġv Ã¤l
p l
Ġf uck
am il
ak t
p a
Ġ qu
Ġs ak
Ġm itt
m an
ĠfÃ¶r st
Ġi m
Ġh jÃ¤l
p t
c i
ĠD u
H ur
Ġjob b
Ġl ite
re e
Ġbl ir
Ġm or
Ġ el
Ġf Ã¶
S t
s Ã¥
Wh y
a ch
ĠS t
b l
Ġm u
Ġh itt
ak a
Ġing en
Ġhel p
s ke
in t
ad y
e w
j u
Ġon ly
lig en
Ġbl i
ĠA nd
Ġfin ns
ag e
i z
ers on
Ġf amil
le ase
re ss
or ry
re d
Ġ Vi
ga in
Ġm er
Ġn y
Ã¶ m
Ġm ot
Ġkan ske
Ġwh ere
an g
Ġe ven
Ġver y
Ġj u
a it
Ġt ar
Ġver k
D o
n ar
Ġfe el
H ow
Ġfin d
l ing
Ġt e
Ã¤ ck
ir st
Ġint o
Ã¤ st
Ġc o
th er
Ã¥ ll
Ã¤tt a
Ġ Ã¥r
u e
Ġ Ã¥t
ay be
Ġa gain
Ġst or
Ġbe cause
Ġtr y
Ġt wo
Ġ Yeah
Ġh Ã¶r
Ġs c
Ġl ea
Ġm at
Ġmu ch
Ġs n
He y
on d
k en
an na
â Ģ
Ġs jÃ¤l
Ã¤ v
Ġb Ã¶r
e ep
s l
Ġfr i
Ġwh y
Ġtill b
Ġm o
Ġbe f
Ġh Ã¤nd
Ġy e
sel f
on s
Ġlo ve
l ar
Ġp art
Ġw on
N i
Ġdo ing
Ġst ill
ĠdÃ¶ d
H ar
Ġgj orde
Ġs y
Ġst r
i kt
Ġf ick
an ce
Ġv Ã¥r
v ing
r ar
Ġp ol
Ġv Ã¤r
Ġa sk
Ġd i
am m
w e
el y
Ġtillb aka
Ġli fe
Ġsl ut
Ġp erson
Ġtv Ã¥
at er
am n
Ġtr Ã¤
Ġh it
Ġo kay
Ġpl an
or m
k te
en ce
Var fÃ¶r
Ġo ck
Ġth ought
w n
Ġhapp en
M y
ĠO h
Ġfor t
le v
Ġno g
Ġo ther
g on
Ġthe ir
Ġf ar
Ġb el
Ġock sÃ¥
tt a
st er
Ã¤l sk
Ġhan s
at her
Ġst art
m ent
N Ã¤r
Ġsp e
Ġm iss
ig a
ir l
Ġ That
ĠfÃ¶rs Ã¶
Ġf irst
a c
ning en
i x
Ġth an
Ġsu re
Ġn er
ĠsÃ¤g er
r s
e f
u te
Ġr Ã¤tt
Ġ The
Ġb ad
s h
Ġth r
Ġing et
e ck
Ġp er
i le
Ġg ive
Ġf un
is e
r u
Ġany thing
ble m
at h
e k
g g
Ġk und
Ġ Ã¤lsk
v ar
Ġne w
E R
Ġr o
O kay
Ġb arn
d ay
Ġ Th
ak ing
ol k
a ve
Ġthe se
Ġvill e
o ld
Ġk id
M in
r ing
Ġa ct
r et
Ġfri end
Ġbef ore
ar en
J ust
N ow
c c
I N
Ġl ast
b ody
Ġh ome
Ġt ur
e ver
Ġg en
Ġl ong
Ġr un
Ġwe ll
way s
ar l
Ġv id
v is
s en
Ġ Wh
Ġm Ã¥n
i an
Ġd itt
Ġd el
Ġv Ã¤g
Ġto ld
Ġt ra
ĠsÃ¤g a
Ġk eep
s a
Ġp ut
Ġkund e
Ġb orde
ĠV ad
Ġr Ã¤
L et
o h
at ch
Ġs Ã¤
ou se
ĠsjÃ¤l v
Ġn ight
k l
n g
Ġ Ã¤
en g
Ġb u
Ġthing s
Ġs orry
an n
r en
Ġpro blem
N u
Ġ '
et er
Ġa fter
Ġg irl
x t
Ġc ar
Ġr ing
Ġl ot
Ã¶ j
Ġf el
lig a
Ġl Ã¥
Ġf ly
Ġbe st
Ġand ra
app a
Ġvar it
O kej
ĠtrÃ¤ ff
ul t
Ġre d
a ct
D on
Ġse c
Ġw r
B e
i o
ot h
Ġre al
ĠnÃ¥g ot
i er
Ġa d
Ġb or
Ġb it
Ġfr am
Ġt re
n es
Ġs on
ĠJ a
sk a
Ġa way
Ġen s
ĠT H
ar y
K om
Ġmin a
Ġsh ow
L ook
e e
Ġal ways
t ar
Ġm ust
c is
Ġin s
u p
Ġth ose
Ġa g
or s
o y
Ġm Ã¤n
Ġut an
Ġ âĻª
Ġf an
K an
Ã¤ ld
i ke
Ã ©
Ġt j
is kt
v ed
i ous
Ġgu ys
Ġb ig
ĠG od
y r
Ġa ss
Ġbet ter
Ġar ound
Ġh u
e y
u ally
Ġgu y
Ġd is
Ġk ind
I s
ĠI n
Ġallt id
Ġdoes n
in s
ĠbÃ¶r j
r Ã¥n
Y es
Ġg reat
ett ing
st en
Ġbel ie
au g
Ġt y
o ol
Ġc ou
am p
Ġre m
âĢ ĵ
Ġh us
one y
Ġpl ay
Ġp ar
Ġfr Ã¥g
Ġm ade
Ġw ait
Ġye ars
Ġpl ace
Ġl ed
Ġhel a
Ġb lev
u ff
Â ł
Ġevery thing
n at
Ġwant ed
un g
Ġsp el
ĠsÃ¤ ker
Ġb es
Ã¤ kt
j Ã¤r
Ġv il
Ġp h
j e
Ġg ill
Ġprat a
Ġto g
ion s
S k
ĠD e
od de
ĠsÃ¥ g
ad es
Ġthr ough
Ġkomm a
k ar
p ort
Ã¶ g
Ġm amma
ĠM r
Ġc are
Ã¤ sta
Ġl Ã¤
ĠS h
Ġgj ort
r or
O U
Ġs ir
ĠH an
v et
b et
Ġg e
e g
Ġp lease
r at
Ġdon e
el s
ent s
Ġfuck ing
Ġbe ing
Ġse x
v Ã¤nd
o tt
ĠnÃ¥g ra
Ġl it
Ã ħ
Ġf all
ab le
ĠkÃ¤n ner
Ġd ri
Ġan s
Ã¤ll a
A N
n en
Ġnot hing
N ot
C ome
Ġn ame
Ġhe ad
Ġor d
Ã¶ d
Ġe m
Ġf olk
in a
Ġ 3
r ow
Ġo ld
S om
Ġc our
Ġo wn
ĠN ej
s id
D Ã¥
Ġbelie ve
itt a
Ġa pp
- -
al k
Ġs am
p en
Ġmig ht
Ġs ist
f ul
or na
Ã¥ d
Ġst ay
Ġsome one
Ã¶ t
Ġm oney
is ka
Ġu h
Ġs it
Ġp appa
Ġs ch
ver y
or n
Ġb il
Ġl Ã¤m
Wh en
ig h
Ġle ft
Ġh ouse
al s
In te
M an
Ġg od
a w
in n
Ġm om
Ġre c
em ber
Ġs ur
Ġcom ing
et s
Ġvet a
at ed
Ġp ass
Ġsk y
Ġst op
a il
Ġw om
Ġmin d
a in
op e
ĠB ut
ĠnÃ¥g on
Ġb re
Ġdin a
Ġs Ã¤tt
c y
He j
A T
Ġen d
as h
Ġhe ar
v es
Ġk ont
is st
You r
y e
Ġp eng
Ġtry ing
m en
Ġc ame
Ġw anna
ta in
Ġm on
g r
Ġf ound
f ar
p h
ri st
Ġg ick
Ġcom p
Ġc le
ĠA ll
Ġb ort
Ġt yck
Ġlea ve
ak es
Ġb ab
Ġhe ll
l or
ĠH ar
Ġtr odde
Ġf ull
ff er
k et
Wh o
Ġex p
r is
Ġs ett
Ġsu pp
Ġk Ã¶
Ġel se
r Ã¤
Ġg etting
i ver
Ġin f
T ack
Ġi h
st and
ĠF r
ĠM ar
ing s
ĠmÃ¥n ga
A re
Ġverk ligen
ill a
al t
D id
Ã¥ l
Ġl Ã¤r
Ġm il
Ġwas n
Ġfamil y
Ġw ent
ĠA l
Ġb us
Ã¤tt re
A R
i ed
i b
Ġd es
Ġwor ld
Ġk on
w h
Ġv Ã¥
Ġme et
ĠS o
m ar
ĠY es
Ġs te
it ion
ĠV ar
Ġg Ã¥ng
Ġhappen ed
Ġmin ute
Ġt ag
Ġb ro
C an
Ġk Ã¶r
ĠtÃ¤n ker
or k
Ġ Ã¤nd
er n
an ge
Ġg ra
Ġo kej
Ġs ame
Ġt ro
Ġl Ã¤g
Ġis n
Ġgill ar
o ot
s er
Ġh Ã¥ll
in na
o c
Ġb Ã¤ttre
j er
ank s
Ġm ar
S ka
Ġk all
Ġlook ing
Ġh opp
ĠÃ¤lsk ar
Ġan other
Ġy eah
i en
S h
p e
s o
ĠfÃ¶r sta
aug ht
d ag
ĠO kay
" .
Ġth ree
l ut
n ade
u b
Ã¶ v
Ġwe ek
ĠO ch
ĠM en
Ġsh it
T a
m m
Ã¤ pp
Ġh al
Ġf il
er as
Ġm other
or y
Ġtalk ing
Ġen ough
O N
Ġj Ã¤v
Ġhen nes
Ġli k
IN G
t ro
y ss
Ġs ju
i pp
Ġbe g
ĠS he
E N
Ġunder stand
Ġto day
al a
ĠhjÃ¤l pa
Ġp ri
Ġv em
ett y
Ġto get
d el
er t
Ġtoget her
d en
Ġa cc
er ar
Ã¥r t
ĠB r
Ġl Ã¤ng
V em
V ill
Ġre g
Ġde ad
Ġ Ġ
im e
Ġin nan
Ġt ack
Ġ 4
Ġfr u
Ġm aybe
Ġrem ember
Ġhar d
a h
i al
Ġro om
Ġf ast
Ġ 5
Ġc ra
as k
t y
if e
Ġf ather
Ġtill s
Ġbo y
o le
Ġg Ã¥n
Ġvis ste
Ġwr ong
M aybe
Ġdo g
v Ã¤r
Ġse en
Ġfin e
Ġfamil j
Ġgo tta
Ġg re
Ġhel t
Ġne xt
U h
ct or
A tt
Ġt er
Ġsa w
Ġ Well
Ġu r
Ġni ce
Ġsak er
Ġc omm
ow er
Ġr ikt
Ã¥ ller
Ġe v
C h
Ġn um
Th en
Ġcour se
Ġh os
at ing
ĠD o
sk ap
Ġd ro
Ġkn ew
l and
m y
Ġkl ar
Ã¶r d
Ġm ost
re ady
as on
Ġkv Ã¤ll
Ġwh ich
n ad
ĠH ow
i ble
Ġl and
Ġl Ã¤n
l es
Ġm ay
00 0
Ġh our
Ġyour self
Ġman y
ĠvÃ¤r ld
Ġsk ri
Ġwho le
Ġact ually
l ed
Wh ere
Ġ ...
if t
ĠmÃ¤n n
Ġmen ar
Ġs na
ct ion
ut er
Ġbab y
t al
s y
ĠdÃ¶ da
a j
Ġal ready
Ġan nan
far ande
Ġc r
Ġu se
it s
Ġwould n
Ġm et
Ġvar fÃ¶r
Ġb ak
Ã¤ld igt
V il
Ġtur n
j ud
Be cause
Ġhitt a
ic al
L L
ĠhÃ¤nd er
ĠlÃ¤n ge
ĠhjÃ¤l p
S e
ĠHe y
Ġch ild
rs Ã¤kt
Ġs itt
Ġpre cis
? "
Ġs Ã¥n
O R
m in
Ġan vÃ¤nd
p le
Ġl Ã¥ng
Ġin ter
Ġre s
l Ã¥t
n et
tt er
un t
M r
os ed
v in
a ir
Ġdi ffer
Ġsch ool
Ġre sp
Ġ ÃĦr
Ġt on
Ġl ag
Ġfort farande
ci al
un ch
oh n
Ġber Ã¤tt
Ã¤n t
Ġus ed
ĠH on
Ġgl ad
Ġt om
re am
Ġp u
Ġhe ard
re g
Ġdu m
Ġk un
A n
Ġen da
ĠfÃ¶ l
l er
um p
att en
ĠTH E
Ġsay ing
Ġpeng ar
d da
Ġkv ar
Ġk oll
ĠrÃ¤ dd
b y
Ġin v
le ep
Ġb ar
ation s
s on
Ġpol is
ut h
Ġber Ã¤tta
Ġ They
Ġcall ed
Ġli ve
ĠfÃ¶rst Ã¥r
Ġgu ess
i ka
ir d
In gen
E tt
E very
Ġh jÃ¤r
ur n
Ã¶ k
ro ss
in ess
Ġdr ink
Ġk Ã¤r
Ġch eck
Ġan n
c u
L Ã¥t
Ġs amma
Ġdet ta
Ġw atch
Ġbr ing
Ġid ea
H er
Ġ This
Ġ2 0
el se
al en
Ġqu est
es e
Ġ [
Ġsec ond
Ġto ok
ĠvÃ¥ ra
F or
d y
Ġwith out
Ã ĸ
Ġst Ã¤ll
y m
Ġst Ã¥r
it ch
Ġfe w
Ġw alk
Ġd ra
ab ly
Ġg er
ri ed
ol og
Ġl Ã¶
Ġred an
p ar
Ġmo ve
Ġf ix
if rÃ¥n
Ġk r
Ġpr etty
Ġh Ã¥ller
ĠfÃ¶rsÃ¶ ker
Ġwor d
Ġpo int
i ent
Ġde al
All a
Ġun t
Ġh eter
z y
Ġv Ã¤ldigt
a x
c es
o e
lig het
c ome
ĠD on
D in
Ġu te
m ed
Ġ Z
Ġtyck er
ad er
Ġwom an
H Ã¤r
i ot
i el
ĠH ur
ĠlÃ¤ng re
Ġd ad
Ġo b
Ġr um
ĠF Ã¶r
an e
Ġn amn
Ġsk ick
G et
k v
w ard
Ġgen om
Ġsk it
Ġse em
v ud
Ġw ar
Ġv eck
Ġper fe
Ġm ag
Ġmy self
n ess
Ġs we
A l
id a
Ġt est
s ent
Ġb ry
m et
Ġd Ã¶r
ĠL et
n as
o o
Ġdo ll
ce pt
ĠtÃ¤n kte
Ã¤n ta
ĠI s
ĠlÃ¥ ter
i et
c o
Ġvi kt
G o
o te
t en
y ra
Ġa c
Ġh Ã¤m
Ġb oth
us h
ĠA r
en de
Ġo pen
Ġde f
Ġevery one
Ġre ady
All t
Ġar bet
Ġmor ning
Ġr Ã¶
Ġde c
ĠE n
Ġkill ed
Ġst ud
Ġal so
Ġmat ter
Ġv al
Ġany one
re w
Ġf ire
Ġte am
ĠmÃ¤nn isk
Ġst uff
b ably
y ing
ĠS e
Ġf ight
al e
v el
Ġp ay
Ġfriend s
Ġs Ã¶
Ġh und
Ġh old
Ġwh ile
I S
st Ã¤ll
Ġha ven
Ġpl ats
Ġag o
Ġtid en
Ġst and
Ġunt il
Ġwant s
Ġpr om
E S
er ade
Ġcou nt
Ġh ist
ĠC ome
Ġday s
F r
p r
D Ã¤r
ĠJ ust
Ġh um
s om
ing en
ĠfÃ¥ tt
Ġph one
ak en
Ġb Ã¤sta
V et
Ġs ent
u c
Ġd ire
ĠhÃ¤nd e
Ġd it
Ġli sten
ĠB e
ĠR e
Ġp at
Ġim p
wh ere
or row
i ct
el n
ĠA n
Ġlo st
" ?
j ut
O r
Ġm us
Ġk Ã¤nd
ĠY OU
Ġc ase
Ġre l
ning ar
is on
Ġ1 9
Ġkid s
P Ã¥
Ã¤n k
ĠN ew
ĠÃ¥ ter
Ġih op
Ġl ug
iz e
Ġf em
Ġg av
Ġst ra
re v
Ġa ff
pp en
Ġb ed
T H
Ġing a
Ġst Ã¶r
Ġbor ta
Ġm id
Ġmor gon
G e
a ut
b and
Ġl ig
ed an
Ġbet y
sid ent
Ġverk ar
Ġs w
Ġu m
r um
at es
ĠD en
Ġcon f
Ġwork ing
Ġbre ak
ĠB l
ĠtrÃ¤ff a
Ġw ife
Ġsp r
Ġha ving
ĠÃ¶ gon
en a
le y
G ood
am es
o ke
Ġbus iness
Ã¤ k
Ġm ur
Ġy et
Ġin ne
Ġhu vud
t on
Ġv Ã¤
at or
O n
Ġprat ar
Ġs leep
Ġhur t
ĠÃ¥ ka
Ġp ick
Ġl yck
Ġh ope
ĠfÃ¶ re
Ġst opp
a z
Ġd eras
Ġf ace
ĠfÃ¶r lor
ĠS te
Ġg one
Ġs ound
Ġcould n
Ġtj ej
ĠbÃ¶rj ar
Ġr et
Ġdiffer ent
Ġsin a
E ller
Ġon ce
Ġne j
Ġbr other
Ġcle ar
Ġkon st
Ġh Ã¶g
bl and
ĠhÃ¥ll a
ĠL e
Ġso on
Ġex t
ĠvÃ¤n ner
om b
u bb
Ã¤g g
Ġle g
Ġsay s
Ġe ach
Ġfl ick
or g
ot s
Ġton ight
S Ã¤g
iv it
B ara
ck a
b r
ig het
Ġre st
i ff
Ġhapp y
Ġsin ce
Ġgl Ã¶m
R E
u k
Ġbl ood
f ri
Ġl Ã¥t
s am
o ss
Ġor der
Ġye ar
Ġp a
ĠJ ack
Ġv an
G od
Ġa p
S ome
as y
ĠS p
act ly
Ġm ess
Ġd ie
Ġf akt
Ġre ad
o v
Ġre p
o ve
P lease
T o
Ġt el
b ar
Ġ Why
Ã¶ s
ag t
ĠS Ã¥
att ar
Ġmon th
st Ã¥
Ġpro te
Ġad v
Ġthink ing
Ġsju k
Ġk ul
Ġny a
l ess
Ã¶ ll
Ġar m
ĠJ ohn
Ġsig n
Ġf re
Ġvar je
Ġem ot
O ne
u al
c ed
an ska
A s
ist er
Ġpo j
Ġv a
ith er
L ike
Ġme ans
Ġdo or
ĠCh rist
Ġh igh
Ġf ig
Ġh ot
Ġal one
Ġim port
er al
ĠC l
M ed
Ġm aking
el t
Ġt aking
Ġpro bably
ĠC ar
aught er
Ġtom orrow
Ġhe art
Ġstor y
Ġ There
un k
Ã¶ tt
ent ion
er at
Ġc oll
ĠT O
Ġch ar
an a
r on
Ġd ess
c le
h a
il t
Ġknow s
ist en
d ing
Ġm ark
ĠN ot
Ġb Ã¥
Ġy es
Ġs ol
Ġsupp osed
c ent
Ġatt ack
Ġkun na
S en
Ġth ank
ĠvÃ¥r t
Ġinf orm
Ġm od
Ġd om
Ġminute s
Th ank
Ġch ange
ig n
ĠD ad
ĠjÃ¤v la
Ġg ave
er ad
Ġm r
A ny
u pp
Ġpo ss
A S
Ġs ide
Ã¶r a
Ġan nat
Ġlook s
Ġcom pl
v Ã¤g
Ġp ower
Ġsk ad
Ġhu h
Ġs ing
Ġst ick
Ġins ide
Ġm akes
Ġf av
nd er
E D
Ġsn art
Ġh at
Ġj a
na pp
Ġco ol
Ġsist a
ere st
ĠsÃ¤ker t
Ġch ans
y l
im es
Ġa in
et h
Ġbe aut
Ġask ed
it a
Ġg un
Ġ1 0
ĠÃ¶ pp
H ere
Ġb as
ar ed
Ġsk ol
Ġhitt ade
Ãħ h
p s
Ġimport ant
S n
er ing
Ġfort s
t id
Ġs et
Ġwon der
ar ing
Ġwor ry
Ġlea st
Ġar t
ĠfrÃ¥g a
Ġs ort
Ġstart ed
Ġw ater
ne y
Ġid ag
ĠvÃ¤g en
Ġhand s
e kt
Ġsu ch
E T
Ġ Q
Ġj Ã¤tt
Ġpol ice
ĠfÃ¶r b
ĠD r
Ġhour s
Ã ¢
T ill
Ġin c
he ad
it ed
Ġk ro
ĠE l
Ġfakt iskt
Ġb ur
ĠÃ¤nd Ã¥
m ore
ĠS k
ĠG e
Ġl ight
Ġmur der
V Ã¤nta
rsÃ¤kt a
Ġ 6
Ġgo tt
oll ow
Ġliv et
Ġdoll ar
ĠmÃ¤nnisk or
Ġs agt
Ġf ant
B ra
R e
ĠfÃ¶r v
Ġre ason
ou ch
Ġfig ure
g ent
m e
y n
Ġw in
le k
Ġch ance
Ġtr ue
Ġbo ok
Ġt itt
ra ct
ning s
if ul
Ġtr ans
iss a
J o
Ġg ame
ĠG r
ĠM y
ag s
Ġbeh Ã¶v
Ġhem ma
ĠhÃ¶r a
a ste
ll an
Ġl u
Ġex actly
Ġer a
Ġpart y
Ġled sen
Ġm isst
it al
Ġab le
S er
Ã¤ ller
Ġtr ust
and ra
ug g
Ã¤st an
v ie
Ġde ath
o ice
le x
... ?
ĠD an
ĠkÃ¤n ns
at ur
r ade
m ost
ĠC an
Ġrikt igt
on y
ĠA mer
ou ble
Ã¥ k
ans ke
ĠvÃ¤rld en
Ġf act
y es
Ġf our
Ġsh ot
Ġa w
Ġo l
Ġm ass
Ġcl ose
Ġid iot
we en
FÃ¶r lÃ¥t
T ror
w er
Ġvis a
s ol
ou nt
Ġg am
Ġtim es
Ġm Ã¥r
Ġrun t
a ff
Ġst an
ation en
vet e
i ra
Ġsv Ã¥rt
Ġth ough
Ġagain st
G Ã¶r
H ave
Ġs im
Ġd an
Ġlit en
c ess
o f
s ide
ĠM an
Ġsu per
on er
Ġl ate
Ġle ver
Ġb ody
Ġl aw
Ġcon t
O M
Ã¶ n
Ġquest ion
Ġw ish
el a
Ġex per
Ġslut a
Ġg iv
Ġl ater
ĠvÃ¤n ta
ig are
Ġl uck
Ġr ad
Ġe at
ĠG o
Ġpre ss
ĠCh arl
n u
Ġen t
Ġtell ing
ious ly
Ġnum ber
Ġf ive
Ġr u
Ġsk r
ĠgÃ¥n gen
er g
Ġin ve
Ġcra zy
out h
ft en
Ã¶ l
r ag
ri c
Ġbl od
Ġin st
Ġmom ent
Ġc op
Ġlig ger
f or
amm ans
Ġf ree
est er
i ven
Ġme llan
j ect
ĠfÃ¶r ut
Ġens am
E x
Ġint erest
Ġfav or
ĠW ill
h us
Ġp os
Ġmin uter
an y
kt a
ste m
ĠS am
Ġv ap
Ġbl ivit
ĠfÃ¶rs v
lut a
Ġsl Ã¤pp
Ġhist or
b o
Ġd am
Ġc ut
Ã¶ st
Ġr oll
Ġar g
f er
Ġs end
am a
Ġany more
Ã¤m t
Vil ken
R ight
Ġli ka
ire d
Ġspe ak
Ġe ar
ik en
Ġbeaut iful
ĠfÃ¶rsÃ¶ kte
Ġmil j
j ur
Ġgo es
ou n
en e
ĠhÃ¶r de
Ġ 9
Ġbet ween
ĠÃ¶ n
ĠWh o
iel d
Ġd aughter
Ġv ack
Ġcom es
ĠVar fÃ¶r
reg ud
Ġbety der
Ġo per
ic a
Ġpre sent
Ġl Ã¤tt
Ġbe vis
Ġe yes
il y
m or
Ġh Ã¥r
el f
Ġan g
T ell
ĠA re
Ġpro f
Ġhopp as
Ġha ft
ap s
Ġjobb ar
ic ally
ff ic
Ġbeh ind
Ġf ot
Ġn Ã¤stan
ĠfÃ¶r r
Ġkv inn
B l
S l
Ġf ollow
ĠfÃ¶rst Ã¥
Ġt ea
ĠfÃ¶r Ã¤nd
ĠhÃ¤r ifrÃ¥n
ĠU n
Ġtj Ã¤n
G Ã¥
i h
ag en
Ġl ine
Ġhitt ar
Ġred o
st ans
ĠÃ¥ ker
i am
Ġs j
Ġtr uth
Ġmat ch
ĠbÃ¶rj ade
Ġs es
ĠM ich
Ġde st
Ġbil en
Ġ 7
er y
en n
S p
Ġget s
Ġsna bb
a el
Ġp ull
Ġfr ont
sk ar
Ġc or
ĠfÃ¶r Ã¤ld
Ġoff ic
ĠFr ank
Ġhal f
Ġ !
Ġs edan
ĠG ud
ie ll
Ġr y
Ġbu ild
ĠlÃ¤m na
ar ch
Ġn Ã¤sta
Ġhus band
g ar
Ġs id
Ġneed s
f ra
f ull
st r
ĠP h
T r
e x
h Ã¥ll
in ner
ĠhÃ¶r t
Ġ 8
Ġsv ar
Ġkv inna
Ġs at
at ely
it et
ĠgÃ¥n ger
ent ing
Ġ1 5
Ġigen om
U t
Ġm ill
ĠY ork
Ġswe et
Ġch ang
ĠkÃ¤nd e
f l
Ġr ol
Ġcou ple
in ed
Ã¤ der
Ġb all
Ã¤r na
ĠI f
Ġfor g
ĠvÃ¤n tar
Ġstor a
ĠlÃ¥ ta
Ã¤r d
W ait
v Ã¥
or ter
Ġhel st
Ġsa fe
yss na
cu se
ĠWh ere
I T
Ã¤ t
Ġm Ã¶j
Ġpri v
u ss
on es
Ġde p
Ã¤m mer
Ġqu ite
Ġv ore
ĠG ood
Ã¤ck er
T Ã¤nk
Ġsl Ã¥
E fter
Ġspe c
d om
Ġm Ã¶rd
Ġl j
Ġmin ns
Ġsh oot
Ġgr und
ĠA N
ĠdÃ¤r fÃ¶r
up id
Ġe asy
Ã¤n n
Ġfil m
v an
ĠM iss
ĠO kej
ap e
U m
Ġ illa
Ġd ist
ĠJ o
ap tain
Ġfl er
Ġb en
ĠH ej
Ġklar ar
ver s
Ġlo v
Ġso ld
ge st
a ul
y ll
ĠbÃ¥ da
Ġ es
Ġb ild
Ġyou ng
ill y
ĠO K
Ġcon tro
re st
id ent
Ġtr ied
s m
Ġp ast
Ġe gen
Ġb ok
or ge
Ġk rig
ck er
ĠG et
Ġkl art
Ġid Ã©
S T
k omm
r ad
o j
r as
ou d
Ġl a
Ġsm art
Ġspe cial
Ġg ift
Ġit s
em ent
Ġal most
ĠsÃ¥n t
g Ã¥r
Ġtills ammans
fra id
N Ã¥g
S orry
Ġh ate
Ġb ud
Ġh or
Ġf a
Ġwait ing
Ġcompl et
F Ã¥r
Ġt ouch
ĠO r
Ġin d
c er
Ġsk jut
Ġmin e
o ch
Ġwhat ever
ĠK an
ĠkÃ¤n na
Ġa ir
ĠÃ¤ ta
D r
k an
Ġg amm
un n
T itta
W ith
Ġto wn
ĠgÃ¥ tt
sh ip
Ġbit ch
ĠlÃ¥ng t
A t
l an
Ġf yra
ĠdÃ¶d ade
Ġfan ns
K anske
g Ã¥ng
i or
He ll
Ġch ef
L E
re l
Ġexp ect
ĠtÃ¤n ka
Ġre port
Ġd ream
Ġdi ed
A h
Ġfor m
Ġle arn
Ġoff er
in al
Ġs ix
Ġp sy
Ġd amn
ĠB ar
ast er
Ġvis st
Ġsist er
H Ã¥ll
Ġf ood
Ġr id
Ġs ant
es us
M ar
h and
Ġmonth s
Ġinform ation
Ġb ull
re et
Ġtim mar
Ġspel ar
p is
Ġa fraid
ĠL u
Ġinve st
Ġm Ã¤r
ĠrÃ¤ dda
Ġ3 0
Ġtel ef
Ġfant ast
Ġupp t
Ġoff ice
Ġevery body
ĠÃ¤ ven
Ġperfe ct
ĠL ook
ĠnÃ¤r a
ĠbÃ¶r ja
Ġpar ents
Ġprote ct
Ġp ie
H Ã¶r
ri ck
k n
o on
Ġdo tter
ĠH er
ĠYou r
l et
in it
ag g
ĠTh ank
f all
Ġcle an
Ġ z
Ġs an
âĢ Ĳ
kl ag
Ġsec ret
ic s
ĠM in
ĠE m
Ġhel vete
Ġrec ord
Ġf ing
Ġst ol
Ġhand lar
Ġkill e
O W
Ġvar andra
Ġal ive
Ġdr Ã¶m
stÃ¥ nd
L isten
i um
l in
n ot
Ã¤ d
ant s
Ġn orm
ĠS c
Ġbr or
Ġwom en
Ġen g
Ġav sl
O f
t j
Ġst anna
het en
i ker
Ġgr and
fri end
H i
I G
Ġnew s
e b
u h
Ġdag ar
Ġm ord
Ã¤r a
Ġspel a
Ġsit u
v id
Ġa dd
Ġl ess
el come
ro tt
Ġyour s
Ġhus et
Ġchild ren
Ġpu bl
V isst
Ġ1 2
Ġgirl s
Ġk ra
ard s
Ġg Ã¤rna
ag et
Ġr isk
ut ion
Ġbl ack
p ect
al m
Ġsome body
Ġbu y
S ee
Ġl illa
Ġhe y
Ġr Ã¶r
ĠR ob
ict ure
Ġst upid
I C
Ġjobb et
Ġar en
Ġc ur
Ġbr ought
Ġc ent
ĠM c
Ġm ist
Ġf est
ĠA d
ĠIn te
Ġe ither
ro ll
ĠO m
U rsÃ¤kta
er ry
ĠD av
kt ion
Ġplan et
Ġans wer
Ġpolis en
ill s
Ġre da
Ġsa ve
ell a
Ġm ad
Ġsu b
z ing
il ity
ĠD id
O T
A L
T ake
at a
al d
Ġdire kt
h Ã¶r
Ġout side
Ġal ong
P ro
Ġst ar
Ġst ad
Ġan t
ĠM om
Ġex pl
Ġsk Ã¶
Ġli st
O K
ĠF or
Ġbry r
ĠM rs
In get
in es
Ã¥ tt
Ġif rÃ¥n
Ġdag en
Ġh Ã¤nt
Ġhan g
iz ed
or th
Ġlo ck
Ġpre sident
Ġcount ry
m Ã¤r
u tt
Ġp icture
er tain
id er
B er
sk y
Ã¤n ner
ro om
Ġmar ried
Ġm Ã¶
Ġp ack
Ġfor get
Ġbo tt
Ġring er
Ġcontro l
l ade
ir th
Ġsh ip
Ġing enting
Ġrun ning
Ġbak om
re s
Ġhe ller
it ing
Ġsy stem
Ġt itta
ĠN ow
Ġs ick
Ġc ell
ent ly
U T
Ġh y
ĠR ight
Ġfel t
Ġle ad
Ġh Ã¤l
ĠJ im
Ġdin ner
c l
s in
at ter
Ġj o
ĠO F
ul ar
ĠhjÃ¤l per
p ro
Ġtal a
kv Ã¤ll
Sn Ã¤lla
Ġ ?
Ġbo ys
k om
Ġs Ã¤l
Ġw ind
od e
Ġask ing
Ġtre v
ir t
Ġvil ja
ver n
la in
Ġcl ass
Ġsit ter
Ġhum an
H is
Ġlo se
ĠK e
Ġring a
o or
Ġk ap
Ġsv art
Ġb and
Ġrel ation
Ġl ad
ĠT ack
ĠN i
j en
Ġf Ã¤ng
Ġc ity
Ġco ver
er en
et te
ĠI N
Ġgamm al
g an
Ġint ress
ĠÃ¤n nu
Som et
ih op
! "
A D
Ġch e
Ġtelef on
S luta
t o
Ġ $
Ġgam la
Â ª
Ġs Ã¤tta
en se
ĠP r
Ġden na
Ġsen are
Ġfeel ing
b or
Ġb ank
is a
Ġto p
Ġha ir
ort s
Ġliv ing
V E
en ny
Ġaff Ã¤r
Ġ Ã¤g
Ġt io
Ġl unch
Â Ļ
Ġplay ing
Ġseem s
B r
Ġn att
Ġme st
Ġwe ird
Ġfin ish
ing ar
Ġny tt
Ġbro tt
Ġsy ster
ull e
Ġhapp ens
ou l
ĠA m
ĠC ol
Ġjobb a
O ur
s c
ĠS er
Ġsp end
ĠK om
Ġbet al
Ġsm all
Ġliv es
ĠkÃ¤r lek
Ġlug nt
ĠfÃ¶rÃ¤ld rar
b all
le as
ĠJ e
Do es
Ġp ap
ĠfÃ¶r f
Ġun g
ill e
Ġtr ouble
ĠP ar
Ġ1 00
iver s
Ġskol an
Ġt aken
Ġc am
Ġst at
Ġle va
Ġkomm it
ĠV em
A Y
Ġ .
Ġs us
Ġc ertain
sk t
ĠR o
Ġter ri
b art
u ld
Ġring de
P re
p ital
id ence
ie f
Ã¤ s
Ġshould n
kt en
Ġin sp
Ġbe k
ĠJ ul
Ġ5 0
A r
I D
Ġt w
in ce
Ġa head
Ġle v
oll y
Min a
um mer
ĠU h
Ġstr ong
Ġdri ve
Her regud
T y
am er
Ġh op
Ġv ak
Th ese
ry ck
ĠfÃ¶rsÃ¶ ka
Ġf oot
Ġl ady
ri k
Ġkro pp
W ill
Ġb irth
Ġv ide
Ġv atten
ol is
Ġsen se
, "
r Ã¥d
ess ion
ny gg
Ġfun ny
ĠhÃ¤m ta
l ad
art ment
Ġsn Ã¤ll
Ġl Ã¥g
Ġall s
ĠC on
Ġpr ison
Ġqu ick
Ġprom ise
FÃ¶r s
ĠlÃ¤m nade
c om
m as
Ġse ll
Ã¤tt er
ĠE ng
d le
ĠfÃ¶r l
ort un
Ġg alen
re y
ro y
ĠberÃ¤tt ade
Ġj ord
ter s
omm y
Ġmeet ing
B I
C H
u es
Ġc ir
ĠT r
Ġvap en
N A
U n
Ġdo ctor
Ġdr ug
Ġs ke
od u
if ic
e ople
Ġlea ving
Ġmill ion
Hell o
C ause
pp ed
Ġih Ã¥g
Ġstra ight
f r
Ġhon ey
r ight
Ġf ell
Ġme m
S A
Ġv itt
ic an
Ġvil ket
Ġtag it
Ġweek s
aj or
K omm
t at
Ġk ort
all Ã¥
Ġtea ch
Th anks
ak er
Ġneed ed
M amma
W ould
Ã¥n ga
ĠB en
ĠG u
F uck
l as
Ġj ud
A b
a i
ag er
is ed
ĠS om
Ġre f
ur ity
Ġse k
ĠB ob
us ed
ock an
sel ves
Ġty p
Ġdef init
n ie
ĠA b
und er
og ra
G ive
Ġd ans
Ġposs ible
p el
Ġg Ã¶m
ow s
Ġli e
b jud
e v
Ġ 000
Ġh ote
Ġf ara
Ġc atch
and en
Ġer t
Ġbo x
z e
Ġb omb
Ġp app
Ġmed ic
E L
Ġkl ara
Ġcomp any
Ġext ra
Ġg al
Ġk iss
Ġo tro
ent le
Ġbo ss
Ġhal v
Ġby gg
Ġperson al
Ġgra bb
ation al
ĠstÃ¤ll et
Ġst ort
ĠM art
g o
s et
Ġp ost
Ġim ag
aug h
Ġp op
Ġvi ct
N Ã¥n
Ġm a
Ġr ock
ĠB ra
Ġkvinn or
in c
Ġb Ã¤st
Ġg anska
ĠfÃ¶r tj
Ġan tar
Ġhon est
ĠP re
Ġwor th
Ġser ious
Ġsitu ation
Ġ (
Ġm Ã¶r
Ġg if
ĠfÃ¶l ja
Ġann ars
Ġmus ic
l o
Ġsh ut
Ġknow n
Ġcan not
h am
Ġl ab
ur s
Ġman nen
in da
Ġf attar
Ġw eren
Ġne ar
ĠP ro
Ġcoll e
G u
M itt
Han s
ĠlÃ¤r a
Ġm ob
Ġr a
r al
t s
in ing
Ġbe come
Ġst Ã¥
het er
Ġdag s
ĠbehÃ¶v de
K l
Ġt reat
Ġd ress
ĠI T
Ġme ant
Ġprat ade
ag ed
ow ing
G r
ĠT o
oll a
Ġhitt at
Ġfun ger
ar m
it er
ĠW H
Ġfly tt
Ġpeng arna
ĠN u
Ġlo c
A fter
Ġt en
und a
Ġdess a
Ġh Ã¶
is m
Ġc ry
ld ig
ĠH i
ĠA ng
ly ck
- [
W ow
id ed
Ġfin ally
Ġsm Ã¥
Ġdis app
Ġent ire
Ġc ap
Ġu rsÃ¤kt
and er
Ġpro gr
Ġner v
Ġkoll a
Ġh ung
Ġp ot
id s
Ġbes lut
e ar
i ence
Ġall var
ĠE d
ĠrÃ¤ k
ĠE x
Ġex c
ound s
Ġwork ed
ĠvÃ¤ x
ĠMich ael
o int
Ġp ain
ma zing
Ġw all
Ġh am
ou p
Ġo pp
ut en
Ġsh all
iv a
ep t
E r
ig g
ut s
ĠD Ã¥
Ġab sol
Ġsee ing
Ġhos pital
ĠT om
end er
Ġfl era
Ġlong er
Ġdan ger
U nder
it ies
Ġany way
h aps
Ġd ate
Wh ich
b ur
Ġk ar
ut om
Ġinv ol
Ġret urn
f orm
Ġb ag
ed ding
te l
Ġhim self
ĠmÃ¥n ader
ĠlÃ¤g ga
ĠdÃ¶r ren
Ġvikt igt
Ġl ju
Ġr Ã¥d
ĠmÃ¥ l
ĠkÃ¶ pa
Ġmid dag
z a
Ġkom pis
ĠTh anks
ĠsÃ¤ker het
o ff
ar bet
Ġf und
nd a
Ã¤n ger
ĠS ch
Ġcall ing
F olk
i us
id ge
Ã¤nd er
Ġvid are
Ã¤n ga
Ġsn Ã¤lla
d es
Ġ ill
Ġ Ã¢
Ġe ff
ĠA lex
Ġph ot
b il
d rag
in er
Ġk ast
Ġr an
Ġkill en
E ven
Ġk or
M e
Ġbe at
Ġe ye
Ġ1 8
Ġser v
ip s
Ġpat ient
Ġd y
Ġn atur
Ġwh ite
ur ch
ĠnÃ¥n sin
ĠM ad
Ġb reat
Ġen k
ut ure
Ġde j
Ġany body
Ġgen er
Ġskri va
o x
s ch
Ġen erg
Ġr ob
Ġbr u
Ġefter som
ĠkÃ¶r a
Ġor o
Ġupp e
iv t
Ġword s
Ġgiv ing
l ag
Ġs ida
Ġp en
Ġk ick
ara h
Ġhat ar
Ġv in
and et
ĠJ ames
ell e
Ġtid igare
Ġty st
Ġs ong
Ġth anks
ck s
kt or
n or
Ġi kvÃ¤ll
Ġsome where
ER E
B y
Ġon es
ĠS m
ĠT V
ĠP aul
Ġp ark
Ġc ol
ok at
ĠanvÃ¤nd a
Ġsound s
ĠQ u
In ga
Ġsc ared
Ġpart ner
Ġmed del
ĠfÃ¶rst Ã¶r
Ġchang ed
P er
Ã¤r sk
ĠM a
ju k
ĠCharl ie
" ,
j oy
Ġc reat
ter a
et y
Ġf le
Ġsp ring
Ġmo ving
Ġinvest ig
r Ã¤ck
ed er
Ġid ent
Ġquest ions
Ġa mazing
et ter
Ġl y
Ġsp ace
ist s
Ġutan fÃ¶r
F in
r an
Ġh Ã¥rt
Ġsl og
Ġsid an
Ġk napp
Ġlet ar
Ġam b
ĠDav id
Ġh Ã¶ll
Ġk opp
ĠhÃ¤nd a
Ġpol it
Ġt em
Ã¥ ter
ĠR ich
qu e
Ġlook ed
ect ive
S te
Ġsm ell
Ġag ent
Ġsky dda
Ġpos ition
ĠanvÃ¤nd er
ĠS T
Ġall ow
ĠJ oe
S Ã¤tt
d de
i ans
o es
or gon
st one
Ġ1 1
ik an
ĠsÃ¤tt er
N e
k lar
Ġwe ap
ol en
Ġch oice
ĠÃ¤lsk ling
Ġbuild ing
u x
at ta
ĠS ka
C K
or a
ta ct
Ġor gan
Ġturn ed
er k
ra kt
ure d
kl art
Ġsam tal
P l
g Ã¥
Ġf uture
ĠM e
ĠM m
Ġall ihop
ro p
Ġher r
Ġco ff
Ġfly g
ĠkÃ¶ p
A M
Ġt ank
Ġg Ã¤ller
ag es
ur t
ĠO ne
Ġfin t
in o
Ġg ri
ĠfÃ¶l jer
Ġs al
Ġb ord
Ġe g
ĠlÃ¤ t
Ġ4 0
Ġpie ce
y ou
Ġp an
os h
Ġvis ar
Ġtitt ar
Ġd ark
Ġst ri
un gen
ĠT a
th ers
Ġso v
H en
Ġg entle
ĠI S
Ġr Ã¤cker
ĠH ere
ĠA t
Ġwor ried
Ġta pp
Ġfamilj en
Ġvict im
a f
Ġde ar
um ent
Ġcon ne
Ġhappen ing
Ġmiss ing
Not hing
ĠAN D
Ġes c
L Ã¤gg
Ã¥ ra
ĠC o
ri v
S ir
m it
ll a
ĠH el
Ġund an
Ġjobb at
ĠlÃ¤ k
Ġv inna
Ġin om
ĠM ike
ant a
Ġsky dd
m s
Ġt akes
Ġd isk
Ġto t
Ġr ym
Ã¥g a
Ġbeg in
Ġhuvud et
Ġpubl ic
Ber Ã¤tta
A m
Ġf ail
Ġlo ved
ste ad
ĠP lease
Ġsomet imes
Ġsjuk hus
Ġcomplet ely
I M
n al
p ris
Ġm ask
re en
Ġsk rev
ĠM on
ĠH ell
AN D
W as
... "
ĠV ill
St op
Sk ulle
Ġexp lain
nad en
T vÃ¥
b ers
c ri
Ã¶ sa
ill ar
Ġi vÃ¤g
Ġde ep
ĠN e
ĠL ike
Ġar rest
ĠWh en
Ġwr ite
Ġkont akt
Ã¶ll op
Ġsing le
Ġlj us
z z
Ġr app
ĠsjÃ¤l va
et e
Ġg ud
Ġof ta
Ġso va
Ġor ol
ĠTH AT
v ak
Ġr om
Ġig Ã¥r
ĠÃ¶n skar
Ġsan ningen
H E
ĠB E
Ġcon sid
Ġs att
st Ã¥r
Ġk ost
ĠO l
ĠF BI
Ġim orgon
Ġste p
P appa
f Ã¤r
Ã¤n gen
ul es
bl ick
Ã¤ck a
A v
d u
Ġh id
Ã¶r en
Ġus ing
ĠkÃ¤n sl
Ġ2 00
Ã¶t s
Ã¶l j
P eople
el e
Ġre ach
and y
ĠM aybe
Ġbet ala
Ġresp ect
U pp
r am
ĠG ra
Ġco ld
ĠlÃ¤m nar
F an
t an
Ġha ll
Ġhe al
ol a
th e
Ġwor se
Ġro ad
ĠÃ¶pp na
a ven
Ġg iven
Ġk ept
Det ta
Ã¤n ker
ĠJ esus
Ġno body
ĠK ing
Ġcon c
Ġwork s
Ġres ult
Ġveck or
C he
P r
S am
g ga
y le
ver k
Ġde cis
ĠN Ã¤r
Ġsp Ã¥r
iv es
Ġperfe kt
T wo
Ġj our
Ġcl os
Ġmind re
ĠvÃ¥ ld
ĠfÃ¶rtj Ã¤n
w ork
te s
Ġfe et
Ġkont or
A K
or l
ĠO n
C ould
O L
Ġp ea
Ġi bland
ut a
Ġde v
ff a
Ġgl ass
ĠfÃ¶l j
l t
Ġn ere
Ġn atten
Ġo thers
ÃĦ ven
ac es
Ġsur v
Ġev idence
Ġrol igt
Ġrelation ship
3 0
H el
s la
Ġd iv
kl ara
Ġkall ar
H allÃ¥
V Ã¤l
k ra
Ġs il
Ġb ill
Ġin fÃ¶r
Ġsh ort
ct ually
ĠdÃ¶d ar
Every thing
M iss
Ġd ance
Ġmilj oner
r it
r Ã¤tt
ar th
Ġf air
and s
Ġtr ick
sta ur
Ġfeel s
Ġsnabb t
Ġbirth day
w ood
Ġt able
id es
il a
Ġtr Ã¶tt
ĠB ill
Ġhand le
Ġsec urity
Ġforts Ã¤tta
Ġcolle ge
Ġre qu
Ġ2 5
ĠM ay
Ġtill f
Ġbro ke
Ġveck a
Ġd ar
Ġj ul
ĠL ord
ĠtÃ¤n kt
Ġte xt
rum met
Komm er
Ġn ed
ĠT y
Ã¤m na
Ġcon tact
ĠÃ¥ kte
Ġdec ided
ĠGe orge
Ġcoff ee
Ġs ad
Ġc re
ĠC he
ĠP at
or r
Ġc ook
ur y
Ġtalk ed
ester day
Ġb jud
Ġp ush
ĠfÃ¶r m
Ġst od
ĠM er
ik te
Ġcomm un
Ġs qu
om p
ill er
ĠA tt
ĠO N
Ġbl Ã¥
ling en
l ine
ĠH en
Ġbr Ã¶llop
ĠfrÃ¥g or
L e
g n
s b
Ġo p
and a
sk an
Ġlo var
ĠL a
Ã¤nd e
ĠE ll
Ġty d
g h
Ġm ention
re ci
Ġl ying
Ġst ation
ĠÃ¤lsk ade
ĠhjÃ¤r ta
Ġfa ult
Ġnorm al
b t
d et
Ġ X
ar ry
Ġon t
Ġupp f
ĠW ait
Ġthr ow
pr ise
r ay
Ġm outh
ĠfÃ¶r et
ĠM or
ĠfrÃ¥g ade
S E
o id
Ġh Ã¤
Ġb i
Ġw edding
Ġc aught
ow ers
all t
Ġmed an
ĠG er
Ġtal ar
Ġkill ar
ĠChrist mas
Ġa kt
Ġo h
ĠS im
Ġch o
Ġex ist
Ġdes er
Ġgre j
Ġwatch ing
Ġpsy ch
in ation
Ġg ar
ct ed
um e
Ġor s
Ġthink s
ob ody
end a
vie w
Ġol ika
Ġmass a
Ġear ly
Ġdest roy
s v
ch n
Ġr is
ab b
att le
Ġstan nar
Ġluck y
b ye
in y
Ġpro v
Ġadv okat
Ġs un
Ġf red
Ġp leas
Ġst yr
Ġre sten
Ġgif ta
f ord
l arna
Ġh om
Ġb ath
Ã¶ va
Ġallt sÃ¥
b ild
c ing
l ish
Ġ ed
Ġf ir
at ive
Ġgo vern
dd ie
ute ly
Ġfram fÃ¶r
ĠstÃ¤ll e
c on
r id
Ġre staur
Ã¤l t
ĠN ick
orl unda
b ara
Ġg as
Ġl yss
il es
ir s
ĠL ou
Ġbl ock
ĠW al
Ġmo vie
ĠvÃ¤r re
Ġcont in
Ġdefinit ely
g iv
l en
us en
vÃ¤r r
ĠstÃ¶r re
D ad
t ade
Ġtr uck
Ġvil ken
Ġnum mer
Ġann orlunda
Ġr ather
ĠS n
ĠM ax
ent y
ĠA s
ĠC arl
Ġkl Ã¤der
Ġsy m
Ġresp ons
ward s
Ġac ross
ĠÃ¶gon blick
Ġmisst ag
C l
k s
ra v
ĠB o
ic es
H T
L ug
ĠM E
ry m
ĠR ay
Ġkonst igt
Ġhistor ia
A d
K olla
Ġv oice
Ġc ard
Ġr ent
Th ose
ĠP eter
ĠV il
Ġgr ound
ure s
ĠberÃ¤tt ar
Ġpa id
ĠfÃ¶rr Ã¤n
Ġtot ally
A LL
at an
at al
ad a
ad en
ĠM ed
os a
Ġbra in
ci ous
ĠfÃ¶rb i
Ġbru kar
Ġn Ã¶j
ĠS u
Ġpr is
Ġar ri
ĠÃ¤ ter
ĠtjÃ¤n st
b ord
o ver
Ġc ost
ĠI nd
Ġst und
Ġan led
ĠO f
Ġpro per
Ġ1 4
Ġdr ag
Ġmist ake
Ġth reat
Ġb urn
Ġn yck
Ġvar t
Ġne igh
op h
Ġans var
Vil ket
Ġhist ory
Ġfing er
Ġorol ig
P ut
k or
m iss
Ġm is
it ness
Ġk ung
Ġl ur
am ed
Ġsp ark
Ã¤nd a
ĠTh en
ĠFr an
Ġob v
Ġhund red
Ġstopp a
s as
et her
Ġp ort
Ġk Ã¤m
le m
ĠM ark
ond on
Ġass ist
Ġacc ident
ri an
ess or
Ġfl oor
Ġbarn en
Ġapp reci
ĠrÃ¶ st
Ġmess age
Ġske pp
b ror
l Ã¶m
Ġst ore
ĠW as
ĠtrÃ¤ff as
Ġmil it
t ing
Ã¶ ss
ak et
ĠdÃ¥ ligt
yck et
Ġsen aste
ĠtrÃ¤ff ade
DÃ¤r fÃ¶r
Ġterri ble
D an
h ole
Ġsk all
Ġvis it
Ġtra ck
ĠbÃ¶rj an
Ġbes k
Ġmid dle
ĠmÃ¶j ligt
d amn
e en
Ġm ach
Ġen joy
Ġfor ever
ĠsÃ¥ d
Ġ1 6
ats en
H opp
h mm
l at
o gen
re m
Ġj ump
Ġr ide
Ġre sa
Ġsu g
Ġbr uk
Ġund rar
Ġtyck te
ĠlÃ¤g ger
Ġprogr am
S a
Ġd ju
Ġp ist
Ġdu de
ĠM ary
Ġqu iet
Ġsc en
Ġperson er
ĠPh il
U R
Ġs itta
Ġu tt
Ġr en
Ġwe ar
ion en
op er
Ġut om
Ġfram tid
ĠlÃ¤ sa
Somet hing
l it
in nan
Ġa mer
Ġst reet
ic o
Ġbl and
Ġpr oud
Ġsak en
Ġslut ar
f uck
Ġth ous
Ġk aff
Ġany where
Ġgl as
Ġkid napp
ĠBl ack
Ġspec iell
Ġf Ã¤r
Ġare a
jÃ¤l p
On ly
Ġlaw y
K eep
Ã¤ ker
Ġv e
Ġg ett
Ġc ross
Ġst ack
Ġst ark
Ġe ight
ĠD O
Ġse arch
Ġbus y
Ġvide o
J ohn
i ant
Ġd jur
Ġf i
Ġc amp
ĠfÃ¶r klara
ci ally
ĠBe cause
Ġmob il
Ġpea ce
J ack
re sent
im in
Ġher o
ob b
Ġdem on
Ġcon s
ĠfÃ¤ng else
b rott
Ġf art
Ġfor ward
Ġtr ip
Ġdr unk
Ġdri cka
Some one
Ġchar ge
R em
Ġl yssna
ĠB er
Ġbo ard
ĠfÃ¶rs ikt
Ġsak nar
Ġgod a
Ġdro p
Ġskri v
min stone
Ġac cept
Ġflick a
komm en
Ġp ur
Ã¥n gen
ĠL ondon
ud den
Ġkl ockan
Ġsupp ort
stÃ¤ll et
um m
Ã¤m ma
jÃ¤l v
ĠsÃ¤g s
Ġdr ar
Sl Ã¤pp
S m
k on
u se
Ġf ool
om an
ke y
Ġan im
ir ty
Ġbeh and
Ġcr ime
Ġvack er
b ok
g re
ol y
Ġtr Ã¤n
ĠE very
Ġun ge
Ġsm Ã¤r
Ġag ree
Ġsus pect
A ctually
F F
G en
v Ã¤
Ġ ÃĦ
Ġ âĢĵ
ce p
ĠC aptain
kt orn
ĠF l
Ġsl Ã¥r
Ġsl ipp
ru pt
Ġfly tta
Ġans ikte
Ġsky ldig
Ġskick ade
I ON
j ag
Ġi r
Ġst Ã¤lla
ro g
Ġkill ing
Ġreal ize
Ġcour t
Ġsj un
M rs
p et
re ad
Ġk ing
Ġl ar
ĠsÃ¥ na
Ġhas n
Ġhem skt
L yssna
V Ã¥r
Ġj ack
Ġpro cess
Ġbel ong
I A
V ER
c a
h ouse
k Ã¤n
p at
im ent
ter na
Ġupp drag
G ud
Ġt ired
Ġf ur
Ġf yll
Ġdu ring
Ġgr oup
Ã¶ ken
ĠS orry
ul a
Ġpr et
end ing
Ġcl oth
Ġkall a
Ġconsid er
Ġvi ol
Ġse ven
ok us
ĠG en
og n
Ġcl ub
Ġlit a
ĠAmer ican
Ġbud dy
Ġtrev ligt
Ġpap er
ĠS en
Ġre v
Ġav sk
ens ion
Ġbruk ade
s ar
Ġst ate
Ġsh are
Ġsl ow
Ġer bjud
Ġel ect
Ġfun kar
rÃ¤ck ligt
I L
c an
m Ã¥l
y an
Ġs nygg
it z
Ġst ress
ĠS arah
ta ble
Ġmiss ed
Ġdanger ous
I bland
V art
Ġm un
Ġlo ss
Ġupp sk
ĠfrÃ¥g ar
Ġveck an
Ã¤rsk ilt
G ot
k ring
Ġs oul
Ġk ey
Ġi ce
Ġch amp
Ġtv ing
Ġel d
ĠIn gen
els er
I LL
Ġ 0
Ġb an
ag o
ed d
id en
Ġbl ow
ĠF re
Ġ1 7
ĠstÃ¶r sta
Ġw elcome
co ver
ĠhÃ¤m tar
Ġpa int
in en
Ġd ou
Ġp ract
Ġy esterday
ĠSt op
ĠberÃ¤tt at
M Ã¥
R A
e c
m are
at te
ig ar
tt ing
Ġsk j
Ġkn ock
ĠB ur
Ġbr and
sta irs
Ġmon ster
Ġsitt ing
Ãĸ ver
ĠsÃ¤l ja
Ġeg na
b ut
u ra
it ive
Ġl im
Ġhem lighet
ath an
Ġdro g
E l
e el
Ã ĥ
Ġt ick
Ġsk uld
Ġstopp ed
5 0
S ure
U N
Ġin stead
la ce
gen cy
ĠfÃ¶ d
Ġapp ro
Ġarbet e
Ġsat te
h ood
Ġt uff
Ġr ules
Ġwe aring
ri es
Ġcar ry
cu ss
R ing
Ġs elf
Ġis s
ĠS ir
ĠG O
Ġvil ka
Ġste al
F l
T ER
y d
Ġf ill
Ġb Ã¥t
on a
Ġw ake
it u
ĠH A
ĠA nt
op s
ĠE tt
Ġbo at
Ġ2 4
Ġap olog
Ġforts Ã¤tter
Ġsug gest
Ġs ens
Ġk Ã¤
ch er
ĠM al
ĠW E
ĠdÃ¥ lig
Ġdi ffic
Ġsur pris
gent ligen
Ġinvol ved
Ġdiffic ult
at en
ĠS l
ĠS an
ĠH E
Ġpass ar
ĠkvÃ¤ll en
Pre cis
H a
Ġf oc
Ġwor st
Ġig Ã¥ng
Ġun ivers
Ġplan e
Sh ould
uth or
Ġb Ã¤r
Ġb ri
on en
Ġk il
Ġc at
Ġst jÃ¤r
Ġre ce
Ġgo l
ĠR uss
Ġfin nas
ĠnÃ¥g ons
Ã© n
Ġskri ver
Every one
Ġappreci ate
b Ã¤r
i as
Ġt ough
Ġs and
an ke
Ġb le
ĠfÃ¶r ra
Ġhon or
Ġacc ount
Ġrikt ig
Ġev ent
F irst
T ja
w ell
Ġ ..
Ġf Ã¤rd
Ġg ay
ad d
ĠH ave
ĠC al
Ġsu cc
Ġta x
Ġfix ar
Ġkra ft
Ġv ir
Ġk yr
Ġeven ing
Ġsy nd
Ġbor n
Ġwalk ing
Ġrum met
Ġskick a
Ġoffic er
Ġgovern ment
Ġcloth es
p ade
el ess
Ġen ter
Ġst uck
pp ar
ĠS w
Ġgo ld
Ġlo g
Ġtv ungen
ĠU SA
Ġsc rew
om as
Ġst Ã¤mmer
im m
ter n
ĠE arth
ĠW il
Ġbeh Ã¶va
Ġkill er
Ġfuck ed
ĠHell o
C E
s amma
Ã Ń
Ġatt ention
Ġne g
ning arna
Ġsp ir
ĠÃ¶ver allt
Ġkr Ã¤v
ĠÃ¥ter vÃ¤nd
Ex cuse
v Ã¤n
Ġh Ã¤st
Ã¤ ss
as c
Ġe get
Ġsk ill
ĠD in
Ġ- -
Ġsp ent
Ġvikt iga
ighet er
Ġsim ple
eb ra
in i
Ġc alm
Ġr Ã¥
Ġe as
ĠM ex
ling ar
Ġmiss ion
Min ns
Ġlik es
sam het
Ġdecis ion
B ack
I K
n ight
r ask
st ru
id ay
sh it
Ġkid ding
Ġskad a
Ġjo in
Ġimag ine
s ikt
er o
Ġa ge
ĠC r
iv et
Ġfe ar
Ã¤ck te
Ġsy n
et ch
an ces
it or
Ġp iss
Ġy a
Ġc as
Ġto ppen
ak ta
Ġbl ind
ation er
ab ri
Ġmo ved
ĠvÃ¤r d
Ġfix a
ĠsÃ¶ ker
Ġbetal ar
Ġenk elt
D itt
Ġh ers
Ġl Ã¶g
Ġc ust
Ġr ound
im inal
ĠP ol
Ġtim me
Ġgirl friend
Ġhu ge
Ġans ikt
Ġsna ck
Ġskick ar
Ġswe ar
Ġf Ã¥ng
Ã¥ ta
at is
Ã¶ ka
Ġpr odu
rÃ¥d et
Ġfunger ar
A G
N ice
Ġv ers
ag n
Ġo cc
Ġre ma
il s
ak ed
Ġtr yck
Ġlo s
Ġte chn
Ġcop s
ĠJe ff
olis en
k el
Ġm ain
Ġw itness
st on
as Ã¥
Ġst en
Ġre se
us et
Ġgr Ã¤n
Ġpo or
Ġprat at
Ã¤st er
ĠglÃ¶m de
Ġpoj ke
ĠAd am
Ġconc ern
P h
i fter
Ġv Ã¥g
Ġn one
Ġin n
Ġc iv
ĠC la
ĠT ony
ell y
What ever
Ġsu it
if ied
ost er
ĠÃ¥t minstone
Ġpart ic
Ġfall et
ĠPre sident
Q u
b s
b oll
Ġs Ã¤ll
Ġh ost
Ġk rÃ¤
Ġc ute
ĠD NA
ĠC ity
Ġch ick
ge ant
Ã¤m ta
ars h
. '
S c
Ġb ase
Ġv att
Ġo pt
od er
Ġtill rÃ¤ckligt
ĠD el
ĠB ro
ĠL uc
Ġliv ed
ĠtrÃ¤ff at
Ġbro ken
tal et
M om
e al
g ift
k ade
Ġs Ã¥r
Ġs ci
Ġs Ã¶t
Ġf ield
at ure
Ġr Ã¶ra
na ck
ĠA h
ĠT ake
ĠP er
if y
FÃ¶r st
Ġcall s
ĠÃ¥ tta
ĠtrÃ¤ d
Ġstart ing
ĠPar is
ĠkÃ¶p te
Ġkaff e
M ake
g Ã¶r
t ime
Ġs udden
Ġh ide
Ġb ought
Ġp un
ig e
Ġc ash
Ġen em
end s
ĠW AS
Ġsc ene
Ã¶j ligt
Ġmisst Ã¤n
OM E
g es
Ġhe j
ol f
un e
Ġpro ve
Ġund ers
Ġwonder ful
C T
b ack
n ed
Ġb ast
Ġb other
Ġl ay
Ġo k
us an
ick a
ĠF uck
ĠR E
ĠV et
bb y
Ġkap ten
ĠfÃ¶rtjÃ¤n ar
k ort
Ġb uck
ro ller
ĠF OR
ate g
ÃĦ l
Ġcon d
ĠnÃ¥n stans
Ġter ror
ĠhjÃ¤lp te
Ġposs ib
Re ally
F rÃ¥n
l u
Ġ ide
Ġm ajor
Ġp il
Ġl augh
Ġo t
Ġo w
ĠfÃ¶r klar
Ġst Ã¤ng
ea ve
je kt
Ġkont roll
Ġmil es
Ġstand ing
Ġdire ct
C on
b ol
Ġc la
Ġinte ll
Ġsk Ã¶t
ĠH all
Ġsl ags
Ġint r
St ay
Ġskjut a
ĠlÃ¤k are
Ġtillf Ã¤ll
Ã¶ss es
p are
r arna
v al
Ġb Ã¶
Ġr Ã¤tta
Ġe gentligen
Ġtill hÃ¶r
ĠG ar
ic ed
Ġex akt
Ġsecond s
Ġstud ent
Ġmus ik
Fin ns
A nt
f il
n ars
v o
Ġm akt
Ġj ail
Ġvar m
ur en
od uc
ĠH a
Ġsa ved
ud d
iv ed
ire s
Ġproblem s
Ġdis cuss
Ġdri ver
EN T
Ġforg ot
IG HT
j Ã¤v
Ġl ow
ce ll
ĠR ed
ĠE r
Ġboy friend
ĠmÃ¤nn iska
Ġmag ic
orts Ã¤tt
Rem ember
S ay
f ield
u el
Ġre ser
od en
Ġsp ot
ach el
Ġgill ade
Ġinterest ed
Ġopp ortun
Ġanled ning
L u
M ich
T om
h ow
ĠS a
ĠC omm
ĠJ an
Ġmen ade
Ġ2 1
Ġkeep ing
Ġfru kt
Ġland et
Ġrep resent
Ġpsy k
Hen nes
N obody
O j
g ing
h ost
ve ck
ĠT ed
ĠÃ¶ver le
ish ed
Ġpu tting
Ġstol t
Ġwind ow
ĠMart in
ĠAng el
Ġlawy er
g ed
i ents
Ã¶ der
st ad
ri age
Ġup set
Ġfin al
Ġgr ow
pl oy
ĠSt ar
red it
ment s
ĠÃ¤lsk a
Ġbu tt
Ġkall as
Ġlug n
Ġinterest ing
Ġknapp t
U ST
i at
p or
om er
Ġv ol
Ġc igar
ĠM ac
Ġ1 3
ĠÃ¶ver rask
Ġmor se
Ġtra vel
Ġag re
ĠfÃ¶rlor a
Ġexper ience
Ġfle sta
b is
m on
Ġf ish
ro te
ĠAmer ica
Ġprof ession
ĠRob ert
ĠHen ry
2 0
M m
Ġf it
Ġut red
Ġsl ag
sp el
Fr om
Ġfigure d
Ġdrug s
Ġserv ice
Ã¶ts ligt
F Ã¥
M ay
b it
b el
Ġf att
Ġk ross
Ġe gg
Ġfr Ã¤m
Ġsu ffer
ile y
Ġrec ogn
Ġimp ress
ĠslÃ¤pp a
Ġors ak
ĠnÃ¥gons in
V ery
Ġf al
st Ã¤nd
ck en
ĠS her
ĠM el
ĠJ oh
Ġpr ay
ef ore
rÃ¤ ff
ĠglÃ¶m ma
H old
N ever
d are
j Ã¶r
Ġc a
te m
al y
Ġe qu
Ġjobb ade
Ġsupp ose
ĠRe ally
Ġrad io
NÃ¥g on
C ar
Ġ Ã¶r
Ġf isk
Ġk ry
Ġfor ce
Ġom kring
Ġso ver
Ġtal at
ĠkÃ¤n t
ĠmÃ¥n ad
ren ch
els ed
Ġlit et
Ġpriv ate
Ġgentle men
c el
Ġm ent
pp na
ell t
ap an
end ed
Ġgu ld
ĠlÃ¤g en
Ġfight ing
ĠlÃ¥t sas
Any way
G ra
I R
s ett
ag a
Ġp iz
ĠA ny
ĠB ea
ĠT e
Ġfe ed
Ġlet a
Ġtra in
ye ar
Ġhote l
Ġotro ligt
ĠRich ard
c ame
m Ã¤n
v i
Ġm ira
ĠB illy
ĠJ u
ord ing
Ja ha
Ġwr iting
Ġsur prise
Ġhold ing
Ġn Ã¶d
Ġi stÃ¤llet
ĠS ee
ĠG Ã¶r
Ġal ter
ber t
Look s
Ġdiffer ence
ĠfÃ¶rlor ade
ĠSc ott
C all
O D
Ġv it
ĠpÃ¥ gÃ¥r
ĠT ra
ess a
Ġte kn
Ġbig ger
Ġkall ade
Ġgiv es
J esus
K Ã¤nner
b ed
Ġm rs
Ġo van
Ġc ause
el sen
Ġsk in
Ġsk Ã¤r
ĠC or
Ġex am
Ġex cuse
iss ar
Var je
Ch arl
Ġheal th
' .
j Ã¶d
t ryck
Ã¶ ja
Ġe st
ĠS E
Ġpro p
ard en
Ġwho a
app y
Ġass hole
ĠHar ry
Ġfavor ite
Ġjord en
D amn
G lÃ¶m
u ch
Ġh amn
Ã¤ dd
Ġv inner
is hing
Ġr ich
and on
ĠJ on
ĠV al
Ġtar get
Ġslut et
ĠkÃ¶r de
Ġmar ry
Ġdra w
ĠSte ve
Ġap artment
ĠWill iam
Ġdou bt
b ry
m Ã¤st
Ġv ux
Ġo we
ab y
Ġwill ing
ens ive
ĠvÃ¤n ster
Ġmat er
ĠmÃ¤n sk
Ġlik ed
ĠÃ¶gon en
Ġhote ll
Ġris ker
b an
m id
ĠS Ã¤g
ter ar
kt ig
ĠR ick
ĠE ur
Ġhad n
Ġsv Ã¥r
St anna
Ġrem ind
ubb en
Ġfantast isk
klag ar
G reat
T ry
Ġh unt
Ġb unch
te st
Ġsk Ã¤mt
ro a
ist an
ĠW ar
ĠW ith
Ġex cept
ĠfÃ¶ n
Ġgod damn
Ġhop ing
U S
v ent
Ġt red
all a
Ġkv innan
ĠWe st
Ġbarn et
ĠmÃ¶ te
Ġbath room
B es
D ina
l Ã¶s
s an
Ġt Ã¤v
Ġan ing
ĠCh ris
ĠvÃ¤l ja
Ã¤ck t
ĠhÃ¤nd erna
Ġlyck lig
D ra
L ite
s n
Ġw ood
al f
ĠL Ã¥t
ul ous
ĠÃ¥r et
ĠlÃ¤r de
med i
ĠCar ol
ĠJim my
jÃ¤lv klart
L D
L ed
S v
Ġf okus
Ġj oke
Ġst y
ĠH Ã¤r
Ġmy ster
ĠA T
Ġtr ots
Ġcon vers
Ġbu ilt
Ġgra b
Ġtjej er
ĠQ ue
Ġang ry
Ġallow ed
Ġsjukhus et
l Ã¤g
Ġa ud
en ed
Ġb al
st ret
Ġin bland
Ġc ab
ak s
ol m
itt ed
ĠP Ã¥
Ġdis c
Every body
Ġskit en
Ġfre sh
Ġfavor it
Ã¤nn ande
Ġmach ine
Ġrese arch
P P
T j
om en
ill en
Ġbe came
Ġne ck
ĠN or
Ġor ig
Ġgu est
Ġgr an
ĠnÃ¥n ting
Ġfuck in
sl ag
Ġstr ange
ian a
Ġacc ess
olog y
ĠlÃ¶ sa
Ġvack ra
Ġlov ely
Ġabsol utely
g in
r ass
Ġd ick
Ã¶ nt
Ġv ac
Ġc y
il j
Ġse at
ĠE ller
Ġcare ful
rat ul
Ġoper ation
Ut an
ĠKe vin
ĠEng lish
Ġst al
ĠM o
ĠC am
ĠT ommy
ĠP e
iv al
av y
ĠSt reet
Is n
for table
full y
ĠmÃ¶j lighet
ĠslÃ¥ ss
Ġadd ress
r ats
Ġh ole
Ġm amm
et a
Ġc rew
ĠT ell
art y
ĠP ark
ĠÃ¤n t
ĠWh ite
Ġins Ã¥g
ĠAll t
Did n
Ġbeg rav
unn it
Ġcho ose
K n
W elcome
Ġw rote
Ġc ode
Ġvar e
Ġgr upp
Ġim m
int s
Ġpass ed
Ġneigh bor
n ers
Ġs Ã¤ng
Ã¥ ende
ig ger
ot a
Ġsk Ã¤l
ĠT im
Ġso ci
Ġupp r
Ġkl ass
Ġim medi
Ġslut ade
ĠCharl es
Ġhor se
Ġlearn ed
ĠkÃ¤nsl or
Ġdeser ve
ĠfÃ¶d elsed
y a
Ġd at
Ġth ird
Ġsa ke
Ġlet ter
pl an
Ġhelp ing
Ġhelp ed
Ġmiss lyck
oh ol
Ġfull t
ĠDo ctor
ĠlÃ¶ s
rev ligt
Ġexc ited
Ġt or
Ġn Ã¤m
Ġr akt
ĠfÃ¶r ber
ĠH ouse
Ġch urch
In nan
ligt vis
Ġdel ar
Ġdri ving
Ġac cep
Ġciv il
f att
ĠÃ¶ l
ĠU m
Ġgen eral
Ġlit ar
Vil ka
Ġinter view
Ġsign al
NÃ¥g ra
ĠEng land
Ġcir c
Ġfoc us
ĠÃ¤nt ligen
T Ã¤nker
h an
u sk
Ġy ell
Ġn amed
Ġk yss
ch en
Ġr ain
Ġof ten
ro l
Ġkn ull
ĠB ig
Ġlo ves
Ġstay ing
Ġsort s
Ġkro ppen
Ġpress ure
Ġobv iously
Ġsucc ess
I TH
M er
Ã¤ na
Ġb ird
at ic
Ġc ow
Th ink
Ġe mer
Ġis land
ĠS ure
od ay
Ġso cial
ber g
ock a
itch en
E m
R O
Ġt ight
Ġs le
Ġd ying
Ġh ind
Ġf ac
st it
Ġe ating
all en
ĠC ent
ĠB ara
ic ated
ĠF lor
Ġpro ject
Ã¤m de
Ġcra p
Ġtjej en
sam t
Ġbull shit
Ġfinish ed
Ġenerg y
F ast
d o
i ar
n oon
u le
Ġm ate
Ġm Ã¶t
Ġv issa
ĠG ive
ĠSt an
ĠÃ¤ ld
Ġfolk s
Ġbre v
Ġste g
Ġval de
ĠSe c
Ġpriv at
Ġcertain ly
Ġpot ent
J im
V a
f ast
r Ã¥
Ã ¡
Ġw ild
Ġin se
Ġr as
am in
ara c
Ã¥g od
ĠV Ã¤nta
Ġbr ut
he art
Ġtid igt
Ġny heter
Ġled er
Ġkoll ar
Ġstad en
ogra ph
Ġamer ikan
Ġhers elf
A U
Y OU
d on
Ġv el
Ġl ust
Ġo sky
Ġsh op
Ġbl ame
ĠR on
Ġgu ard
la x
Ġcon vin
En ligt
Sk y
Ġdrink ing
cent r
Ġlu ft
Somet imes
Ġsek under
Ġlju ger
Ġweap on
Ġjour nal
Ġthous and
Ġopportun ity
N OW
v Ã¤l
Ġt ree
Ġa uthor
Ġb ow
or ld
Ġo be
ed s
Ġdet ail
ir m
itt en
ĠG reat
ĠL ee
ĠF in
ĠF ather
av sett
Ġser iously
Ġway s
ĠÃ¥ ld
Ġqu it
Ġdes per
ĠfÃ¶rsv ann
Ġcam era
Ġoro a
MÃ¥ ste
Ġ ou
ĠS ome
Ġwith in
Ġus ually
Ġle vel
Ġsv ara
eng th
ĠTH IS
Ġfire d
On ce
Ġsleep ing
ĠJack son
S pe
v Ã¤nt
on el
ĠfÃ¶r h
Ġst il
Ġse par
ĠN orth
Ġpre gn
Ġsm ak
Ġsam man
Ġmother fuck
Ġlik ad
Ġresp ekt
ĠrÃ¤dd ade
ĠbehÃ¶v s
Ġpregn ant
F ortsÃ¤tt
H ade
p Ã¥
u bl
Ã¥ da
Ġp al
Ġk amer
as ed
ĠV isst
Ġbeh Ã¥ll
Ġwonder ing
K Ã¶r
g as
k ost
p ress
w ise
Ġt anke
in ne
ic ide
Ġkomm un
ĠE ddie
Ġspel ade
Ġgra v
Ġdoll ars
Ġap art
ĠNot hing
Ġlad ies
ele br
D om
N Ã¥t
b oy
Ġd ry
en skap
Ġg ang
Ġp ers
ĠM s
Ġtr ad
ĠK im
ip e
Ġsc ream
Ġmar riage
Ġprom ised
ĠGr and
FÃ¶rs Ã¶k
Ġgrabb en
Per haps
Ġsurpris ed
Ġ Ãħ
Ġf at
Ġbe ar
Ġr ace
ĠM ur
ĠfÃ¶rlor ar
Ġstick er
Ġ6 0
Ġintress ant
Ġlos ing
Ġinn oc
F ar
g Ã¶ra
x y
Ġb red
Ġst jÃ¤l
Ġe arl
il ing
ĠH old
ĠF rench
ist a
Ġhur ry
we et
Who a
Ġdec ide
oss ible
Ġcoll ect
Ġintell ig
a wn
h ere
Ġ Ã¥ng
Ġl etting
ĠfÃ¶r lÃ¥t
Ġst ole
Ġmin ut
ic ago
ĠJ ord
ĠR oy
Ġun less
Ġvis ade
ĠvÃ¤r sta
Ġspe aking
ĠfÃ¶rsÃ¶ kt
Ġafter noon
Be h
Ġbring ing
ĠBob by
Ġhid ing
Ġfur ther
Ġvatt net
Y o
y g
Ġs Ã¤rskilt
an o
Ġf ile
Ã¤r en
st ers
Ġj ur
lig are
ĠN E
ĠJ ud
Ġsa f
Ġund v
Ġkl ient
Ġun f
ĠÃ¤ kta
Ġ5 00
Ġcra ck
kv Ã¤n
Ġcomplet e
ĠfÃ¶ret ag
Hopp as
H ela
H jÃ¤lp
T re
b ell
e ch
es ome
ve y
al ys
ĠS al
Ġmed vet
ĠfÃ¶ dd
St r
Ġfil men
ĠjÃ¤v el
ĠhÃ¤l sa
Ġrom ant
- ...
M a
M Ã¥nga
O roa
i ens
Ġg ym
Ġn ine
Ġc up
ĠS on
Ġher rar
Ġbr ud
ny tt
Ġstor m
Ġty pe
ĠsÃ¤tt et
ĠAn na
Ġlu kt
Ġfa ith
uten ant
Ġinvestig ation
Ġesc ape
L ast
Ġm eter
an ger
Ã¶ ker
Ġp ath
Ġc ock
Ġj Ã¤m
Ġbe er
Ġr ik
ĠD ay
Ġse m
ok ing
us ion
ull y
Ġpo Ã¤ng
sp l
ĠTh omas
Ġlit er
Ġrikt iga
ĠkÃ¤r a
Ġlig ga
ĠfÃ¶rb ann
Ġlov ade
ĠGer man
E A
W H
Ġv amp
Ġn ames
Ġl jud
.. ..
... !
Ġsk Ã¤m
ĠD Ã¤r
ĠT ill
ĠJ ane
ĠR os
fÃ¶r a
Ġcl ient
Ġplay ed
ĠÃ¤nd ra
Ġdum p
ĠbÃ¥ de
Ġinc red
mÃ¤r k
Ġmem ory
Ġmedic in
Ġmeddel ande
Ġbegin ning
Ġt our
in der
Ġs our
Ġs ummer
Ġh ook
ing er
ig er
Ġn Ã¥
ad s
Ġst age
Ġwh ether
ĠT ur
Ġska pa
ĠW ow
uck y
ger y
yck er
ĠtrÃ¤ff ar
Ġshow ed
ĠkÃ¶ per
ĠvÃ¤rld ens
An nars
Ġear th
Ġvel at
- "
S y
S ince
Ġst Ã¶d
ste met
ĠP l
Ġpl ans
ĠE ric
Ġar my
Ġpre s
pt y
ĠjÃ¤tt ebra
Ġexpl os
Ġlock ed
Ġquick ly
Ġnerv ous
Ġlyss nar
Ġt unn
Ġg Ã¤ng
Ġc it
ol ution
Ġour selves
Ġkom pl
âĢ Ķ
Ġkont roller
ĠfÃ¶rlor at
Ġlj Ã¶g
ĠhÃ¶ ger
g el
k es
p ly
Ġd ouble
Ġc elebr
Ġdu bb
itt ing
Ġpl aces
fÃ¶r s
Ġsu ck
hing ton
ĠW ay
Ġex em
Ġun ga
Ġper haps
ĠFÃ¶r lÃ¥t
Ġvikt ig
ĠsÃ¶ nder
Ġflick vÃ¤n
ĠDad dy
Ġchef en
kten skap
Ġearl ier
1 0
A lex
F ly
O oh
P rat
Ġ ]
Ġw aste
om s
Ġg rym
Ġk itchen
Ġsk oj
ĠM att
il ty
ic le
Ġbl ue
ĠF Ã¥r
ans en
if er
Ġfeel ings
Ġact ing
Ġord ers
Ġdes ign
Ġweek end
Ġev il
Ġwar m
Ġfantast iskt
ogra f
Ġdar ling
Ġpleas ure
R I
T ur
e ys
p ic
Ġh ol
ar i
Ã¤r t
Ġst ink
se y
ĠH is
Ġsp ar
Ġch arac
ont ing
Ġplan ning
Ġcomp et
ĠkÃ¶ tt
Ġstra x
ĠDan ny
Ġcla im
Ġtred je
B efore
m ord
t r
Â Ģ
Ġh i
ag ue
Ġk us
Ġo dd
Ġbe com
ĠfÃ¶r hÃ¥ll
ĠS pe
Ġli ft
Ġsp oke
Ġut veck
Ġthem selves
Ġcl osed
Ġ2 3
St ill
ĠfÃ¶rsÃ¶ k
Ġgra vid
Ġpoj kvÃ¤n
Ġbreat h
F em
j orde
n o
Ã¶ da
it ter
ed om
Ġre lax
Ġom rÃ¥det
ĠC all
Ġne cess
um b
Ġni o
Ġbo ll
Ġfar m
ĠhÃ¶g t
Ġgott en
miss ion
ĠHA VE
ĠkÃ¤ ften
T ime
Ġg ro
ag ne
Ġo lyck
Ġto tal
Th ree
ĠH igh
ĠD ra
un ior
Ġska ffa
Ġut s
ĠÃ¶ver ens
Ġmot or
vis a
Ġhell o
Ġinter v
Ġdum ma
Ġpick ed
agg ie
Ġpicture s
Ġskj uter
T ro
g u
h el
h ip
z en
Ġ #
ch e
Ġme mor
Ġ- [
ĠJ ones
ab eth
ong ratul
ĠÃ¶ver ty
Ġevery where
ĠvÃ¤n tade
Ġsv Ã¤r
sp e
akt en
Ġad mit
Ġins ist
Ġcare er
ott en
TH E
Ġmurder ed
Ġtitt ade
Ġtw ice
Ġlev ande
Ġjud ge
A P
n am
Ġ ers
Ġh Ã¶j
Ġm um
Ġk Ã¤ll
Ġin de
Ġc ast
Ġc aptain
Ġwe ak
Ġsh ock
Ġsh oes
Ġnot ice
ri e
ĠJ ac
Ġpl ant
Ġpre par
aj est
air s
Ġext rem
Ġflick an
Ġread ing
Ġry gg
Ġweap ons
M ore
h em
j ord
r ust
Ġw ine
st ra
re ct
am t
Ġan stÃ¤ll
Ġact ion
Ġgill a
Ġapp l
ĠlÃ¤r t
ipp ed
Ġpri or
Ġgre en
Ġarbet ar
Ġarm s
Ġchar m
Ġmark et
Ab out
Ġrequ est
Ġconvers ation
I ns
Ġh Ã¤ng
it o
Ġv ita
Ġst re
Ġre lig
Ġpl Ã¶tsligt
ĠvÃ¤n tat
Ġph ys
els et
AN T
Ġord na
Ġsam arbet
Ġcomp uter
Ġtack a
ĠanvÃ¤nd e
ĠhjÃ¤r tat
org an
Ġuppt agen
ĠaffÃ¤r er
Ġhung ry
Ġhung rig
Ġpiz za
Ġimmedi ately
L eave
b arn
i ers
er m
Ġh Ã¥l
ar on
it ar
Ġen orm
Ġr ap
Ġst ab
pp ing
ĠC ra
ĠR am
Ġspe ed
Ãĸ R
Ġpull ed
Ġinsp ir
Ġarri ved
Ġpist ol
" ...
J ul
f est
l ight
l ock
Ġ ,
Ġm aster
or i
Ġc ous
ro f
ĠH mm
ett en
Ġse a
ĠJ ose
art a
Ġbr Ã¶st
ars Ã¥god
ĠfÃ¶rs var
Ġdel a
Ġbig gest
ĠbÃ¶rj at
vel op
Ġrapp orter
ĠkrÃ¤v s
N D
Ġhar m
Ġre ger
il ar
ĠH it
Ġtill stÃ¥nd
Ġkn Ã¤pp
ĠD om
ĠC H
ic y
ĠF ar
Ġqu ar
ĠfÃ¶rst Ã¶ra
St ick
oth ers
Ġbes v
Ãĸ ppna
Ġleg s
Ġcontin ue
B en
L Y
b ook
ll y
Ġf j
Ġv ann
re sten
Ġc ream
ĠI D
ay lor
od d
ĠM Y
Ġtr u
Ġknow ing
Du de
th ur
Ġup stairs
Ġfin a
ĠV a
Ġby gga
Ġfl ight
yck a
Ġblood y
Ġcol or
1 5
F ine
V id
v ad
Ġd ata
Ġf ake
Ã¶r ja
Ġu g
op t
ĠT er
ist r
ma il
ĠW in
la w
ĠdÃ¶ tt
Ġny ss
ĠvÃ¤r t
Ġring t
Ġshow s
Ġcou n
Ġans w
Ġhopp a
dag s
vin ner
Ġchans en
Ġ8 0
Ġkrig et
ĠQue en
Ġinnoc ent
1 1
R Ã¶r
m ark
Ġa ut
Ġc ake
all er
Ġnot iced
sk ling
em pt
ĠF red
ĠW ITH
ĠdÃ¶ l
Ġkl ipp
ug ga
ĠMar c
Her r
Ġbevis a
ĠUn cle
kom na
Ġtrev lig
Ġbek rÃ¤
Ab sol
ĠWH AT
Ġpur p
Ġbast ard
h Ã¤ll
l erna
w en
Ġs Ã¤ngen
Ġd irty
Ġb attle
it es
te e
ĠH aw
ess ed
ĠK ate
ĠV an
Ġpo ol
dag en
Ġinv ited
ĠglÃ¶m t
bo ard
Ġavsl Ã¶j
V issa
f te
k ont
v inn
Ġs ight
an ter
Ġp ig
Ġr aring
ay s
Ġst Ã¤ller
ĠH olly
ion er
Ġupp en
att is
Ġta ste
ĠÃ¤ ktenskap
Ġproblem et
ĠfrÃ¥g an
Ġem ploy
ĠAll a
ib ility
Ġdum b
Fr ank
Ġlisten ing
ĠsÃ¤l jer
Ġdans a
N Ã¤sta
f essor
j Ã¶l
l iv
n ande
v ille
Ġm ix
Ġg host
Ġj Ã¤k
Ġfor sk
ss y
Ã¤l j
Ġpro cent
Ġgu ilty
Ġtell s
ĠU S
cc a
Ġdis cover
Ġsur gery
ĠBr ad
Ġfast er
bar rass
ĠmÃ¤r k
ĠskÃ¶ ter
Ġspir it
Ġalter nat
A w
F Ã¶lj
R ob
S Ã¥g
m ond
s fÃ¶r
an cy
Ã¥ p
Ġbe bis
ur ing
od ies
itt y
ĠB rian
ĠT wo
ns on
ĠsÃ¤ kra
Ġapp ar
wh at
oc ol
Ġgre jer
Ġdam er
Ġsurv ive
ĠWas hington
ĠGen eral
Ġmater ial
b ra
r Ã¶m
Ġk inda
Ġl ang
Ġj Ã¤mt
Ġbe klagar
ĠS H
im ate
ĠM ag
ĠA v
Ġvi ew
ic ate
Ġup on
ĠK at
ab el
ord in
ĠCh icago
Ġmatter s
Ġlyck ades
Ġbook s
Led sen
r ant
Ġt ort
it en
Ġg ull
Ġk amp
am b
Ġsk ott
Ġse ver
ĠJ ess
ĠP et
ĠK NOW
Ġtal as
iz abeth
Ġstart s
ĠÃ¤ t
Ġreal ized
Ġsur r
Ġhell re
vÃ¤r d
ĠDo es
Ġwalk ed
Ġstud y
Ġsvart a
Ġop in
Ġenem y
N Ã¥
W E
d own
i que
j an
n Ã¤r
Ġg atan
ed y
ĠD oug
ok en
ĠL isten
ick s
Ġab s
Ġut man
ĠE ast
ab e
ĠCh uck
eg an
Ġdum t
ĠhjÃ¤r t
Ġimp ro
Ġclear ly
Ġsvar ar
Ġuppr Ã¶rd
H mm
J Ã¶sses
Ġl Ã¤st
as ka
ver t
ra p
Ã¤n s
Ġmed ical
ĠG reg
Ġut nytt
Ġhand en
ĠdÃ¶d at
Ġad m
Ġbes Ã¶k
Ġcomm it
Ġbreak fast
Any thing
Ġaw ful
ĠmÃ¶rd are
B ob
H as
S jÃ¤lvklart
f ly
Ġs org
Ġd yr
Ġf am
Ã¶ rel
Ġst Ã¶
ĠS luta
ĠM at
ĠH ill
ol an
Ġtr ial
Ġtr Ã¥k
ĠB oy
Ġcan cer
ĠN OT
ap t
ĠnÃ¥g onting
Ġpre d
ĠdÃ¥ liga
Ġny het
ĠdÃ¶d en
Ġtur ns
Ġkun nat
ĠglÃ¶m mer
Ġaw are
Ġham nar
Ġbred vid
I m
O P
e ared
k ter
r om
ar p
ld en
Ġe h
ĠN O
ĠG ot
ĠJ er
ĠR a
ĠR yan
Ġhel d
Ġar r
Ġgr ad
ĠÃ¶ver lev
Ġco ach
Ġstor ies
Ġkeep s
Ġem barrass
Ġimp ossible
ĠYOU R
Ġbas ket
ĠslÃ¤pp er
Ġbott om
Ġsek und
bur g
Lug n
ĠFran cis
Ġansikt et
Ġpartic ular
ĠfÃ¶delsed ag
ongratul ations
b es
d an
g gen
Ġt usen
Ġh inner
it ions
Ġv iss
re k
ĠS outh
and id
Ġkn iv
ĠC IA
ri kt
ort en
Ġal right
Ġer k
att an
Ġsm oke
Ġtra ining
Ġvan ligt
VÃ¤l kommen
M ad
Ġh Ã¤nger
ag on
re p
Ġo ly
nd e
Ġdu ty
Ġr Ã¥n
Ġit self
Ġst ry
Ġan m
Ġdo c
Ġlo ad
ĠJ ake
Ġman ager
Ġsp ell
Ġsp read
ĠdÃ¤r ifrÃ¥n
bb a
Ġdri cker
Ġem pty
Ġpri ce
lighet en
Ġadv ice
Ġpower ful
Ġlight s
Ġstol en
Ġeng ine
Ġavsl ut
Ġintress erad
Ġteach er
Ne xt
ĠfÃ¶rsikt ig
D av
J Ã¤v
f aren
j ust
Ġt Ã¥r
Ġt Ã¥g
Ġv ote
Ġg um
st ant
Ġn on
Ġon line
Ġre act
im p
th at
ĠJ apan
ĠL o
ap ten
Ġupp mÃ¤rk
if orm
Ġby ta
Ġliv s
ild a
aug hing
Sh it
Ġstra ff
Ġpoj ken
Ġgun s
ĠDan iel
Ġche ese
Ġlju ga
Ġdisk ut
Ġemer gency
ÂĢ Â
L Ã¤mna
M or
T ra
T oday
i od
j ar
k ins
Ġb Ã¤ra
st Ã¶v
Ġk am
Ġto k
al es
Ġr am
Ġand as
ent ligt
ĠH Ã¥ll
ĠG Ã¥
ie ve
ul s
ell er
Ġtv Ã¤tt
Ġtv iv
Ġstr ateg
Ġspe ech
Ġshow er
ott er
Ġcomm and
Ġdro ger
ĠfÃ¶rÃ¤nd ras
NÃ¥g ot
ĠLu ke
ĠmÃ¶r k
Ġeas ier
Mich ael
V is
y ond
Ġb odde
st Ã¤lla
Ġn orth
Ġl Ã¥n
Ġin fe
Ġc al
Ġsk il
se c
Ġan klag
ĠB a
ri Ã¤r
ĠJ am
ĠW ould
ĠdÃ¶d s
Ġins er
del es
ffic er
Che ck
IK E
ĠbehÃ¥ll a
it i
Ġdet al
Ġha ck
ĠA B
Ġkn ife
sk i
ĠN ik
ĠG ET
ĠL arry
um ber
ard er
ord s
Ġbest Ã¤mmer
ĠlÃ¤ sk
Ġord nar
Ġlyck as
Ġfre ak
Ġstick a
Ġcont ract
Efter som
Ġbild er
ortun ately
Gu ys
Ġra ise
Ġnerv Ã¶s
Ġuppsk attar
I I
J asÃ¥
M ost
i bb
er ap
Ġo s
Ġr iver
Ġvar ann
ur g
Ġdo ck
Ġde b
ĠA fri
Ġsh irt
ic ulous
ĠJ en
ĠJ UST
Ġab ove
Ġpl ac
ĠK en
ĠfÃ¶rst od
Ġdes cri
Sh ut
sy n
ĠfÃ¶rv Ã¥n
ĠÃ¤g er
ĠlÃ¶g n
Ġliter ally
f ta
v or
Ġf ars
it ation
Ġp ants
Ġc redit
Ġr ull
Ġde velop
Ġwas h
ĠB u
ct ions
ĠN ice
uck les
Ġmo on
Ġdel iver
ĠlÃ¤ ste
Ġend ed
Ġlag a
Ġaff ord
ĠJohn ny
ĠUn ited
Ġbott le
ĠGra ce
Ġrespons ible
K e
P at
Ġ Ãħh
Ġt aught
Ġs ats
om pl
ill ing
Ġatt empt
Ġbe ach
Ġdo ktorn
Ġli sta
ĠH al
ĠH uh
ĠA ust
ĠD ar
ĠB ye
ri p
ĠT ex
us ing
if orn
Ġas leep
ĠrÃ¤ d
ĠIn ter
Ġty vÃ¤rr
Ġhear ing
Ġfru kost
Ġarbet a
tid igt
Ġshoot ing
Ġphot o
M ycket
R Y
k i
en ing
or es
Ġg Ã¤st
Ġp in
Ġn Ã¤t
Ġto al
Ġre cept
ĠB el
ĠG l
em s
Ġno te
ven s
opp a
ĠU rsÃ¤kta
Ġdro tt
Ġnamn et
Ġhor ri
Ġkost ar
ĠVil ken
ĠÃ¤ld re
V isa
x a
Ġ et
Ġf atta
Ġv ind
Ġg ames
re ak
Ġl in
Ġc ru
Ġc ult
il i
Ġbl omm
ĠR achel
Ġle ka
ĠfÃ¶rs vinner
Ã¤ng d
amp le
Ġsch ed
alt y
Ġcomm on
Ġplats en
Ġinc l
Ġexper t
Ġcur r
Ġloc al
Ġcry ing
Ġdiv or
C aptain
S na
T e
Ġa gg
Ġb id
Ã¶ p
ig en
Ġk at
am s
ĠA S
ĠT ror
ist or
Ġkl Ã¤n
Ġpre fer
ĠCh ief
Ġ4 5
Ġdro pped
Ġob ject
Ġinne bÃ¤r
Ġmark en
ĠfÃ¶rv ir
Ġvack ert
Ġcor ner
Ġdej t
Ġclos er
R ed
j Ã¶
in ct
ar es
Ġm ult
Ġm oun
an c
Ġb odies
Ġto l
as ons
ion al
Ġkn ark
ĠC ast
op a
th ough
ie utenant
Ġso ft
arn as
Ġ2 2
ĠVi ctor
eg as
ON E
Ġdog s
Ġklar ade
Ġskad ad
Ġru le
iell t
Ġkra fter
Ġcent er
inc ip
Ġflytt ade
Ġill eg
Ġbord et
Ġanim al
Ġsjun ga
Ġskill nad
Ġcous in
Ġpurp ose
' ?
H oney
W atch
m o
x or
Ġf ed
Ġb ust
nd ag
Ġst ann
Ġsk ogen
Ġha vet
Ġme at
Ġre fer
ĠB on
ly n
ĠL O
ĠL isa
ul ation
Ġcom fortable
Ġstr id
Ġfar ligt
Ġfly ga
rat or
Ġmil k
ĠAl ice
Ġinter n
Ġcheck ed
Ġrecord s
H elt
J e
S u
a os
Ġh ette
Ã¥ s
Ġbe yond
ĠS O
ĠS il
ĠS anta
ie st
ĠP ete
Ġch air
Ġcom b
opp en
Ġpo ison
sp r
Ġam ount
ĠtÃ¤n k
St Ã¤ll
ather ine
ĠIn get
Ġinst ru
ĠSm ith
Ġamb ul
ĠSu per
Ġpossib ly
Ġide as
ĠlÃ¤gen het
A ng
L o
z o
en ces
Ġg em
Ġp ock
Ġo d
ed el
Ġof Ã¶r
Ġan fall
ĠA RE
ĠB ru
ĠT w
ĠL i
Ġsa cri
Ġno se
ĠK n
ĠnÃ¤r heten
FÃ¶r sta
ĠfÃ¶rs Ã¤k
Ġgen ast
Ġbu ss
Ġins ane
iver se
pe cially
ĠBr it
Ġpay ing
ES S
ĠSp an
Ġsim ply
1 9
m ande
Ġt it
Ġd are
an ie
Ġf jÃ¤r
Ġl ok
ad ies
pp a
Ġsk or
ĠA LL
Ġsp Ã¤nnande
ĠK l
ĠV er
Men ar
Ġle ader
ĠhjÃ¤l te
Ġte cken
Ġstr ength
ĠlÃ¤ ser
ĠlÃ¤g g
Ġseem ed
ĠkÃ¤nd es
Ġlug na
Ġ9 0
Ġdream s
Ġbull et
ĠEm ma
Ġhy p
Ġtyd ligen
Ġcond ition
Ġtru ly
B o
F ort
P S
m i
o ci
Ã ³
Ġm ut
Ġk ons
is ing
Ġli ed
ĠH ans
op ter
ĠG old
ĠJ ason
Ġbr Ã¶t
ost on
Ġsv ag
ĠAnd y
iz ing
ress ion
Ġverk ade
amm et
Ġfar bror
sid an
AR E
ĠlÃ¤g et
Ġaff ect
ĠfÃ¶re sl
Ġart ist
oun ce
Ġconne ction
ĠJoh nson
E M
H Ã¤mta
v y
Ã ±
Ġt um
Ġh o
Ġf y
Ġf Ã¥g
Ġk eys
Ġon to
ĠS und
ur se
Ġhe avy
ĠM ont
ir k
ok es
ĠG reen
ĠL iz
ĠR od
Ġpr oduc
Ġbr Ã¥k
Ġnow here
ĠÃ¶ver vak
ĠvÃ¤l jer
ĠfÃ¶ ll
Ġbor row
Ġreg ler
Ġrid iculous
Ġdisapp oint
Ġunge fÃ¤r
Ġchick en
Ġexem pel
A CK
b a
k arna
n i
Ġd ator
Ġw itch
Ġk o
al ity
Ġhe aven
ĠH am
un ny
Ġmin st
Ġav oid
ĠP al
Ġch ock
ĠV in
Ġpr ins
end en
Ġer faren
Ġbeh av
OU T
Ġ3 00
ash ed
ph y
med el
ĠfÃ¶rv Ã¤nt
Ġes pecially
Ġcover ed
Ġconcern ed
ĠsÃ¤ll skap
ÃĦl skling
M ove
N ew
P ar
c il
i os
Ġ Ã¤gg
Ġa x
Ġc ars
Ġc ards
ch ef
Ġr ena
pp er
ĠpÃ¥ ver
ĠT aylor
ĠO UT
ĠP ut
ĠF R
um a
ĠR ock
Ġbr Ã¥
ĠW ood
Ġbet ray
nt il
bl ing
Ġhead s
Ġsam hÃ¤ll
gr ound
rÃ¤ d
ĠCl ark
Ġforg ive
Ġeff ect
Ġrob ot
Ġrestaur ant
Ġpract ice
Ġappro ach
Ġprofession al
Ġsacri f
M s
e es
m ans
p ass
Ġv akt
Ġl ord
Ġo sk
Ġmed ia
ce ed
ĠC AN
Ġpr im
Ġsl Ã¤kt
Ġsome how
Vad Ã¥
ik anska
Ġig nor
Ġdi am
Ġplan er
Ġvil a
Ġord et
ern as
Ġreg ret
Ġbar ely
Ġbas ically
Ġfollow ing
ĠEm ily
Ġmord et
gÃ¥ s
ĠOl iver
Ġmilit ary
Ġsudden ly
ĠÃ¥ld er
Ġlukt ar
Ġcharac ter
G illar
T ar
T oo
g Ã¥ngen
h o
Ġen c
Ġen ligt
ĠM other
Ġfr Ã¶ken
Ġmin nas
Ġhan tera
ĠJ osh
ĠR eg
Ġpl us
ate st
Ġgr atis
Ġperson en
Ġlot s
Ġfly ing
Ġrec ently
Ġpass ion
Ġnum bers
led ge
Ġpoint s
Ġaw esome
Ġbok en
ĠskÃ¶ ta
Ġbrott s
Ġloc ation
Ġdju pt
Ġpret end
Ġkyr kan
Ġpotent ial
Ġopin ion
b en
Ã ¼
Ã¶ re
Ġn ation
Ġc row
ad or
Ġdu e
pp et
ĠH ug
Ġtill gÃ¥ng
ant en
ĠC oll
Ġsp y
Ġgr u
Ġbet e
ĠSt ates
iz ation
anna h
Ġper cent
ĠlÃ¥ na
Ġend s
ash a
Ġsett le
Ġinf lu
Ġtro ll
Ġlag t
An vÃ¤nd
Ġry ggen
Ġind ust
Ġsub ject
Ġframtid en
Ġapolog ize
Ġagre ed
Charl ie
ĠfÃ¶dd es
Ġkus in
C le
J u
c ue
e ars
i erna
l oe
m od
Ġs Ã¶m
Ġg n
Ġp ill
Ġl oud
Ġto il
ĠI sl
es h
el ine
Ġr ub
ce an
ĠA gent
ct ors
ĠJ erry
ĠL y
Ã¤ll de
und en
Ġour s
Ġun iform
man nen
Ġfind ing
amm e
Ġtj Ã¤na
ĠHon or
Al right
Some body
Ġball s
gÃ¥r d
ĠskÃ¶ nt
ĠJul ia
Ġpapp as
Ġabsol ut
Ġident if
ĠSn Ã¤lla
eal ous
ĠÃ¶verle va
Ġmamm as
Ġincred ible
F ick
H Ã¤l
P olisen
Ġ Ã¤ck
Ġa ger
Ġd ating
Ġb on
Ġb atter
Ġk ok
ch a
ĠfÃ¶r bl
ld e
ra ft
ĠS y
Ġli c
ro at
ĠB ell
ĠB ern
ĠG re
ta ins
ka st
one st
ap a
os en
Ġsu ger
ĠnÃ¤r mare
ĠDet ective
opp ing
ĠCh in
ĠÃ¶ ga
ĠU P
ĠfÃ¶ red
Ġold er
ĠHar ris
ĠÃ¤nd a
ĠBr own
ĠhjÃ¤r na
hus et
Ġrol ig
Ġexpl od
Ty vÃ¤rr
Ġlar ge
Ġchamp agne
Ġorig inal
4 0
D ags
I F
f an
g ru
j or
k in
Ġth erap
Ġw ound
at et
om i
Ġg ather
Ġp owers
ĠI m
as ure
Ġdu sch
Ġvar enda
se x
ĠM ick
Ã¥r d
ĠA ri
ĠD or
ss k
ĠJ ew
Ġsp Ã¶
Ġex ec
ĠÃ¶ver l
Ġbet alt
Ġam ong
pl ant
Ã¤ck en
Ġfun n
ann en
Ġbelie ved
OU LD
Ġsex ual
Ġbil j
Ġcr iminal
ĠlÃ¶ ser
Ġsol en
ĠhÃ¤ ft
ĠLou is
ĠWal ter
Ġpil ot
Ġinbland ad
Ġtrad ition
ĠTex as
K on
L O
i ally
p un
Ġh Ã¤nga
Ġn et
Ġo st
ch es
Ġre pe
ĠD E
ĠD ave
Ġom Ã¶jligt
ĠT or
us ive
Ġsa ving
ĠF er
ĠR ose
Ġpl enty
Ġbr idge
Ġtal ade
Ġtal ent
Ġgood bye
Ġhem sk
Ġlea ves
Ġmat en
Ġdel en
Ġdad dy
ES T
ĠÃ¶pp nar
Pro bably
Ġgal na
Hel p
Ġsle pt
Ġoly cka
u vud
Ġs ne
Ġon d
Ġdo k
ĠM il
ĠA sh
us hing
Ġsp lit
ĠF an
ĠW all
ĠW orld
ÃĦ n
Ġfl u
og an
Ġingen stans
Ġte eth
Ġad ress
rat ed
Ġsur f
Ġtag et
Ġskol a
Ġcor rect
Ġdep artment
Does n
Ġkar riÃ¤r
Ġnatur al
ĠkrÃ¤ ver
Ġbuck s
Dav id
D ess
K ul
b ru
k r
Ġ Ã¤m
Ġh ig
an ne
Ġw arn
or ney
Ġl ung
Ġj ealous
as ion
Ġst Ã¶tt
Ġme j
Ġwe ight
Ġall deles
ol n
ok er
Ġbr ors
iv ing
Ġallt ing
Ġsm ile
ĠÃ¥t al
IN K
Ġbes vÃ¤r
Ġgre w
ĠWho a
Ġcap t
ĠsmÃ¤r ta
Ġvers ion
Ġnecess ary
h uh
j Ã¤n
n att
s juk
t ag
u ella
Ġt ung
ar an
Ġth rew
Ġf asc
as er
Ġr ough
Ġr ac
ea p
ste in
ĠV ir
Ġbr others
ĠÃ¶ ppen
Ġqu een
ĠÃ¥r en
Ġplan en
Ġled a
ĠjÃ¤v eln
Ġgre atest
Ġob ser
Ġleg end
Ġsweet heart
Ġfest en
ĠfÃ¶rf lut
Fuck ing
ĠEx cuse
Ġbjud a
kÃ¤n na
cell ent
f iken
g ress
g ifter
l are
o ved
Ġs alt
Ġa k
at o
Ġp et
Ġn or
ill iant
as ing
Ġan l
un ter
ic ans
ĠK omm
ob y
ip l
Ġvis ion
Ġtra il
Ġlik som
Ch rist
IS T
Ġspr ang
Ġhurt s
ĠSte ph
Ġhang ing
ĠfÃ¤ng elset
Ġpapp er
Ġcre ate
ĠfÃ¤r g
Ġiss ue
Ġou tta
W ere
b on
b org
v ies
v akt
Ġt ab
Ġb ang
Ġb ond
Ġp ump
Ġy o
Ġk ass
Ġi ron
Ġsh ift
Ġse ason
ic ation
Ġsp ort
our t
ĠK eep
ĠK yle
ud ing
ong en
Ġwho se
Ġgr Ã¤
Ġgr owing
Ġfall er
Ġdes k
Al so
Ġsign ed
Ġcop y
Ġhistor ien
Ġavsl uta
ĠRo ger
augh s
Ġflytt ar
Ġtapp ade
Ġkontor et
Ġspeciell t
ĠCla ire
Ġsci ence
Ġmotherfuck er
Ġfam ous
Ġdok ument
B ar
N ick
O ut
Ã Ĥ
Ġt ask
Ġs ize
Ã¶ kt
Ġy ng
ad ow
ĠI r
ĠC ass
ĠB oston
ri ke
ĠL au
ĠP a
het s
Ġsv Ã¤rd
Ġstr un
amm y
Ġled are
Ġlag et
Ġ19 9
Ġfre edom
Ġmass or
ĠGud s
Ġfoot ball
ĠSom et
erk ligen
Ġcommun ity
Ġanim als
ĠWil son
ĠMex ico
Ġsnack ar
B ig
F ive
in cess
er ande
Ġh ired
Ġg iss
Ã¤r k
Ġn Ã¥d
Ġn ail
ed ing
Ġu lt
am en
Ġhar der
ĠD a
Ġvi ld
ss on
ĠB y
ul en
ĠR om
ĠV ery
fe ct
Ġunder bar
ĠSt r
ĠAnd rew
Ġtry gg
Ġsy ss
ĠWh ich
ĠvÃ¤g rar
vÃ¤r t
Ġ19 8
yl an
ĠGe org
Ġchang es
Ġpap ers
Ġdress ed
Ġspring a
Ġbjud er
Ġdestroy ed
Ġrespons ibility
ĠsÃ¥d an
Ġbri ef
Sky nda
B ring
M ax
S on
V arsÃ¥god
in et
Ġa st
Ġy r
Ġk att
Ġto wards
ĠÃ¤r lig
id an
Ġst yck
Ġan alys
Ġsh er
Ġom bord
Ã¤g et
Ġvet enskap
Ġpr ot
Ġsl av
âĻª âĻª
Ġwr itten
Ġapp ear
Ġtrans fer
Ġskr Ã¤m
ĠfÃ¶rut om
ĠfÃ¶rstÃ¥ s
Ġmatch en
Ġeng el
mÃ¤r kt
Ġnear ly
tel se
Ġtem per
Ġskydd ar
ĠfÃ¶lj de
Ġhamn ade
ĠstjÃ¤l a
Ġug ly
ĠuppmÃ¤rk samhet
T revligt
V Ã¥ra
Ġt Ã¤nd
Ġm ax
Ġm jÃ¶l
Ġf ul
Ġp unch
Ġn Ã¤s
is ar
ed a
Ġc ere
el and
Ġsk Ã¥d
ra k
ĠpÃ¥ min
ĠS ol
ĠM aggie
ĠC ole
Ġne ither
ĠL IKE
Ġch em
ĠK ar
Ġbra ve
ER S
Ġcar es
ott e
Ġhead ed
ĠlÃ¤m nat
ĠMar ia
AR D
Ġsell ing
Un less
Ġhonest ly
Ġarrest ed
Ġcre ep
Ġkil om
ÂĢÂ ¦
Ġhorri ble
. ,
I E
M ark
O b
P ol
S im
V Ã¤r
n amn
r ande
s u
Ġf ader
Ġf ira
Ġv Ã¥n
st al
st ood
is es
Ġj ury
ill ed
Ġfor ced
Ġhe at
ĠD ep
Ġmin ne
Ġch ief
Ġmen ing
ep h
ik o
Ġun iverse
Ġel ev
Ġfamil ies
Ġmo vies
ring ar
ĠsjÃ¤lv mord
Ġfly ger
ĠkÃ¶ ket
AR T
Ġreg lerna
ĠdÃ¶r r
Ġmilj on
ĠfÃ¶rÃ¤nd rats
ĠtjÃ¤n ar
Ġpie ces
Ġstar ka
Ġgal et
Ġallvar ligt
Ġorgan is
Ġtank ar
Ġfail ed
Lug na
Ġintr odu
Ġneighbor hood
Ġsaf ety
Ġsever al
1 2
B arn
E d
S edan
i per
l ook
m os
s ig
v ir
Ġ %
Ġs ons
Ġv ul
Ġn ar
Ġk al
Ġr at
Ġr it
Ġfor e
ĠM mm
ĠM ajest
ĠP op
ĠP ier
Ã¤m p
Ġcl im
Ġplay er
Ġhead ing
Ġsam tidigt
Ġskit stÃ¶v
Ġopen ed
Ġdef end
ĠLe o
Ġleg al
Ġattack ed
Ġlu ften
atur day
ĠHer regud
Ġkast a
Ġbreat he
Ġvictim s
Ġsher iff
F ind
N ING
S ch
S nygg
b ro
k o
y st
Ġt iny
or en
Ġp und
Ġy tter
Ġk ors
al er
ĠS OME
se ll
all ey
ĠG ary
Ġlo ose
Ġab andon
Ġny ligen
ath y
Ġact iv
Ġass ume
Ġgod k
ĠnÃ¥gon stans
Ġexp ensive
Ġspr Ã¤ng
ĠEl izabeth
Ġru in
Ex cept
Ġdam age
Ġla unch
ĠvÃ¤x te
Ġrym d
Ġsil ver
ĠnÃ¶j d
Ġosky ldig
Ġsem ester
O H
R AT
b u
w ich
Ġs um
Ġm ama
Ġf Ã¥n
Ġb ett
om ing
Ġn ature
Ġk ol
ĠfÃ¶r tro
Ġst Ã¤nga
Ġre lease
Ġfr un
th ew
Ġsp l
ĠR u
ĠR oss
Ġgr own
Ġun cle
ĠÃ¥ kt
Ġmean ing
Ġmiss ade
Ã¶j t
Ġfram Ã¥t
Ġdis p
Sk it
ĠSh ut
vet et
igh s
Ġbre aking
ash ion
Ġvan lig
ĠBar ry
ĠLu cy
Ġmem ber
Ġdisapp ear
Ġproper ty
oph ie
itu de
ĠgrÃ¤n sen
Ġrecogn ize
Bes ides
allen ge
A ren
G Ã¥r
P eter
R es
T ycker
U L
W ant
f ort
h av
Ġb jÃ¶d
Ġp ir
Ġyou n
ad o
ch o
as en
Ġbe v
ere k
Ġe arn
ĠS ta
ol t
ĠD am
Ġse g
ĠB ull
Ġav tal
Ġhim len
Ġpl ast
ĠU nder
sl Ã¶s
Ġper form
Ġhopp ades
An other
ĠlÃ¶ n
pr il
ĠhÃ¶g re
Sn art
Ġsend ing
Ã¤nn isk
Ġz omb
Ġsecret s
ĠMc C
Ġhalv t
lo ad
ĠfÃ¶rstÃ¶r de
Ã¤lt et
ALL Y
Beh Ã¶ver
Ġansw ers
' ,
B et
K apten
M ary
R o
R eg
g y
Ġt all
Ġh ed
or mer
Ġp itch
al ar
al ed
Ġst ock
Ġis ol
Ġre leas
Ġfor mer
il en
Ġsh ame
ĠD oc
Ġvi a
ĠB eck
ĠL ittle
ĠR ep
ĠK elly
Ġsu icide
Ġal k
ong ress
ord on
ĠdÃ¶ k
Ġefter mid
ew is
Ġpart ners
var ande
Ġtur ning
Ġapp oint
Ġstay ed
pe kt
Ġ19 7
ĠSk y
ĠfÃ¶rv and
Ġexper ien
ktion er
Ġung dom
Ġgri p
Ġinterv ju
U M
d r
h es
m ber
v ist
at in
ig ga
te ck
Ġu ns
Ġdu ktig
ak an
itt ar
ĠB ry
ĠN Ã¥g
Ġut bild
ast ing
Ġgr Ã¥ta
Ġhem ska
Ġmor mor
Ġmo ves
Ġgen ius
Ġfram gÃ¥ng
Ġpar ker
ĠFr iday
ĠSe an
Ġvan liga
Ġarm Ã©
Till s
Ġru ined
Ġpresent era
Ġexpect ed
Ġperfect ly
utt ing
Ġtelefon en
ĠSer geant
Ġterri f
Ġdefinit ivt
Ġdisapp eared
Ġoro ar
Ġspring er
Pl us
Ġstyr ka
S amma
l n
l Ã¶st
o ende
Ġn jut
ĠI ns
te en
ve k
Ġst om
Ġvar ken
ĠM ajor
il ities
ĠH Ã¶r
ĠH ERE
ĠL A
ĠL os
Ġch ose
ĠE th
ĠV egas
Ġbr Ã¶der
ard on
ĠkÃ¤n sla
ĠU pp
pl es
pt ion
Ġjobb igt
Ġdis g
Ġord ning
Ġlik ely
stÃ¤ll ning
Ġfollow ed
Ġnorm alt
Ġstri ke
Ġegg s
ĠHit ler
Ġdiskut era
M mm
b ud
u ce
Ġt and
Ġh ug
an ing
Ã¶ kte
Ġg arden
Ġk ur
Ġl ately
ld iga
Ġe j
ĠM amma
il ed
ĠC ap
Ġse es
Ġtr ade
sk or
ĠT ime
Ġlo y
us es
ĠL ily
ĠP L
em on
ĠF el
Ã¥g an
ĠR IGHT
ĠK al
Ġpro gress
Ġpart s
Ġper iod
Ġro of
ĠAl an
Ġopen ing
Ġsw itch
Ġflick or
ĠJack ie
Ġpoj kar
Ġfot boll
Ġsold at
ĠsnÃ¤ll t
ĠgÃ¶m ma
Ġdy ker
ĠAt l
Ġjour ney
ĠAnt on
ĠJord an
ĠfÃ¶rflut na
L a
O k
T A
f ru
z er
Ġt ie
Ġh ust
Ġm ood
Ġn ational
Ġk op
Ġst ir
Ġre asons
ĠA my
ct ure
ĠN athan
ĠG abri
ĠJ ay
ĠL ady
Ġvill age
Ġska pade
Ġbr illiant
Ġoff ret
Ġun gar
Ġmot iv
ĠtrÃ¤ff ades
Ġdes ig
ipp ing
Ge orge
Ġben ef
ĠJe an
Ġresult s
Ġmention ed
Ġjack et
Ġrece ived
Ġca used
ĠEur ope
ĠFlor ida
ĠjÃ¤k la
B orde
D eras
G H
L ittle
f ather
f Ã¤rd
h Ã¥l
n is
Ġ Ãĸ
Ġt un
Ġt ip
Ġt Ã¥l
Ġs Ã¤nd
Ġs outh
Ġh ors
ag ing
is er
Ġatt ract
ĠfÃ¶r hand
im me
Ġdo ors
ĠH ay
Ġch est
ast y
fÃ¶r ande
Ġfl owers
be cca
Ġlet ters
dd y
ĠrÃ¤tt en
Al ways
Fr Ã¥ga
Ġpos it
Ġprof essor
enn ifer
Ġsan ning
ĠmÃ¶ ta
Ġcam eras
Ġenerg i
ĠSim on
Ġspark en
Ġve h
Ġgol vet
Ġsour ce
Ġcompet ition
Ġarr ang
A gent
O ver
V Ã¤ldigt
h und
m at
Ġb ite
st yr
Ġk uk
Ġl ink
is ion
Ġo g
Ġto pp
ĠfÃ¶r hÃ¶r
Ġe kon
ĠD ON
ĠB eth
ri b
ri ver
The ir
Ġch allenge
os es
Ġfl at
ug ust
Ġber Ã¶m
ĠU t
Ġthought s
AT ION
Ġresp ek
Ġlag en
Ġbed room
Ġpa us
Ġfant as
Ġsweet ie
ĠmÃ¶rd aren
Ġfell ow
Ġpist olen
Ġskriv it
ĠbÃ¥t en
ĠfÃ¶rhÃ¥ll ande
Ġmemor ies
spe cially
Ġdiscover ed
Ġlang u
ĠÃ¤t it
Ġstom ach
B oy
J Ã¤tt
L adies
a ult
j ort
l Ã¶sa
Ġt ju
Ġk em
Ġto w
Ġst aff
Ġwh eel
ĠM et
ĠM arsh
ri a
ĠG irl
Ġno ise
ĠK anske
Ġbr Ã¤n
ard rÃ¶m
Ġkl Ã¤tt
Ġser ver
Ġ2 7
Ġgl Ã¤d
pl atsen
Ġmot s
IN D
ĠAr thur
ĠBl ue
Ġcompl icated
Ġexper iment
Ġdam en
ĠlÃ¤tt are
Ġpriv ile
Ġfing ers
ĠhÃ¤l s
Ġcreat ed
Ġskepp et
Ġtax i
rÃ¥ de
ĠWay ne
O pen
f olk
i era
l ike
t rÃ¥d
v ap
Ġd ies
Ġn uts
Ġn orr
Ġl ys
Ġman ip
Ġupp lev
ns el
Ġsl app
Ġvad Ã¥
Ġunder bart
Ġsv Ã¥ra
ci ent
Ġfamil iar
Ġmot stÃ¥nd
Ġper mission
ian o
ĠlÃ¤r are
Ġstud ents
Ġhum ans
Ġdan cing
Ġpos itive
ĠfÃ¶rsv inna
full t
ĠCol onel
ĠPat rick
ĠkÃ¤m pa
Ġpiss ed
1 6
B ye
F our
P aul
R ich
T w
T urn
b ot
d jur
i als
l aughs
Ġt ap
Ġt ape
Ġf Ã¥nga
Ġr Ã¶d
Ġst ars
ĠS aturday
Ġli es
ĠM id
ĠC le
ĠE N
Ġpr incip
Ġhel gen
Ġer kÃ¤nna
Ġser ve
ĠÃ¶ de
bb en
ĠSt ate
ĠrÃ¤tt eg
Ġfun eral
Ġter ms
land s
Ġkoll ade
Ġmorgon en
Ġconf irm
ighet erna
Ġtrans port
ĠJo ey
Ġexpect ing
Ġlev de
Ġgif te
Ġra ised
Ġphot os
ĠmÃ¶t et
Ġlikad ant
Ġprepar ed
D el
L ove
T og
V Ã¥rt
g at
h in
h Ã¥ller
j o
r ot
u ed
Ġs Ã¤m
Ġh yr
Ġf ys
at ors
re sp
Ġn aked
es se
al itet
Ã¤n tar
Ġdo ktor
Ġsh ots
ĠC ount
ĠL aw
um s
sta v
FÃ¶r utom
Ġreal ity
Ġbab e
Ġdrink s
TH ING
ĠLe x
Ġsjuk dom
ĠslÃ¤pp te
Ġsold ier
Ġsold iers
sc ar
Ġeff ekt
Ġsym bol
ĠfÃ¤rd ig
Ġcas es
ĠÃ¶verrask ning
ĠJac ob
ĠHolly wood
C ol
H and
Ġh ud
Ġv Ã¤nda
Ġk yck
Ġl ack
Ġl aughing
ĠfÃ¶r resten
am pa
le ken
Ġha v
Ġvar s
ĠS ara
Ġfr isk
ĠC her
ĠC lar
Ã¤g are
ĠP ri
Ġpro jekt
ik ter
Ġfl o
Ġdr am
sp ro
bl ed
Ġfri het
Ġstr anden
ac on
Ġad ult
Ġpass a
skap et
Ġsna cka
Se x
Ġpolis er
ĠAn ne
Ġstat ement
Ġhemlighet er
Ġrema in
Ġundv ika
ĠJose ph
ĠbekrÃ¤ ft
Ġsched ule
Ġgem ens
Ġtoil et
A cc
B E
S ounds
z ie
Ġs Ã¥ng
Ġa u
Ġth roat
on der
Ã¶ gon
Ġp air
Ġdet ect
Ġsk ur
Ġsk Ã¶n
ĠS ay
ur r
ĠM olly
all ar
ĠH allÃ¥
ol s
ĠD ick
ĠB ack
ack en
ĠG OT
Ġjust ice
ĠL Ã¤gg
ĠF ort
ell an
Ġex act
uck er
Ġsm s
Ġsm ugg
Ġmu se
Sk Ã¥l
ĠDe v
Ġsex y
Ġkont rakt
Ġhard ly
Se c
Ġmod ern
iam i
ĠAb out
Ġassist ent
Ġscrew ed
Ġwood s
Ġstre ets
A mer
f en
k ing
Ġs ed
Ġs illy
Ġm ap
Ġm Ã¶tt
st ig
Ġp age
is en
ĠI ng
ch an
ch uckles
el ax
Ġr ot
Ġe ars
ust ing
un s
Ġne ur
Ġmin nen
ok lad
ĠL ove
ĠR ad
ĠmÃ¥ let
ard o
att y
Ġkl ubb
av tryck
Ġgl ob
ĠvÃ¥r d
Ġbor g
Ġpar ad
rat ta
Ġfall ing
its nack
Ġhund ra
Ġpat ients
Ġum gÃ¥s
ĠCl ay
Ġcap able
Ġexc iting
Ġdev il
giv ing
Ġslipp er
Ġmun nen
Ġvux en
fatt at
b ing
b re
d Ã¥
e ga
m Ã¶rd
p her
w orth
Ġ ess
Ġf ab
Ġl ines
Ġo il
ĠÃ¤r a
ĠM um
ĠH annah
Ġlo j
ĠO ur
Ġbl ess
Ġman aged
ĠF ine
FÃ¶r stÃ¥r
ĠIt al
ĠvÃ¤r de
Ġfar lig
Ġbab ies
Ġlik nar
del ningen
Ġcr ash
Ġbry ter
Ġbry ta
ĠSp ring
Ġchang ing
ktion en
ĠgÃ¶m mer
Gr attis
ĠvÃ¤x er
Ġkast ar
Ph il
ĠfÃ¶n stret
Ġnyhet erna
ĠSund ay
n os
Ã¤ ste
Ġm as
Ġb ug
or ed
Ġv ag
Ġo cean
Ġj erk
es pel
Ġen a
Ġall erg
ust er
ak ter
ĠD is
ĠB ud
ĠG il
th a
art s
ĠP ort
Ġmen ingen
Ġvet at
end et
Ġbr Ã¶d
ĠÃ¶ v
Ġmor al
ĠAnd re
ĠvÃ¤g gen
Ġkonst ig
Ġmod el
Ġinve ster
Ġvap net
ĠÃ¶n sk
Ġeng ag
Ġbetal ade
Ġvak na
bil en
AK E
Ġprodu ct
Ġsci ent
Ġkompl ic
Ġkontroller a
Ġanm Ã¤l
ĠAB OUT
ĠChin ese
Dess utom
H itta
H uh
T alk
U ntil
c ohol
p ack
r atch
Î ¿
Ġh als
Ġm ic
Ġm ardrÃ¶m
an i
Ġf ro
on i
Ġl ower
te ll
ut i
Ġsk um
ĠS and
Ġre sid
Ġdo in
ĠL ight
Ã¤g er
ĠP eople
Ġska ff
ĠR em
Ġfin an
Ġright s
Ġpro va
und e
Ġgr Ã¶
og s
ĠgÃ¥ va
Ã¤st are
Ġsn ow
Ġshow ing
Ġfan cy
Ġgod s
Ġlag ar
Ġlyck liga
Ġdom are
Ġsus pic
Ġmem bers
Gu ess
Ġfir m
Ġnyck eln
Ã¤ker t
ĠEvery thing
Ġiss ues
Ġvarm t
Prat a
B el
G jorde
U nd
s na
w in
Â ´
Ġd ish
Ġm ail
Ġf ann
Ġv ent
Ġg ifter
Ġo avsett
Ġdet ective
am ent
Ġst Ã¤m
Ġdo ctors
ĠM ars
ir ing
ett i
Ġav l
ĠT ar
Ġpro of
ate ful
ank en
De f
Ġcon v
Ġper man
ian e
Ġkall t
Ġang el
Ġspec if
ĠidÃ© er
Ġprotect ing
Ġlist an
Ġpresident en
ĠrÃ¤k na
Ġslipp a
ĠÃ¥tervÃ¤nd a
ĠfÃ¶rklar ar
Ġilleg al
Ġstann ade
ĠBrit ish
1 7
A ldrig
C o
O l
R Ã¤tt
S weet
b ly
b our
c ase
h y
j ung
m other
Ġh ous
Ġl on
al th
Ġbe kv
and al
ĠM ir
ĠM ama
ro s
ĠA ir
Ġkn Ã¤
Ġtr as
ĠL ewis
Ġman s
ĠP R
Ġgr ann
fe kt
ose x
Ġcl ock
Ġbest Ã¤mt
Ġass um
Ġass ign
Ġinv ite
ĠhjÃ¤r n
Ġtest a
Allt sÃ¥
Ġfem ale
az z
Ġorder ed
ĠChrist ian
ĠCar ter
Ġsnabb are
gar et
Ġforg otten
IT T
ĠmÃ¶rd ade
Pre sident
Ġtank en
Ġreach ed
Ġobv ious
Ġpaint ing
ĠRuss ian
jÃ¶r n
Ġdetail s
Ġcelebr ate
Ġintrodu ce
H onest
I dag
S O
u ellt
Ġt ong
Ġs ite
Ġs iff
on ym
Ġp ul
Ġn urse
Ġjag a
Ġwh is
ĠS Ã¤tt
Ġre ve
im a
ur ance
ak or
ĠA g
ant ast
Ġav ail
ĠT itta
Ã¤tt ning
ĠO R
ap er
Ġgr Ã¤s
av ing
bl es
Ġstr ugg
ĠTh ree
Ġbu ying
ĠkÃ¶r t
Ġglad a
Ġinv ent
Ġbas ed
mor gon
Ġbild en
Ġcam pa
Ġpan ik
ĠCo oper
Ġlur ade
Ġrev olution
Ġgol f
Ġdirect ly
Ġhotell et
. ]
B ry
C ool
J oe
N one
f ik
s man
t ill
Ġ Ã¤v
Ġd im
Ġm ir
an ny
Ġb at
Ġw ow
Ġw oke
st rar
Ġl id
Ġthe ory
Ġin l
tt o
Ã¶r j
Ġbe ll
Ġbe und
Ġr abb
am as
Ġjag ar
Ġst ationen
od a
ĠM itch
ent als
Ġmed lem
ĠsÃ¥ lde
Ġav gÃ¶r
Ġsp oken
ĠF irst
Ġska par
Ġut fÃ¶r
ap h
Ġal ien
Ġcon tain
Ġjob s
opp er
Ġtra pp
Ġbest Ã¤mma
Ġsch em
Ġih jÃ¤l
Ġpri est
del se
Ġplats er
Ġsw ord
Ġchar ges
Ġinc ident
Ġsold ater
Ġoffer ed
Ġcur ious
Ġphot ograph
Ġkick ed
Ġassist ant
Ġcoun ter
JÃ¤v la
Vis ste
Ġcrow d
ĠKomm er
Ġstrun tar
Ġreleas ed
l ass
p lace
y o
Ġa te
Ġd ise
Ġf u
ag ligt
tt en
Ġre ag
ĠH ank
ĠA bby
ĠD i
ĠD es
ĠD ID
ĠN ic
ĠN ever
Ġno ga
Ġal ert
Ġal cohol
Ġbr ings
Ġby g
Ġun it
Ġsc are
Ġstr Ã¥l
Ġro le
Ġrun s
Sk icka
ĠhÃ¥ll it
Ġfil mer
Ġpri ck
Ġter rit
ĠHow ard
min ist
Ġ19 4
ĠhÃ¥r d
Ġlad d
Ty st
rik es
Ġelect ric
Ġfill ed
ppar ently
ĠnÃ¶d vÃ¤nd
ĠfÃ¶red rar
D R
Ġm ik
Ġg all
ag an
st jÃ¤r
Ġn Ã¥r
Ġk ult
is y
Ġr ou
and o
Ġgo sh
itt ade
ĠT vÃ¥
ĠL ieutenant
ĠO b
ĠR en
ĠE le
Ġpr Ã¤st
Ġus ual
Ġex ch
la ir
ug an
pl ay
man n
Ġfamil jer
Ġte en
rar y
we ar
ring en
vis ion
Ġord entligt
Sh ow
Ġfil es
Ġbeg an
Ġdra ck
Ġskit er
Ġperfe kta
Ġsw im
Ġsing ing
Ġoffic ial
Ġsat ell
Ġind iv
Ġscen en
Gen om
Ġtick et
Ġsand wich
Ġkamer an
E specially
F amil
N y
O S
S an
b um
f s
f et
o oth
u be
» ¿
ï »¿
Ġ ought
Ġm ale
Ġg ig
Ġg ate
is era
Ġin jur
Ġr ika
ut or
Ġwe ather
ĠA L
ĠB art
ĠO oh
um an
ast rof
ĠV art
os ing
het ic
Ġsv in
Ġ2 8
Ġsc ar
Ġcomm itted
Ġresp ond
Ġton Ã¥r
ĠstÃ¤ll de
Ġdeal ing
ĠLe on
Ser iously
ĠfÃ¶rÃ¤nd ra
Ġskjut en
Ġmedic ine
ĠPro fessor
Ġpen is
ĠHel en
vÃ¤ p
ĠstjÃ¤r n
Ġvir us
ĠmisstÃ¤n kt
ĠSher iff
mÃ¤st are
ĠCent ral
ĠÃ¶verty g
Ġbesv iken
Ġgum man
Ġpock et
Ġlangu age
Ġmanip ul
E P
H it
L Ã¥ter
r ades
u a
z zy
Ġ Â
Ġh eder
Ġf if
Ġb ags
ag ligen
Ġk m
Ġr Ã¶v
Ġst Ã¤nger
Ã¤n kte
ĠS P
ĠS v
out s
ol es
Wh ile
ĠD R
op y
ĠG rey
ĠL inda
ie go
ĠP en
Ġsp in
Ġsp Ã¥ra
Ġut l
Ġut rust
ĠR h
ist ent
ĠE ven
Ġta il
Ġlet ade
Ġsm uts
pt on
nar are
Ġfar far
rat ing
Ġev igt
Ġob s
Ġdef ense
az ine
ĠSte ven
Ġleg it
Ġoffic ers
IC E
Ġbygg naden
Ġamb ass
Ġthous ands
ĠBro ok
ĠÃ¶verle ver
ĠtrÃ¥k igt
5 00
B Ã¤st
M Ã¥r
P ass
R ay
U CK
j obb
l ie
n old
s dag
t v
v ation
y dd
Ġ *
et ag
Ġin bjud
Ġj e
ch ie
ot i
ot ed
Th ings
se k
Ġtr ag
Ġtr aged
ĠT re
ic ious
em an
Ġbr ight
Ġwho ever
ÃĦ R
Ġgr Ã¤l
Ġkl ag
Ġfl ag
Ġkill arna
Ġhem liga
St and
ĠVi et
Ġju ice
Ġdel i
Ġspel et
els on
Ġsist ers
Ġbil ar
ĠFr om
Ġbeg Ã¤r
Ġreg istr
Ġcr it
ict ed
Ġskad ade
Ġart ik
Ġbur ied
Ġinst it
Ġarg ument
Ġreport s
ĠdrÃ¶m mar
rop ri
Ġbord er
Ġconne cted
ĠvÃ¥ld t
ĠfÃ¶rm od
ĠfÃ¶ret aget
Ġburn ed
Ġcarry ing
ĠAngel es
Ġfokus era
Ġhind ra
EA H
Ġhol iday
Ġquar ter
Absol ut
Ke vin
Ġavail able
B u
F red
I P
I V
I VE
L uc
O ff
O ther
S K
g Ã¤ng
h Ã¤r
t ande
t own
Ġt Ã¤ck
Ġd jÃ¤v
Ġh ated
Ġr are
Ġan vÃ¤nt
ĠM iami
Ġfr amme
Ġsh ape
Ġ- ...
ĠB arn
ĠT al
us entals
Ġno ll
ĠK aren
ĠE v
Ġgu aran
Ġ2 6
bb ar
Ġel ekt
Ġstr Ã¶m
iga ste
Ġtra p
Ġtra ffic
Ġput s
ĠTH INK
Ãħ k
AN K
Ġsky nda
Ġbre ad
Ġinf ormer
Ġste ps
Ġinter rupt
Ġwar rant
Al though
ĠrÃ¶ da
ĠmÃ¤nnisk orna
TH AT
ivit et
Ġpull ing
Ġstat us
Ġenk el
Ġesc ap
Ġviktiga ste
spl atsen
Ġbecom ing
Ġappar ently
2 5
B ad
B ro
B etter
C omm
G E
H em
M ust
S arah
U D
f in
f it
j us
u ing
Ġt ips
Ġf Ã¤st
or se
st id
Ġp rakt
ĠfÃ¶r d
Ġe ur
Ġsk ratta
ĠS ant
ĠS av
ĠS yd
ĠM iller
ak na
ĠhÃ¤r om
Ġtr ash
un te
Ġcan cel
ĠN ancy
ĠL ind
ĠP appa
Ġvill kor
ff s
Ġch oklad
Ġsu gar
Ã¤m pa
iv ia
Ġback up
att ack
ens en
ĠY ep
Ġass ault
Ġbes eg
ĠSh it
Ãħ t
gr am
Ġdes ert
Ġkon k
Ġreg ular
Ġmag i
Ġdire ction
Ġconf ident
ĠhÃ¥r et
Ġdest o
Ġ7 0
Ġdist ra
Ġben en
With out
Ġgener ation
Ġgentle man
ĠsÃ¥d ant
Ġevent ually
Ã¶rel se
ĠJam ie
Ġbehav ior
Ġengel ska
Ġalk ohol
B or
D Ã¶d
K illen
c ons
l im
p an
Ġt Ã¤nder
an gen
Ã¥ telse
Ġv aken
ing o
Ġp ure
Ġp ounds
Ġk ork
ck e
Ġu na
el ia
al ter
Ġst yle
ĠpÃ¥ m
Ġre ven
Ġfor est
ĠM ove
all e
ĠC ould
ri er
ĠT IM
ĠL es
em ents
Ġch at
ĠR es
ĠR ub
Ġfin ans
ĠK or
Ġal arm
end ent
Ġund rade
Ġfl Ã¶g
Ġhem ligt
Ġber edd
Ġsak nas
St Ã¤ng
Ġtillb ring
Ġpol icy
Ġplan ned
Ġbor ing
ĠDe an
els erna
Ġapp ears
ĠÃ¤nd rar
Ġstud io
Ġimp on
Ġsoon er
Ġbeaut y
Ġent r
ĠMich elle
Sp ring
Ġotro lig
Ġpolit ical
ĠHel p
ĠbrÃ¶llop et
Ġfrukt ans
Ġvac ation
Ġdubb el
ĠdÃ¶l ja
Ġgrad u
Ġdrott ning
Ġagg ress
ĠSomet hing
Ġyoun ger
8 0
B ER
S it
T O
W ork
b ie
b ass
o om
u v
Ġs ade
Ġm art
Ġm Ã¤kt
Ġb ike
on ment
Ã¶ ter
Ġk od
Ġl amp
ow ns
ere my
ra pp
ĠM ake
ol i
Ġom edel
Ġom rÃ¥de
ĠC a
un ger
th ony
ste g
ĠO ver
ĠO fficer
ull en
ĠR iver
ĠK r
ĠK ay
ĠK ent
Ġex ample
est en
Ġsig ns
Ġby tt
ĠCh urch
ĠÃ¶ k
Ġfind s
Ġrec over
ON G
For get
olog i
Ġhund en
Ġprom en
ĠÃ¶pp et
ĠfÃ¶rsv un
bo x
Bl ir
full a
Ġtouch ed
HÃ¶r de
Ġbek ym
Ġvak nar
Kl ockan
Ġhid den
ĠOn ly
Ġpush ed
Ġed uc
Ġhundred s
Ġtving ade
ĠvÃ¥g ar
Ġhunt ing
ĠnÃ¤m nde
Ġcirc um
ĠSec ret
ĠIsl and
HÃ¤l sa
ĠVir gin
A B
N ah
c ul
l ik
m ask
r ater
v ik
Ġt orn
Ġg ain
st ar
Ġp ins
Ġp ills
ig an
ĠfÃ¶r del
se m
ett a
op her
ry mm
ist ic
And ra
Ġtal ang
In gent
Ġgr Ã¥ter
ars on
Ġsen ast
pl ats
Ġny tta
Ġsc ary
Ġsn ut
Ġbef Ã¤l
gg y
Ġbu tter
rat als
ĠjÃ¤v ligt
EN D
unt s
Ġbar ns
Ġkonst nÃ¤r
ĠEl i
Ġskr att
sm Ã¤ss
Ġfunger a
Ġham na
ĠCarl os
bok en
Gen eral
Ġfed eral
Ġerfaren het
Ã¶jt n
Ġtong ue
Ingent ing
A sk
C la
E LL
F re
F yra
N er
R ep
T on
b Ã¥t
h ib
k ry
m el
r are
r ation
Ã ¨
in ary
Ġd irt
on ed
at Ã¶r
Ġv ett
st ol
Ġn ons
Ġl Ã¶r
tt it
ow een
el d
Ġr Ã¥k
ĠS ab
ĠM us
ĠM ommy
Ġde fe
ir al
Ġmy st
ĠA ss
Ġknow ledge
ri ch
ĠN ight
ĠG ON
ĠJ unior
ick en
ĠO ut
ie ur
ĠF ace
Ġpl ate
Ġpr int
Ġhel ik
Ġhel vetet
ans chen
ap i
Ġsu ttit
ĠW ANT
ys st
Ġhand ling
og ue
Ġber or
ĠfÃ¶ tter
ĠSt ay
Ġsc reen
Ġperson ligt
Ġplan erat
Ġper for
var o
Ġfriend ly
Ġad opt
ĠTH ERE
ee z
Ġass oci
Ġled trÃ¥d
Ġfolk et
ĠkÃ¶ pt
ib i
ien de
Ġhal sen
Ġgre jen
Ġinter net
Ġcheck ing
Ġfix ed
Ġskick at
Ġhum or
ĠÃ¶pp nade
Ġz ero
Ġplanet en
Hen ry
Ġve get
Ġavsk ed
ĠSl Ã¤pp
Ġment al
Jim my
Ġconvin ce
Ġuppen bar
Ġalternat iv
B est
B aby
C arl
F ull
J ud
K Ã¤ra
M art
P oj
S P
b ast
g ment
u ell
v Ã¥n
Ġt aket
Ġf ra
Ġb itt
Ġv Ã¤st
Ã¤r n
Ġp ed
ad ing
Ġatt orney
Ġdet er
pp le
Ġsk er
ĠS usan
Ġall mÃ¤n
Ġgo in
ĠA ven
Ġsh opping
ĠD erek
ĠB ay
ack a
omm a
ning sk
Ġch ap
Ġch eap
ab lish
qu es
ord er
Ġkl ubben
Ġhand lade
Ġdown stairs
ĠWhat ever
Ġmu sk
ikt igt
lev ant
ster n
Ġthr owing
Ġrec omm
Ġlik nande
Ġacc ording
Ġannan stans
Ġres ist
Ġhum Ã¶r
Ġlyck a
Ġsol ution
vÃ¤g en
Ġskr attar
Sl Ã¥
pect or
Pro blem
Ġbygg de
Kl art
Ġkast ade
Ad am
Ġmobil en
fil m
Ġutred ningen
Ġguest s
ocol ate
ĠrÃ¤d sla
ĠInter net
Ġsacrif ice
Honest ly
ĠGON NA
1 3
2 2
E ll
E le
M other
N O
f ortunately
l Ã¤gg
r in
x ter
y p
ar ma
Ġb Ã¶g
Ġv alt
Ġg iant
Ġp or
Ġl ade
is her
ch ed
as ch
Ġdu st
Ġst one
Ġst Ã¤d
Ġsk rek
ĠS qu
ur al
ĠM ason
ak ar
ol o
ĠA f
ĠB or
ĠB UT
sk ri
ĠG un
us sell
ĠP o
ĠR ome
ĠK enny
Ġpro ced
Ġex cellent
Ġgu ards
av in
Ġsak na
ĠfÃ¶ tt
Ġny fiken
Ġperson ally
ĠsÃ¤ s
Ġled de
gr Ã¤ns
Ġtyck a
ĠFr ance
Ġhopp ar
Ġmet h
Ġarm Ã©n
tid en
Ġhands ome
Ġwin ning
iell a
ĠAb sol
Ġmiddag en
Ġknapp ast
Ġbelong s
Ġviol ence
Ġchamp ion
ĠbÃ¶ cker
Ġsoci ety
Ġexplos ion
Ġcit iz
Ġextrem ely
ĠnÃ¤t et
ĠSpan ish
Ġhig her
Ġhors es
" !
J on
S ix
b aka
d ers
h ab
p o
Ġt ing
Ġs op
Ġs etting
Ġm s
Ġf et
on ica
Ġw et
re me
Ġp ension
ed de
Ã¶r ren
Ġr ate
Ġr ip
od es
od ka
Ġtr igger
ĠB ow
ĠB uck
ic ia
ick ed
ie ce
ĠF all
Ġch ain
Ġupp gift
ĠnÃ¤r ma
In t
ĠÃ¶ver t
Ġhand led
nt ligen
Ġber g
Ġsc ore
ĠvÃ¤r del
Ġstart a
Ġact ual
Ġfly kt
Ġbest Ã¤mde
Ġsec ure
Ġacc ompl
Ġ4 00
Ġkun gen
olog ical
ĠAr t
ĠÃ¥ter upp
Ġconf used
SÃ¤g er
Ġprote ction
Ġbur ning
Re ady
Ġwin ner
Tr ust
Tr odde
Ġsvar et
Ġsvar ade
Ġair port
VÃ¤l komna
Ġbill ion
Ġtick ets
Ġcust om
ĠWilliam s
Ġmyster y
Ġsurr ound
ĠfÃ¶rvÃ¥n ad
Ġdivor ce
Ġmoun tain
ĠBru ce
Ġlic ense
ĠpÃ¥min ner
1 00
A pparently
G irl
M at
M ike
U gh
g or
g ree
h old
Ġ âĢĲ
Ġt ied
Ġs ink
Ġs ikt
Ġf ans
Ġb io
or et
Ġv unnit
Ã¤r er
Ġp ub
Ġin j
Ġc ro
Ġj oy
ĠÃ¤r ligt
am i
Ġsk Ã¥p
ĠS HE
and om
Ġli ber
ĠM ort
Ġfr ia
ĠB O
ĠT Ã¤nk
ĠL ang
Ġsp ion
Ġkomm issar
ast ed
Ġbr Ã¥tt
Ġle k
Ġby ter
Ġunder stood
ug o
Ã¤ng de
Ġsak nade
ling s
ĠÃ¥r s
ons ieur
kl are
Ġins urance
ĠIn ga
ib ly
Ġhal va
Ġtack sam
Ġroom s
Ch ris
Ġann oy
Ġtest s
ĠEn ter
ĠsÃ¶ kte
ĠRe becca
Ġstopp ar
Ġrep orter
Ġwin ter
Ġlu ra
Ġskr Ã¤mmer
Ġinst all
gÃ¥r den
Ġuppt Ã¤ckte
ĠHer r
IC K
ĠPr ince
ĠSer v
Ġtreat ed
Ġconne ct
ĠWal ker
Ġpris et
Ġstark are
Ġfyll a
Ġunivers um
ĠÃ¥tervÃ¤nd er
Ġow ner
Ġvol unte
Ġjournal ist
Ġphys ical
ĠMarc us
ĠFrancis co
Ġfy ller
Ġsne ak
Ġyng re
Ġstyck en
B ill
r ough
Ġ Ã
ar ge
Ġp aj
Ġk art
tt on
al et
Ġr ush
Ġsk ills
Ġre pa
ĠM organ
ĠC om
Ġse ger
sk arna
Ġmin im
ĠN az
ĠG U
ĠJ os
ĠJ av
Ġman age
Ġor kar
Han g
os ition
Ġar ch
iv ely
Ġgr ateful
Ġfl ask
ĠCh loe
ond ay
gg ie
Ġnight s
Ġbeg Ã¥
Ġmay or
ote l
ĠrÃ¶ rel
Ġdire ctor
ĠAn nie
Ġpick ing
ĠCl ub
Ġsol ve
ekt Ã¶r
Ġfantast iska
cl ock
Ġstrong er
ĠrÃ¤k nar
ĠTy ler
ĠkÃ¤m par
Ġfi ender
Ġskuld en
Ġkil o
Ġble w
Ġrema ins
Ġopt ion
ĠtillfÃ¤ll e
ĠTe am
Ġhealth y
Ġnet work
Ġkilom eter
Ġlon ely
ĠbrÃ¥tt om
1 8
K ill
R a
V erkligen
c ast
d ra
k ul
v iously
w are
Ġa utom
an or
an ch
Ġf ought
Ġf aces
Ġb ones
at orn
Ġg ala
re ck
Ġn ut
Ġk ines
Ġc ure
al ph
Ġen vir
ĠfÃ¶r ol
ut ch
ĠS un
Ġfor ces
Ġli b
Ġfr ight
ĠA R
Ġsh r
ĠC ourt
sk Ã¤r
de m
Ġmin sta
ĠN ational
ĠN obody
th et
ĠJ enny
ĠP ac
Ġher re
Ġsl ip
Ġpre pare
ĠkÃ¤n s
ĠÃ¶ d
ree k
ĠÃ¥r atal
Ġsy ns
Ġstr u
io te
Ġpar an
Ġans er
Ġsam t
Ġ4 8
Ġmost ly
OR E
Ġkr on
Ġwar ning
ĠAr m
Fr am
TH ER
Ġconf ir
Ã¤k lar
AS T
Ġmurder er
ĠAmer ika
Ġspec ific
Ġla id
ĠmÃ¶ ter
Ġspend ing
Ġtreat ment
Ġtapp at
Ġansvar ig
ÃŃ a
Ant ingen
Ġcigar ette
Ġmira cle
Ġmira kel
mÃ¤st aren
sn itt
Ġscream ing
Ġintellig ence
ĠmÃ¶rk ret
Ġincl uding
Ġrepe at
ĠskÃ¥d espel
ĠÃ¤v ent
K ont
L ycka
M A
M ot
M edan
S Ã¥n
h al
p ire
Ġd ipl
Ã¤ da
an en
Ġb ail
Ġto ler
el ar
Ġst ood
na st
Ġsk ar
ĠS ophie
ur ser
ĠM AN
ir urg
ant age
ĠC amp
ĠB at
ĠL ake
ĠF our
ĠF ord
Ã¤m d
ĠdÃ¶ m
Ġtalk s
isk y
bl er
ef ully
Ġgen et
vis st
ĠWh it
Ġ3 5
Ġcomp la
Ġtyck s
Ġgra ve
ĠhÃ¥ll et
Sh all
Ġcr ush
Ġmet al
Ġhurt ing
Ġrep lace
Ġsol id
ĠAmer icans
Bl ack
Tr ots
Ġfantast ic
ĠsÃ¤kerhet s
Ġdecis ions
ĠEll en
Ġterror ist
ĠTed dy
Ġvux na
Ġyell ow
Ġtoal etten
Ġkat astrof
Ã³ n
ĠsÃ¶m n
bru k
Ġcampa ign
Ġdise ase
Ġindiv id
Ġbitt i
M Ã¤nnisk
Y ep
c ise
i ste
m Ã¶
t are
Ġt att
Ġh ates
Ġm aj
re ster
Ġn aken
Ġn igga
Ġl Ã¥nga
ĠI F
es ar
Ġr op
Ġr Ã¶k
ĠfÃ¶r a
am ing
Ġe ast
ut y
im eter
ĠH oly
ĠA unt
Ġkn uff
ĠC ir
Ġtr iv
ok ed
ĠT ri
ĠT ina
ick ing
Ġsp o
ĠR ing
Ġni vÃ¥
ast a
ĠE X
iv an
la us
ĠvÃ¤n skap
ny gga
ish op
Ġhitt ing
ju ka
Ġfar vÃ¤l
ath ers
eng ar
Ġfull y
AR RAT
Ġres an
Ġres cue
Ġkvar ter
ĠhjÃ¤r nan
Ġstand ard
ĠGr ant
ĠfÃ¶rsv ara
Ġavsl Ã¶ja
Ġmist akes
ĠhÃ¤l ften
Ġvak nade
Ġvitt nes
inc oln
Ġherr n
Ġljus et
Ġgar age
Dan iel
Ġamer ikanska
Ġknock ed
Ġtuff t
ĠPol ice
Ġsuffer ing
Ġaud ience
Ġcab in
ĠlÃ¶s ning
Ġvamp yr
Ġblomm or
Ġtol v
ĠLau ra
Acc ording
Ġperman ent
Ġbyg ger
Ġperfor man
B oth
E ra
J ake
K r
T id
c olm
Ġh et
ar r
Ġm ort
Ġb om
Ġb ot
at u
or ies
Ġv Ã¤nder
Ġp ara
Ġn ic
Ġn Ã¥tt
Ġk na
Ġin uti
es a
Ġwh om
ĠS U
ĠS ally
ĠM aster
Ã¥r ig
all ow
ust en
Ġgo al
ĠH ard
ĠA w
ĠD ale
ĠC omp
Ġtr i
ly m
Ġav stÃ¥nd
Ġav bry
ĠN ina
ĠG ordon
ick an
ĠO scar
ĠF e
Ã¥g as
ĠE ver
Ġupp s
Ġkl Ã¤
Ġwhen ever
Ġsomet ime
Ġcl ients
Ġim age
Hur ry
ach e
Ġhitt ades
ress ed
ang ers
Ġte ar
Ġmiss ar
Ġbad ly
Ġmind s
ĠIs n
Ġvikt igare
Ã¤k are
ĠvÃ¤ skan
ighet en
Ġtel e
ĠGr ay
Ġgam le
ĠDav is
Ġant i
Ġche er
ĠGu ard
Ġpop ul
Ġreturn ed
Ġbreat hing
Ġsamtal et
Ġtyd ligt
ĠVil ka
Ġble eding
ĠfÃ¥ng ar
Ġtechn ology
ĠLuc as
Ġpun ish
Ġunders Ã¶ka
Tom orrow
Ġromant ic
Ġbecom es
Ġboll en
ĠMat thew
Ġcurr ent
ĠskitstÃ¶v el
Ġmir ror
ARRAT OR
1 4
D is
I d
O avsett
V er
g Ã¤r
j ul
v ill
w a
Ġt end
Ġs or
Ġd amm
Ġf ate
Ġf iende
Ġb ound
Ġl au
as hing
Ġdet samma
Ġinte gr
Ġsom m
Ġsk Ã¤ra
Ġre pl
Ġfr ig
Ġfr ust
Ġfr iv
ak u
ter ade
ĠD amn
ĠC O
ri ve
ĠG al
ĠL iam
ĠL ogan
Ġup d
ĠR oman
Ġwant ing
ĠK rist
ĠE rs
Ġbr own
Ġsig nat
Ġcon stru
Ġgr ant
ĠÃ¥ klag
Ġsv ett
Ġcl own
Ġmitt en
ann el
up s
Ġplay s
gr und
ph a
Ġfull a
Ġter m
by gg
Ġwatch ed
Ġkr am
ĠhÃ¤m nd
Ġval et
Ġadv ent
Ġcool t
Ġaw ake
Ġrad i
Ġblod et
Ġsj Ã¶
Ġrol iga
ĠmÃ¤r kte
Ġclean ing
Ġstar kt
Ġsystem s
ĠKe ith
com ing
ĠmÃ¶r kt
ĠThanks giving
Ġpark ing
Ġfail ure
Ġcook ing
ĠBer lin
Ġovan ligt
ĠfÃ¶n ster
WH AT
Ġeftermid dag
Ġveh icle
4 5
H al
K Ã¤r
M c
T er
c ia
h ar
p erson
Ġf yr
Ã¥ pet
Ġb aren
on se
at ers
it an
Ġv ans
Ġp unk
Ġl ill
ed ay
es b
ay a
ĠS id
Ġyour selves
ĠJ ennifer
ĠL ong
ĠF ÃĸR
Ġch ocolate
ud rey
Ġsu cks
he w
Ġcom fort
Ġunder hÃ¥ll
Ġpe e
Ġpo Ã¤ngen
How ever
Ġsc ratch
Ġtra pped
Ġbes Ã¶ka
Sk riv
ĠSh ow
ĠSh ould
Ġsam la
Ġremember ed
Ġter min
Ġskri ka
Ġkoll at
olog ist
ĠBe at
Ġspr Ã¥k
Ġret ur
Ġmess ed
Ġinc re
Ġang Ã¥ende
ĠvÃ¤x a
ĠfÃ¶rstÃ¶r t
kra ft
Ġuppf ost
Ġnyck el
Ġfinger avtryck
Ġskriv bord
Ġsjun ger
Ġneg oti
Ġpres ence
Ġtunn el
iforn ia
Ġsyss lar
ĠDep artment
Ġekon om
Ġexch ange
Ġomedel bart
G re
c ar
k ward
Ġt ak
er ingen
Ġh Ã¤v
Ã¤ x
at ar
Ġg ross
Ġk rist
Ġc os
Ġc orn
as m
Ġr ubb
Ġst airs
pp y
Ġsk rÃ¤
Ġli ar
ĠA p
ĠD ef
ĠN ad
ĠN ate
ist isk
Ġpl ock
ĠE ve
Ġtim ing
Ġas ide
ĠnÃ¤r mar
Ġbeh ov
Ġgood ness
av es
ÃĦr ligt
Ġgj ord
Ġdr ama
ĠkÃ¤n nas
Ġhem lig
Ġdel icious
Ġtra cks
Ġled igt
Ġfall en
Ġkont akta
ĠjÃ¤v lar
Ġreg ard
An na
Her re
Ġval ue
Ġhund ratals
Ġ19 6
ĠfÃ¶rstÃ¥ tt
ĠAng ela
Ġwall s
ĠSch ool
ĠnÃ¶j e
Ġskall en
Ġdemon str
Ġban an
ĠrÃ¥ kar
Ġdesper ate
Ġreger ingen
ĠmjÃ¶l k
Ã¶jtn ant
Ġdipl om
B ek
H appy
N E
P lan
S ame
a ins
f isk
f oot
v ard
st ances
Ġn av
id ing
Ġr im
Ġi l
Ġi cke
Th ought
Ġst yra
Ġsk att
ra el
Ġre view
Ġan x
Ġan ger
ĠM ore
Ġmed el
ĠH ER
Ġfr ys
ĠD ylan
ight s
ĠJ asÃ¥
Ġupp re
ge on
ĠW OR
Ġex ha
Ġgr ade
Ġbet er
Ġfl ash
Ġsm Ã¤l
Ġsen ior
St ack
bl iote
Ġverk liga
Ġother wise
var ligt
Ġbarn barn
ier ade
Ġgod is
Ġcle ver
ĠHar vey
wh ile
Ġfru it
Ġev ents
ĠstÃ¤ll en
ĠAn n
stÃ¥ ende
Ġprote st
Ġbas ement
ĠfÃ¶rb jud
Ġtrust ed
oner ande
for ce
Ġsid es
ĠRob in
kom st
Ġbek ant
Ġrob ber
Ġmask in
ĠON E
gh an
ĠBer Ã¤tta
Ġerbjud er
Ġenem ies
ĠBea ch
Ġest ablish
Ġconvin ced
Ġinde ed
Su per
Ġbuss en
Ġtherap y
pun kt
Ġabandon ed
Ġkyck ling
Ġhous es
ĠViet nam
Ġenvir onment
Ġperforman ce
' '
C ongratulations
D es
D Ã¶da
E ver
F ather
F Ã¶re
R ick
T im
i ance
j amin
n ummer
Ġt ve
Ġt ent
Ġs ann
Ġm age
om y
Ġv ink
Ġv odka
ag ram
Ġn ag
Ġin ner
Ġc art
Ġto ast
ve ill
Ġr ope
am man
Ġre he
ĠM arl
ĠA c
Ġsh el
ĠD ire
ĠD ark
ĠJ esse
Ġbl ink
Ġbl ank
end y
rig et
ĠÃ¥ sikt
Ġtid ningen
ild e
Ġel ement
red s
Ġco at
Ġslut at
Ġmiss fÃ¶r
ĠTh ese
Ġrem ove
Ġ3 2
Ġsist one
Ġfull stÃ¤nd
rÃ¤ k
Ġhopp ade
Ġsju ka
ipp a
Ġdro ve
ĠsÃ¶ ta
Ġmess ages
Ġfact ory
Ġry kte
Ġdist ur
ĠBar bara
Ġsitu ationen
Ġless on
Ġgrabb ar
Ġpop ular
Ġentire ly
ĠEd ward
Ġthreat ened
Ġhero in
tem ber
Ġrisker ar
ĠÃ¥ng ra
ĠtÃ¥g et
ĠBa iley
ĠskrÃ¤m mande
Snygg t
ĠEth an
Ġrou te
ropri ate
. ?
C or
H und
M el
R un
U s
V an
b jÃ¶d
k y
m Ã¥n
p ed
r iter
w an
st at
st ill
Ġp aket
Ġk u
tt ag
ow der
am an
Ġst ul
ra b
ĠM itt
Ġde bt
ent er
Ġsh ake
ĠD un
ĠD iego
Ġtr ou
Ġav und
ĠN Ã¥n
ĠL and
ĠO wen
Ġbl uff
Ġsp orts
Ġut re
Ġpro sec
Ġsl Ã¤
Ġar med
ĠW atch
Ġle ar
Ġcon stant
Ġbra ins
Ġtid er
Ġcl ue
Ġsak erna
St art
nar en
Ġhit s
Ġmiss a
sh ot
Ġtra uma
ĠsjÃ¤lv klart
Ã¶j d
ĠmÃ¤n nen
Ġph ones
Sk jut
OU ND
Ġend ast
stand ing
Ġreg ister
ĠsÃ¶ ka
ĠvÃ¤ ska
ĠSte w
Ġfav our
Ġforts Ã¤tt
Ġfour th
Ġfot o
Ġdist ance
kn own
ĠJul ie
Ġbygg nad
Ġfred ag
giv are
Ġuppdrag et
Ġconsider ed
Ġviol ent
Ġslow ly
Ġbase ball
Ġsuccess ful
Ġauthor ity
Ġskoj ar
ĠklÃ¤n ning
ĠVin cent
Ġguaran tee
veill ance
B LE
J ess
L ou
M Ã¤n
T en
T ed
a ver
d ar
s or
v atten
Ġp oker
Ġin k
Ġc ris
Ġbe gg
Ġbe vÃ¤p
Ġr ow
Ġr ange
Ġsk v
Ġsk ru
ra ck
Ġre kl
im er
se e
od s
ĠM ina
ĠD own
ĠC y
ĠC as
un o
ly ss
de st
Ġlo ving
ĠL as
Ġab ility
ĠF rÃ¥n
Ġpl Ã¥n
Ġpl ikt
Ġat mos
Ġvet er
uck it
ĠÃ¶ver d
Ġser ved
ber ry
ĠvÃ¤n nen
St Ã¥
Ġte ck
Ġpart ies
ĠTh ink
ins on
Ġmom ents
Ġpass ing
ĠlÃ¤ng s
Ġbry dde
ĠhÃ¤m nas
Ġskad ar
ĠfÃ¶rb Ã¤tt
yn am
Ġaw kward
Ġbud get
Ġz one
Ġbott en
Ġband et
Un fortunately
ific ation
Ġjud gment
Ġkiss ed
ĠPre cis
Ste ve
Ġsmell s
urt is
Ġsqu ad
Ġed ge
Ġlyss nade
Ġutom jord
Ġavsk yr
Ġcust ody
ĠtrÃ¤d gÃ¥rd
Ġslag it
ĠVal ent
Sv ara
Ġdetal j
ĠbrÃ¥ ka
Ġfunn its
ĠgrÃ¤ va
ĠPier ce
Ġappoint ment
Ġdisg usting
B UT
E nd
F el
F akt
L Ã¤get
S ol
T ala
b age
f ore
i ro
n ity
r ett
r ina
Ġs ale
Ġd a
Ġb Ã¶n
Ġg Ã¤ster
st ud
re ll
Ġp j
Ġp y
Ġk ring
Ġl ake
is f
Ġin iti
el ect
Ġbe ating
Ġr Ã¥tt
ĠfÃ¶r ne
Ġst all
Ġst ake
Ġme chan
Ġon da
ur er
Ġmed borg
ĠC ool
ĠC OM
Ġse ction
ĠT em
ĠG ri
ĠL ug
ĠO w
ta il
ff in
Ã¥g or
Ġut by
Ġut mÃ¤rkt
Ġno tes
Ġor ange
Ġal bum
Ġsl ump
Ġbr oder
la ine
ik es
Ġfl oden
Ġhand la
ip ment
og g
Ġpo et
Ġtid s
Ġdag arna
ĠSt one
Ġstill a
Har ry
ĠlÃ¥ st
ĠSh h
ĠSh el
pen cer
Ġend ing
Ġreg n
Ġskri ker
Ġpu ss
ĠTHE Y
ĠFÃ¶r s
ĠAn thony
Ġsw ing
Ġtjej erna
Ġpoj k
yn n
Ġmill ions
komm end
agg ed
fall et
Ġfoot age
ĠWH O
Ġrym den
ĠNe il
ĠOl ivia
Ġarri ve
ĠEur opa
ĠStan ley
ĠkÃ¤ll aren
ĠmÃ¤rk ligt
ĠAust ral
ĠfÃ¶rvir rad
Ġgru ppen
ĠhÃ¤ft igt
Kon st
ĠMajest y
ĠIns pector
Ġreven ge
ĠVirgin ia
A C
E ither
F ix
M ind
M AN
S w
e els
o a
p ite
p ower
v at
Ġt usan
Ġs ly
Ġh Ã¤n
Ġh ire
Ġm el
Ã¥ st
Ġb ens
Ġw ing
Ġw ide
Ã¶ var
Ġj okes
Ġu ne
Ġu rsÃ¤kta
Ġdu ger
Ġr ack
ĠfÃ¶r Ã¤lsk
am ber
ut an
Ġre jÃ¤l
Ġan cient
ĠM onday
Ġde ck
ĠH art
Ġfr id
ĠD em
ĠB aby
ri ct
ack er
ĠL iv
ĠL ock
ta v
ĠP an
ĠR og
Ġkomm ent
ĠK enn
De ar
Ġser ie
ip a
ĠfÃ¶rs lag
ia c
Ġqu e
ĠhÃ¶r net
Ġdi agn
ĠtrÃ¤ na
Ġfar liga
Ġfun ka
Ġwr iter
Ġtre es
oy d
Ġass ass
Ġkind s
Ġvil se
ĠMar garet
Ġcr imes
min ister
Ġkr it
Ġhund ar
ĠstÃ¶r a
Ġconf er
Ġemot ional
Ġhigh ly
ĠjÃ¤tt ef
ĠhÃ¥r da
Mar c
res se
Ġlead ing
ĠPar ker
Ġkar akt
Ġclos et
ĠEll iot
Ġrestaur ang
ĠklÃ¤der na
Ġbesk ydd
imm ing
Back a
Ġutred ning
Ġexam en
Ġmisslyck as
stit ute
ĠÃ¶verlev de
Ġsiff ror
ĠÃ¤vent yr
Ġsomm aren
A in
B illy
C al
K alla
M ag
U p
b id
c les
m un
o op
r Ã¥k
s ighs
an j
an sk
Ġf ence
Ġb aj
Ã¶ ser
Ġin b
Ġin it
Ġin brott
Ġc utting
ot ch
ot ion
ot ic
ĠfÃ¶r sk
Ġe p
ut her
Ġme al
Ã¤n kt
Ġre akt
Ġre par
Ġan lit
ĠH oll
ĠB all
ĠB etty
ri pt
Du m
Ġav s
Ġhan n
ic ing
Ġsp ott
ĠE M
Ġupp gifter
end Ã¶r
Ġpro vid
Ġar mar
Ġoff ering
Ġgr Ã¤v
ase y
Ġfl aska
Ġtv Ã¤tta
Ġgl or
ĠDu ke
Ġsy stemet
Ġstr etch
Ġbel ow
IN E
ĠmÃ¥n en
ĠmÃ¥n aden
Ġnight mare
Be ing
Ġens amma
uff y
AN G
Ġcomp lain
OR T
Ġkun skap
ĠAr my
ĠhÃ¶g sta
Ġadv antage
Ġben et
Ġreport ed
init ely
Ġexpl an
ĠRo ad
ĠMart y
ĠhÃ¶ ga
Ġkompis ar
Ġrapp ort
Dan ny
ĠCal ifornia
Ġeas ily
Ġequ ipment
Je ff
Ġdiam ond
Ġast ron
ĠGabri el
ĠlÃ¶r dag
2 3
D own
H ad
N or
T E
f ive
k la
n el
z ed
Ġf ashion
Ġv en
ag ine
Ġn Ã¤
Ġk nack
Ġl ille
Ġl Ã¶jligt
Ġj et
Ġr ise
Ġr andom
ĠfÃ¶r rÃ¤
Ġme sta
Ġan onym
ĠM O
ri va
sk omm
Ġch ip
Ġut press
ĠK arl
ĠV Ã¤l
ab lo
os ite
Ġal ibi
Ġle ks
ÃĦ ntligen
Ġby e
Ġpre vent
Ġsm Ã¶r
ĠY o
ace y
Ġhelp s
Ġsc an
sl agen
Ġro y
Ġtra ined
ĠVad Ã¥
ann on
Ġbit ter
Ġtj ock
OU R
Ġcomp an
Ġexp la
Ġbro ad
Ġreg el
unt ing
Ġkr iminal
Ġob lig
Ġac qu
ĠrÃ¶ ka
Ġaff air
Ġbety da
Good bye
Ġdom in
ĠFrank ie
Ġbild erna
Ġbok stav
orge ous
Ġgrand mother
Ġcent ury
Ġlead s
Ty p
Ġprogr ammet
Ġdev ice
Ġpret ending
Ġtving a
ĠtillfÃ¤ll et
ĠsvÃ¥r are
Ġkyss a
Ġknull a
Ġstry k
Ġdetal jer
ibb s
Ġbete ende
ÃĦn nu
" -
9 0
K en
L ES
M il
T ommy
f ish
f red
h uvud
r ence
r Ã¥gas
u in
v ere
Ã ¸
er are
Ġb ump
Ġw ire
Ġp ushing
Ġn at
Ġl ej
Ġc and
Ġj akt
Ġj ung
Ġr ak
ver na
Ġsk am
Ġre kommend
ur d
Ġdo tt
ĠM ill
Ġde ce
ant ha
ĠT erry
Ġlo ser
ĠL ane
ĠO ld
Ã¤g en
ĠP enny
ĠF inn
ob er
Ġex er
Ġas ham
ÃĦ N
Ġdem and
ĠÃ¶ver vÃ¤g
Ġser i
Ġkill s
ock ey
ug s
Ġhem ifrÃ¥n
ont in
ĠvÃ¤l sig
Ġim pa
Ġel ever
Ġel den
Ġwhere ver
Ġco oper
ek s
Ġgen i
sa ac
Ġcou nsel
Ġspel are
Ġbes att
Ġstay s
ĠMar ie
Ġunderstand ing
Ġres our
Ġmag net
Ġmus iken
Ġleg at
Ġrep ut
Ġmod ig
ĠSk ulle
Ġidiot er
Ġsim ilar
Ġru tt
ĠUn ivers
Ġsat isf
ĠmÃ¶rd ad
ĠAN Y
Ġrid ing
Ġlead ers
Ġjo int
amer on
ĠlÃ¥g t
Ġref le
arbet e
Ġfund era
Ġconsid ering
Ġresult at
Ġuppf att
Ġprov ide
Dad dy
Ġmilit Ã¤r
Ġunivers itet
ĠÃ¶r on
Ġimm un
Ġaccep tera
ĠfÃ¶rh ind
ĠskÃ¤m tar
Ġstab il
Ġutnytt j
Ġtok ig
ĠCast le
ĠnÃ¤s an
Ġfore ign
Ġmuse um
mÃ¶rd are
ĠfÃ¶rmod ligen
ĠAf ghan
Ġfriv ill
Ġasham ed
2 00
B Ã¥da
J an
S itt
T oppen
b al
g l
i ction
j un
l ats
r igt
u na
w oman
Ġs umm
Ġm ars
Ġf as
Ġf ella
Ġf akta
Ġn a
Ġn om
Ġn ick
Ġn asty
Ġk la
Ġk yl
Ġin led
ĠÃ¤r an
Ġre ck
od ge
Ġdo zen
ĠH ome
Ġkn ee
ĠD onna
ĠB ert
ct ic
Ġav st
ĠT R
ĠG us
ic les
ĠL incoln
Ġsp are
ĠF olk
ul ed
ĠR ey
Ġhel g
ab ility
Ġif red
Ġar k
Ġer bjÃ¶d
iss ion
Ġcon du
Ġta v
sl et
sl ut
Ġfar mor
Ġmiss at
Ġass ure
ĠfrÃ¥g at
Ġge ar
Ġcour age
Ġsur veillance
AR K
AR S
Se ems
Ã¶k ning
Ġmag n
Ġswe at
ĠsÃ¶ ndag
ĠBe h
ĠBl ake
Any one
Ġhat ade
ĠCharl otte
ĠmÃ¤r ker
Ġmad am
pro v
Ġlev t
Ġkropp ar
Ġsal es
Ġdark ness
stit ution
Sy nd
ĠPl ay
ĠdÃ¶l jer
Ġdescri be
ĠfjÃ¤r de
ĠfÃ¶resl Ã¥r
Ġexec ut
Ġtele vision
B Ã¶rja
C alm
L iz
M on
M ajor
P o
V Ã¤n
b ow
h jÃ¤l
h attan
p ot
s d
v ida
w ith
x orna
in ic
ar ly
ar ies
Ġf ishing
Ġb one
Ġb rick
Ġw ave
at iskt
Ã¶ gen
Ġv o
Ġv ess
Ġp iano
Ġl ap
Ġl ider
Ġin kl
Ġc el
ve mber
Ġdu n
al ien
Ġr ust
Ġr ens
ĠfÃ¶r var
Ġit u
Ã¤n ka
ĠM ig
ĠM ass
Ã¥r en
ĠH IM
Ġmy nd
Ġsh ark
ant ic
Ġtr Ã¶
Ġmin or
Ġmin ister
ĠT an
ĠR and
ĠK olla
ĠE arl
ga v
ĠV alley
ab et
ker na
ĠW y
Ġnu cle
Ġallt ihop
Ġcon cl
av a
per t
Ġsm ooth
Ġdr uckit
ock s
opp ed
Ġshould er
ĠhÃ¶r s
Ġbef inner
Ġpol are
Ġnew sp
Ġins ult
Ã© s
ail y
ĠHar old
Ġkon f
tro ligt
Ġuse ful
Ġann ounce
Ġwar ri
Ġmag en
Ġsent ence
Ġconf idence
Ġfre aking
Ġoper ationen
Ġsj Ã¶n
ĠmÃ¤r ke
ĠfÃ¶rf att
Ġsym pt
Ġerbjud ande
Ġelect ion
ĠstjÃ¤r na
ĠSw ed
ĠlÃ¶g ner
Ġpossib ility
Ġagre ement
ĠRick y
Tj ej
Ġdesign ed
hel st
Ġrelig ion
Ġvind en
ĠvÃ¥n ingen
ĠRep ubl
ĠbrÃ¤n na
vap en
ĠCount y
6 0
A pp
D ar
F int
L ord
S her
S Ã¤rskilt
T io
W on
b i
i j
s he
{ \
Ġt Ã¶m
en cy
Ã¤ sk
Ġm Ã¶n
et on
Ġf Ã¤lla
Ġg issa
ag h
Ġn j
Ġl t
Ġc ave
ch ester
Ġdu ss
al i
Ġbe ast
Ġst Ã¤da
ĠpÃ¥ verk
Ġan teck
Ġli qu
ĠH appy
Ġfr is
Ġsh out
ĠN OW
Ġsa il
Ġsp ons
Ġch ips
Ġska p
ĠR ussell
ist ry
Ġfin ner
Ġher regud
ĠK on
ĠE fter
ab or
os c
Ġar rog
Ġing red
ong er
Ġcon test
ik ation
ure au
Ġpre cious
ĠCh ina
sp ir
Ġefter Ã¥t
Ġel imin
ĠVi c
Ġmot ion
amm ed
Ġwait ed
Ãħ N
aw son
Ġrec all
ipp er
Ġacc ent
Ġpu ssy
Ġdeal er
Al most
ĠSe attle
Ġmid night
Ġmur ders
Ġheart s
Ġdess ert
Ġmod ell
ĠbehÃ¶v t
Ġru de
ĠFrank rike
Ġant agligen
Ġjo ined
Ġinsp el
ĠGu y
bur y
Ġpatient er
Pr etty
ĠfÃ¶rm Ã¥ga
Ġneg at
Ġocc ur
Ġmain tain
Ġopt ions
Ġrisker a
Ã¡ n
Ġsmak ar
Ġcollect ion
Bob by
Ġdoc ument
Ġskil smÃ¤ss
ĠfÃ¥g el
Ġdisappoint ed
Ġmax im
Ġhalvt imme
Ġtju v
Rich ard
Ġfinan cial
bast ian
ĠnÃ¤rma ste
Ġconfer ence
A kta
H oly
R on
b ul
b orn
y ard
z on
Ġ Ãĸver
Ã¤ dda
Ġm elt
Ġb ly
Ġv ig
ag na
ag ent
st olen
Ġp urs
Ġn in
Ġl app
Ġin re
Ġc andid
Ġsk itsnack
se qu
all eng
ĠH or
ĠH omer
Ġfr anska
Ġom stÃ¤nd
ĠB ab
ĠB ook
sk r
ĠG ene
ĠL ena
Ġso ff
Ġsa bb
Ġch ill
um ents
Ġkl Ã¤d
Ġby n
Ġun com
Ġunder wear
ip le
Ġsm oking
Ġhapp iness
Ġcl oud
Ġhelp ful
Do ctor
Ġsy strar
Ġplan erar
Ġmiss hand
ĠrÃ¤tt visa
kl ubb
Ġcar ried
ĠlÃ¥ da
Ġrem oved
ott an
AT E
Ġsupp ly
Ġsju kt
Ġpri ze
Ġcra w
Ch uck
Ġsw imming
ĠDen nis
ĠfÃ¶re stÃ¤lla
Ġforts atte
Bl i
enn is
Ġsid or
LE Y
ĠMin ister
ĠrÃ¶r de
Ġship s
FÃ¶rs Ã¶ker
Ġcir cle
ĠmÃ¶r da
Ġpark en
ĠMor ris
Ġhom osex
ĠPhil ip
Ġsearch ing
ĠsmÃ¤r t
ĠÃĦ R
Ġir rit
Ġrece ive
ÃĦl skar
ĠHall oween
Ġkross a
Ġorig in
ĠMur phy
ĠLO OK
ĠpÃ¥ver kar
look ing
Ġnjut a
ĠnÃ¶dvÃ¤nd igt
Ġcircum stances
ĠAven ue
Ġexplan ation
D essa
F ri
G HT
J ames
K at
K im
K lar
K vinn
L A
M o
M ur
M att
P R
P e
c raft
g lar
j ack
l s
l ies
u ga
Ġt utt
Ġa unt
Ġd ed
Ġf ej
Ġf la
Ġb ol
at erna
at ory
Ġg ry
Ġp ant
Ġo syn
Ġc andy
as es
ot o
ot en
Ġr os
Ġe go
ĠpÃ¥ stÃ¥r
Ġre in
Ġli fet
Ġwe st
ol as
ĠD al
ĠD ur
ĠB ACK
ct ing
Ã¤l s
ok rat
ĠT en
ea st
ĠN ap
Ġlo va
ic ations
ĠJ une
ĠL E
ĠO pen
Ġbl own
Ġout fit
ĠF ire
Ġch ances
ĠgÃ¶r as
ĠR alph
our se
Ġpr incess
ab les
Ġupp d
Ġupp n
Ġupp le
ĠW ant
ord et
oll ar
Ġun h
Ġun gen
ĠCh an
ĠU r
Ġsak nat
Ġel ak
ach ed
ĠSt anna
ang el
ĠrÃ¤tt igheter
Ġact ive
vis or
oy le
Ã© e
Ġcou ch
Ġplay ers
ĠSh aw
Ġfall a
Ġmon itor
lor ia
rÃ¤ dd
del ning
Ġcomm er
Ġkoll ega
ĠlÃ¶ st
Ġmag azine
Ġteam et
Ġlyck ats
Ġret ire
Ġhat a
Ġol agligt
Ġpress en
Ġdist ract
iker na
Ġpack ed
ĠhÃ¤l sar
ĠCol in
Ġlev els
Ġcap ital
Pl ay
Ġsov it
ĠCo ach
Hel vete
Ġbi bliote
osa ur
Ġwitness es
Sc ott
Ġest ate
Ġintellig ent
spl ats
Fly tta
Ġspar ka
Absol utely
Ġdyr t
ĠJapan ese
Ġlok al
ĠFR OM
Ġindust ry
Ġzomb ie
ĠglÃ¤d je
ĠTIM E
Mart in
Ġdeter min
7 0
A ns
K ate
M al
M ac
S uch
U r
U se
c ut
c red
f ire
f ia
k arl
l Ã¤nd
p oj
Ġ Ã¥n
Ġh ill
Ġh orn
Ġf uel
Ġw olf
Ã¶ tter
Ġg orgeous
Ġk urs
Ġo xy
ed nes
Ġj ew
ill o
Ġatt end
Det ective
ĠS A
ĠS ix
Ġre bell
Ġan ar
ĠD ana
Ġtr ubb
Ġtr unk
ĠB R
Ġav gÃ¶ra
ĠN ev
Ġlo an
ĠL eave
ĠO ff
ĠF ox
Ġut rymm
ĠK id
ĠK ai
os al
Ġsu p
Ġback ground
Ġgr Ã¤t
Ġmer cy
sl an
ĠdÃ¶d ad
Ġperson liga
Ġkund er
ret s
Ġfriend ship
ĠvÃ¤g g
kl ass
kl Ã¤der
Ã¶j er
Ġbest Ã¤ll
Ãħ ter
Ġexp ress
ĠMar tha
Ġbeg ins
Ġtack ar
Ġmet ers
ĠrÃ¤dd ar
Ġdec or
Ġdec ent
Ġrep et
Ġmark s
Ġmark nad
ĠjÃ¤tt e
Till baka
Ser geant
Ġskr Ã¤mma
Ã¶l jer
ĠPh ill
agg ing
Ġeng aged
ĠDid n
Ġpack age
pro blem
ĠCon nor
ĠfÃ¶rl ov
Ġvitt ne
Ġvict ory
ĠrÃ¤k nas
Ġwall et
Ġopp osite
Ġfund erat
Ġsurv ived
Ġfir ing
ĠInd ian
Ġsteal ing
ĠComm ander
Ġvac c
Ġbetray ed
ĠMick ey
ĠSteph en
Ġhust ru
minist ern
Ġnons ense
Ġparan oid
Ġconfir med
Ġtatt oo
ednes day
E ddie
F il
G ick
L y
L ife
L ita
M annen
P art
W alter
b elt
l ers
m ade
m juk
r er
v Ã¤ll
w ater
Ġt usentals
Ġt atu
in ter
Ġd iss
Ġb art
Ġw reck
or ing
Ġg at
Ġp ink
Ġy ard
Ġk aos
Ġdu ck
Ġbe ord
Ġst ro
Ġst abb
Ġsom mar
ĠS C
Ġde gree
ĠH oney
ĠB as
ri al
sk en
ĠT j
ĠT ry
ĠT oo
ĠT odd
ĠP apa
Ġso cker
ĠR ud
au ff
Ġus eless
Ġbr ide
Ġle ker
Ja visst
Ġpre mi
Ġunder rÃ¤tt
sp lan
ish a
Ġber oende
ĠNo ah
Ġco inc
sl aget
Ġmo le
lev eland
oth y
Ġtre asure
Ġcare fully
Ġsex ig
Ġord en
inn ie
AT H
Ã¥l et
ĠAl bert
vÃ¤r der
Ġland ed
Ġtom t
Ġkr imin
IS S
stÃ¤ll ningen
Ã¤k aren
ĠfÃ¶rv Ã¤ntar
Ġeat en
Ġinst rum
Ex actly
Ġrisk en
Ġwind ows
FÃ¶rs vinn
ĠfÃ¶rl Ã¥ta
Ġvitt nen
Ġdans ar
Gr and
ĠAlex ander
ĠlÃ¤k aren
Ġglass es
Ġdeser ves
Ġgar bage
ĠLou ise
ĠSn ow
Ġking dom
Ġerbjud a
ĠFre ddy
ura lly
Ġkyr k
Ġgold en
Ġaud ition
ĠGerman y
ĠhÃ¶j d
Rob ert
Ġtort ure
Ġbasket ball
ĠrÃ¤tteg Ã¥ng
Ton ight
ĠUnivers ity
ĠAfghan istan
F ru
I nd
L ong
P oor
R yan
S ju
T T
f amil
g irl
g Ã¶ren
h m
h olm
m arna
n ow
o en
p olisen
t ur
v il
Ġth ick
Ã¥ ld
Ġb ars
ing ton
Ġp ry
Ġk arl
ed i
Ġbe vak
ĠfÃ¶r k
Ġha st
ĠS pencer
out her
ust ed
ĠH ade
ĠH IS
Ġsh itty
ĠT urn
ĠT rev
ĠK ong
ÃĦ t
Ġver ka
qu ar
Ġgr ader
ind y
ft on
Ġint ens
Ġig n
ide on
Ġdag ens
bb ie
Ġel eg
Ġstr and
Ġstr anger
Ġrem ote
Ġspel at
Ġdri va
alk ing
Who ever
ĠÃ¤nd rade
Ġbeg ra
Ġklar at
Ġchild hood
ĠlÃ¥ng samt
iet y
Ġpat hetic
ĠlÃ¥t it
AS A
Ġbur y
Ġfact s
Ġlate st
Ġskr Ã¤mde
Ġvap nen
Ġmilj arder
Ġprof ile
Ġcor rupt
Ġry kt
Ġbank en
ĠaffÃ¤r en
Ġtw ist
Would n
Me et
Ġkost ym
Ġrequ ire
ĠhÃ¤ x
atal ie
ĠsmÃ¤r tan
ĠMex iko
ĠsÃ¶t nos
Ġbutt on
Ġimpress ive
ĠSE E
ĠJon athan
Ġbal ance
Ġdisc ip
Ġlust igt
Ġerk Ã¤nner
Ġambul ance
Ġinflu ence
Ġsurf ace
ĠMarsh all
Ġescap ed
Ġinj ured
Ġlib rary
Ġrehe ars
Ġlifet ime
A sh
B ru
B rian
G l
K Ã¤n
M ight
N Ã¤m
P olis
V EN
a int
p ol
p ost
p oint
s f
s es
u f
Ġa gency
ar ens
Ġm ak
Ġth ief
Ġw ra
Ġp it
Ġp oll
Ġk redit
Ġto ss
ad ed
Ġj unk
ĠfÃ¶r Ã¶d
Ġst Ã¤mma
Ġsom eday
im ately
ade my
Ġfor th
all as
ĠA fter
ĠA ugust
ĠD iane
ĠC yr
un ning
ri x
op en
op at
ĠN Ã¥t
ĠG PS
ĠL or
ĠO lym
Ġch alleng
ess an
ob s
Ġupp fÃ¶r
au er
Ġsu its
Ġbr on
Ġex cl
iss es
Ġint resse
Ġser ies
All varligt
Ġlet at
Ġsm y
ia h
ĠgÃ¥r den
ci ence
ach er
bl od
Ġbu bb
xt on
Ġcar ed
ĠIn st
jÃ¤r n
Ġge vÃ¤r
ott et
Ġord fÃ¶rande
Man y
Ġsett led
Ġkon centr
ĠSo v
Ġbar nd
Ġteam s
Ġconf ession
Ġemot ion
ĠChrist opher
ĠCl int
ekt iv
ĠMan hattan
Ġhistor ier
Ġfot ograf
komm er
Ġrecord ing
ĠAm anda
Ġung arna
Ġran ch
Ġcreat ure
Ġcreat ures
Ste ph
Ġflyg platsen
af Ã©
Ġhall uc
Ġproper ly
Ġutt al
ĠmisstÃ¤n kta
Ġsuffer ed
ĠlÃ¤gen heten
Ġbegrav ning
Ġamerikan sk
Ġosky ldiga
Spe aking
ĠfÃ¶rbann ad
Ġcast le
ĠHaw ai
ĠJess ica
spr ung
Ġytter ligare
gy pt
Ġglob al
Ġuppenbar ligen
Ġnucle ar
B as
B ort
B lev
E CT
F attar
J am
R elax
T ony
b in
b as
h ers
h our
l on
p art
u i
Ġt Ã¶r
in te
Ġs oup
Ġs vek
Ġa im
ar io
Ġb acon
Ġv Ã¤cka
Ġp ip
Ġp orn
Ġl esb
ed da
Ġc ert
Ġj Ã¤rn
Ġdet on
ke ep
Ġan str
Ġli kt
Ġli ps
ĠM ust
ĠH jÃ¤lp
Ġsh arp
Ġkn ees
ĠC oun
sk land
Ġav f
ĠT ro
ĠG lÃ¶m
Ġvill ig
Ġska pat
ĠR O
ist erna
ne ath
Ġpro ceed
Ġbr inner
Ġar v
ĠW es
ĠdÃ¶ ende
rig a
Ġhow ever
ĠÃ¤n gel
Ġvis at
ĠÃ¶ gat
sel n
ĠvÃ¤l komna
Ġqu al
St ra
sl in
Ġstart ade
ĠlÃ¥ sa
Ġfram t
ĠJa ha
Ġdis aster
Ã¤kt en
Sh h
Ġfil ma
ĠlÃ¤ng st
Ġnum ret
Ġland s
Ġmet all
Ġconf r
ĠfÃ¶re mÃ¥l
Bra vo
ĠÃ¶n skan
ĠfÃ¶rr Ã¥d
Ġcor por
Ġuppt Ã¤ckt
Ġgrand father
ĠFor ce
Ġcell s
Ġprison ers
ues day
Ġfund erar
Ġsong s
Ġflyg plan
Ġgri pa
Ġpan ic
Ġsil ent
Ġtrick s
Ġsqu are
Ġhom es
Ġnyck larna
ĠfÃ¶rsikt igt
FF FF
ĠMal colm
Ġopt im
ĠmisstÃ¤n kte
ĠAny thing
Ġdat ab
ĠÃ¥ng rar
ĠNE ED
Ġos Ã¤ker
Ġcult ure
Ġgiss lan
Ġactiv ity
Ġdeli very
Ġinstit ution
Ġentr ance
Ġrecomm end
Ġreput ation
Ġuncom fortable
A ss
D am
D oug
E asy
F antast
H ope
L ady
P ull
P erson
g ers
i y
o ves
r ull
s ay
Ġt Ã¶nt
Ġs amm
Ġh ipp
Ġm al
Ġw ise
or ta
ing arna
st ic
Ġin vis
es k
as per
le g
Ġe pis
se ende
ro e
ĠH em
ĠH end
ĠH otel
ĠC ON
Ġdig ging
Ġne p
ĠT ILL
ĠT uesday
ĠN ora
ĠG i
ĠG ard
ry cket
ĠF air
Ġch asing
ell ing
ore an
Ġpr ints
Ġsl Ã¶s
Ġbr itt
Ġgu ilt
So on
Ġcon sequ
Ġgr ind
ĠÃ¶ver ste
Ġfl ower
ire kt
ip ed
Ġsm Ã¤ll
Ġsm aka
Ġkv itt
Ġkv art
iz es
Ġsn Ã¶
Ġsy fte
amm are
Ġner ve
Ġthr own
ER Y
Ġtra fik
Ġgreat er
Ġty sta
Ġty der
Ġpar ent
AN S
ph one
Ġresp onse
For g
oe be
ĠsÃ¶ der
IS H
ĠJust in
Ġhum ili
Ġmid natt
ĠCar rie
Ġart icle
atur ligtvis
hÃ¥ll a
orter a
Ġtouch ing
Ġgamm alt
ĠLu ci
Ġclean ed
Ġgrand ma
mÃ¤r ken
Ġfell as
urs day
ĠEx actly
Ġeff ort
Ġkor rid
Per fekt
Ġrelationship s
Ġsil ence
ĠEll ie
Ġpsych iat
ĠVil ket
Ġmis under
Ġutt ryck
Ġstack ars
ĠGO ING
Ġneg ative
Ġtechn ically
Ġfal sk
Ġkry p
ĠCarol ine
Ġload ed
ĠAfri ca
iforn ien
Ġearn ed
Ġutbild ning
Ġloy al
ĠItal ian
Ġreve al
Ġpins amt
ĠrÃ¥k ade
SÃ¥n t
% .
) :
D E
G er
J ob
N Ã¤stan
P ick
R oy
c ake
d uk
f ace
i ju
k ass
o i
p rat
u ge
Â ©
Ġt akt
Ġa ch
et ers
Ġth or
Ġw asting
or er
Ġv Ã¤nde
Ġg y
Ġy tt
Ġk ej
Ġl ida
ĠfÃ¶r t
ĠfÃ¶r de
Ġand ras
Ġsk Ã¥l
ĠS i
ĠS ing
ĠS pa
Ġre b
Ġan aly
ĠM em
ĠM iles
Ġwe ed
ĠH unter
Ġfr us
ĠA na
Ġom t
ri ce
Ġne ut
ok a
ĠG all
us a
ic era
ĠL in
ĠL il
ĠL ite
ĠO s
ĠP RO
em a
ĠR uth
ĠE gypt
ĠV en
ob by
os is
Ġsl ight
Ġbr Ã¥d
he st
Ġar rester
Ġgu ide
Ġbo o
Ġint im
St an
St oppa
ĠVi v
Ġmat h
ĠdÃ¶d ades
sh irt
Ġfly dde
Look ing
Ã¶d ra
Ġbak grund
ĠTHE M
Ġarbet s
ĠrÃ¶ tt
ale b
som helst
az e
Ġsound ed
Ġchar ity
Ġskad or
Ġskr Ã¤ck
Ġinst inct
Ġkvinn orna
itet en
Ġ15 0
Ġdep ends
Ġdep ression
ĠmÃ¤r kt
Ġcur se
AL K
Ber Ã¤tt
ĠQu inn
Ġeg end
Ġdeep ly
ĠChe ck
ĠLa ur
Ġpleas ed
Ġjump ed
ĠRuss ia
Ġorsak ade
Ġmedvet en
ĠSpe cial
ĠanstÃ¤ll da
arder ob
Ġrecept ion
Ġcurr ently
ĠpÃ¥ver ka
gru pp
Sim on
Ġslapp na
Ġmic ro
ĠFace book
Ġnep hew
B O
J ason
K ind
T ot
T est
h i
m att
p ool
s ign
t le
v ag
v ia
w ing
Ġt as
Ġs anna
Ġs narare
Ġs nygga
Ġh ood
ar ily
Ġm Ã¤stare
Ġf oster
Ã¥ na
Ã¥ la
Ġp le
Ġl Ã¶j
Ġo v
Ġto x
ad da
ch eck
Ġr und
ĠS us
ĠS ide
ĠM IN
ĠM eg
Ġtill Ã¥ter
ol et
ĠA M
ĠA aron
ĠC atherine
ĠB enn
sk ade
ĠN y
ĠG R
ĠJ oy
ĠJ eremy
Ġbl ast
ĠF ly
ul u
ell s
ne w
Ġor Ã¤tt
ĠE VER
iv or
Ġgr at
Ġgr is
Ġkl o
Ġta j
Ġwork ers
En ough
ĠCh amp
ja h
va cy
Ġsv Ã¤l
sp Ã¥r
ĠSt ill
ĠSt ick
nar rator
Ġbel t
Ġfun ction
Ġins ats
ĠsÃ¥g s
ĠSh a
Ġrec ent
Ġsky tt
Ġmon sters
ĠHar per
ĠlÃ¤g er
Ġpri vacy
ĠkÃ¤r n
Ġann ivers
Fr Ã¶ken
Ġlisten ed
band et
Ġspr it
ĠSp ace
Ġfakt um
Ġtel ep
eral d
Ġmark naden
Ġtrans plant
ĠDan i
Ġ7 5
Ġforg iven
IG H
Ġsmall er
ĠgÃ¶m de
entle men
Ġrock s
Ġlab bet
Ġflytt at
Ġallihop a
Hopp a
Ġlawy ers
Ġsuspect s
Ġtryck a
ĠSa int
Ġdraw ing
ĠtÃ¤v lingen
ĠFin ns
Ġsamarbet a
Ġuppen bart
ĠJer sey
Ġembarrass ing
Ġreact ion
ĠNik ki
ĠklÃ¤n ningen
Ġosk uld
Ġager a
Ġbilj etter
ĠAsh ley
Ġprot ocol
Ġbenef it
Ġrespek terar
ĠsÃ¤m re
Ġkomplic erat
Ġutrust ning
ĠpÃ¥m inna
Ġbytt e
Problem et
ĠfÃ¶tt erna
Ġannoy ing
Ġvittnes mÃ¥l
Ġshel ter
Ġlear ning
Ġresour ces
* *
B ak
C ut
C are
G ee
G reg
K Ã¶p
K unde
O troligt
S la
S ign
T iden
U ng
V al
W r
i able
k Ã¤nn
p se
p son
Ġt ub
er ades
Ġh Ã¤kt
Ġh eta
Ġm ister
Ġth in
Ã¥ ste
Ġb um
Ġw ins
it able
Ġv inn
Ġp od
Ġn ap
Ġk ock
Ġk alk
Ġk ris
ĠI an
te le
Ġbe lly
Ġr out
Ġr ail
ver ket
Ġwh isky
Ġsk al
Ġme as
il er
ĠH o
ĠA pril
Ġsh oe
ĠD iana
Ġtr ib
ĠsÃ¥ hÃ¤r
ri f
sk al
Ġmin nes
ok ater
ĠN ah
ĠF ive
Ġupp h
Ġif rÃ¥gas
Ġpro ffs
Ġar men
ĠW ednesday
Ġallt fÃ¶r
Ġbeh alf
Ġoff ense
Ġcon centr
Ġkl Ã¤r
Ġint ention
Ġfl esh
Ġpre v
Ġun us
Ġun its
FÃ¶r ra
ug it
ug gen
ĠvÃ¤l gÃ¶ren
Ġmor g
iz z
Ġte ater
Ġco ast
Ġdi al
gg an
Ġro ller
Ġlast bil
Ġtra ce
ĠtrÃ¤ff ats
Ġbes ides
Ã¥d an
Ġcomp lex
skap en
Ġmost er
Se ven
Ġfix ade
Ġarbet et
Ġstand s
pr ints
Ġ19 5
Ġmod er
Ġsing el
ugg ed
Ġrad ar
Ġarg ue
Ġcontro ll
komm a
âĢĲ âĢĲ
Ġhop es
Ġdy g
Ġinvestig ating
Ġkopp ling
Ġtem por
ĠRay mond
Ġbehand lar
Ġlim it
Ã¤ss igt
Ġocc up
Ġfal se
Ġgran ne
AU SE
Ġbow ling
ĠhÃ¤ng de
Jul ia
Ġforsk ning
Ġembarrass ed
Ġkam era
Ġtviv lar
ĠVer onica
ĠfÃ¶rvÃ¤nt ade
chef en
Ġcreep y
Ġfantas i
Ġproced ure
ĠEnter prise
Stack ars
ĠKenn edy
Ġexer cise
Ġcel eb
D A
E ach
H jÃ¤l
J ord
L ivet
T S
b ors
e fter
l opp
m us
p ir
t io
y er
Ġh iss
Ġm juk
at on
ag ues
Ġp our
Ġy og
Ġc e
Ġc red
Ġto a
nd ry
Ġr ut
Ġit alien
ver se
Ġwh ore
Ġsk ip
Ġli ver
Ġfr itt
ĠA C
ĠA V
Ġsh ared
ĠD ee
ĠC ru
Ġav sikt
ĠG ina
ĠP arty
Ġsp ill
Ġut k
ĠK Ã¶r
ĠdÃ¤r ute
ĠW elcome
Ã¤m tar
Ġex it
if est
So v
Ġcon cept
ĠÃ¶ver v
Ġbo ot
Ġfe g
ft et
Ġfl ock
Ġsm ar
Ġdr ill
Ġam mun
Ġ2 9
ĠfÃ¶rst Ã¤rk
Ġim pl
ĠSt u
Ġask s
Ġperson ligen
ian c
ĠvÃ¤g rade
Ġring en
act ion
Ġdis miss
Ġty pen
eg or
Ġfall s
Ġbre vet
ye ong
ĠHar vard
Ġinf ly
ĠMar co
Ġste pped
Ġtro tt
ub be
ĠWell s
Ġbak Ã¥t
ump an
Ġdra bb
Ġmag ical
ĠhÃ¤m tade
Ġpat tern
Ġsw allow
Ġflick orna
Ġfre qu
Ġinform ationen
Ġ6 00
Ġquestion ing
Ġfot on
ĠfÃ¶rÃ¤nd ring
str Ã¶m
Tr ans
Ġhor a
Ġskjut s
OW N
ĠsÃ¤l j
Ġkap it
Ġsvart sjuk
sc ri
Ġsus p
Ġinsp ect
ID E
Ġvitt na
Ġteach ing
Ġref use
Ġbygg t
Ġfunger ade
Ġdy ka
Ġly der
Ġpolit ics
ĠMon ica
Was n
Ġclos ing
ĠSim pson
Ġaccept ed
ĠtrÃ¤n ing
Ġkontroll en
ĠmÃ¤nsk lig
AU GH
ĠRoy al
ĠJud y
ĠjÃ¤m fÃ¶r
Ġdump ed
ĠavslÃ¶j ar
ĠLo is
Ġsats a
ĠBon nie
VÃ¤r lden
Ġplast ic
Ġexperien ced
ln te
ĠKal ifornien
Ġgemens amt
Bel ieve
ĠLes lie
Ġeduc ation
Ġcris is
C ra
D ER
E rs
J Ã¤klar
K id
P D
S il
S ub
W anna
Y S
f ig
m ony
p os
t og
u z
y our
Ġt ors
Ġt ennis
Ġs ession
Ġs Ã¤rsk
en skomm
Ġm ile
et en
on de
st Ã¤ller
re sa
as in
el ett
al u
Ġen de
Ġr Ã¤cka
ut iful
Ġsk ate
ĠS it
ĠS yl
Ġre ject
ĠH AD
Ġfr ag
ĠA G
Ġsh ield
Ġtr Ã¶st
ĠB ren
ĠB ishop
un ker
ĠG ro
ĠJ in
ĠJ un
Ġbl Ã¶d
ĠR andy
ĠR osa
ud ia
ĠE asy
ĠmÃ¥ tt
Ġbut ik
Ġupp ly
Ġsu c
ĠW ater
ĠW alt
ĠW ILL
ÃĦ nd
Ġby xor
Ġser geant
Ġmake up
ĠHe ather
Den na
ĠU N
Ġstr unt
Ġfort une
Ġfun kade
vis ed
ĠlÃ¥ dan
Ġpar as
Ġled ig
row s
Ġapp ly
Ġpass port
ĠMar ch
ĠMar io
Vill e
Ġur sprung
Ġcomm ent
ĠhjÃ¤r tan
ĠZ oe
Ġval u
ĠSe x
Ġbreak s
Ġstopp ade
Ġkonst iga
Ġadv ance
ĠfÃ¶rut s
Ġang le
ĠfÃ¶rÃ¤nd rar
Ġdest iny
Ġadd ition
ĠskÃ¶ ld
Ġterri bly
Ġhop ed
ĠTr ump
Ġsek ret
Ġbomb en
ĠmÃ¶r ka
Ġbeat en
Ġdej ta
lag ar
Ġsov rum
Ġkidnapp ed
Ġcons ult
ĠEvery one
Ġsens itive
Ġocc asion
ĠfÃ¶rklar ing
Ġmakt en
ĠJu an
Ġtekn ik
Charl es
ĠmÃ¤nsk liga
Ġaccep terar
Ġcow boy
Ġbesv ik
ĠDoes n
Ġlin jen
Red o
ĠWall ace
Tw enty
ĠskÃ¶n het
Ġsuspic ious
Ġbekv Ã¤m
Ġterrit ory
Ġfif th
Ġobs essed
ĠfÃ¶rsvun nen
Ġimpa ct
Ġsoff an
Ġoxy gen
Ġcoinc idence
Ġinvis ible
A H
B ea
D em
E h
J ane
L Ã¤r
M Y
M us
N ic
R ad
S H
b ird
f ir
f Ã¶lj
h oles
n iv
p in
r ate
t ra
in ating
Ġd Ã¤ck
Ġh yra
Ġw ard
st orm
st ationen
Ġp urch
Ġthe ater
Ġc m
Ġj oking
el er
Ġr if
ĠfÃ¶r en
am od
le e
Ġst aring
ra h
ur f
ur i
Ã¥r ing
ent on
Ġkn y
Ġvi ce
ĠhÃ¤r ligt
ĠC at
ĠC leveland
ĠB ond
ri sten
Ġav snitt
ĠN ar
ĠP ope
ĠP lan
Ġsp an
Ġsp Ã¤n
ĠF il
Ã¥g ar
ĠR oll
ĠK Ã¤nner
ĠK laus
ĠE nd
ĠE va
Ġhel iga
Ã¤m nar
ĠYou ng
Ġcon sp
Ġgr en
ĠdÃ¶ ma
per ation
ber ed
Ġunder bara
app ar
ĠCh ar
ook ie
ĠÃ¶ kar
Ġte ch
Ġsc ript
ĠTh or
ĠTh ursday
Ġact ions
Ġhome work
Ġbor ed
Ġbelie ves
Ġsam vete
Ġgod e
Ġcomp rom
ĠAll en
Ġbeg ick
Ġbeg Ã¥tt
vÃ¤r lden
Ġbak sidan
Or d
Ġbety delse
Ġdifferent ly
br idge
ron ic
Ġattack s
Ġreason able
nings vis
ape ut
Ġuppt rÃ¤
Ġstol ta
Ġpubl ik
sky tt
Ġbrott splatsen
Ġvide on
Ġotro gen
Ġallvar lig
Ġvin st
ĠMa ur
Ġkopp la
Ġstri p
Ġcost s
ĠInd ia
ĠEvery body
Ġfoc used
Ġenter tain
Ġimpress ion
ĠWar ren
Ġyell ing
Ġbird s
Ġdesper at
Ġstink er
Ġodd s
ĠÃ¶verty ga
Ġprior ity
Ġsurr ender
Im agine
ĠAust in
Ġtit le
ĠsamhÃ¤ll et
Ob viously
ĠLaw rence
pher d
Ġrabb it
Other wise
Cla ire
Ġconstru ction
Ġadvent ure
Ġbens in
Ġtrubb el
outher n
Ġconfr ont
Ġannivers ary
C om
H aven
L iv
P ER
R ock
S end
S lut
g s
g ud
g iven
j et
k opp
l oss
l Ã¤kare
m ing
r isk
Ġt Ã¥rt
er ed
er able
Ġm es
ou ston
Ġf Ã¤ll
Ġf ond
on erna
Ġv and
st ick
Ġp ages
ig o
Ġk andid
Ġl er
Ġl Ã¤tta
Ġc age
ĠI nt
Ġe va
Ġsk ak
Ġsk ith
Ġme x
Ġhar ass
ĠS K
ĠS ounds
Ġan k
ĠM oon
all ad
ĠH um
ĠH ope
ĠA udrey
ĠD itt
ĠC ur
ĠC ard
ĠB ad
ĠB rig
ri ka
kt yg
op ath
ĠN Y
ĠN ASA
th is
ĠL ion
ĠO p
ie v
ĠP ea
ĠP ic
em ang
Ġsa v
Ġsa uce
Ġsa bot
ĠF E
ĠR iley
ĠV ita
ab l
ger na
Ġgu vern
Ġoff ent
ik i
ik al
Ġfl ood
Ġun ique
Ġunder neath
ood y
Ã¥ng t
Ġdr own
ĠfÃ¶ da
St ar
sl uta
Ġmo ttag
Ġsy r
Ġbad rummet
var ter
eng arna
ĠSh awn
Ġdri v
Ġord inary
Ġstop s
Hej san
rÃ¤ de
Ġkon sek
Ġmar ker
ipp i
Ġacc used
Ġ4 2
Ġcr imin
ĠberÃ¤tt else
ĠlÃ¶ fte
co very
Ġdef in
Ġbety dde
ĠSte lla
Ġkul a
Ġsol ved
Ġbas ic
ĠjÃ¤tt es
Ġidiot s
ĠfÃ¶rsv unnit
fer ens
Ġspec ies
Ġsecret ary
ĠdrÃ¶m t
Ġbetal at
Ġinsp ektÃ¶r
Ġgal ning
Ġkiss ing
form ation
Ġly fta
Ġorgan ization
ĠMay a
omp son
Ġtyd lig
ĠGer mans
ĠBo oth
Ġcamp us
ĠFl ash
Ġunivers ity
Ġskill naden
Ġbast ards
ĠstÃ¤ng de
Ġintr oduc
Ġimpress ed
Ġcow ard
Ġinspir ation
Ġrapporter a
ĠlÃ¤sk igt
Ġdivor ced
Ġambul ans
Ġenc our
ĠspÃ¶ ke
Ġwarn ed
Ġbeseg ra
ĠKor ea
Ġfra ud
Ġsurround ed
riter ande
Ġkarakt Ã¤r
Ġcompan ies
Ġutrymm e
ĠSpa in
D O
D ep
G issa
N ARRATOR
S al
b urn
d og
m es
m unt
p ut
u ary
v att
Ġh oly
Ġb ul
om ise
it ors
st od
Ġk av
Ġl arm
ad el
ot ing
Ġr ode
le et
Ġe con
Ġsk ugg
Ġli p
Ġde gre
ent in
ent al
ro ck
ĠH as
ĠH os
ĠH opp
ĠH amm
ĠA k
Ġsh own
ĠD iv
ĠC ameron
ĠN ob
ĠG illar
ĠG ibbs
Ġlo ver
Ġlo cker
ĠL ed
ick ar
ĠO k
ĠO AK
Ġab ort
ĠF Ã¥
Ġch osen
ĠK urt
ĠK night
ud ed
ĠmÃ¥ ndag
Ġpro st
Ġing Ã¥r
und y
if ier
gen er
Ġgr ill
Ġsm ek
Ġdr as
ĠvÃ¤n lig
ĠU p
ĠVi ck
ang le
Ġverk lighet
Ġte ars
sl Ã¶st
Ġbef ri
orm al
ĠTh ose
Ġtra um
ee ze
Ġins idan
Ġag ents
Ġty ska
Ġexp osed
Ġinf ilt
ĠDo ktor
Ã¶rd u
Ġcr own
ĠkÃ¤r leken
Ġmove ment
Ġtest ed
Ġarbet ade
pr im
Ġimp onerande
Ġclear ed
ĠChrist ine
Ġhot ade
ĠWill ie
Ġdest ru
ĠFrank lin
Ġbitch es
Ar thur
Ġprison er
ĠgÃ¶m t
Ġbox es
Ġhalv Ã¥r
Ġlab or
Ġserv ices
Ġinvestig ate
AM E
Ġtapp ar
Upp fattat
ĠTy skland
Ġcook ies
Ġexist erar
ĠÃ¶gonblick et
Ġlur ar
ĠsÃ¥d ana
Ġbehand la
kÃ¤n sla
Ġpaper work
Ġow ns
Ġfal ska
rÃ¤ff ar
mid t
Ġjur id
Ġvamp ire
ĠDom in
Ġtviv el
Ġmoun tains
ĠSil ver
ĠRod ney
Ġidentif iera
Ġfro zen
Ġtrapp an
Ġfruktans vÃ¤rt
Ġpromen ad
ĠsÃ¤s ong
Ġunus ual
Ġammun ition
A CE
G lad
L yck
V Ã¤nd
d ad
f a
l ur
m aster
r Ã¤ger
v itt
w al
Â ¤
Ġ âĢ
Ġt orr
Ġs ack
Ġd ikt
ar ian
Ġb att
at isk
om et
Ġv Ã¤nd
Ġg Ã¤r
Ġg arderob
ing u
ag i
ag ers
ag ement
is c
Ġto oth
ad ows
ĠI ris
ĠI saac
ch ing
ve st
Ġbe grÃ¤ns
Ġr yss
Ġe k
ut red
Ġha bit
Ġme kan
Ã¤n ge
ĠS jÃ¤lvklart
Ġre levant
im ony
Ġfor don
Ġdo ft
ĠM u
ĠM ah
Ġmed al
ĠH Ã¶g
ak i
ion a
Ġsh y
Ġkn iven
ĠD U
ett s
ĠC os
Ġse ats
Ġtr Ã¶ja
ĠB ank
ri en
ri et
sk ont
ĠN ord
ĠN ich
ĠN elson
ĠJ ill
ĠF em
ĠF ore
Ġpr ide
Ġal iens
Ġbr Ã¤nner
qu ila
Ġfe ver
Ġser ial
per or
Ġfl od
Ġun ion
Ġsm ink
Ġpe kar
SÃ¥ na
ont rol
Ġgl ory
ĠhjÃ¤l pt
ĠSt and
ĠSt ock
Ġfamil je
Ġte ori
Ġstr uck
ment et
Ġsure ly
Ġ3 6
Ġrec ru
Ġmon key
Ġbort om
Ġinf o
ib an
ĠÃ¤nd rat
Ġland ing
Ġsna ke
Ġinter rog
Go ing
Ġfem te
Ġconf ess
Ġinne hÃ¥ller
ĠSk it
Ġtrans l
Ġtrans p
Ġmass ive
Ġfot ot
Ġoffic ially
str id
Pro fessor
utt le
Ġjo ining
ĠOF F
AD E
Ġinsp ired
Ġtw ins
ĠBen jamin
Ġref used
edding ton
zz le
OL D
Ad jÃ¶
Ġcons cious
gre j
ĠGO OD
abri ken
Ġpun kt
ĠRE ALLY
Ġfac ility
ĠSec urity
Ġbrut al
Ġbow l
Ġsepar ate
Ġklient er
Ġappl Ã¥d
Ġsamarbet ar
Ġklipp a
Ġmix ed
ĠÃ¤ck ligt
Ġbon us
ĠJew ish
Ġvul ner
Ġclim b
Ġspl itt
Ro ger
Ġinjur y
Ġrekl am
Ã¶ser i
Ġvess el
ĠInst agram
Ġsuc ceed
Ġdegre es
ĠOAK LEY
3 5
C oming
D ave
I gÃ¥r
M ig
N ope
R y
R achel
T or
W AY
Y EAH
d ligen
g ot
g un
k at
k ind
l ist
m ak
p ing
r Ã¤tta
w ar
x en
Â ¶
Ġ )
Ġt is
Ġh att
Ġh mm
Ã¶ ket
Ġv irt
Ġg issar
st an
Ġp atch
Ġl emon
is ke
ĠI ce
es en
al o
Ġr ar
Th ough
ĠS ea
ĠS ep
ĠS eth
ĠS andy
im i
Ġan tal
ĠM ycket
Ã¥r iga
ro st
ĠH y
Ġfr ank
ĠA ctually
ĠC orn
Ġtr ies
ĠB et
ct s
Ġmin us
op ed
ĠT alk
ĠL eg
Ã¤tt ningen
Ġab du
Ġman ifest
ĠP OL
ĠP ablo
Ġno ble
Ġno vel
ĠR ic
ast es
ĠK a
ĠK h
Ġhel ic
Ġsl it
ĠW ild
ĠnÃ¤r varo
In stead
Ġcon cer
Ġgr ass
ind el
Ġint ent
Ġun known
Ġsm iling
Ġkv al
og le
Ġtv ingar
ĠHe ad
akt ig
Ġsak ta
bl ad
Ġverk samhet
Do ktor
Ġsn ur
Ġfort are
Ġbel Ã¶
ĠrÃ¤tt vist
Ġbad ge
ren e
Ġbest Ã¤lla
Ġbre ast
ĠAl right
Ġtro ops
ĠlÃ¤g e
Ġreg ion
Ġtest ing
Go tta
ĠRe c
Ġrel at
Ġstra w
ĠvÃ¤ d
Ġmess ing
Ġadv okater
Ġkul or
Ġroll ing
oun tain
Ġbevis ar
ĠmÃ¶j liga
Ġpast or
Ġkrig are
ras ka
Ġpubl iken
Ġkra v
sky dd
Ġpack a
Will iam
Ġpersonal ity
Ġimag ination
arbet are
Ġident ity
Ġtapp a
Ġesc ort
ĠBE EN
Ġcommun ication
Ġcho ices
Ġutt ry
ĠfÃ¶rsikt iga
Ġpur se
Ġtryck er
ĠgrÃ¤n s
Ġide al
Ġrepresent erar
Ġpray er
ĠAT T
ĠmÃ¶jlighet er
ĠfÃ¶rber eda
Ġamerikan er
Prat ar
ĠbrÃ¶st et
Ġgull igt
Ġimpro ve
Ġparticular ly
ĠlÃ¶gn are
Ġintern ational
ĠfÃ¶rsÃ¤k ring
ĠColl ins
ĠBern ard
Ġelev ator
Ġskum t
Ġassign ment
Ġambass ad
Ġcrit ical
Ġcustom ers
Ġlau ndry
Ġil ska
Ġrobber y
Ġutre der
Ġmedborg are
Ġvo ices
oen ix
ĠHawai i
iju ana
, ...
2 1
A gain
A my
C r
C ass
C ons
E ric
L ucky
M um
M ama
P ress
W ay
g eln
i ber
s ed
in as
Ġs Ã¶k
Ġd ynam
ar er
an ced
it ure
ag ar
re al
Ġp ardon
ig i
ig el
Ġk Ã¤lla
Ġyou th
Ġj unior
Ġatt itude
id i
Ġinte l
Ġr age
Ġr ape
Ġst Ã¤nd
ĠS ad
and es
Ġan ty
ĠM ot
ĠM ath
ĠM oss
Ġall eg
Ġsh adow
Ġtr on
ĠB and
ĠB ush
Ġav lÃ¤g
ĠT imes
ĠT revligt
ĠG a
ĠG ill
ĠL am
ĠO mar
Ġbl owing
are house
ĠP E
ĠP rat
ĠF ast
ĠF itz
Ġut pl
ĠR y
ĠE st
ĠmÃ¥ la
ĠV ince
Ġbr un
ĠW ol
ĠW OULD
Ġle ak
ĠÃ¶ver enskomm
Ġbo ots
Ġkl Ã¤dd
Ġkl ocka
Ġfl ow
Ġpre m
ous ly
Ġsm itt
ĠÃ¥ k
ĠÃ¶ ster
ild ren
Ġhitt ills
Do c
Ġstr ids
Ġro omm
ĠTh ompson
ever ly
Ġdel ay
Ġdel ta
Ġfram steg
Ġshow en
ung na
Ġbes l
Ã¤kt are
Ġtog s
Ġthrough out
bet al
ĠlÃ¤m p
inn ande
ĠMar ge
ĠAl ison
Ġdes ire
Ġgra ce
ub a
Ġur gent
land et
ĠZ ach
ĠFÃ¶r stÃ¥r
Ġtest ify
ĠIs rael
Ġarbet at
ĠrÃ¶ nt
ĠSe bastian
stÃ¤ll e
Ġpat et
Ġrel ated
rev iously
ĠLe ague
Ġpoj karna
Ġmod e
Ġinst ant
Ġdam aged
Ġlov at
ĠidÃ© n
rel sen
Ġbull ets
Ġuppt Ã¤ck
Ġhuman ity
ĠfÃ¶rf ly
Ġvide os
Ġcir k
Ġextra ordin
Ġgrabb ed
Ġnatur ligt
Ġfle w
Ġslog s
Ġstri ct
Ġconc ert
Che fen
Could n
Ġcontin ues
Ġkung ar
Ġenjoy ed
John ny
Ġir riterande
Ġcust omer
Qu ick
Ġtravel ing
rÃ¤ff ade
Ġdat orn
ĠSome one
ĠSon ny
ĠCra w
Ġcoun cil
Ġdoc uments
Ġavslut ar
Sna bb
ĠVictor ia
Ġcapt ured
jÃ¤n sten
ĠCass ie
ĠDam on
Sec ond
ĠRem ember
Ġstrugg le
ĠBrook lyn
Ġartik el
ĠAbsol ut
ĠDire ctor
ĠfullstÃ¤nd igt
ĠValent ine
ĠRog ers
ĠVÃ¤l kommen
Ġach ieve
B reak
F ire
F BI
H ard
J enny
M id
O ld
P app
S Ã¤kert
c ies
d ies
e ge
g ro
g ate
g Ã¤ld
j i
j ob
k ed
l ict
l aget
m atch
m oon
n are
r un
Ġ eth
Ġh ockey
Ġf urn
Ġf eder
Ġb ark
Ġb Ã¤ste
on da
or ma
Ġg est
Ġg uts
ag le
st ation
st ock
st ance
Ġp iller
Ġp owder
Ġl Ã¤cker
Ġo vÃ¤nt
Ġc ri
el ef
Ġen vis
am ling
Ġsk Ã¶tt
Ġsk edde
Ġme asure
Ġon Ã¶d
Ġvar ning
ent a
ent ial
ĠH u
ĠH ud
ĠH olm
Ġmy nt
ol ic
ol ved
ĠD AY
ĠC ath
ĠC OME
Ġtr Ã¥d
ĠB yr
ĠB ird
un ge
sk ola
Ġden y
ĠT ok
ĠT oby
ĠT ucker
ĠN iles
ĠG or
ĠL en
ĠL ana
Ġman us
ĠP am
ĠP erry
ink le
ĠF amil
ul ate
Ġut fÃ¶ra
Ġpl ocka
ud dy
Ġpr ince
Ġpro vet
ĠW oo
Ġshe ep
iv ity
iss y
Ġsee k
ĠnÃ¤r varande
qu is
ens on
Ġby xorna
Ġint end
Ja pp
Ġfl irt
FÃ¶r r
FÃ¶r resten
opp y
Ġtv ungna
ĠU gh
Ġqu ality
ĠDu de
Ġel va
ĠAnd erson
Ġsn uten
ĠhÃ¤nd else
ĠDe ath
ĠlÃ¤ s
ĠlÃ¤ xa
OU S
Ġdri ves
Ġapp le
Ġsur geon
Ġbab ys
ĠAl pha
mm et
ĠBr other
ĠBr andon
Ġ4 7
Ġlag er
Ġfix at
ĠIs ab
ĠrÃ¶ sta
ĠrÃ¶ ster
Ã¤k ter
Ġtel eg
Ġemot ions
ĠjÃ¤tt eg
ĠEl ena
aff e
Ġwish es
Ġrad ion
ĠfÃ¶rsv ars
Ġsnabb a
Ġdist rikt
Ġprotect ed
Ġant ingen
ĠJul ian
ĠCon rad
Ġcir ka
Ġabsol ute
Ġmeddel anden
ĠfÃ¶lj t
Ġdiv ision
Ġop ens
ĠLa uren
Ġakt iver
Cl ose
Ġneigh bors
gre jen
Ġuppsk att
ĠFuck ing
Lu ke
Gra b
lÃ¤g e
Ġimm ig
Ġfac ing
ĠCent er
ĠmÃ¶t en
Ġlikad ana
ĠGrand ma
ĠtÃ¥r ta
Te am
ĠReg ina
ĠIr ish
Ġrit ual
ĠfÃ¶rtro ende
ĠFel ix
Ġtun ga
stjÃ¤r na
Ġdefe at
Ġutby te
ĠfÃ¶rhind ra
Ġstabb ed
Ġconsequ ences
Ġegend om
A V
B ull
C her
C ON
E ight
F all
H Ã¶g
J osh
L ev
R od
S pr
S HE
V in
c iellt
f yll
t ies
w as
w ord
w ife
Ġs ample
Ġs Ã¶dra
Ġa ck
Ġd ated
Ġd ates
Ġh orm
Ġh yll
an ut
Ġb jÃ¶rn
Ġw is
st art
Ġn ord
Ġk ed
Ġk ond
Ġin stÃ¤ll
Ġc ore
Ġc ats
Ġto ward
Ã¶r er
te kn
ot hing
Ġjag ade
ra ce
ĠS na
Ġre ward
ĠH ol
Ġfr ame
Ġtill Ã¥telse
ter ing
ol ine
ol ycka
ĠA sk
Ġsh aring
ĠD C
ĠD I
ĠD ea
ant on
ĠC row
ĠC asey
Ġtr ist
ĠN a
ĠG ret
ĠL ance
Ġbl om
ĠP ad
em ot
ĠF at
um ret
ĠR yss
And y
ĠV era
ab by
fÃ¶r tro
ans as
ap ers
Ġif all
Ġsl ave
ĠW olf
Ġkl ok
Ġcom in
Ġunder cover
ĠCh ad
Ġsin ne
Ġber gen
ĠvÃ¤l kommen
Ġverk lig
Ġverk ligt
Ġte or
Ġtillb aks
ely n
Ġstart ar
Ġthr one
var et
ring ton
Ġbit ar
Ġsam ples
Ġpass ager
Ġsky ldiga
Ġkont o
ĠAl i
oc a
EN S
EN CE
Ġskri k
Ġsna p
Ġres urser
Ġdum pade
Ġinv asion
ĠHur ry
Ġmag iska
ĠrÃ¶ ven
Ġstud ying
ĠAn nars
rev lig
Ġspr ay
ĠSte fan
ĠlÃ¥t en
Ġhot ar
Ġdom aren
Ġstick s
Ġbas en
ĠCan ada
Ġsim ma
Ġgiv et
for sk
Ġfot en
ĠUn ion
ĠmÃ¶rd ades
Ġinvest ment
ĠEm il
ĠdrÃ¶m mer
Ġnorm ally
roll en
Ġclass es
ĠKe v
ĠfÃ¶rl Ã¥ter
ific ant
ĠGu ys
Ġimag ined
Ġmeant ime
Ġinvol ver
sch ef
Fin ally
Pl Ã¶tsligt
Ġrapp orten
fÃ¤r g
ĠfÃ¶rtjÃ¤n ade
Ġrequ ires
Ġblock s
Ġbesk riva
Ġdju p
Ġkidnapp ing
Ġir re
Ġpract ically
ĠBur ns
ĠRuss ians
Ġenter ed
ĠAdam s
Ġcond itions
ĠstÃ¤ng t
ban an
Ġsoci ala
Ġgrym t
ĠKat ie
Ġkamp anj
Ġinstru ctions
Ang el
jÃ¤n st
Ġrac ing
Ġnail s
Pol ice
ĠtÃ¥l amod
President en
Ġinl Ã¥st
ĠMitch ell
ĠavgÃ¶r ande
Ġje ans
Ġbom ber
Ġune x
ĠfÃ¶rÃ¤lsk ad
Ġastron aut
Ġuppd ater
Forg ive
Ġrout ine
Ġeva cu
Ġcrimin als
A ye
D a
E at
G R
H op
H jÃ¤r
J ose
K ar
K ay
L ik
M ass
M aggie
T ING
T Ã¤nkte
U RE
b ad
d Ã¶m
g age
g las
l ande
l ife
p it
r Ã¶r
t or
Ġt one
Ġm all
Ġm os
Ġf ianc
Ġb rist
Ġw ore
Ġw ipe
or f
om a
Ġv Ã¤cker
st Ã¶r
Ġy tan
Ġn Ã¤mna
Ġk y
Ġin her
Ġto y
Ġto wer
ĠI d
Ġatt ra
ve ll
Ġbe ef
Ġen klare
Ġr od
ĠfÃ¶r g
Ġst able
Ġvar nade
Ġre un
ĠM AR
ĠM ount
ĠM egan
ter at
ĠA le
ĠD oyle
ĠB os
ĠB alt
ĠB efore
un ga
ct ive
Ġne st
Ġmin i
Ġmin net
ĠT ess
ea u
ea ven
ĠN ed
th y
ic in
ic als
ĠO H
ĠO UR
ull a
ĠP ak
ĠP ost
Ġsp ect
ĠF ound
ul era
Ġpl ants
Ġupp munt
ĠdÃ¤r inne
Ġbr ush
Ġbr Ã¤nde
Ġkl in
Ġkl ant
Ġfe ars
Ġsomet hin
Ġhand lingar
ĠfÃ¶rs Ã¤lj
ĠY ear
opp ningsvis
ĠCh ang
Ġsen ator
ĠvÃ¤l kom
ĠfÃ¶rst Ã¶rd
Ġim per
ree ze
ress ant
Ġbef ord
amm ar
ix on
ĠTH ING
Ġvil ar
Sk Ã¤r
ĠDe ad
Ġ3 3
Ġsam lar
Ġrec on
ph ere
Ġexp and
Ġmeet ings
aught ers
ĠBr idge
sy nt
vin nan
Ġinv itation
Ġguess ing
else a
Ġstud era
Ġcount ing
ĠÃ¥ter h
ĠSte vens
God damn
Ġchar ged
ĠjÃ¤tt ek
ĠGo vern
Ġspeak s
Ġmilj Ã¶
Bl od
Ġ7 2
pect ive
Ġfest ival
ĠPr ime
ĠCol omb
Ġvak ter
Ġkick ing
Ġmeddel a
Ġident ify
gÃ¥ ende
Ġpan el
ĠCo ast
ĠMon roe
ĠGra ham
ĠhÃ¤ xa
Ġrestaur angen
Ġcost ume
Ġdrag it
Ġenjoy ing
Ġfi enden
ĠSen ator
Ġsnygg t
Should n
Ġaccount s
ĠCr ane
ĠgrÃ¤n ser
Ġpartic ip
Ġbuck et
Ġreser v
Ġremind s
ĠRon nie
Ġincred ibly
Ġextrem t
Ġcharm ing
Ġenorm t
Ġrap ed
ĠbekrÃ¤ fta
Ġstrateg y
Ġcru el
Ġidentif ier
Ġtherap ist
Ġkop ia
ĠgrÃ¶ ns
Ġpul se
Ġwhis key
aph ne
Ġkonk urr
Ġtillbring a
MÃ¤nnisk or
Ġupd ate
Ġconstant ly
ĠTrev or
tele f
A p
A IN
B on
B oss
D rop
F i
F y
F ollow
F TER
G entlemen
S es
S Ã¶k
S jÃ¤lv
T v
T ryck
b und
c akes
d Ã¤r
f el
h istor
k varter
m ot
m ate
o ard
v ention
Ġt u
Ġt an
Ġt ugg
Ġt Ã¤cker
in ity
er v
er ie
Ġm att
Ġm iste
Ġm amman
Ã¥ lar
Ġb ills
or able
it ate
Ġv r
ing ham
st il
Ġp ity
Ġn igger
Ġk reat
Ã¶r jar
as ant
as ier
Ġr ag
Ġr ig
Ġr ast
Ġr ats
Ġr aka
ver age
Ġsk aka
ĠpÃ¥ stÃ¥
ĠS ue
ĠS asha
Ġli on
ro pp
ĠH ad
ĠH aven
ir ley
ĠD rew
ĠC urtis
Ġtr upp
ĠB ible
ĠB oss
ĠB lair
ĠsÃ¥ ra
sk Ã¶ter
kt iga
Ġav rÃ¤tt
ĠT Ã¤nker
Ġlo tter
ĠJ Ã¶sses
ĠL ET
ĠL uther
Ġsp ara
ĠF ri
ĠF ick
Ġch ew
Ġch aos
ell ow
ist iskt
Ġpl ugga
ĠE ight
fÃ¶r tiden
Ġsl ide
Ġsl ips
Ġar ter
Ġar ga
uck s
Ġgu bben
Ġlook in
Ġgr Ã¶n
ys ste
ĠCh ip
Ġtid ning
Ġmor far
St opp
iz a
Ġverk ligheten
Ġsc out
Ġact or
Ġtur key
ĠWh oo
Ġtra kass
Be en
Ġmust n
OU N
Ġlit ade
Ġ3 4
Ġ3 7
Ã¥l en
Ġtro ligen
ĠlÃ¤g ret
Ġreg iss
ole on
vÃ¤r k
ĠanvÃ¤nd as
Ġkoll egor
Ġwalk s
Ġkr asch
lighet er
cept ion
Ġcount ries
ĠBe ar
ĠvÃ¤ t
Ġlyck ligt
ced es
AS E
Ġbur den
Ġmisst Ã¤nker
Ġcont ra
Ġ9 9
Ġang Ã¥r
Ã¤t et
Mar ia
ĠLook s
Ġz oo
tj ej
Ġadd ict
Ġkra ften
ĠRo om
Ġpost ed
Ġma id
Ġinvol ve
ety der
Ġgri ef
riv ate
Ġdisk uter
ĠNe xt
Sa id
okus era
Ġsoul s
Ġenter ing
ÃŃ n
Ġspir its
ĠhÃ¤st ar
ĠTra vis
Ġbrut it
Ġmotor cy
Ġinde p
Ġreger ing
Ġansw ering
Ġbebis en
Ġadm itted
Ġpred ict
Ġmult iple
Ġeffect s
ĠDa isy
Ġungdom ar
Ġloy alty
ĠCher yl
ĠDis ney
Ġinbjud an
Ġkommissar ie
Bek lagar
Ġexha usted
Ġskv all
ĠMig uel
ĠWy att
Ġupple va
Ġcommer cial
Ġvalu able
, ..
B Y
C oll
D ig
G ar
H y
H ands
I ES
P L
P a
S ta
S ave
S aker
W omen
Y et
_ _
b Ã¶rj
c ock
d oor
g ick
g ood
h jÃ¤r
k illen
n Ã¤st
w orld
Ġd aily
Ġm Ã¤
Ġb are
om on
Ġg rott
Ġg aller
Ġn acken
Ġk atten
Ġk akor
Ġk ysste
Ġl apt
is erade
al in
Ġsk etch
Ġvar na
ĠS weet
Ġre k
Ġre ly
im ents
ur o
and ro
Ġhe av
Ã¥r et
ĠH im
Ġfr it
ĠA pp
Ġkn ep
ĠD awson
Ġse al
Ġse qu
Ġtr amp
ĠB L
ĠsÃ¥ lt
sk on
sk olan
kt ur
ĠT roy
ĠG host
ĠL ow
ĠL ife
ĠL yssna
ĠO j
ĠO ak
Ġab use
ĠP ick
ĠP iper
Ġsa cred
ĠF a
ĠF eder
Ġch ase
um n
Ġmen u
Ġpl at
Ã¤nd erna
ĠK ina
ĠK atherine
ĠK irk
he y
Ġex hib
Ġle ende
la ced
Ġhand ed
En joy
St Ã¶r
Ġny kter
ĠsjÃ¤l ar
sl ed
Ġdel ight
Ġring ing
Ġag enda
yr am
Sk Ã¶nt
ĠlÃ¤ pp
Ġown ed
orn as
mm y
my nd
OR D
ĠstÃ¤ll t
olog iska
ĠmÃ¤nnisk an
ĠsÃ¶ ner
Ġhold s
TH IS
Ġbety g
Ġspr ider
ĠvÃ¤ xt
Ġret reat
sam heten
Any body
Ġlu kten
Ġcut s
oun ced
Sp ela
Ġbott les
sc reen
ĠJul iet
Ġmedic ation
ĠWH EN
Ġpot atis
Er t
Ġenk la
Ġcreat ing
Ne ed
Ġmask inen
Ġtillf reds
ĠblÃ¥ sa
Le on
ĠMor ning
Ġneigh bour
Ġtrack ing
Ġglas Ã¶gon
Ġcross ed
ĠtrÃ¤n ar
Ġself ish
Ġapolog y
ĠMex ican
ĠsÃ¥r ad
lu de
ĠtillhÃ¶r de
Ġkross ade
ĠfrÃ¤m ling
ĠmÃ¤nsk ligheten
Ġsty v
Ġkamer or
gas ps
Ġpers pective
Ġcock tail
Ġclaim s
Ġshock ed
ĠanstÃ¤ll d
WE LL
Ġutnytt ja
Ġplac ed
Ġtoal ett
ĠfÃ¶rbl ir
Ġanalys is
Ġtransfer red
Ġful f
ĠSOME THING
Ġlid ande
San ningen
Ġtraged y
ĠCamp bell
ĠCir cle
ĠmissfÃ¶r stÃ¥nd
ĠFÃ¶rs Ã¶k
ĠfÃ¶rrÃ¤ dare
Ġlej on
ĠfÃ¶rfatt are
Ġduss in
Ġunh appy
Ġprev ious
7 5
A g
B Ã¤ttre
E O
F eel
G anska
H Ã¶rdu
K or
L ieutenant
R om
T ube
b Ã¶
b ble
c os
e at
f us
g t
j in
n ades
Ġt omma
Ġs ven
Ã¤ ft
ar ka
Ġm arsh
Ġm attan
et ing
Ġth irst
Ġb in
Ġw ings
Ġw rest
Ġw asted
at oes
om ic
it eter
Ġp orr
Ġn az
Ġk oden
Ġin ject
Ġc ongratulations
Ġto ys
ad ern
ĠI I
te x
ill ade
ill ion
Ġst ream
ĠpÃ¥ h
Ġvar ma
ĠS ummer
im o
im s
Ġhe ck
ĠM as
ĠM ack
ĠM ess
Ġwe alth
Ġall ey
ce st
Ġtill Ã¤g
ol ves
ĠA D
ĠD re
ĠD ist
Ġom Ã¶j
ĠC ross
Ġnot hin
ĠT ELL
ĠG loria
ĠL ab
ĠO z
ĠO ct
ĠO VER
Ġab oard
ĠP as
ink a
ĠF oster
ĠR un
ne ys
Ġhim mel
Ġpl ain
ĠK er
ĠK ir
Ġwor ries
Ġsl akt
if ying
Ġdem okrat
Ġbo om
ik it
Ġsm al
Ġvis ual
ĠÃ¶ m
Ġsv aga
Ġcl ar
Ġfuck er
int en
iz er
Ġmot hers
amm en
ĠÃ¤lsk at
Ġtra itor
kl Ã¤d
Ġring s
Don ald
Ġad just
amp s
OU GH
Ġapp ropriate
ris on
Ġsupp lies
ĠkÃ¶ n
ser v
ĠBr on
Ġev ighet
Ġev aku
Ġmet e
ĠanvÃ¤nd s
unt ed
ĠDon ald
Ġrum pa
Ġtest ar
ĠrÃ¶ ker
pr om
Ġfem in
Ġstopp ing
Ġtel eph
Ġdess utom
Ġsol o
Ġwonder ed
Ġfree zing
ĠSam antha
Ġsend s
Ġprof il
ĠtjÃ¤n ade
iam ond
Ġmatch ar
ĠdrÃ¶m de
Ġclass ic
ĠSer ena
Ġstat en
Ty dligen
fr ont
ĠBra vo
Ġcolle ague
ĠWH ERE
Ġham mer
Ste p
Ġdeep er
Ġkontakt en
Ġkost ade
ĠEll is
Ġuppf yll
Ġspark ar
Ġgett in
vÃ¤ ska
Ġjack a
Ġstress ed
ĠtrÃ¤d gÃ¥rden
Ġlay ing
Ġot ur
spel are
Ġfeed ing
mÃ¤n nen
Try ing
ĠCarol ina
Ġinbland ade
Ġbegrav ningen
Ġmisslyck ades
Ġknull ar
Em ma
Em ily
ĠSome body
Ġstil ig
ĠskÃ¤m s
ĠTur k
ĠTur ner
Ġemploy ee
Ġabs urd
ĠtvÃ¤tt ar
Ġskil ja
ĠAfri ka
Ġintern ation
Ã± or
ĠPal mer
ĠHarris on
Ġtalent ed
Ġmej l
ĠtÃ¤nd erna
Ġcere mony
Ġgodk Ã¤nt
pekt iv
ĠBry ce
JÃ¤tt ebra
Ġprivile ge
Ġnorr ut
Ġborg mÃ¤stare
Ġtras ig
ITT LE
Ġkult ur
ĠLeon ard
Ġhelik opter
Ġcitiz ens
ĠServ ice
Ġrepa ir
ĠfÃ¶rol Ã¤mp
Ġcigarette s
Ġpopul Ã¤r
ĠskrÃ¤ p
Ġoccur red
Kvinn or
Ġstro ke
Ġign ore
Ġbarnd om
ĠfÃ¶rstÃ¤rk ning
. -
A ri
B arry
C AUSE
D rick
D uring
F O
H o
H all
H uset
H alf
H ittade
L au
L ock
M ick
N amn
N ER
O w
P H
R et
V ir
b ak
c en
f i
g jort
h ag
l Ã¤ng
n ame
n ik
t is
t wo
u gen
v on
v ara
v okat
Ã §
Ġs elect
Ġa h
Ġh ip
Ġm Ã¤ster
Ġf etch
it ary
Ġv Ã¤ckte
Ġg ut
Ġg ul
Ġg room
st ren
st aden
Ġp ad
Ġp ile
Ġp arl
Ġl Ã¤nder
Ġc av
Ġto ols
ĠI van
Ġr ank
Ġr ice
am era
am rat
Ġst Ã¶t
Ġst ubb
Ġst Ã¥tt
Ġsk og
ra cy
Ġvar dags
ĠS el
ĠS AY
ĠS lo
Ġan ta
ĠM ost
Ġde als
ent en
Ġtill gÃ¤ng
ĠD ina
ett o
ĠC T
ĠC ad
ĠC ALL
ĠC OULD
sk l
Ġcan n
ĠT am
ĠT op
ĠT ara
ĠN at
ĠN ash
ĠN olan
ĠN atalie
ĠG avin
ic ip
ĠL enn
ĠL ITTLE
ĠO CH
are st
ĠP ass
ĠP olly
em ed
ĠF ull
ul pt
Ġut matt
ĠR aven
And re
ĠK ane
ud ge
ĠV el
ĠV Ã¥r
Ġpr Ã¶v
Ġsl Ã¤ngde
Ġsl Ã¶seri
ĠW ERE
ĠW endy
Ġsome place
Ġle ktion
Ġback a
ÃĦ nda
ĠnÃ¤r m
Ġund ra
No g
ens es
ĠÃ¶ver st
Ġfl agg
ĠY e
Ġkv ittar
ĠCh ase
ia z
Ã¤ng t
ĠÃ¥ s
Ġsv ika
ats on
Ġgl oves
pl ar
Ġmor bror
Ġel eph
sÃ¥ ld
ĠSt ra
Ġbli xt
iz zy
Ġstr ing
Ġdi et
Ġplan erade
ru p
cc er
Ġag es
Ġsex uella
Ġdri ven
Ġapp eal
Ġdes pite
Ġ5 5
Ġrikt ning
Ġinter nal
Ġdra wn
ĠZ e
ush i
Ġdec lar
Ġpay s
Ġsent iment
ĠRe id
Ġpat rol
ĠNew s
ĠlÃ¥t s
Ġrep ubl
Ġattack erade
Ġinform ed
Ġclose st
Ġlaw s
Ġinterest s
Ġhalf way
str ong
Ġpriv ata
oj ar
Ġspecial ist
Ġant og
Ġhy per
atter ed
ĠCol t
ball s
ĠJul ien
go ing
Ġlab b
Ġbeslut et
ĠMad ame
Ġdej tade
Ġpen na
Ġamb ition
Ġpolit ik
Ġsal ad
ĠkÃ¤nsl an
ĠkÃ¤nsl om
Ġfair y
Ġgar aget
Ġgovern or
Ġport al
Ġspeciell a
Ġbehand ling
ĠfÃ¤rd igt
Ġansikt en
Ġhost age
Ġlaugh s
Ġovan fÃ¶r
Ġmarry ing
bry t
ĠtÃ¤v ling
ĠPe ggy
Ġprivat liv
Ġobe kv
Ġundv iker
Ġweak ness
stra ff
Ġemploy ees
Ġsorg ligt
Mor ning
Ġdeliver ed
Sna cka
Ġcomb at
ĠLi ber
ĠsamhÃ¤ll e
ĠHug h
ĠHug o
Ġpill ow
ĠTor res
Ġyr kes
ĠframgÃ¥ng s
ĠAnton io
Ġlys ande
ĠrÃ¤tteg Ã¥ngen
Ġloj alitet
ĠMir anda
Ġassum ed
Ġwhis per
ĠAg nes
ĠSyd ney
Ġadopt ed
Ġvans inn
ĠrejÃ¤l t
Ġbly g
Ġgat orna
Ġdyg net
B A
G onna
G ary
H os
L isa
M S
N ik
O fficer
R oll
R ub
S Ã¤ker
a way
d am
h ur
v agn
w ick
Ġ eter
in sp
in sen
in stein
Ġa na
Ġd ome
Ġh es
Ã¤ ver
Ġb ind
Ġv Ã¤ster
ag ra
st y
Ġl aser
is ation
ad ers
ch ar
Ġatt ity
id ers
Ġr ang
ĠfÃ¶r nu
ĠfÃ¶r gift
Ġst im
Ġe mail
Ġwh eels
Ġsk ift
Ġsk atte
Ġsk ilj
Ġre hab
Ġfor bid
ĠM all
ust y
ust in
ce y
ĠH and
ĠH ong
ĠH AS
Ġfr idge
Ġsh o
ĠD A
ĠD J
Ġvi be
Ġvi br
ĠB erg
ĠB enny
ĠB auer
ri ft
ri but
sk alle
ĠT iff
ĠG oth
ĠG abe
Ġlo gg
Ã¤tt are
ull ivan
ĠP u
ĠP ent
Ġso ck
Ġsa fer
Ġsp a
ĠF ab
um es
Ġut sikt
ĠR ory
ist le
ĠK ul
ĠE van
ĠE rik
ĠmÃ¥ dde
ĠV arsÃ¥god
Ġsl iter
Ġneed le
Ġback wards
Ġbeh Ã¥ller
Ġoff ra
In ter
ĠÃ¶ver fÃ¶r
ik ar
Ja c
av delningen
Ġser ving
Ġpre scri
ĠfÃ¶rs en
Ġdown town
ĠY ang
ĠvÃ¤n ja
Ġhapp ier
ĠÃ¶ va
nan cy
Ġjobb ig
Ġmor s
ĠSt ation
Ã¤ck ar
Ġco ordin
amm aren
vis ar
ĠsÃ¤ k
Ġfly r
Ġad jÃ¶
Ġph ase
Ġord nade
Ġfound ation
Who o
Ġinf l
ĠhÃ¥ll s
ĠMen ar
ĠjÃ¤v las
ĠBr id
ĠlÃ¤ng tar
Ġter api
Ch ief
Ch loe
Ġland ar
Ġtest imony
ĠdÃ¶r rar
Allt id
ĠSe ven
Ġvan a
ĠCl ass
ĠCl iff
Ġattack ing
Ġposs ession
ĠEl vis
Jo ey
ira cy
Ġsuper ior
erg us
Ġoper ating
Ġbevis en
ffic ient
Ġry ska
ĠPh oenix
IT Y
Ġtelef ons
HÃ¶r ni
ĠEm pire
eb ror
Ġintress erade
Ġche ating
Ar t
Ġbomb s
Ġworth y
ĠWH Y
Ġloc ated
igg y
Ġill usion
Ġkor v
ĠMad d
Ġcreat ive
Ġgri pen
Ġskydd ade
ĠfÃ¶rm Ã¶gen
Ġakt iv
ĠInd ien
Ġstress ad
Ġvir gin
ĠsÃ¤ll an
Ġdiscuss ed
Lu cy
Ġfatt ade
Ġfatt iga
ĠfrÃ¤m st
Ġequ al
Gra ce
Ġmyster ious
Kn ow
Ġdat um
Str unt
ĠfÃ¶rbann ade
Ġpres ents
Ġsuck ed
Ġprior it
Ġrelig ious
Ġram lade
Ġwash ed
Ġdrott ningen
ĠofÃ¶r sk
Ġenc oun
Ġkok ain
Ġyo ga
ĠMajest Ã¤t
ĠfÃ¥n ge
Ġskaff ar
Ġinvent ed
ĠDID N
ĠNic ole
ĠEle anor
Ġsatell ite
cons cious
Ġflask an
Ġpunish ment
gÃ¤r der
Ġpremi Ã¤r
ĠOlym p
ĠCoun cil
Ġinfly tande
ĠMaur ice
Ġuttry cka
. !
9 5
B S
B a
E K
H igh
I AN
M od
N athan
N aturligtvis
R um
S ista
d Ã¶rren
e ve
f em
h en
j akt
k Ã¶r
k all
m ind
p olis
u um
w alk
z ona
Ġt ant
Ġt iss
Ġt ons
in f
Ġs Ã¤nder
er i
Ġd ough
Ġd itch
Ġd awn
Ġh atch
Ġm ud
Ġm ajest
an while
Ġf itta
Ġf ula
on ing
Ã¶ ma
or ial
ag ger
st ift
re h
re pp
Ġp Ã¤r
Ġp ud
Ġn ack
Ġk ab
Ġl Ã¶jtnant
is se
ĠI zzy
Ġj an
Ġj un
Ġj apan
ch ant
el ve
le ans
Th omas
Ġst Ã¥l
ut ers
Ġsk o
Ġsk inn
Ġvar nar
ĠM U
ĠM un
ĠM ik
ro ad
ĠH m
Ġtill Ã¥t
ol in
ant ag
ĠC alm
ĠB ee
ĠB udd
ĠB everly
sk ador
Ġav talet
ea ch
th ey
Ġbl ond
Ġbl ah
ĠP ay
ĠP ower
Ġch op
Ġch amber
Ġch auff
ĠR ol
ĠR elax
ĠR eddington
Ġfin na
ĠV is
Ġus es
Ġsl Ã¤nga
ĠW ere
Ġnu fÃ¶rtiden
Ġdem oc
Ġcon ven
Ġgr Ã¥
Ġbo te
der i
Ġfe ber
Ġfl it
app er
ĠY EAH
ĠvÃ¤n t
SÃ¥ ja
Ġsen a
Ġtv Ã¤rt
Ġsv amp
Ġqu ote
St or
Ġmot ive
Ã¤st aren
Ġsc ale
Ġstr ump
ater ial
Ġbel oved
ute s
Ġtre m
Ã¤ld e
Ġass holes
ung ar
Ġbeing s
Ġem b
Ġem ellan
Ġsch ol
Ġsky lla
Ġkont anter
Ġmon stret
Ġcomp ass
wh o
Ska ffa
Ġkall at
Ġsju kv
ĠlÃ¤ng esen
Ġcomm ander
Se an
ĠanvÃ¤nd es
ple x
ĠIs abel
Ġpay ment
ĠRe ese
Ġrel ief
Ġconf lict
Ġtitt at
Ġsuper hjÃ¤l
ĠÃ¶n ska
Ġblack mail
pect ed
Ġstar ving
Ġche ated
ĠPr etty
uld er
ĠfÃ¶rl ust
ortun ate
ĠstÃ¥ nd
Ġcry stal
ĠmÃ¥l tid
Ġpolit iska
ĠRich ie
Ne ither
Ġshort ly
arry l
Ġpleas ant
Cl ark
Ġanled ningen
Ġfinger prints
ĠÃĦ l
Ġtving ades
arsh ip
Ġpiz z
ĠRon ald
Ġauthor ities
Ġljud et
ĠDÃ¤r fÃ¶r
Ġolyck an
ĠCra ig
Ġgull ig
Ġinfe cted
Ġpock ets
Ġbatter y
ĠDor othy
Ġak ut
su it
hav are
ĠUpp fattat
resp ect
Ol iver
Famil jen
Comm ander
Ġdistra her
Ġkork ad
Ġimpon erad
Ġaggress ive
Ġskratt ade
ĠÃ¶vert ala
Ġkart an
Ġfright ened
Ġstru cture
ĠÃ¥klag aren
ĠhÃ¤v dar
Fix a
Ġsly na
Ġroy al
Ġnewsp aper
Ġepis ode
ĠBenn ett
Ġklo kt
ĠHos pital
Ġvulner able
A c
A ah
A CH
A bby
B C
F ler
G etting
M O
M aster
N umber
P ete
P reviously
S us
S ist
T al
W in
Y esterday
b out
f ight
j am
j our
k as
l ia
l Ã¤s
n ick
r ans
r ase
s Ã¤ker
v ig
v Ã¥rd
z i
z ard
Ġa ward
Ġd rew
en o
ar us
Ġm onsieur
ou red
Ġth y
Ġf ax
Ã¥ de
Ġw rist
Ġw aves
at um
or p
it ated
st able
Ġp ing
Ġk issa
Ġo ber
ed ith
ĠI ra
ĠÃ¤r ende
te mentet
Ġatt ached
id o
id el
Th irty
Ġst ats
Ġst Ã¤der
Ġst rikes
ra ham
ĠS atan
Ã¥r den
Ġall ra
Ġmed ium
Ġgo ss
ĠH ood
ĠH ouston
ir it
Ġmy th
ĠA ld
Ġsh ove
ĠD og
ĠC it
ĠB an
ĠB aker
ly de
Vi ctor
Ġden ied
Ġav sky
op sy
ĠT ja
ĠN ope
Ġlo bby
us iness
ic ating
ĠL ola
art en
ĠO d
Ġsp Ã¤r
Ġch annel
ess orn
ĠE R
ĠE ld
os ure
Ġus el
Ġbr anschen
ĠW ard
if ty
Ġver ktyg
qu er
Ġoff entligt
ĠdÃ¶ mer
be k
Ġkv Ã¤v
Ġliv rÃ¤dd
Ġshould ers
ĠÃ¥ stad
Ġkom p
ĠhjÃ¤l pen
Ġel ef
bl ock
ress ing
Do ktorn
Ġsn ett
ĠvÃ¤r st
ĠvÃ¤r da
ret e
Ġafter wards
Ġcar go
liga ste
ĠTH EN
Ġty ng
Ġbes Ã¶kte
Ġlit ter
sid a
Ġapp et
gr ammet
Ġste ady
skap er
Ġdra in
ĠAr cher
Ġcount s
Ġcount y
pr odu
ĠRe agan
Ġmus cle
ĠBl an
Ġspr id
Ġpick up
ov an
Ġcoll aps
Ġdom stolen
OM AN
Ġent ry
Ġpresent er
Ġdest ro
Ġoffic iellt
Ġkrig s
Ġgift s
Ġbud skap
Ġfing rar
Ġless ons
IC H
pro gram
Ġcover ing
Ġche at
ĠPr incess
ĠÃ¤g a
Ġpapp ers
Ġrock et
Ġnear by
Ġpain ful
Ġofta st
Ġorol iga
VÃ¤l j
ĠMay or
Ġcommun icate
Le o
Ġgar an
Ġstund en
Ġmis erable
Ġdju pa
Ġscen ario
ĠÃĦ n
ec il
Ġskj orta
Ġtuff a
Fl era
Ġsuggest ing
ĠfÃ¥ng ade
ĠSher lock
Kn ock
Ġpers pektiv
ĠJord en
Ġjur yn
Ġsaf ely
fÃ¶rs Ã¤lj
ĠHigh ness
Ġforsk are
Ġimpro vis
Ġadm ire
Ġcommit tee
Mad am
ĠlÃ¥n ade
ĠSpan ien
Ġborrow ed
Ġchock ad
Ġgather ed
ĠÃ¶verl Ã¤mna
Ġtab let
ĠNÃ¥g ra
ĠmÃ¶tt e
Ġbless ing
Ġscient ist
ĠgrÃ¶ na
Ġlegit im
nold s
Ġeur o
Ġcitiz en
Ġaccompl ish
ĠBat man
Ġnic ely
ĠsmÃ¤l ta
ĠplÃ¥n bok
Ġutomjord ingar
Ġreakt ion
Ġbokstav ligen
Ġnat urally
Ġuniversitet et
ĠRand all
quar ters
Ġkorrid oren
Ġkej s
Ġneut ral
Sla ppna
Ġextraordin ary
4 7
9 9
B rad
B abe
B etyder
C omp
D ag
E xt
F e
F ader
G B
J ay
J oh
K ids
Q U
S S
S upp
V D
W ar
W ake
b ag
b Ã¥g
c ers
f ree
f Ã¤lt
g od
v ade
Ġt ja
Ġt its
Ġt Ã¤cka
in ated
Ġd ent
Ġd jung
en ger
en ced
en omen
Ġm ouse
Ġf ack
Ġb ene
on ent
Ġw rap
Ã¶ dd
Ġp enn
Ġp yram
Ġy ach
Ġn it
Ġk ongress
Ġl ame
Ġl ind
is cu
Ġo er
Ġin ch
Ġen force
Ġr h
Ġr ab
Ġr iska
Ġr ival
ĠfÃ¶r gÃ¶ra
am tal
le en
Ġst ates
Ġand e
Ġand etag
Ġsk ry
Ġvar g
Ġis Ã¤r
ĠS in
ĠS ur
Ġfor ens
ĠM ED
ĠM Ã¥ste
Ġde prim
il yn
ĠH ot
ĠA dd
Wh ite
ĠD utch
ĠD OWN
ĠC L
ĠC and
ĠC ob
ĠC up
ĠC ongress
ĠB re
ĠB al
ĠT oday
ĠN av
ĠN umber
ĠG em
ĠG lad
Ġbl Ã¶der
Ġso ccer
em at
ff Ã¤r
ink s
ĠF u
ĠF ern
ĠF iona
our s
ist iska
Ġher oes
Ġpl Ã¥g
Ġor gas
ĠK o
ĠK ill
ĠK am
ĠK ling
ĠV erkligen
ob e
fÃ¶r etag
ans on
Ġany time
Ġsl aughter
ĠW AY
Ã¤m par
ĠYou Tube
qu ir
ĠÃ¶ver s
ik as
Ġkl ock
Ġgood s
Ġta ct
FÃ¶r bered
Ġunder ground
Ġtalk in
Ġcl inic
ach es
ĠSt ud
Ġstor lek
sl or
Ġslut s
ac y
gg s
Ġbarn vakt
vis ning
Ġbu ff
ier ra
Ġbit en
Ġtj all
Ġty per
Ġled ningen
ĠlÃ¤ ke
ĠSh ar
Ãħ tta
Ã¶d en
Ġ3 1
Ġ3 8
When ever
Ġrec o
ĠAll ison
akes pe
ĠkÃ¶ k
Ġste am
ĠgÃ¥ng s
oc al
Sh oot
ĠBr uno
Ġfast nade
Ġdro ps
ĠZ o
ĠAr nold
ĠAr chie
Ġdec ades
ĠsÃ¶ nd
ĠRe ady
ĠhÃ¶g ra
ĠhÃ¶g het
Ġprote in
Ġarm arna
ĠjÃ¤tt el
ĠjÃ¤tt est
head ed
Ġol ja
Ġsuper her
ĠGo ogle
Ex akt
ĠslÃ¤pp t
ĠhÃ¥r dare
Ġdest ination
Ġ7 00
iell e
ĠPh oebe
ĠOr der
ĠOr leans
Ġskjut it
Ġfing rarna
Ġanswer ed
Ġpack ing
Ġkap abel
ĠfÃ¶rf Ã¶lj
ID S
ĠPro bably
tel n
Ġdej tar
Ġjul en
Ġsqu eeze
Ġhom icide
vÃ¤ xt
Ġslipp ed
Ġrev ol
Fl ick
Ġsurpris ing
ĠfÃ¤rd iga
ĠPer fect
Ġpray ing
Ġfokus erar
Ġmotherfuck ers
Ġunf ortunately
Ġbrud en
ĠskÃ¤m mas
Ġkompl im
Ġhol es
Ins pekt
Ġcommit ment
burg are
Ġbust ed
Ġstann at
Lo va
Ġlok ala
Ġwound ed
pun kten
ĠÃ¤m ne
Ġhig hest
Ġkass ask
ĠfÃ¶rtro ll
Ġattract ive
Ġog illar
ĠbekrÃ¤ft ar
Ġdim ension
Ġelectric ity
ĠdjÃ¤v ulen
Ġsignat ure
Ġbegg ing
ĠGri ffin
Ġinit ial
ĠnÃ¤ sa
Ġjung le
Ġavst Ã¤ngd
Ġbibliote ket
Ġdetermin ed
Ġjew el
KÃ¤n ns
Ġwra pped
ĠslÃ¶s ar
Ġconcentr ate
Ġtors dag
Ġtis dag
Ġhelic opter
Ġconcer ns
ĠfÃ¶rfly tt
Ġfurn iture
Ġunex pected
Ġlapt op
C am
C ap
F L
J erry
K aren
K elly
M Ã¶rd
N ar
O G
P ay
T erry
W il
b est
b omb
b reak
c at
c ard
d s
f leet
g al
g ra
h on
j ug
j amas
l ov
p ret
r Ã¤n
s al
s le
t aget
w r
w on
w ill
w all
Ġt yr
Ġs ar
er ings
Ġd yra
Ġd rev
Ġh ett
Ġh obby
Ġf ett
Ġf usk
Ġb our
Ġb lek
Ġb unker
Ġw id
Ġw iped
Ġw arehouse
Ġv egan
Ġg in
st opp
re kt
Ġp uls
Ġn Ã¤tt
Ġk it
is erar
ed ro
Ġc arn
as a
el et
al ing
Ġen bart
Ġr osa
Ġi v
Ġsk ett
Ġsk orna
Ġvar elser
Ġre ar
im ore
ur ies
od Ã¥
Ġan pass
Ġli ck
ĠM osc
Ġwe b
ro it
ĠH arl
ĠH elt
ĠH OW
ol ogen
ĠA x
ĠA th
ĠA gain
ĠA very
Ġsh ed
Ġsh orts
Ġ- "
ĠC ut
Ġse aled
ĠB ri
Ġdig nity
ĠT oppen
ĠG len
ĠG wen
ĠG erald
ĠL az
ĠL ester
ĠL ucky
ĠL atin
are z
ĠP ull
ĠP otter
ĠF ortsÃ¤tt
ort on
Ġfin est
Han k
ud es
ĠE s
ĠV ul
ĠV isa
Ġpr ime
Ġupp er
Ġsu e
ge fÃ¤r
ĠW ind
ĠW onder
iss ioner
Ġoff ren
Ġint ryck
Ġser ien
Ġfl ing
Ġpre c
Ġdr ank
Ġpe pp
En g
ĠCh i
og ie
Ġefter ly
ĠWe b
wo o
Ġ2 000
amil ton
Ġmor on
iz ard
Ġstor age
Ġsn ubb
ĠtrÃ¤ det
sh ine
var ar
eng ers
Ġbest Ã¥r
Ġbor gen
ĠlÃ¤ kar
Ġord nat
Ġsit s
Ġsky lt
Ġkont akter
aught y
Ġbeg un
ĠShe pherd
Ġvem s
ask in
Ġdro pping
Ġtom ten
Ġbar gain
Ġcheck s
Ġrum ors
Ġskick as
Al ice
ĠAr k
ĠrÃ¶ sten
Ġstud ied
ĠsÃ¶ tt
Ġsw eep
Ã¤k ra
Ġhuvud vÃ¤rk
ĠvÃ¤ der
ĠhÃ¶g st
Ġext reme
br and
RE D
Ġattack en
Ġposs ess
Ġinc lude
Re al
Ġbook ed
Ã¶l ja
Ġfree ze
Ġoper ate
Ġ8 00
Ġdep os
Ġsmart a
Ġmad ame
Ġmad ness
Pro va
ĠkÃ¤rlek s
Ar bet
Ġhop efully
Ġjord ens
Un cle
Ġtreat ing
iner ande
Ġkor ta
Ġkor rupt
Me anwhile
Ġnatur ligtvis
Ġrob bed
Ġstri pp
Ġrym ma
Ġrom ance
Ġrequ ired
Ġ25 0
Ġnyck lar
ĠkÃ¤m pade
Ġmach ines
umm i
IL Y
ĠFre ddie
etch up
ĠBro ad
Tj ena
Ġneck lace
ĠfÃ¶rber eder
ograph y
Ġpers u
ĠGrand pa
ĠRos ie
ĠgÃ¤ng et
Tur ns
Ġcharac ters
Ġphys ically
Ġenorm ous
ĠWin ston
ĠVan essa
Ġabs or
Ġutnytt jar
Ġdevelop ed
Ġdevelop ment
Fort farande
ĠBern ie
gru ppen
ĠFer rar
Ġcapt ure
Ġorganis ation
ĠAtl anta
ĠklÃ¤tt ra
Ġau ktor
Ġskur k
Ġmas ker
Ġvag ina
ĠBud dy
ĠanmÃ¤l a
hy th
Ġbeund rar
ĠvÃ¥ldt Ã¤kt
Ġchap ter
ĠvÃ¤rdel Ã¶s
Girl s
Ġminim um
ĠrÃ¶rel se
ĠkÃ¤ns lig
Ġcompla int
KÃ¤r lek
ĠAc ademy
Ġstul it
Ġwarri or
ĠmÃ¶n ster
Klar ar
Ġuppn Ã¥
ĠHend erson
Ġtox ic
ĠEVER Y
ĠÃ¶verenskomm else
ĠHud son
Ġmete or
2 4
A j
B art
C os
D AY
F okusera
G abri
J en
M et
M ade
M AR
S ur
S juk
T V
T ook
W O
c H
c orn
f y
g jorde
j uset
m aker
o ine
p re
u de
Ġ ÃĦven
Ġt in
Ġt ire
Ġt orter
Ġa pt
Ġd ing
Ġd ive
Ġd aughters
Ġh unter
Ġm ommy
an te
Ġf law
Ã¥ der
Ġg ard
Ġn akna
is et
is erat
Ġo Ã¤nd
ed ge
te am
ow ski
Ġdet erm
Ġr ipped
Ġof tare
Ġst ing
Ġand re
ut ar
Ġon sdag
You ng
ĠS ven
ĠS andra
se g
od uk
ĠM od
Ġwe ars
Ġde alt
ĠH om
ĠH EL
ĠA ren
ĠA pple
Ġkn Ã¤cka
ĠD er
ĠC ou
ĠC re
Ġse p
Ġkan on
ĠB ox
sk ada
Ġav tryck
ĠN er
ĠN one
ĠG on
ic ian
ĠL ar
ĠL ay
ĠP ep
Ġsp anska
ĠF ay
ĠR Ã¶r
And rew
Ġor ph
ĠE cho
Ġ" ...
ans ar
au x
Ġsu ff
Ġsu bba
Ġpro b
ĠW ork
Ã¤m nade
Ġshe ets
iv ande
la c
Ġbeh ave
oll en
Ġint ense
Ġfl ip
Ġun c
Ġun lock
Ġliv ets
ĠCh a
ĠÃ¶ det
ĠU tan
ci o
St upid
Ġmot iver
Ã¤ck ande
Ġsn or
Ġsn ubben
Ġpol isst
ac o
ĠrÃ¤tt vis
Ġbad a
sh ow
Ġro ot
Ġdel ade
ann k
Ġcar pet
ĠlÃ¥ s
Ġdis ag
ĠSh aron
Ġsex uellt
alt ies
Ġcra ft
ĠkvÃ¤ll ens
ĠlÃ¥ng s
itch es
ĠlÃ¶ sen
Ġfight er
Fr Ã¥gan
uc ed
ĠRe ed
Ġpat rull
Ġ19 3
Ġum g
br anschen
RE E
ĠSp ock
Ġsign ificant
vÃ¤g s
Ġsing er
Ġbur st
atur en
ĠMan ny
Ġoper ations
ĠfÃ¶rÃ¤nd rades
ĠfÃ¶rÃ¤ld rarna
Ġbuild ings
ĠLu is
ĠmÃ¤r ka
ĠHer ren
Ġstol thet
Ġcent ral
ĠFor get
Ġlad da
bor ne
ĠfÃ¶rf al
fr itt
Ġteach ers
Ġotro liga
Ġcolle agues
ĠrÃ¤k nade
Ġgener ations
Ġpark ed
Ġly da
Ġtem pt
Ġsov rummet
ĠspÃ¥r en
ĠMer cedes
Ġors aken
Ġhom eless
bild er
Ġassist ance
Ġsearch ed
Ġbehand lade
ĠtrÃ¤n are
Ġtving as
Ġlim ited
El izabeth
yd ia
Ġsuggest ed
ĠstjÃ¤r nor
ĠvÃ¥g ade
Ġpsyk olog
bel iev
Ġkross ar
Ġmamm or
Ġcirc us
Ġsepar ated
Ġhook ed
ĠDra ke
Ġinsist ed
Ġhungrig a
ĠdÃ¶tt rar
Ġghost s
ĠDoug las
Ġkniv h
Ġstrateg i
Ġcal cul
ĠGold en
Ġprins essa
Ġlung s
ĠsvÃ¤rd et
ĠGeorg ia
Ġtemper ature
Ġcere mon
Ġdefend ant
Ġterrif ied
Ġarrang ed
Col onel
Ġdram atic
Ġparad ise
Ġmik ro
Ġinjur ies
Ġgradu ate
ĠSecret ary
ĠJos Ã©
ĠPac ific
Ġrim ligt
Ġuppre par
ĠWOR K
Ġavund sjuk
Ġfavour ite
Ġexpla ins
ĠBeh Ã¶ver
Ġliqu or
Ġarrog ant
ĠPhill ip
Ġkyrk og
Ġeleg ant
ĠfÃ¶rÃ¶d mjuk
Ġframt ida
Ġthor ough
Ġceleb rating
ĠHum ph
Ġdestru ction
ĠStock holm
Ġroomm ate
ĠfÃ¶rnu ft
ĠtvÃ¤rt om
Ġdeterm ine
2 8
4 00
C O
D ay
E X
H Ã¥ller
H uvud
J obb
K ry
K Ã¤nn
L ee
M aking
N Y
T an
U H
U P
V akna
b yr
d ro
f Ã¶d
g il
h s
i ors
k od
m iral
o ft
r ine
r era
s ug
y get
Ã ł
Ġ _
Ġ Ã¶ra
Ġt ies
in ations
in fl
Ġs ets
Ġh jul
Ã¤ ser
Ġm ats
Ġm aff
an er
ll e
Ġf ract
Ġb ay
Ã¶ ld
om ed
Ġv on
Ġg ir
ag nar
Ġp est
Ġp ound
Ġp ace
Ġl atin
ed e
Ġdu g
Ġbe ard
Ġen het
Ġr ost
Ġr ader
ke pp
Ġst unt
Ġsk iv
Ã¤n ken
ĠS S
ĠS ver
Ġre kry
Ġdo pe
ĠM agn
Ġwe bs
ĠH od
Ġsh h
Ġsh uttle
ĠD eep
ĠD rop
ĠD awn
ĠC are
ĠC ab
ĠC opy
Ġtr Ã¶j
Ġwith dra
Ġav delning
op ard
ĠT og
ĠT rum
ĠT RY
ĠT AKE
ĠN eg
ĠN avy
ĠG RE
ĠL yn
Ġbl ad
ĠP el
ĠP il
ĠP oint
It s
ĠF al
ĠF ru
Ġut seende
Ġor g
ĠK ry
Ġwor ker
ga cy
Ġex ists
Ġback s
Ġsig ner
So ld
Ġgr ay
ĠÃ¶ver tal
Ġkl aga
Ġcom a
ys on
Ġpre g
ous y
ip end
ĠCh elsea
Ġvis iting
Ġefter namn
Ġber Ã¤k
How ard
Ġte quila
Ġsc andal
Ġfri ed
Ġsy d
Ġsy re
Ġplan era
Ġmiss bruk
ĠThe o
Ġthr illed
cc o
Ġtur ner
Ġreal ise
Ġad ren
Ġad orable
ey ton
Ġdis gu
Ġdis play
uff s
Ġph arma
ĠSh all
AT ER
ĠAl fred
wh el
Ġmar ijuana
ĠBr enda
Ġland ade
ĠvÃ¤rld sk
Ġmet a
ĠlÃ¶ ften
Ġwar p
Ġveck orna
Al an
Ġdef ending
ĠsÃ¶ kt
Ġbed rag
Ġkonst ap
Ġrest ra
Ġfre aked
AS S
Ġskad at
ĠQ U
head s
Ġbur nt
Ġfigure s
Ġtrans form
Ġmass age
ric ia
Ġinst ance
Ġ9 11
Ġpresent ation
Ġmatch es
Ġ8 5
Ġforg etting
ĠJo el
kn ow
ĠRob inson
ĠÃ¤g de
Ġspend era
ĠJul es
CH UCK
Ġhoney moon
Ġlie utenant
Ġpapp an
Ġpop s
igg s
Ġeff ective
sch ool
Ġvin tern
Ġmeddel andet
Per fect
Ġtot alt
HE Y
ĠvÃ¥ld sam
Ġexist ence
Ġdeser ved
ĠCarl o
Ġsym b
ĠkÃ¤m pat
Ġcons cience
gre pp
Ġlog iskt
Ġrecogn ized
Ġprop ose
ĠJon ah
Ġcy kel
ĠfÃ¶rber ed
Spe ciellt
Ġpal ace
Ġmedvet slÃ¶s
ĠhÃ¥l et
NÃ¥ vÃ¤l
Ġutman ing
Ġko ordin
Ġapproach ing
Ġbrotts ling
ĠfÃ¶rbl i
Ġtung t
bu ild
Ġhyr an
Ġkontrakt et
ĠRub y
ĠMort y
Ġindivid ual
Ġtriv s
Ġavbry ter
Ġanx ious
Fakt iskt
Ġdott ers
Sher iff
Ġcandid ate
Ġbart ender
Ġbegra va
Ġdiscip lin
Jam ie
Job bar
ĠorÃ¤tt vist
Ġsekret erare
ĠtÃ¥rt an
ĠstÃ¤nd igt
ĠCraw ford
ĠHolm es
Jose ph
Ġstubb orn
akespe are
D i
F ot
F ÃĸR
H aving
I stÃ¤llet
I morgon
J isses
R am
S ak
W alk
c or
d aughter
f ashion
l ades
m outh
n Ã¤m
p engar
r ars
u als
w est
w ang
y on
z il
Ġ âĢĶ
Ġt upp
Ġt astes
Ġs oda
Ġa verage
Ġh ugg
Ġh unger
en en
Ġm ast
Ġm Ã¤ng
Ġf o
Ġf oul
Ġf Ã¤lt
Ġf Ã¥ngen
Ġw el
om pis
Ġv ital
Ġg itar
Ġg Ã¤llde
Ġp ork
Ġy n
Ġn ark
Ġn iece
Ġk irurg
Ġk etchup
Ġl at
Ġc odes
ĠI ll
Ġj og
ĠÃ¤r liga
Ġu bÃ¥t
Ġen orma
Ġr ose
Ġsk en
Ġsk irt
Ġsk ugga
Ġha j
Ġhar sh
ĠS Ã¥g
ĠS ong
and ras
Ġdo l
ĠM ira
ĠH oo
ol v
ĠA P
ĠA ma
Wh ether
ĠD ET
ĠD allas
ĠhÃ¤r nÃ¤st
ĠC ro
ĠC rist
ĠC EO
ĠB Y
ri cka
sk ande
ĠT on
ĠT ower
ĠN et
Ġlo pp
ĠJ r
ĠL Ã¤mna
Ġbl ick
ĠP Ãħ
ĠP RE
ĠP atty
ell o
Ġut brott
Ġno lla
Ġkomm endÃ¶r
Ġor m
ĠK ara
ĠK ings
ud a
ud i
ud er
Ġdin osaur
end o
Ġpro stitute
Ġtim men
ĠW ars
Ġas hes
Ġtal e
De an
qu est
ik at
Ġdr agged
ĠvÃ¤n ligt
yck en
SÃ¥ vida
Ġtv Ã¥ng
Ġover d
Ġover he
Ġover night
ĠgÃ¥r d
ci ety
ĠSt ark
ang ing
ĠdÃ¶d as
Ġplan es
Ġnog gr
sh ire
old at
ian ne
Ġtra ff
ĠÃ¤ pp
Ã¶j de
ĠlÃ¥ ste
Ġad opter
rat ic
Ġsex igt
Ġans Ã¥g
Ġsam ling
pen se
Ġmom s
Ġfil thy
Ġter apeut
sy stem
Ġres ign
net te
Ġschool s
An n
ump y
Ġdrink ar
Ġdra ft
Ġob jekt
IS K
ĠJust ice
ivit ies
stÃ¥ tt
ĠCar ly
ĠCar men
Ġdom stol
Ġimportant ly
ering ar
ĠjÃ¤tt ed
ĠjÃ¤tt em
Ġaw ait
Ġarg uing
Ġprof it
ĠmÃ¶rd ar
ĠJo an
gÃ¥ng s
hand ed
hand ling
ĠEm peror
Ġrecord ed
lin jen
Ġnorm ala
ĠSc ot
Ġmord en
Ġadd ed
ĠfÃ¤ng sl
ĠCol umb
ĠPar ad
Ġvak terna
ĠTr ans
ĠSch midt
Ġdy gn
ĠQu ick
Ġdisk ret
AND E
cri pt
ĠNe al
zz o
Ġgud arna
Ġcontact ed
ĠChe ster
ĠMer lin
ĠHen nes
Ġakt ivitet
Ġlyss nat
ĠME AN
Ġthreat ening
Ġspark ade
Ġdju pare
ĠDO ING
Ġfool ed
Ġfyll t
Ġpaint ed
Sure ly
Ġkyr ka
Ġprodu ction
ĠJeff erson
ĠsÃ¤ll synt
Ġbase boll
Ġbother ing
bol ag
bol aget
Ġslags mÃ¥l
ĠComm and
Ġfatt at
ĠfrÃ¤m sta
ĠTra cy
Ġhamn at
ĠSÃ¤g er
ĠtÃ¤v la
ĠQue ens
Ġbal ans
ĠNor man
ĠMo ore
ĠlÃ¶s ningen
ĠSec ond
ĠJud ge
Ġcelebr ation
Ġdubb elt
Ġolyck lig
THE Y
Ġrelig i
ĠBrad ley
Pat rick
Ġsats ar
Ġattempt ed
ĠHal ey
ĠGl enn
Ġkons ert
ĠfÃ¶resl og
Ġproduc er
ĠbrÃ¥k ade
rÃ¤d ande
Ġnar row
Ġsheriff en
Ġtap es
Ġprincip al
ĠIng enting
ĠÃ¶nsk ade
Ġklag om
ĠBarn es
ĠCa esar
Poj ken
ĠComp any
Ġplock ar
ĠStew art
Ted dy
ĠLug n
Ġspott ed
Ġglor ious
ĠÃ¶vervÃ¤g a
Ġrutt na
Ġtav lan
ĠSwed en
ĠskilsmÃ¤ss a
ĠNap oleon
ĠOff ice
Ġrehears al
ĠCyr us
Fantast iskt
Ġvinn are
Ġrif le
Ġkonsek vens
Ġprost itu
rÃ¤ger i
Ġfrank ly
ĠBalt imore
ĠPent agon
Ġreco very
ĠMosc ow
Ġsep tember
Ġpreg nancy
2 7
B it
B ur
B ab
E nda
G am
H ot
H am
I Z
K illar
M ine
M ommy
N Ã¤
S ara
T R
b ull
d i
f un
f Ã¤ng
f Ã¶ll
g ard
l oyd
r d
s ix
u it
u tter
v and
Ġt oug
in ch
Ġs ou
Ġs orter
Ġa id
Ġd ip
Ġh Ã¥ng
Ġh unnit
Ã¤ sen
Ġb iz
Ġb jÃ¶r
Ġw ounds
or ado
Ġg or
Ġg ula
Ġp ier
Ġn urs
Ġk Ã¥l
Ġl Ã¤ck
Ġl ength
Ġl akan
Ġc ried
as il
Ġu rs
Ġbe am
Ġen heter
Ġr ib
Ġst er
Ġe ase
ut et
ut ions
Ġsk Ã¶ts
ĠpÃ¥ lit
ĠM ia
Ġmed s
ĠH Ã¤mta
ĠH eaven
Ġfr ans
Ġtill t
ĠA z
Ġsh adows
ĠD ew
ant is
ĠC HE
ĠC indy
Ġkan in
ĠB ang
ĠB ring
ĠB anks
un ta
Ġav anc
ĠT our
ĠT ob
ĠT ALK
ĠN ine
ĠG Ã¥r
th us
ĠL ill
ĠL illy
ĠL uthor
Ã¤tt e
Ġbl ade
Ġbl onde
ĠP itt
Ġsa x
ĠF ind
ĠF ergus
Ġup side
ĠR um
ĠR io
ĠR ain
ist ret
Ġpl ot
ĠK ira
ĠV ol
Ġpr ank
ans var
ma id
ma ils
Ġal though
end ar
Ġsl ita
Ġbr anden
ĠW on
ĠW is
Ġnu varande
Ġas sem
Ġbo stad
Ġkl iva
oll o
het erna
Ġint ended
Var enda
Ġlet s
ĠY E
yck eln
ĠCh ap
ia o
sp ace
ĠWe ek
ĠU kra
ske pp
ĠÃ¥r ets
Ġsn ubbe
âĢ «
lar en
ving a
Ġperson lighet
Ġspe gel
Ġspe geln
ac ed
ĠÃ¤lsk are
Ġdel tag
Let a
kl Ã¤dd
Ġbest Ã¤llde
Ġass es
Ġdis covery
ĠDe bbie
Ġem bra
Ġown ers
Ġrec ipe
ib iot
ub s
Ġacc omp
ĠBr ady
Ġgre p
ĠDo ktorn
nad er
led are
Ġcr um
Ġpu ppy
ĠrÃ¤dd at
Ġann ans
Ġdra wer
ĠlÃ¶ ste
ĠZ ack
Ġgenom s
ĠdÃ¶r rarna
Ġstuff ed
Ġimp uls
ĠAn other
uk i
ĠCl ara
Ġcompl iment
Ġstick ing
Ġworry ing
Ġart ists
Ġsort ens
Ġ6 5
Ġfant asy
Ġmisst Ã¤nk
Ġidiot en
Ġrol igare
Ġbud dies
Ġreport ing
Ġdream ed
Mar ie
let on
klag aren
ĠdrÃ¶m ma
Ġgrand son
ĠrÃ¶r t
Ġexpl ode
Ġrelation er
Ġjud ging
Ġpop ulation
Gu y
ĠrÃ¥d givare
Ġgener ous
ĠSm all
Ġident itet
Ġly fter
osh i
Ġconc rete
ĠTy st
Ġpsych o
Ġors aka
Ġed itor
Ġfir ar
Ġthreat en
Ġquiet ly
ĠDO ES
vÃ¤ x
Ġir lÃ¤nd
Ġfyll de
Ġban ker
ĠkÃ¤ ft
ĠrÃ¥ der
ĠJeff rey
ĠCla udia
fil mer
ĠJan et
ĠfrÃ¤m mande
Ġorsak ar
Ġca uses
Ġexam ine
Ġgran nar
ĠmÃ¶jlighet en
Far bror
ĠNE W
Ġunf ortunate
Ġromant iskt
Ġsour ces
Ġgrym ma
Ġskoj ade
Ġpig s
Ġerk Ã¤nde
ĠtÃ¥r ar
Ġlin je
Ġprim ary
mod ligen
Ġbilj ett
Ġkur sen
ĠPL AY
Ġposit ivt
ĠPri ce
Amer ican
Ġengag ement
Ġvent il
Ġspecif ically
Ġreag era
Ġmik rof
Ġteen ager
ĠstjÃ¤rn orna
Ġtrag ic
Ãħt minstone
Ġvett igt
Ġkommissar ien
ĠServ ices
ĠArm strong
Ġsor gen
Ġatmos fÃ¤r
Ġdetalj erna
Ġleks ak
Ġutnyttj ade
ĠRey nolds
Ġmynd igheterna
ĠomstÃ¤nd igheter
Ġosyn lig
ĠClint on
Ġuttal ande
Ġmisunder standing
Ġforgiven ess
Nic ole
Ġconsp iracy
ĠHopp as
Ġwis dom
ĠRyss land
Ġteleph one
Ġattity d
Ġencoun ter
Ġriska belt
fashion ed
A A
B R
B ild
B ilen
C C
D C
K opp
L ever
L ily
M ir
M akes
M ENT
N ight
N ame
P ier
R esten
S ophie
U G
U LL
V ore
b be
c all
d in
d otter
f ot
h um
i ago
j t
k Ã¶rd
p ers
p ark
r idge
s ann
v t
v inna
z es
Ġt Ã¤ckt
Ġt iger
Ġs i
Ġs Ã¤nka
Ġh ink
Ġh inna
Ġm ush
Ġm Ã¤ngd
Ġb ik
Ġb ait
Ġw ax
or erna
om rÃ¥det
ing le
ag el
Ġl un
is ch
Ġto e
ĠI da
ĠÃ¤r r
ch or
ow ed
Ġr us
Ġr att
Ġr aket
ĠfÃ¶r vÃ¤g
Ġst ere
Ġst ones
Ġst uga
ĠS ister
ĠS ammy
Ã¥r s
ro ppen
ust ain
ĠH il
ĠH unt
Ġtill verk
ol ph
ĠA st
ĠA ce
ĠA ct
ĠA ldrig
ĠA SA
ĠD arryl
ri ker
sk ad
sk orna
sk jut
de f
ok i
ĠT itan
ĠG ame
ĠL an
ĠL Ã¤get
Ã¤tt en
Ġman nar
Ġso il
Ġso ber
Ġsp erm
ĠF ield
um bo
ĠR ING
ĠR ita
ĠR af
ĠR ico
ne st
Ġpl att
Han na
ĠK han
Ġwor n
ĠV Ã¤r
ab il
fÃ¶r en
Ġupp Ã¥t
Ġsu ga
Ġpro ver
he im
Ġer r
Ġle kte
iss ippi
Ġgu itar
Ġtal es
ass an
ĠDet ta
Ġcon ce
ord en
Ġfl Ã¶r
ĠY u
ĠvÃ¤n liga
Ġover whel
Ġkom a
Ġkom prom
ĠU l
ĠhjÃ¤l tar
Ġel aka
ĠSt or
ĠVi olet
Ġco ke
Ġsn iff
Har vey
Ġstr ider
ĠvÃ¤r der
Ġdel st
ĠvÃ¤g er
Ġbu zz
Ġtj ugo
ĠIn tern
Ġbelie ving
Ġcou ples
Ġpar ade
Ġdri cks
Ġsam s
AT TER
gr Ã¤n
Ġste el
Ġgra ven
Ġmar ch
Ġland ets
Ġres on
Ġres ort
Ġdiffer ences
LÃ¥t sas
Ġdeal ers
Ġbry ggan
Ġstud ion
pr int
Ġspr ida
ĠfÃ¶re stÃ¤ll
ĠfÃ¶rlor ad
ĠSp irit
ĠTO O
Ġcool a
ĠDr agon
Ġroll en
Ġ9 5
Ġfollow ers
Tr ue
IT E
Ġdep end
Ġfilm s
Ġben ch
ĠOK AY
ĠKan ada
Ġrid er
ĠHer re
Ġfing ret
Ġmist ress
mÃ¤r ke
pro of
Ġlad s
Ġlad der
ĠaffÃ¤r s
rÃ¥d en
ĠfÃ¶rl Ã¥telse
Ġmedic iner
Ġmob ile
Ġra id
ĠEx cept
ĠMad ison
Ġtyst nad
Ġinom hus
Ġsurv ival
Ġtext s
ĠblÃ¥ ser
ĠbrÃ¶llop s
Ġpsych ic
ĠrÃ¶st ar
Ġlar gest
Ġuppsk atta
El i
Ġappro ved
Ġappro val
Ġfill ing
ivet vis
Ġprodu kt
ĠLuc a
Ġfatt ig
ĠmÃ¥nad erna
Ġremind ed
AU GHT
Ġgrav it
ĠkÃ¤ll or
Ġrygg s
Ġrequest ed
ĠTer esa
ssy stemet
ĠstÃ¶ ter
ĠJen na
Ang ela
Ġko sta
Ġax el
ĠHug hes
Ġdusch en
ĠJew s
Ġadress en
ĠSteph anie
Ġappear ance
ĠNÃ¥g on
Ġterrif ying
Ġdesig ner
ĠberÃ¶m da
Ġtow el
Ġprivile g
folk et
Ġadult s
Ġfab ric
Ġloj al
Ġsmuts iga
Ġcancel ed
ĠÃ¶k nen
ĠledtrÃ¥d ar
ĠAbsol utely
ĠWhit ney
Ġregard ing
ĠbevÃ¤p nad
ĠfÃ¶rbÃ¤tt ra
End ast
Ġpy jamas
Ã¶var en
Marc us
Ġanlit ade
Ġreck on
Ġcondu ct
ĠtrÃ¶ tta
Ġsympt oms
Ġsabb ade
Ġtutt ar
Ġomt Ã¤nk
ĠvÃ¤lgÃ¶ren het
HjÃ¤l per
ĠBren nan
niv Ã¥
ĠHamm ond
Ġgarderob en
ĠSep tember
ĠvÃ¤d ret
ĠrÃ¶nt gen
ĠovÃ¤nt at
ĠGovern or
ugen e
ĠÃ¥s ikter
Ġtiss ue
hyth m
oduk ter
believ able
Ġwebs ite
B ern
D agen
H or
L illa
L Ã¤s
N orm
O liv
R Ã¤k
T ON
c re
f yra
h ill
k Ã¤r
m ad
n ic
o is
o ons
r ants
v as
v els
w ide
Ġt Ã¤nda
er ta
Ġa kade
Ġd ys
Ġm m
Ġm and
Ġm app
ou rist
Ġth ou
Ġf old
Ġf its
Ġf lex
Ġf ester
Ġf rakt
Ġf athers
Ġb ass
Ġb ann
Ġb ald
re de
Ġp up
Ġk ysst
Ġc ater
Ġc able
ĠI ron
el da
Ġr aw
Ġr ida
Ġr iva
Ġst ig
pp e
ĠS L
ĠS ig
ĠS alt
ĠS Ã¤kert
ĠS ullivan
im on
im mer
ur ate
and ler
Ġan cest
ĠM Ã¥r
ĠM IL
ĠH ela
ĠA bb
Ġkn ipa
Ġom gÃ¥ng
ĠC ook
ĠC ody
ĠC ait
ĠC AR
ĠC reek
Ġse vere
Ġtr ium
ĠB es
ĠB elle
ĠB etter
ĠB ureau
sk as
sk va
ĠT E
th ia
ĠJ O
ĠL ing
ĠL em
ĠL ud
ĠL ila
ste p
ĠO ther
Ġbl ows
Ġbl essed
em eter
He ad
Ã¥t en
Ġsp it
Ġsp Ã¤nd
Ġsp Ã¶ken
ĠF let
ĠF Ã¶lj
um man
Ġut gÃ¥ng
Ġkomm ande
Ġpl ug
ĠK apten
ĠE sc
Ġwor m
fÃ¶r ing
ans ch
Ġupp g
Ġsl et
Ġsl Ã¶sa
Ġar slet
ĠW u
ĠW ade
ĠW oman
Ã¤ll ande
Ġle ken
Ġback pack
Ġund erest
ank ar
Ġdem ons
ĠDet roit
Ġ1 000
Ġgr Ã¶nt
Ġkl ing
Ġfe e
Ġfl ottan
Ġunder klÃ¤der
Ġliv stid
ĠCh r
Ġtv illing
Ġhem s
Ġsv Ã¤ng
Ġcl othing
Ġgl am
ĠvÃ¤l j
ĠvÃ¤l sign
ĠfÃ¶ delse
ĠVi ce
Ġmer ely
Ġsn usk
Ã¤v lingen
Ġsy skon
amm ing
sh op
Ġper mit
ek n
Ġkid ney
Ġact s
ann i
Ġtj ur
Ġpar ole
Ġbes ide
Ġdri ft
Ġsam las
AT T
ĠMar vin
alt on
ĠAl ways
Ġkon spir
ĠkÃ¶r kort
Ġfil ed
ĠjÃ¤v larna
ipp ar
Ġ4 6
An ne
Ġbar rel
Ġfix ing
ax ter
lighet ens
Ġskick ades
Ġprom otion
Fr an
Ġrel ie
Ġlug nar
Ġsign alen
Med del
ĠCar la
upp drag
ĠDan te
Ġlever era
Ġwish ed
Ġru ining
Ġcop ies
for mer
ĠfÃ¶rÃ¤nd ringar
Ġcor pse
ĠfÃ¶rÃ¤ld er
Ġry kten
fl ikt
fl icka
dom s
Ġlj ugit
ĠMiss issippi
yll ene
ĠLu cious
Ġeng age
Ġ12 0
Ġbuy er
hÃ¶r t
Ġcontrol s
AD Y
ĠAm ber
Komm issar
Ġjud ar
Ġcatch ing
Ġmedic inen
ĠmÃ¶r ker
ĠhÃ¶ gg
ĠmÃ¥l tav
Ġfle e
Ġtem ple
Ġkontakt ade
Ġgud s
Ġresult atet
ĠChe ers
ĠMer edith
Ġdrag on
Ġjump ing
Ġcross ing
Ġbelong ed
ĠFre der
ĠBur ke
Ġble ed
ĠhÃ¤st en
ĠrÃ¥ tta
ĠLuc ifer
Ġunders Ã¶k
Ġbother ed
ĠGar cia
Mich elle
Ġcigar etter
ĠÃ¶r onen
Ġexcept ion
Ġhind rar
Ġkommun ikation
Ġgang ster
Ġunf air
ĠfÃ¶rbann else
Ġmedicin ska
Ġkontroller ar
Ġstink s
ĠfÃ¶rsvar ar
ssy stem
ĠPet ers
Mad ame
Ġinfe ction
Pat ient
Ġaffect ed
ĠbrÃ¥ kar
IF E
ĠstÃ¶tt e
Ġnor ra
Ġvild a
Ġclim bing
ĠfÃ¶rvand las
Ġexperien ces
Ġattract ed
ĠHay es
styr ka
ĠsÃ¤m sta
ĠRad io
Ġborg mÃ¤staren
Def initely
Ġassign ed
ĠtonÃ¥r ing
ĠÂ £
ĠtÃ¤ck man
Ġconfident ial
ĠKay la
Ġavbry ta
Ver kar
Ġradi ation
ĠsjÃ¶ ng
Ġatmos phere
Ġdiamond s
ĠNev ada
Ġsmy ga
Ġbritt iska
Ġslight ly
BerÃ¤tt ade
Care ful
vatt net
inten ance
sÃ¥ld ern
ĠlÃ¥ts ades
B Ã¥de
C a
C y
D onna
E th
F ound
F OR
G Ã¤rna
H ay
I O
K asta
M Ã¶t
P A
P engarna
Q ue
R id
S D
f ie
f Ã¤ltet
g na
h l
h als
h oo
h Ã¤rt
k ille
m ars
p es
r od
r age
s juka
t et
t ion
v ikt
v orna
v ald
v akten
à ¦
Ġt ube
in kt
in ny
Ġs opt
Ġs ushi
Ġa pa
Ġa pril
Ġd orm
Ã¤ ten
Ġm i
Ġm ull
Ġm ild
ou ps
at i
Ġg ap
Ġp ra
Ġp ens
Ġk os
Ġk ret
Ġc ents
Ġto ol
ĠI l
ĠI ran
Ġj am
Ġj azz
Ġr ike
Ġr ita
Ġr ounds
Ġr Ã¤ckte
Ġi ak
Ġit em
Th rough
ke ys
Ġsom na
Ġwh ack
Ġsk Ã¤mta
Ġme als
im en
im al
im ated
od ore
ĠM ach
ĠM AY
ust igt
ce ller
Ġgo at
ĠH av
Ġfr an
Ġtill ver
ion e
Ã¥n ing
ĠA y
ĠD iamond
Ġom dÃ¶m
ĠhÃ¤r lig
ĠC ow
ĠC arson
ĠC aleb
ĠB est
ĠB org
sk att
ok al
ok oll
ĠT ycker
ea per
Ġhon our
ĠG ay
ĠG ates
ĠJ i
ĠJ app
omm es
Ġare as
are well
ĠP in
ome z
Ġsa bba
ink y
Ġsp Ã¶k
ĠF ix
ul k
um pa
ĠgÃ¶r s
Ġup s
ell ed
Ġut ifrÃ¥n
ĠR ow
ka pt
Ġpl ugg
ĠK ey
ob o
Ġupp off
Ġupp rikt
au de
Ġdin ing
Ġbr ann
uck ling
iv il
Ġund antag
Ġsig ning
Ġgr id
Ġgr ounds
Ġint ill
Ġfl ies
Ġfl Ã¤ck
Ġpre p
Ġpre ser
be at
Ġsm ick
ĠIt aly
Ġkill ers
Ġdown load
Ġvis et
Ġpo le
ĠÃ¶ st
sp ass
ect ion
Ġgl Ã¶d
ĠU s
ĠU ntil
ĠSt art
ĠÃ¥t gÃ¤rder
Ġstor men
Ġstr angers
ĠvÃ¤r men
Ġask a
sh uset
ek ing
ĠTh under
ring s
ĠvÃ¤g nar
Let ar
oh en
ĠsÃ¤ kr
Ġrem arka
Sk r
ĠSh irley
Ġbil arna
Ġpass engers
ĠHar riet
Ġexp ed
Sh el
Ġbeg Ã¥r
Ġacc us
vÃ¤r da
Ġkoll aps
Ġann ons
Ġpoint ing
Ġskit a
Ġtest et
Ġfight s
Ġhund arna
ĠRe ggie
Ġpick s
asy ster
Ġadv ise
Ġsjuk skÃ¶ter
Ġfig ur
Ġlight ning
Ġmurder ing
Ġgam bling
Ġlaw suit
Ġsid orna
Ut mÃ¤rkt
uss en
ĠmÃ¶rd at
Ġind ian
Ġdamn ed
ĠBar bie
Ġrid d
ĠMin ns
Ġcent rum
Ġcent uries
ertain ly
pro jekt
kvÃ¤ll en
ĠIN TO
Br other
ĠfÃ¶rf Ã¤r
Pre pare
Ar m
FÃ¶rs iktigt
ĠTr ust
Ġvitt net
Ġkort et
Ġpost er
ĠfÃ¶rtj ust
ĠPro p
bil ar
Ġnatur liga
Ġkopp lar
Ġconne ctions
Ġhall Ã¥
Pr omise
sla pp
Ġexist ed
Ġprov oc
Ġadvokat en
Ġtruck s
ĠnÃ¶j es
Ġansvar et
Ġskall e
Ġutt rÃ¥k
Ġfart yg
Ġboard ing
Sm art
ĠSen ate
ĠHA PP
ĠMal ik
Ġstuck it
Ġvers us
Ant on
ĠStar fleet
Ġcigar ett
ĠÃ¶verrask ad
Ġkross at
Ġfal skt
Ġca using
Ġskin ny
ĠnÃ¤m nt
Ġrain ing
fÃ¶rs Ã¶k
ograf i
Ġuts att
ilar ious
Ġfj ol
ĠWin ter
Ã¶rel sen
OP LE
Ġskil jer
Ġdeb ate
ĠAfri can
Ġcru ise
Ġkat ol
ĠTw itter
Ġdisappoint ment
Ġwitch es
ĠWood s
ĠtillgÃ¥ng ar
Ġbang ing
Ġslav es
Ġnar c
hÃ¥l et
ĠfÃ¶rhand ling
rib ution
Ġupplev t
ĠAndre a
Ġproduct s
Ġsuspic ion
Ġmedlem mar
ĠhÃ¤rom dagen
vÃ¥n ingen
ĠFall s
ĠJos ie
Ġkines iska
Ġcheer le
ĠNad ia
Ġanx iety
ĠDun can
ĠStew ie
Lou is
Konst igt
Ġprovid ed
Ġseri Ã¶st
Ġleaders hip
Ġinkl ud
Ġmaxim um
Ġinstrum ent
uf act
Ġgy mmet
Ġintim id
Ġcontroll ing
Ġconscious ness
ĠskÃ¶tt e
ĠFamil y
Ġirre levant
Ġeleph ant
Ġbene ath
ĠFerrar i
emeter y
ĠsÃ¤kr are
4 2
D og
E vent
F R
J unior
K napp
L ive
L ater
L eg
L ING
M olly
N a
N ummer
P apa
R est
R ose
S ant
S ug
S aken
S usan
T ri
f at
g ins
g ien
h ot
k ill
k Ã¶tt
l ang
m Ã¤t
n Ã¶t
o ven
p athy
r Ã¶st
s se
u ct
u ous
w ald
y stem
z ens
Ġ 00
Ġh inder
Ġf ist
Ġf ert
Ġf ient
Ġf rog
Ã¥ ket
Ġb ugg
Ġw ig
Ġw ives
Ġv est
Ġv isk
Ġp uck
Ġy ards
ig ence
Ġn an
Ġk atter
Ġl as
Ġl em
Ġin h
Ġin kr
ed eral
Ã¶r jer
ch i
Ġu th
el ing
id al
Ġbe ans
Ġbe ep
Ġr eng
Ġr ibb
le ys
Ġst ash
Ġst iger
Ġe y
Ġand el
ĠpÃ¥ se
ĠS W
Ġre sident
Ġre verse
im ension
Ġhe ars
ĠM ol
ĠM ic
ĠM AKE
ĠM ountain
il o
ĠH ang
ĠH AR
ĠH amilton
ĠA K
ĠA ye
ĠA rab
Ġsh ap
ĠD ream
ĠD EA
ĠD rive
ss a
ĠC ry
ĠC oming
ĠC lyde
ĠB ol
ĠB ella
Ġdig ital
sk op
sk Ã¥d
ly ing
Ã¤l sa
ĠT ard
ĠG ang
us al
Ã¤g aren
Ġman ual
He ar
ning ss
ĠF ur
ĠF ree
Ã¥g et
Ġut vÃ¤g
ka h
ka pp
Ġpl und
ast or
ĠK y
ĠK le
ĠK orean
ĠK ansas
ĠV IP
ĠV ERY
Ġal tar
Ġal ias
Ġpro c
Ġpro ven
Ġsl Ã¤nger
he imer
Ġshe et
uck an
Ġthem e
Ġcon tem
Ġgr oups
ens er
Ġby te
Ġfl ush
FÃ¶r b
Ġunder ligt
Ġdr um
ark ost
Ġpo op
Ġsv imm
sp ort
Ġtid ningarna
Ġid rott
Ġber edda
St ud
St Ã¤mmer
Ġmot orn
Ġju de
Ġco ca
sl Ã¤pp
Ġstr ang
Ġdi abet
Ġslut Ã¤nd
lev el
ster dam
Ġbad ass
sh ake
ĠTh er
ann es
Ġbit er
Ġass et
ey la
Ġty skarna
amp an
Ġhus djur
Ġpar et
Ġph il
Ġgill at
ĠSh adow
ĠSh akespeare
Ġpass ande
Ġsky m
Ġcomp ete
ib el
ib al
ib eln
Ġkall ad
ĠShe ila
Ġacc eler
Ġreg nar
Ġfast nat
Ġev alu
Ch ar
Ġsna cks
min istr
Ġinter pret
Ġres cu
Ġbar be
ĠhjÃ¤r nor
Ã¶k an
Ãĸ n
Ġpoint ed
Ġrum sk
Ġnamn en
ĠAr gent
Ġprom ises
ĠkÃ¤nd a
ĠDen ise
Ġmur en
Ġkonst ru
ĠlÃ¥t ar
upp e
Ġchans er
Ġ6 4
Ġlu x
Ġdeath s
Ġdan cer
bo at
Ġkvinn liga
Bl ue
ĠfÃ¶rÃ¤nd rade
ĠMich el
ĠfÃ¶rÃ¤ld rars
Ġdep ressed
oj i
Ġcomplet ed
Ġskjut sa
HÃ¶r ru
init ivt
Ġrisk s
Ġcent re
Ġmist aken
Ġhy ster
cl ass
Ġche ek
bor ta
ĠAm sterdam
Ġstat ue
ĠCon nie
fr am
fr Ã¥ga
ogra pher
ĠAng ie
Under bart
Ġkar ma
Ġeff orts
Ġserv it
Ġserv ant
Ġfle et
Ġly x
Ste ven
Ġdisk uss
Ġdev ast
ĠSim one
Ġgrej erna
Ġthreat s
Ġbesk rev
Ġdjur en
Ġfi end
Ġskj ort
Ġlim its
Ġskuld er
Ġhonor ed
Ġtax es
Ġcas ino
Ġsuit case
Qu ite
Ġhost ile
ĠkrÃ¤ va
Sc rew
Ġunders Ã¶kning
Ġterror ists
Ġdiscuss ing
ĠEr in
Ġlugn ande
Ġkry dd
OD Y
Ġknull ade
Ġgym nast
Ġclaim ed
Ġinsist erar
ĠkÃ¤ll an
sfÃ¶r bud
Ġutman ingen
ĠhjÃ¤rt attack
ĠstÃ¶ tta
Ġarr ange
ĠlÃ¤sk ig
StÃ¤ll et
ĠKn ow
ĠfÃ¶rsÃ¤k ra
Par is
Ġosk add
ĠColl ege
Cle ar
Ġrub ber
ĠIm per
ĠAri zona
Ġexec ution
Ġobser ver
ĠSky nda
Ġlink ed
Ġlys er
Ġfys iskt
ĠItal ien
Ġallerg isk
Ġresid ence
Ġstrugg ling
ĠstrÃ¥l ande
bass y
ĠmÃ¤kt ig
mask in
ĠAss oci
Ġassoci ate
Ġliber al
Ġvolunte er
ĠJav isst
Ġarch ite
ĠrÃ¶rel ser
Ġshr ink
Ġnic er
Ġsvett as
Fakt um
ĠShel don
Dum ma
Ġcomplain ing
Ġcand les
Ġcooper ate
Ġfrivill igt
Ġinkl usive
Ġspons or
Ġkredit kort
Ġavf yr
Ġsamm ant
Ġpsychiat rist
ĠbrÃ¥d skande
ĠDani els
Ġmorg ond
Ġdismiss ed
Ġmex ikan
ĠLion el
Ġbesl Ã¶t
Ġack now
ĠDea con
ĠPak istan
ĠpÃ¥h itt
Ġdemoc racy
Ġappet ite
Ġdestro ying
Ġyach t
Ġenforce ment
ĠnÃ¤tt erna
ĠSver ige
ĠAma zon
A unt
A IT
A aron
B re
B ef
C ole
C ompl
E st
E arl
F un
F unny
H im
H OW
I ER
J ur
J os
J ennifer
K yle
L Ã¥s
M ess
N ya
P en
P ark
R uss
T rÃ¤
T oby
W alt
Y e
b ana
d ig
d ollar
e ven
f ession
h u
h all
h art
h ard
k ant
k eln
k ov
k irurg
l am
m ic
m itted
m aterial
n in
n ut
n ell
r us
r Ã¤kt
v it
v ning
â Ħ
Ġ x
Ġt we
Ġt ork
Ġt ourist
Ġh ilarious
Ġm Ã¶ts
an an
Ġf eta
Ġb Ã¥g
Ġw and
at iska
Ã¶ te
Ġp ic
Ġp enny
Ġp add
Ġp ipe
Ġn anny
Ġn aughty
Ġk ly
Ġk arta
Ġl n
Ġin att
Ġc ong
Ġc unt
ĠI rak
ĠI rene
te ous
ck erna
ow ning
Ġdu mmy
Ġr ans
ĠfÃ¶r akt
Ġst are
Ġe ats
ut o
Ġvar or
Ġvar andras
ĠS V
ĠS um
ĠS ave
ĠS nygg
Ġhe ight
ĠM ORE
ĠM ulder
Ã¥r sÃ¥ldern
ro ph
Ġfr y
ĠA va
ĠA cc
ĠA FTER
Ġsh ine
Ġkn ight
ĠD EN
ett le
ĠC ecil
Ġse iz
ĠB arna
ĠB ones
ĠB uster
ack s
Du ktig
Ġmin sann
Ġav led
ĠT RA
Ġhon ung
ĠG am
ic ity
ĠJ ob
ĠL at
ĠL ori
Ġbl oke
Ġbl icken
Ġman agement
Ġman kind
Ġman ufact
ĠP edro
Ġso cks
Ġso ppa
em bers
ĠF O
ĠF rost
Ġut sidan
ĠR och
ist ers
Ġor ch
ĠK lar
ĠK itty
ĠV ern
Ġbut iken
fÃ¶r m
Ġupp ror
Ġal gor
Ġsl ick
Ġbr om
Ġbr Ã¤nn
Ġar riv
ĠW right
ĠW atson
Ġex ter
Ġas pir
Ġle ve
ner na
Ġgr Ã¥t
ĠÃ¶ver raska
Ġcom ic
Ġun ik
FÃ¶r Ã¤ld
All ihop
ĠY anke
Ġvis ited
Ġpo em
Ġpo olen
Ġhem m
ĠÃ¶ ka
Ġsv al
ĠWe stern
Ġber Ã¶r
akt iga
ci le
St ora
Ġmu ff
ĠAnd ers
ĠhÃ¶r n
ĠhÃ¶r ni
ond ition
Ã¤v ar
sl Ã¶sa
Ġstr ings
Ġdi arr
Ġperson lig
Ġspe ci
ac ity
Ġper pet
Ġfun ktion
Ġact ress
Ġdel arna
Ġbu ys
ann ade
Ġad vert
ey e
Ġkind ness
Ġpar all
Ġled ar
vet te
Ġsex ually
Ãħ r
Ġfall it
-- ?
Ġsam lade
Ġmight y
ye on
gr unts
Ġcomp ared
ĠAl icia
Ġworld s
Ġste get
ĠlÃ¤g re
ert o
Ġreg ul
Ġ4 3
sy stemet
ĠsÃ¥n gen
min ute
Ġlag ligt
med let
ĠAr ch
Ġarbet slÃ¶s
Ġfire s
Ġpat ience
Ġstra ffa
ĠDen ver
Ġconf using
Ġspr Ã¤nga
Ġspr uta
az or
ĠChrist ina
ĠCar m
cent ret
Ġskad as
ĠEl ias
Ġbur ger
Ġlever ans
Sl ow
ĠtjÃ¤n are
fl Ã¶d
Ġball oon
Ġdep art
Dr ink
Ġdream ing
Ġuppt Ã¤cka
ĠSc arl
rott ningen
Ġrisk y
Ġant ik
Ġexpl o
Ġlock ar
Ġhy res
atter son
ĠKe en
Ġkap ital
Ġintress anta
ĠaffÃ¤r erna
ĠÃ¤g aren
ĠAm elia
ĠSer iously
Ġtw enty
ĠBen ed
Ġref orm
Ġdans en
Ġdans ade
Ġpot atoes
Ġfund ing
Ġill ness
Ġnatur en
Ġgener ationer
Ġpen et
Ġvin ter
Ġcol ors
ĠQu entin
Ġmeddel ar
ĠST ART
AK ING
Ġtext ed
ĠAtt orney
Ġpsych opath
Ġsym pat
ĠBo ys
ĠFran c
Ġstore bror
Ġbesk riv
Jack son
Ġsjun ker
Ġprocess en
Ġsnygg ing
Ġpaint ings
itu ation
Ġvir al
Ġprodu ce
Ġtechn ical
Ġsten en
Ġsten ar
Ph one
Ġciv ila
Ġfield s
Ġunders Ã¶ker
ĠfÃ¶rklar ade
ĠEr nie
Ġvol can
bit ar
Ġment or
ĠJu ly
ĠScott y
ĠJon as
Ġimmedi ate
Ġlikad an
Ġkamer orna
Ġkommun icera
Ġintellig ens
ĠNE VER
Ġgym nas
AP D
nam ent
Ins er
ĠknÃ¤pp a
ĠavslÃ¶j ade
Ġspirit ual
Ġtort ured
Ġspread ing
Ġinstru ktioner
ĠSuper man
Ġprins essan
Ġbrors an
Ġbrors on
Ġtrail er
ĠAtl antic
ĠGirl s
vap net
ĠClar ke
ĠSpring s
Ġskaff at
ĠstÃ¤m ningen
Ġconv ict
Ġbekv Ã¤mt
Ġreag erar
ĠÃ¶vertyg ad
Ġtraged i
Ġmart ini
ĠSab rina
ĠSqu are
Ġgala xy
ĠskÃ¥despel are
Ġlill ebror
Ġretur ning
Ġnav ig
Ġprosec utor
Ġserie mÃ¶rdare
Ġexpla ined
Ġretire ment
Ġytt re
Tot ally
ĠsÃ¤rsk ild
Ġryss arna
ĠTok yo
telef on
ĠGoth am
Ġchauff Ã¶r
ĠIra q
Ġorph an
âĦ ¢
3 8
A dd
B less
D EN
F ight
G O
G un
G ru
H ome
J eremy
J odÃ¥
L i
L ind
M ER
M Ã¤rk
N ine
N ina
P ubl
S ummer
V Ã¤nner
b oth
g ande
g ilt
h Ã¤ng
h aw
i i
i ast
l ay
m ates
n ens
s ens
w ight
w atch
Ã £
er ats
Ġa ugust
Ġd il
Ġh int
Ġm Ã¥ng
Ġm Ã¶d
Ġth irty
ll ie
Ġf Ã¤ltet
Ġb end
Ġb ac
Ġb anks
Ġb ota
Ġw aters
it tee
Ġv Ã¤ck
Ġv rede
Ã¤r are
st op
st Ã¤m
re sident
Ġk ust
Ġk lev
Ġl atte
Ġl ousy
is co
Ġin ches
Ġc od
Ġto ps
el en
Ġbe ats
Ġr inner
am bers
am rater
Ġst iga
Ġst ain
Ġst ugan
Ġst ipend
Ġe ager
Ġsk Ã¶r
Ġsk its
Ġme ets
Ġvar v
ĠS ame
and ena
Ġan talet
Ġan klagar
Ġdo ften
ĠM ey
ĠM ISS
Ġwe e
Ġde kor
Ġall as
ust av
ĠH ind
Ġtill tal
ter ad
Ġsh ell
ĠD aphne
ant o
itt Ã©n
ĠC ongratulations
Ġse min
kt ar
ĠG omez
th let
ic ial
ic ians
ĠL ast
ĠO re
ta h
Ġman ners
ĠP H
ĠP ART
Ġso ap
Ġout sid
Ġsp aces
ĠF ader
ĠF isher
Ġut for
Ġut vÃ¤rder
ĠR ik
ist ics
ĠE L
ĠE laine
ĠV id
os er
Ġpro ves
Ġbr unch
ĠW el
Ã¤ll an
Ġer m
und ers
iv alen
Ġle cture
qu al
Ġoff ers
ĠÃ¶ver sv
Ġkl and
Ġkl iver
Ġcom edy
rig o
Ġfl ott
Ġpre y
FÃ¶r modligen
be e
be vis
Ġdr Ã¤kt
Ġdr Ã¶jer
Ġtv ill
Ġsv or
Ġkom b
ect or
Ġcl ip
Ġdag bok
ont o
ĠNo vember
pl et
Ġel ements
ĠSt orm
ĠSt anton
ang o
Ġsc ru
Ġmat a
Ġsn odde
ond en
Ã¤v ling
Ġbef ann
ĠdÃ¶d ens
iga il
Ġact ivities
Ġlast bilen
ever end
vis ade
ĠWh eel
Ġdel eg
ng el
Ġbu bble
ĠlÃ¥ d
Ġass ets
Ġbelie f
Ġph rase
Sk Ã¶t
ĠDe c
Ġsch yst
AT S
ris en
AR Y
Ġste ak
Ġtro sor
oot s
so ever
Vem s
Ġcomm ission
ple asant
ĠrÃ¤dd ning
Ġrum or
Ġswe ater
Ġdec ade
ĠÃ¥ter gÃ¥
Ge org
Ġap ote
Ġadv anced
Ġgott gÃ¶ra
Ġpress a
ĠSam uel
ĠUn less
ĠtjÃ¤n sten
ĠGood bye
Ġdist rict
Ġla wn
Ġhor ror
Ġfa int
hand el
fall en
Ġgrand pa
Ġfest a
ĠAd rian
Ġant ibiot
ette s
ĠRo x
Ġhop eless
Ġsell s
Ġref uge
Ġimag es
Ġlab el
Ġmob b
ĠrÃ¤k nat
ĠMad rid
ĠPaul a
Ġagent er
Ġtank arna
Ġgri per
Ġsal ary
Ġskydd s
ĠMon te
zz i
Ġgud ar
Ġkost y
Ġhall way
Ġheal ing
Che ers
Hel en
Le ft
ĠSn art
oph ia
Ġlur en
Ġprogram mer
fuck ing
ĠfÃ¤r ger
Ġpeace ful
ĠtrÃ¤n at
Ġsuspect ed
Ġban ana
Ġpract icing
Fl ickan
Ġbri cka
Ġrece ip
ĠfÃ¥ng at
Ġocc as
ĠsÃ¥r ade
ĠsÃ¥r bar
Ġok Ã¤nd
Ġkapten en
jÃ¤v el
ĠCor por
ĠMo skva
Ġtor ped
Spe cial
Ġvamp ires
fÃ¶rs var
Ġspar ar
Ġutveck las
ĠWin chester
Ġaut o
jÃ¶l k
ĠmÃ¤rk lig
Ġskott loss
Ã¤ns le
ĠtrÃ¥k ig
JÃ¤v lar
Ġbid rag
Ġcomb ination
spr Ã¥k
Bo ys
ĠfÃ¶resl Ã¥
ĠstÃ¶tt ar
Ġfasc inerande
Ġrac ist
Christ ian
ĠSomet imes
Ġult imate
Ġdisp atch
Ġdisappear ance
Ġbev ara
Ġhed ra
Ġekon omi
ĠberÃ¶m d
Ġupplev else
Ġhav s
Ġprojekt et
ĠDev il
Ġallerg ic
Ġresid ents
Und rar
Ġassum ing
Ġreve aled
Ġklag ar
ĠstrÃ¶m men
Ġuna ble
bass ador
ĠfÃ¶rsvun na
Ġmusk ler
Ġresist ance
Ġsop orna
ĠvÃ¤rdel Ã¶sa
Ġgenet ic
Ġspo il
ĠKrist us
Ġgjord es
Ġdistur b
ĠbevÃ¤p nade
Ġveter in
ĠrÃ¥tt or
Ġkomment arer
ĠHoll and
Ã¸ r
Ġexecut ed
Ġrens a
Ġfla vor
Ġcert ific
ĠGard ner
Ġboo ze
ĠlÃ¶j lig
ĠChamp ion
Ġhiss en
Bea utiful
Ġskith Ã¶g
Ġank le
Ġguvern Ã¶r
Ġoffent lig
ĠLed sen
Ġintent ions
ĠPE OPLE
Ġutpl Ã¥n
Ġthirst y
Ġdome stic
Ġmajest Ã¤t
Ġstrump or
Ġsjukv Ã¥rd
Ġpyram id
Inspekt Ã¶r
cH FFFF
ĠParad ise
Ġklagom Ã¥l
ĠIntern ational
Oliv ia
ĠtÃ¤ckman tel
Ġcoca ine
ĠÃ¶versv Ã¤m
A na
C I
C Y
D ist
G old
G EN
H um
J er
L uck
O ffic
O wen
P ort
R OW
S L
S ab
T old
U SA
V Ã¤g
V ap
W ord
b ank
c ott
c ular
d ess
d rÃ¶m
e ight
f Ã¥g
h as
h op
h Ã¶g
h jÃ¤lp
j ol
j ording
m ight
p ek
p arty
s ak
u ine
v ars
z el
Â ¥
Ġ ~
Ġt am
Ġt anks
Ġt ension
Ġt ires
in u
Ġs ore
Ġs Ã¶g
Ġs oph
Ġs aga
Ġa thlet
Ġd Ã¥r
Ġd read
en ch
Ġm Ã¤ss
et aget
Ġf abriken
Ġb ureau
on gest
Ġw a
Ã¶ na
it ement
Ġv Ã¤v
Ġg Ã¥t
ing e
Ġp opped
Ġn Ã¤st
Ġn jur
is ker
Ġo ath
Ġthe ories
Ġc ities
Ġto es
ĠI M
ch arge
te cken
as se
ot y
ot er
ot et
Ġr ug
Ġr iot
ld a
Ġst Ã¤r
ut rust
Det samma
Ġsk ra
ra z
Ã¤n ning
Ġvar else
ĠS aul
ĠS ince
Ġre ste
Ġre ktor
Ġan ade
ĠM oses
Ġde af
ent ially
Ġall ows
Ġall ierade
ĠH orn
ĠH off
ĠH icks
ir i
ir rel
Ġfr Ã¤ck
Ġtill kÃ¤nn
ak ers
ol ja
ol ikt
ĠD est
ĠD ah
ĠD ata
ĠD iaz
ett io
Ġtr ump
Ġkan al
ĠB ah
ĠB oo
ĠB IG
ĠB reak
ĠB axter
un na
ĠsÃ¥ s
sk ott
sk ift
ĠG ert
Ġlo cka
ĠL ive
ĠL Ã¥ter
Ġwhat soever
ĠO tto
ĠO peration
Ã¤g ge
Ġbl Ã¤ck
ie ves
Ġman ner
ĠP O
ĠP orter
ĠP alm
ning ens
Ġsp ite
ĠF i
ĠF arm
ul Ã¤r
ul ating
Ġch in
Ġno on
Ġno vember
ist ory
And as
Ġfin aste
ast Ã¥ende
ĠK end
ĠK ath
ĠK ah
ĠK eller
ĠE h
ĠE mm
ĠE den
fÃ¶r Ã¤ld
Ġupp rÃ¤tt
Ġupp hets
Ġpro ving
Ġpro ved
Ġsl ar
Ġsl ottet
ĠW R
ĠW alk
fter na
Ġas yl
Ġle ague
Ġle gacy
ass a
Ġdem ands
Ġbo oth
av or
Ġun w
Ġunder l
Ġunder gÃ¥ng
Ġsm ut
Ġsm ash
ĠvÃ¤n jer
ĠCh en
ĠCh ild
Ġsin nen
va h
Ġcl ues
ĠU ber
ĠU ND
St ig
bl ar
ju kt
iz za
ang ed
ĠÃ¥r hund
ĠÃ¥r tion
Ġtry in
Ġsn o
âĢ ķ
Ġdi ct
Ġper imeter
Ġro tten
IN S
Ġgen gÃ¤ld
ĠsjÃ¤lv fÃ¶rtro
ĠlÃ¥ ser
Ġfly get
ult ure
Be hÃ¥ll
Ġreal m
ier ar
Ġtj us
Sk ojar
ror na
rat es
Ġdri vers
Ġpass ade
Ġsky l
AT CH
Ġcomp uters
ĠHar lem
Ġkon vers
Ġkall ades
del ar
Ġacc urate
ĠBr and
Ġ4 1
land ers
sy k
aj en
Ġmet oder
Ġpu zzle
cu it
par tementet
Ġskick lig
Ġgenom fÃ¶r
ende z
Ġdec ides
Ġmus ical
Ġhuvud en
ĠvÃ¤ skor
ĠfÃ¶rlor are
ĠLe v
ubb y
br Ã¶d
Ġkul an
ĠCl ive
Ġmod els
Ġhat red
ĠÃ¶pp nat
Ġbas is
ount y
ĠGo ing
ĠWill y
Ġang els
ĠMich igan
Sp elar
str Ã¥
hÃ¥ll et
Ġes k
Ġform s
Ġform al
Ġuppt agna
ĠdrÃ¶m men
tj Ã¤n
ĠmÃ¶ bler
Ġship ment
atter ing
kom pis
Ġlad an
ĠRo z
Ġvak ta
ĠCon n
ĠBra zil
Ġbeslut at
Ġfund ament
Ġcol on
ĠST E
du kar
ĠspÃ¥r ar
ĠfÃ¶rtjÃ¤n at
Ġjul i
Ġbjud it
ĠWal sh
Ġarri ving
Ġtrack ed
Ġscen es
Ġfi ction
Ġfart yget
Ġtrip le
Ġclub s
ĠFre ud
Ġiss ued
ĠGO D
Ġbri ster
ĠSw an
ĠrÃ¥ na
ĠLuc ia
ĠPer haps
Ġpun ished
ateg or
Ġterror ism
Ġow es
Ġcla w
ĠbÃ¶ ter
ĠGar rett
Say s
ĠJan uary
Ġfrukt ar
rÃ¤ff ande
Ġfisk ar
Ġovan pÃ¥
Ġcab inet
Ġtor ka
Ġfac ed
centr alen
Ġobe y
Ġmedvet ande
WH ERE
ĠfÃ¶rhÃ¥ll anden
Ġfarm ers
Ġers Ã¤tta
ĠhÃ¶j er
Ġprior itet
Ġbebis ar
ĠPet ra
Im p
Ġengine er
Ġengine ering
Ġdescri bed
Ġfars a
Ġrull a
ĠLiz zie
Ġager ar
Ġflu id
Ġfasc inating
Ġak uten
ĠLau rel
Ġbrief case
Ġslav ar
ĠpÃ¥min de
Ġ% .
Ġkol on
Ġbev itt
Ġterrif ic
Ġstir rar
Ġoffret s
Ġposit iv
Ġveh icles
ĠhÃ¤ls ade
ĠClar ence
Ġflo ating
Ġdetect ed
Ġfab rik
Ġfab ulous
ĠGil bert
ĠPort ug
Ġscient ific
Ġschem e
Ġalcohol ic
Ġgall ery
ĠBrook s
Bu y
Ġeur os
ĠLind say
Ġimpon era
ĠChurch ill
Ġbekym mer
ĠsÃ¤s ongen
Ġchampion ship
Jon athan
Mat thew
ĠNaz i
skÃ¤r m
ĠdÃ¶m d
Tid igare
Id iot
Ġintegr ity
Ġvans inne
asm ine
Ġfrys er
Ġuppre pa
Ġestablish ed
FÃ¶re stÃ¤ll
Ġtve kan
Ġregister ed
Ġpj Ã¤s
ĠLug na
ĠShel by
ĠjÃ¤ttef in
Ġkonf ron
Tjej en
agh etti
Ġfris yr
Ġcloud s
Fri ends
Ġdistract ed
ĠRud y
Ġexcl usive
ĠSov iet
Ġcorpor ate
ĠStu art
Ġreject ed
Ġdefin ition
ĠDiv ision
Ġtransp orter
ĠPrat a
Ġteleg ram
Ġgivet vis
Ġspect ac
Ġindep endent
ĠFeder ation
Ã¤ft igt
ĠTiff any
ĠfÃ¶rmÃ¶gen het
ĠMU CH
Ġjewel ry
ĠHarl an
Ġdisag ree
ĠjÃ¤ttem ycket
Ġremarka ble
Ġaugust i
2 6
A ir
C ir
C lar
D Ã¶
D Ã¶rren
E rik
F yr
G osh
H Ã¤ng
H olly
L arry
M ont
M egan
N jut
R en
R ita
R Ã¤dda
S at
S yl
U E
V IN
b la
c oe
e h
f Ã¥ng
h im
h ave
h yd
j ej
j erna
l id
l ets
l aughing
m und
m ont
o ir
o ise
p iece
r ut
s i
Ä º
Ġ :
Ġ Ãĥ
Ġt Ã¥
Ġt ed
in erna
Ġa irl
Ġd er
Ġh ay
Ġm im
Ġm ac
Ġm oln
et o
ll or
Ġf er
Ġf ink
Ġf og
Ġf ib
Ġf atal
it ets
Ġg h
Ġg ent
ag ande
st ream
Ġp annk
Ġn Ã¶t
Ġn Ã¶rd
Ġk in
Ġk ard
is d
is le
Ġthe e
Ġc ul
Ġc ows
Ġc atal
Ġc emetery
Ġto an
te xt
ill ac
ow a
Ġbe arbet
Ġen vel
Ġr ally
Ġr yck
Ġr ogue
am y
Ġit ems
ld ens
Ġst ations
Ġst iff
Ġwh istle
ra ine
ĠS CH
od or
Ġdo cka
Ã¥r dare
ent an
Ġmed ier
ĠH ills
ir ur
Ġtill it
ak y
ter ns
ol ve
ĠA men
Ġsh aking
Ġsh ares
ĠD ong
ĠC ons
Ġtr an
ri ven
sk o
Ã¤l ten
Ġav slapp
op tern
ĠT u
ĠT own
ĠT ills
ĠT oni
ea ce
ĠN Ã¤sta
ĠG reek
ĠG ideon
Ġlo ppet
ĠJ ed
ĠJ ung
ĠL ot
ĠL im
ĠL ib
ĠO x
ĠO ri
Ġbl a
Ġbl aming
Ġman liga
ĠP eng
em ploy
ff e
ff ekt
Ġsp oon
ĠF ry
ĠF if
ĠF yra
ĠF IND
ul f
Ġch art
Ġch ains
um i
ĠR abb
ess ions
Ġfin ishing
ast ers
ĠK ung
ud en
ĠE p
ĠV Ã¤n
ĠV oy
ĠV lad
ob i
Ġsu ra
end an
Ġsl Ã¤cka
Ġbr ilj
he e
Ġtim eline
ĠW i
ĠW ally
Ġer ror
if act
Ġle an
Ġback ing
ÃĦ L
la im
qu et
ass er
ens a
ĠÃ¶ver grepp
ik s
Var ifrÃ¥n
av i
av an
Ġfl ed
be y
opp ar
isk en
Ġsv ikit
Ġam p
Ġtid ig
Ġgl ider
pl os
pl ane
bl Ã¥
ang s
ĠhÃ¤nd elser
Ġpart i
Ġstr iden
Ġstr ongest
ikt a
Ġdi vers
Ġhit Ã¥t
Ġmiss n
ĠrÃ¤tt fÃ¤rd
ek an
Ġro ots
Ġact ed
Ġdel icate
ĠvÃ¤g ar
ĠvÃ¤g led
ĠÃ¤ del
Ġwr ites
Ġbit s
Ġmust asch
ĠâĻª âĻª
Ġdis respect
Ġty g
Ġled sna
Sk itsnack
ĠlÃ¤ ppar
ĠSh ane
OU GHT
bet h
Ġsex iga
Ġapp eared
Ġsam band
AT OR
ash i
gr ad
gr ade
ph ine
ĠAll ah
Ġsupp er
rÃ¤ det
ĠMar ilyn
ĠAl aska
Ġtag g
ON S
Ġunderstand s
ĠBr ody
Ġ5 1
Ġfamilj ens
Ġev olution
Ġkr as
ote ll
Ġstud ies
ĠmÃ¤nnisk ors
vel t
Ġdit Ã¥t
ĠRe x
ĠÃ¥ter stÃ¥r
Ġaff airs
Ġbed Ã¶m
Ġap els
Ġrep laced
Ġfre st
Ġva ult
Sen are
AS H
ĠÃ¶pp nas
Ġskol or
Ġbur ns
Ġbur rit
Re ad
yn thia
aste st
Ġcont ent
Ex p
Ġpos itions
bo ys
fer ence
Ġang ri
Ġprof et
dom ar
Ġgrund en
van ia
Ġdist ress
sm Ã¤n
komm it
rad en
Ġsmart are
Ġair craft
Ah h
hand eln
ĠrÃ¶r ande
ĠAd miral
Pro te
Ġlock s
mÃ¤r ks
res ult
Ġtrev liga
ĠfÃ¶rf Ã¤der
Ġstrong ly
Ty ler
ific ent
fr om
Komm endÃ¶r
ĠAb raham
Ġexc itement
Ġfund s
bil j
Ġkor rekt
Ġpatient en
Ġrym de
Am anda
Pr ins
Ġsurv iv
Ġfair ly
Ġcontact s
ĠON LY
Ġblock ed
ĠnÃ¶j da
bord et
Ġvisit ors
fuck er
udden ly
use um
Ġfool ish
ĠtrÃ¤n ade
cep resident
Ġjack an
ĠAnt ar
Ġsuggest s
Ġsurpris es
Ġsucc Ã©
ĠvÃ¤rd ig
Ġlos es
ĠCla us
Ġot Ã¤ckt
ĠComm ittee
ĠRobert s
Ġtekn iskt
Ġsty gg
Ġcy ber
Ġklass en
ĠnÃ¤m ner
ĠStan ford
ĠMur ray
Beh Ã¶v
Ġviktig ast
ĠCall ie
Ġnecess arily
Ġinterv jun
Ġinsist erade
Ins ide
Ġalternat ive
ĠMag ic
Ġtort yr
Ġgull et
Ġrull ar
ĠnÃ¤t verk
Ġet ik
Ġblomm a
ONE Y
lyn n
Je an
Ġpoison ing
Ġanfall er
ĠÃ¶vervak ningsk
Ġheaven s
Ġtroll karl
Cle arly
jor ie
Ġamong st
Ġfunn it
Ġanl Ã¤nder
ĠPa ige
Ġchem ical
ĠvÃ¥n ing
Ġmening slÃ¶st
ĠNÃ¥g ot
styr kan
Ġserver a
Ġmots atsen
ĠCle ar
Ġau ction
Ġdish es
Ġbell s
ĠPen ns
Ġutl Ã¤nd
ĠEv ans
Ġinformer a
Ġassault ed
Ġrecover ed
Ġveget arian
ĠallmÃ¤n heten
skri ft
Ġflask or
Ġrop ar
Ġknuff ade
Ġkvarter et
Ġvampyr er
ĠÃ¥klag are
Ġretur ns
ĠMarl on
Ġblank et
Us ually
ĠTem ple
Ġassass in
ĠgrÃ¤v de
Ġanonym ous
Ġleks aker
Ġkyl en
Ġsympt om
Ġinspel ningen
Ron nie
Ans wer
ĠÃ¥n gest
Ġkrimin ella
ĠfÃ¶rk ross
Ġhast ighet
ĠtÃ¶r stig
Ġdatab ase
ĠsÃ¶der ut
Ġinstinct s
ĠCru z
AUGH S
Cra zy
Ġskate board
ĠupptrÃ¤ da
ĠvÃ¤t ska
char ged
Ġbote medel
Ġrh ym
ĠBroad way
ĠScot land
Ġkonsekvens erna
call ed
ĠvÃ¤lsign else
cHFFFF FF
Ġenvel ope
8 5
B omb
B rott
F ig
F ree
G L
G us
G av
G Ã¶m
G ene
H m
H av
I kvÃ¤ll
L ea
L Ã¥ng
L igg
M E
P am
P ardon
R app
R yss
S ing
S narare
T odd
W onder
c ules
d ist
d ale
e z
e aring
f ald
h is
h Ã¶ll
h urt
l jud
p ara
p ist
r ent
r Ã©
s ir
u ka
u ari
v ous
w ait
x an
Ġt ense
in ous
Ġa er
Ġa uth
Ġh un
Ġh Ã¶v
en stein
Ã¤ ta
Ã¤ va
Ġm ere
Ġm era
Ġth umb
Ġf uss
Ġf itting
Ġb Ã¥r
Ġb ounce
Ã¶ ger
it as
Ġv agn
Ġv alley
st or
st age
re ag
re ction
Ġp ommes
Ġk itt
Ġl ou
Ġc aps
tt ar
ad ens
ĠI V
Ġj Ã¤gare
es is
Ġu tter
el ope
Ġbe ars
Ġen astÃ¥ende
ĠfÃ¶r ste
am ot
Ġst av
Ġst Ã¶v
Ġwh ip
Ġsk on
Ġsk Ã¤gg
Ġsk ilde
Ġsk elett
Ġha unted
Ġvar elsen
Ġis en
ĠS M
ĠS ac
ĠS lut
ĠS co
Ġan hÃ¶r
Ġdo s
Ġdo zens
ĠM i
ro v
ro be
ĠH op
ĠH anna
Ġmy t
ĠA del
ĠA ah
ĠD ig
ĠD im
ĠD Ã¶d
Ġvi st
ĠC e
ĠC ora
ight on
ĠB i
ĠB ag
ĠB our
ĠB rew
ĠB undy
ri Ã¤ren
sk at
Ġav delningen
Ġav lyss
ok s
ok ay
ĠT iger
ĠN IGHT
ĠG ord
ĠG jorde
th en
th ere
th rough
ĠJ ar
ĠJ ared
ĠO roa
ĠP eyton
Ġvill a
Ġsa us
ĠF IR
Ġup load
Ġher t
Ġpl ates
Ġthere fore
ĠK E
ĠK iller
Ġwor ship
ĠV D
ap se
Ġupp fÃ¶ra
Ġal ike
ns am
Ġsl ice
Ġsl ott
ĠW r
ĠW ag
Ġex or
Ġer Ã¶v
Ġback ed
la v
ank y
ass istent
Ġgr Ã¤nd
Ġgr attis
ĠÃ¶ver lÃ¤g
Ġun like
Ġun conscious
Ġun pleasant
Ġhand y
Ġsm ack
Ġsm ashed
ĠY ale
ĠY uk
yck e
Ġvis its
ĠnÃ¥n s
âĻ «
ont als
Ġsak nad
Ġim plant
ach ing
ress en
Ġverk et
Ġsy sters
Ġfick an
Ġpol ar
ĠvÃ¤r me
Ġdi ary
ĠOh io
Ġfort un
Ġner d
sh and
Ġper f
Ġbarn ets
old ater
Ġgen uin
Ã¶j or
ult om
Ġad op
Ġad ministr
Ġass ess
Ġass ured
ĠfrÃ¥g orna
ĠsÃ¤ker heten
ĠlÃ¤ ka
ĠSh oot
Ġhead quarters
Ã¶t et
Ġsch ysst
inn ers
Ġpass age
Ġpass erar
Ġbre ach
gr ader
Ġcomp ound
Ġbus h
mar es
oc us
Ġhopp et
Ġfil mar
Ġdead ly
Ġtack ade
Ġland a
Ġskri ft
sy ch
Ġbar bar
Ġpolis erna
olog isk
med del
med icin
HÃ¤r ligt
Ġob du
Ġswe ating
Al i
Ġac id
Ġval ues
Ġimp ul
Ġmus cles
Ġsw amp
Ġclear ing
ĠLe ft
br id
ov ely
less ly
Ġarm or
Ġsign als
Ġhigh way
Ġstory n
unk y
Ġcoll ar
ha i
Ġmark ed
Ġattack era
erest ing
ĠjÃ¤tt et
ĠGe off
ĠGr oup
Ġaw fully
ric s
Ġdam erna
Ġmilj ard
ĠtjÃ¤n at
ĠMich a
Ġshoot er
ĠMiss y
Ġbok at
ĠOr ange
ĠBar ney
ĠmÃ¤r ken
Ġtelef oner
lin es
Ġsitu ations
Ġpubl ished
Ġblack out
Ġcent imeter
Ġdirekt Ã¶r
utt on
Ġcell ar
Ġlunch en
ĠJe ong
Un gefÃ¤r
ĠGu ess
Ġtyp es
EL F
Ġpop corn
Ġdress ing
Ġpot ato
Ġ18 0
Ġvin et
Ġvin naren
Ġident ified
Ġorgan ized
ĠCo op
Ġrym t
ĠMon a
Ġreach ing
Pr ince
work s
Ġdev ices
Ġbill ig
ĠfÃ¶rm Ã¥gan
ĠblÃ¥ ste
giv ning
ĠAs ian
Ġarri ves
lem mar
ĠMark et
Ġaccident ally
Ġmilit Ã¤ren
Ġbland ar
ĠfÃ¤r re
ĠfÃ¤r gen
ĠtrÃ¤n ingen
ĠFl oyd
Ãĸver ste
ĠWE LL
ĠCr own
ĠvÃ¤rd ighet
Qu iet
Ġhost ages
Ġpsyk iat
ĠAngel o
ĠfrÃ¤m lingar
ĠSher man
ĠMel issa
Gra bben
Ġtekn ologi
Ġhamn en
ratul erar
ĠCam ille
Ġcirc les
Str unta
ari q
ĠSpe ed
Ġuts Ã¶kt
Ġprepar ing
Ġstre j
fest en
Ġquar ters
Ġaut opsy
kont oret
ĠÃ¤ktenskap et
Ġforsk nings
Ġabs ence
ĠstÃ¶ ld
ĠBoy d
Ġvote s
Ġdroger na
Ġcal endar
Ġpoison ed
ĠKl art
Ġkons er
Ġavoid ing
ios ity
Ġignor ed
ĠsÃ¶m nen
Ġexplod era
LO OK
Ġtung an
ĠAndrew s
Son ny
Ġkilom eters
ĠPier re
Ġbenef its
Ġarrang ement
ĠmotstÃ¥nd are
Ġdetect ives
Ġphotograph s
ĠOb ama
ĠtonÃ¥r ingar
Ġfif ty
ĠSP E
Pass a
Ġtrag iskt
Ġcrit ic
ĠfÃ¶rd Ã¤r
Ġdistra ction
rapp ort
lik ely
Ġgain ed
ĠEli jah
Int ressant
Ġautom at
Ġkron or
ĠBeat rice
Ġdemonstr ation
Ġbroad cast
Ġwarri ors
Ġingred iens
ĠomstÃ¤nd igheterna
Ġcraw l
Ġfej k
ĠfÃ¶rrÃ¥d de
Ġgrind en
ĠMIN UT
ĠJoy ce
ĠSha un
Ġtempor ary
Ġce iling
Ġsmar ter
Ġbesvik else
Ġpurch ase
ĠOp rah
Ġinterrog ation
Ġfeder ala
ĠCath olic
Hop efully
Ġlotter y
Ġtillfreds stÃ¤ll
ĠDist rict
Lau ra
Ġutmatt ad
Ġskilj as
Ġjun i
Ġgoss ip
Ġoer hÃ¶rt
Ġsuperher o
ĠHumph rey
ĠFlet cher
Ġrelie ved
ĠslutÃ¤nd an
) }
3 00
8 00
A CT
A PP
B Ã¤sta
B etty
C OME
D est
D ET
D erek
F air
G reen
K ra
L ar
L il
L Ã¤tt
L inda
M iles
N ancy
P oint
R el
R unt
R Ã¤dd
R IST
S U
S i
S Ã¤nk
T aking
T revlig
T ekn
Y E
b one
b ring
c are
c end
f u
g ie
g are
j on
k elt
l orna
l aughter
l Ã¥da
l jus
m hÃ¤rt
p te
r ome
r imin
s Ã¥r
t as
t il
u cc
v Ã¤nner
z ar
Ã º
Ġ Ã¤l
Ġ ore
in jen
Ġs ag
er ska
Ġa ma
Ġa chie
Ġh j
Ġh ant
Ã¤ cket
Ġm ock
Ġm og
ou st
an m
an nan
Ġf ik
Ġf ult
Ġb ikes
Ġb iscu
at iv
it is
Ġv d
Ġv om
Ġv ek
Ġg ator
Ã¤r s
Ġp ent
Ġp aw
Ġp imp
Ġk g
Ġk usten
Ġo ven
Ġin tact
Ġc aut
ad ian
ĠI bland
ch t
te f
es c
Ġu dda
id ents
Ġr ul
Ġr ation
Ġr igg
ĠfÃ¶r are
ay er
am ine
le mm
ere m
Ġst am
ut ed
na p
pp ade
Ġsom nar
Ġsk ild
Ġsk olk
Ġvar i
ĠS ar
ĠS ug
ĠS up
ĠS inc
Ġre ass
od i
Ġan al
Ġan stÃ¤lla
ĠM ist
ĠM au
ĠM IGHT
Ġwe bb
Ġde but
Ġall ians
Ġgo ose
ĠH uman
Ġfr ik
Ġfr anc
Ġfr Ã¤ls
ak o
ol igt
ĠA qu
ĠA PP
ĠD uck
ĠD unn
ĠD VD
Ġom ring
ĠC ord
ĠC old
Ġtr ycket
ĠB ed
ĠB ET
ĠB ald
ĠsÃ¥ klart
de partementet
ok o
ĠT ol
ĠT rist
Ġhan terar
ĠN ARRATOR
ĠG h
ĠG w
ĠG IVE
Ġlo vers
us ions
th ree
ĠJ Ã¤v
ĠJ up
ĠL on
ĠL ea
ĠL ip
Ġbl ues
ie g
ĠP ur
ĠP aw
ĠP UT
Ġsp ook
Ġsp ont
Ġsp ots
Ġsp ider
Ġch im
um men
ĠR ap
ist inct
Ġhim la
ore y
ĠK ell
ĠK athy
ud y
ĠE mer
ĠE ugene
Ġthink in
Ġpr on
Ġpr Ã¶va
Ġhel vet
ans er
Ġupp mÃ¤rks
Ġsu ver
Ġsu ite
end ous
ĠdÃ¤r efter
Ġsl ing
Ġbr inna
Ġar se
Ġar sle
Ã¤ll t
ong o
Ġgu id
Ġcon dem
ord nade
ĠÃ¶ver gav
Ġbo ats
Ġbo obs
ik lar
Ġint rig
av ed
ose velt
Ġpre l
FÃ¶r lor
All ison
Ġsm et
Ġdr one
ĠvÃ¤n stra
ĠCh andler
ĠÃ¶ ns
Ġsin s
get s
Ġtid punkt
ĠHe idi
ats er
pl ess
akt igt
pt ic
St Ã¥r
ĠSt ory
Ġco in
Ġsc ra
Ġsc ram
Ġsc rap
Ġfick a
Ġperson alen
ater al
Ġmiss ile
Ġbad rum
ĠÃ¤lsk ad
Ġro ar
ĠTh ought
kl us
ĠJa x
ĠTH ANK
Ġins ett
Ġins ert
Ã¤ld ig
ĠGod damn
Ġwait ress
Ġled iga
nat ur
Ġbes Ã¶ker
Ġbes Ã¤ttningen
Ãħ R
Ġhead ache
row ing
Ġsur ge
Ġpass es
ail s
Ġcomp are
ffer ent
ĠkÃ¶ ns
Tack a
AR M
Ġkon ferens
wh en
ĠSo ciety
Ġtro gen
Ġtro ligt
oc ate
oc aly
Ġhal sh
ON T
vÃ¤r re
Ġev igheter
ĠvÃ¤rld s
Ġcr ashed
Ġcr ashing
ĠberÃ¤tt elsen
olog in
Ġmove ments
Ġkr Ã¥ng
Ġgenom brott
Ġmag isk
Ġmag iskt
Ġarbet are
ĠSe o
Ġfight ers
Ġcount ed
Ġpat ri
Ġpat terns
ĠÃ¥ter igen
Ġconf essed
Ġbreak down
Ġspr Ã¥ket
oke y
Ġsleep s
ĠSte p
Ġclear ance
Ġleg ally
Ġorder n
ĠSp ark
ĠSp ider
Ġfre aks
yl on
yl vania
Ġart s
Ġbur ner
Ã¥k igt
Ġrad era
ric ane
Ġinst inkt
ĠfÃ¶rÃ¤nd rat
fl ix
ĠmÃ¶j lig
Ġfilm ing
sm ak
Ġla zy
Ġhor or
Ġind icate
kan en
Ġrid dare
Mar garet
Ġinvest era
iker n
Ġstad s
cl uding
Ġgammal dags
Ġintress en
Ġhair cut
ĠÃ¤g are
Ġtw in
Ġkropp s
Ġkropp arna
Ġcatch es
Ġgrabb arna
Ġma intenance
ĠhÃ¶ ja
Ġexc uses
bur ger
bur gh
Ġenerg in
Ġinvestig ator
Ġfail ing
ĠVill age
Ġbill igt
Ġbill igare
Ġtrick y
con ne
Ġkung liga
Ġutom lands
Ġkidnapp ning
Ġeight h
Ġfool s
Ġbehand las
Ġvir uset
Ġlog ical
ĠCr ime
ĠsÃ¥r et
Ġpil ots
Con nor
ĠtillfÃ¤ll igt
Ġreser vation
achel or
Ġgrow th
IR L
ĠVal erie
ĠtÃ¤v lar
ĠskÃ¤l et
ĠÃ¤ld sta
Spe ak
Ġgrav ity
Ġscream s
Ġjur isd
ĠPl us
ĠEric a
Ġcelebr ity
Alex ander
Ġspar at
Ġutveck ling
ĠanstÃ¤ll de
ĠfÃ¶rsvar et
kont roll
ĠrÃ¥n ade
Ġanm Ã¤lde
Ġkam rat
ĠlÃ¥n ar
Ġanklag elser
ĠfÃ¶rvÃ¥n ar
Ġobject s
Ġrefer ence
ĠfÃ¥g lar
ĠfÃ¥g eln
ĠRock y
Ġindust rial
HÃ¤l ften
Ġlic ens
ĠLouis iana
Ġfore head
Ġsum ma
ĠBeck y
Tills ammans
ĠEurope an
ĠHay ley
resp ond
Ġhud en
Ġgemens amma
Ġparad iset
ĠÃ¶v ning
ĠmardrÃ¶m mar
ĠprÃ¤st en
Famil y
ĠrÃ¶v hÃ¥l
ĠSv arta
Ġdeli ber
ĠdjÃ¤v ul
Ġprakt ik
Ġkork ade
lÃ¤gg ande
Ġpor ch
ĠBow l
Ġaccompl ished
ĠbegÃ¥ vad
Ġshr imp
Ġgrant ed
ĠBeat les
Ġque er
kla pp
Ġutpress ning
Ġacqu aint
Ġshout ing
ĠÃ¥n ger
vÃ¤ll en
Ġtatu ering
Ġbeord rade
Ġcorrupt ion
Ġkoncentr era
ĠMem orial
ÃĦnd Ã¥
Ġkny ta
Ġsmek namn
ĠRec ords
ĠNa omi
Ġreun ion
Ġklant ade
ĠjÃ¤ttek ul
ĠgrÃ¶ns aker
Ġvardags rummet
ĠCad illac
Ġdeclar ed
Ġsentiment al
ĠRol and
Ġober oende
Ġdjung eln
Ġdeprim erad
CHUCK LES
Ġnark ot
Ġmush room
AUGHT ER
Ġancest ors
Que en
kapt en
Ġlux ury
Ġarriv al
Ġsurviv ors
ĠFIR ST
A k
A le
B all
C ou
C ER
C ourse
D U
D ick
D ark
D NA
E v
F al
F und
H omer
H istor
J oy
K L
K ing
L ika
L ET
M organ
O per
O SE
P T
P uss
S id
S ever
T elef
b ts
c s
c ur
d id
e ger
f und
g i
g os
h at
h or
h ales
k ur
l ust
l ack
n ia
p op
r Ã¶v
r ots
u ke
Â ¡
Ġ ere
Ġt ig
Ġt utor
in ea
Ġs ang
Ġd ryck
Ġd owns
Ġh unch
Ġh ump
en ne
ar re
Ġm ol
Ġf ier
Ġb und
Ġb aking
Ġb etting
Ġb unk
Ġb Ã¤gge
Ġw aking
Ġw ander
Ġw icked
at us
or da
Ġg yn
Ġg Ã¤llande
st all
st Ã¶d
st ugan
re j
Ġp on
Ġp ian
Ġp alm
Ġn igg
Ġk ax
Ġk ista
Ġk afÃ©
Ġl ax
Ġl amb
is erad
Ġo j
Ġo av
Ġthe ft
Ġin app
Ġin ev
Ġc ad
Ġc ob
Ġc ough
ĠI gor
ch ildren
ow e
Ġen thus
Ġr ash
Ġr unda
am o
Ġi kapp
Ġst amp
Ġst ove
Ġsk ed
Ġsk id
Ġsk akar
Ġsk Ã¥pet
ra in
ĠS or
ĠS we
ĠS ER
ĠS aw
ĠS tern
ĠS outhern
Ġre ktorn
ĠM R
ĠM oh
Ġde ploy
Ġall iance
Ġmed ie
ĠH ung
Ġfr ies
ter m
ĠA CT
Ġwas hing
ĠD AG
Ġvi cious
ĠC ode
ĠC ohen
Ġtr ipp
Ġtr ials
ĠB ase
ĠB ek
ĠB AR
ĠB uch
sk ed
sk riv
sk raft
Ġmin uten
ĠT ab
ĠT WO
ĠN ya
ĠG ib
th ink
ic us
ĠJ ak
ĠJ ama
ĠJ asper
ĠL ara
ĠL ass
ĠL odge
ĠL loyd
Ġbl und
ĠP ul
ĠP erson
em o
Ġvill ain
ĠF ish
ĠF attar
ĠF antast
ul ated
um ed
ĠR UN
ort al
ist ern
ne j
ĠK u
ĠK ap
ĠK IND
ĠE instein
ĠV I
ĠV Ã¤ldigt
Ġupp hÃ¶r
Ġsu cker
end ers
Ġus la
ge ance
Ġpro s
Ġpro var
Ġsl aget
Ġbr Ã¤nt
Ġbr anch
Ġbr Ã¤nsle
Ġar ena
ĠW o
ĠW ald
Ġex cess
Ġsome what
Ġing Ã¥ng
Ġback ar
iss ors
ger ingen
ep ar
ound vik
Ġtal et
Ġoff ensive
In om
Ġdem oner
Ġcon sent
ĠÃ¶ver giv
ĠÃ¶ver huvud
ik ationer
ĠdÃ¶ v
Ġfl ames
ys er
Ġun cover
Ġun employ
ĠdÃ¥ re
Ġhand ful
ip es
Ġsm oked
ock er
Ġpe pper
opp et
ug ger
SÃ¥ dÃ¤r
Ġhapp ily
sp Ã¤r
Ġam atÃ¶r
Ġtid ningar
Ġtid slin
ĠHe ctor
Ġgl Ã¤der
ĠU T
ĠU FO
ĠfÃ¶rst Ã¤r
Ġmor m
ĠSt jÃ¤rn
int y
Ã¤st en
Ġco vers
Ġsc ent
Ġsc ares
Ġmo gen
Ġmo tel
ĠdÃ¶d lig
Ġsy nder
Ġstr ida
we ight
ĠtrÃ¤ den
ru de
Ġtur bul
ĠsjÃ¤lv isk
ĠsjÃ¤lv stÃ¤nd
kl ubben
Ġcar ing
ĠGod s
Ġdis order
sten en
sten ar
Ġled ning
ĠDe b
Ġ3 9
Ġsch iz
ets ar
Ġsky nd
gr unden
Ġfull kom
Ġexp ression
iver pool
Ġkon cept
ĠkÃ¶r d
Ġtro vÃ¤rd
ĠhÃ¥ll as
oc ated
Ġmar in
Ġbeg Ã¤rt
Ġremember ing
Ġgre ps
ĠanvÃ¤nd ning
Ġinter f
Ġlag at
Ġlag ade
Ġbar mhÃ¤rt
Ġpolis ens
Ġwatch es
Ġtest er
ĠEn ough
uc ci
ĠRe al
ĠBl ood
ator er
az el
ĠSk ott
Ġlight ing
Ġoper a
Ġkvinn lig
ĠfÃ¶rstÃ¥ nd
ĠtjÃ¤n ster
iam ent
Ġcor oner
Ġry sk
Ut om
fl ottan
ĠmÃ¶j ligen
Ġind ic
rott ning
Ġcent r
Ġant icip
utt ers
Ġband s
ĠAm bassador
ĠCol orado
Ġbek Ã¤mpa
amer an
Ġjud ges
ĠgÃ¶m d
Ġhalv vÃ¤gs
Kl iv
Ġloc ate
ĠursÃ¤kt ar
Ġbag age
off ee
Ġdy kt
ran ger
que z
Ne ill
ĠChe f
Ġcommun ications
aket et
Ġcons istent
Sm all
Ġknock ing
UN G
ĠAnt oine
Ġapolog ies
ĠHE Y
Ġrece iving
ĠkrÃ¤v des
Ġcas u
Ġansikt s
Ġrema ining
ĠBro oke
jÃ¤v ulen
ĠJan ice
Ġvol ume
Ġorsak at
Ġment alt
ĠBea u
ĠJu de
Ġkyss er
Ġproject s
Ġamerikan erna
Ġconvin cing
ĠfÃ¶rh Ã¶ra
Ġpal ats
Ġexplos ives
Ġexplos ionen
Fly g
Ġrelax ed
Ġmotor vÃ¤gen
Ġsamarbet e
ĠCra zy
Jul ie
ĠHaw kins
ĠSH OULD
ĠMag azine
ĠhjÃ¤rt ans
fly g
Ġinfe kter
Ġanklag a
ĠJen kins
Ġsoft ware
incip al
ĠTw enty
Fort y
Par ker
Ġignor era
Ã¼ h
Cle an
Ġexplod erade
Ġobser v
Ġshift s
ĠGeorg ie
ĠSol omon
Ġchem istry
Ġpir ate
Bet ween
Ġparker ing
Ġposit iva
Ġarrang ements
resp ons
Hand lar
Ġmas ken
ĠanmÃ¤l an
Ġscar f
Luc a
Ġveget ables
ĠGun nar
ĠRome o
ĠGU YS
ĠCourt ney
Ġfrust r
Ġnegoti ate
Ġkrist all
ĠfÃ¶rbjud et
Ġpoet ry
Ġbaj s
Ġcooper ation
Ġmars ch
Ġannounce ment
ĠRepubl ic
Dar ling
Ġvig il
Ġgry ningen
ĠSA ID
Ly ft
ĠunderrÃ¤tt elset
ATH ER
ĠhÃ¤x an
Bru ce
Steph en
Ġlesb ian
keep er
Stra x
ĠkÃ¤rn vapen
Bak om
Ġsusp ended
ĠjÃ¤mfÃ¶r t
fig ur
ĠPic ard
Ġintroduc ed
Ġrode o
ĠRic ardo
Ġanty der
ĠIsab ella
Cher yl
Ġfianc Ã©
SkÃ¤r p
ĠColomb ia
Ġdiskuter ade
ĠOak land
ĠSlo an
insp ektÃ¶r
Ġjan uari
Ġschol arship
Ġcollaps ed
Nar rator
ĠVul can
Ġapt it
ĠHEL P
ĠMagn us
Ġorg ans
ĠWis cons
âĢ« âĢ«
Ġsvimm ade
ĠBarna by
ĠPenns ylvania
Ġprel imin
2 9
3 7
A ct
A pril
B i
B itch
B org
C opy
C ontin
D or
D ylan
F Ã¤r
G ri
G ET
I r
I an
J AG
K rist
K Ã¤nde
K riget
L ay
L ess
L aw
L ena
L iam
M itch
N S
N orth
P al
P op
P ush
S ad
U FF
V atten
V erk
Z ack
a id
a ft
b us
b orna
c od
c omm
f our
f Ã¤ll
g ian
i qu
i ques
k alla
l ord
m Ã¤ssigt
n ats
p ent
p nad
r ens
r iska
s igt
s ik
s aker
t it
u y
u ction
v Ã¤tt
x imately
z an
Ġ Î
Ġ oundvik
Ġt ej
Ġt ide
in is
Ġs edd
Ġd na
Ġd ime
Ġh ats
Ġh ugga
ar o
ar med
ou ri
et ed
Ġf asen
Ġf astest
Ġb unden
on n
Ġw agon
at ives
it ers
it ann
Ġv int
Ġv Ã¥ga
Ġg ata
Ġg yllene
Ġp ank
Ġp uff
Ġp ung
Ġp ony
Ġy t
Ġn Ã¤tter
Ġk anten
Ġl s
Ġl ett
is el
is men
is cher
Ġc ement
Ġc opper
te xter
Ġdet ektiv
el igt
ve ster
Ġdu ll
al ia
Ġbe ers
Ġr Ã¤ck
Ġr amp
Ġr atten
Ġr oses
Ġr umpan
Ġr hythm
ĠfÃ¶r ned
Ġst air
Ġst ulen
Ġsk atten
ra iser
Ġhar dest
ĠS end
and an
Ġhe ist
ĠM onsieur
Ġde er
Ġmed arbetare
ce ut
Ġgo og
Ġtill fÃ¶r
Ġtill Ã¥ta
ĠA I
Ġsh ith
Ġsh iny
Ġkn ives
ĠD y
ĠD ag
ĠD ol
ĠD ags
Ġvi ctor
ss p
ĠhÃ¤r inne
ant ing
ett on
ĠC er
Ġse ed
Ġse eds
ĠB urt
Ġdig n
un ken
kt ober
Ġmin eral
ĠT it
ĠN igel
ĠG ail
ĠG IRL
Ġjust it
Ġlo ft
us ande
ĠL is
ĠL ydia
ta ils
Ġbl o
Ġman iac
are v
ĠP D
ĠP acey
ĠF L
ĠF int
um Ã¤r
Ġut sp
Ġut gÃ¶r
Ġhere by
ne e
ess ler
ĠK em
ob il
Ġhel gon
ab out
Ġsu gen
end ment
end ale
ĠdÃ¤r pÃ¥
Ġtim mars
ĠW omen
Ã¤m da
ate o
Ġle ather
Ġgu bbe
Ġbeh Ã¶ll
Ġwere w
ord ning
ble ep
Ġgr am
ĠÃ¶ver vÃ¥ningen
Ġbo g
Ġbra ke
Ġbra cel
Ġkl ump
Ġfe ather
ide o
FÃ¶r h
Ġunder jord
Ġgj orda
Ġsm Ã¶g
Ġsm Ã¥ning
Ġwork shop
ĠCh oi
Ã¤ng da
sp resent
ĠHe art
ĠU H
amil a
akt Ã¶r
Ġel der
St en
ĠSt Ã¤ll
Ġingen jÃ¶r
ĠVi k
Ġsc oop
Ġmat ure
Ġmat lag
ĠsjÃ¤l s
Ġperson s
Ġtheir s
sh istor
ru tt
Ġro v
ĠTh orn
ĠTh ings
IN A
Ġnight mares
kl ipp
Ġad minist
nes see
Ġson en
ary l
ee ves
ors aken
Ã© l
Ã© er
Ġdis rupt
Ġdri ck
AN CE
Ġhouse hold
inn et
Ġpass word
gr Ã¤v
ĠAll y
Ġsett s
ĠFr am
del en
Ġacc using
Ġdead line
Ġfast ighet
ty d
Ġur in
Ġmet aph
Ġres et
Ġpu ppet
oo f
Ġdef ensive
ĠrÃ¶ kte
Ġstand ards
Fr un
Ġhum ble
Ġpat ent
Ġmus lim
Ġrel ations
ĠÃ¥ter vÃ¤nt
ppen bar
Ġbed rÃ¤geri
ĠstÃ¶r t
Ġlig g
Ġsw orn
Ã¤k la
ĠhÃ¶g kvarter
ĠCl an
ĠCar rington
Ġattack erar
Ġmod et
Ġ10 1
Ġbas erat
Ġpolice man
Ġinc on
ĠEl sa
ĠEl isa
ouch e
ĠDan ielle
Ġ9 8
Bl ood
Ġsj ung
Ġcor rid
Ġoffic ials
Ġdep th
Ġhor ny
ĠBar b
Ã¤d de
Ġgrand daughter
alm on
ĠMc Donald
Ġstad ium
fr Ã¥g
Ġbox ing
ĠfÃ¶rtj Ã¤na
Ġcap acity
ĠvÃ¤x el
Ġopp onent
Ġpen alty
By t
ĠRich ards
ĠMike y
Ġmask s
Ġljus en
vak ter
ĠOl ive
Ġhall en
Ġroad s
Ġresult aten
ĠspÃ¥r et
AK ES
ĠOn ce
Ġtillf Ã¥ng
Ġcre ation
Ġcook ed
Ġsqu irrel
Ġpsych ological
Ġcontin ued
ĠCarl ton
ĠMed ical
Ġ14 0
Ġutom hus
Ġglas et
Ġkidnapp ade
Ġcamp ing
Jack ie
Ġlar ger
Ġpract ical
ĠfÃ¶d s
Ġlog ic
ĠWil co
ĠhÃ¤st arna
ĠDel ta
Ġterror ister
ĠstÃ¤ng d
ĠSa id
Ġpsyk opat
Ġcigar r
Ġrecogn ition
ĠMel anie
Ġkry ss
ĠSE C
Ġsty relsen
Ġconvers ations
slag na
ĠPe arl
Ġtor ra
ĠfÃ¶rber edd
Ġcivil ization
Ġinterview s
Ġguard ian
ĠFin land
Ġtrad ing
Ġromant isk
Sy ster
ĠstÃ¶d ja
ĠMatt y
ĠkÃ¶tt et
gu ard
Frank ie
Ġlang are
ĠPet erson
ĠJer ome
ĠÃ¶verlev ande
Tra cy
Ġplac era
ĠDar ius
Ġobject ive
Ġaffect ion
Ã± a
ĠÃ¶vervak nings
ĠPal ace
Ġvakt ar
ĠJosh ua
Ġinflu en
Ġsubject s
Ġbatter ies
Ġexplod ed
Ġgather ing
ĠÃ¶verl Ã¤mnar
Ġanl ita
Ġstrun ta
Ġult im
Ġchem icals
ERS ON
Barn et
Ġyoun gest
ĠSta cy
ĠlÃ¶n n
ĠfÃ¶rvand la
ĠEth el
Ġhug ger
Ġkop ior
ĠfÃ¶rhand la
ĠMid dle
Ġvars Ã¥god
spro gram
bre lla
Ġinvester are
Ġscient ists
Ġskaff ade
Und an
Def initivt
Ġgrann arna
Ġschem at
Ġelectric al
Ġsandwich es
Ġrespond ing
ĠÃ¶vertyg ade
Ġspin ning
Ġelekt ron
ĠfÃ¤st man
ĠfÃ¤st mÃ¶
Ġmusk el
Ell iot
ĠstÃ¤d ar
ĠskÃ¥p bil
ĠLang ley
Ġreporter s
ĠNaz is
Ġrop ade
ĠGray son
ĠAp ollo
Rick y
ĠfÃ¶rne ka
ĠAustral ien
Ġrepar era
Ken zie
Ġuppfatt ning
Ġnick name
Ġmagn ificent
Ġconcl usion
Ġnewsp apers
Ġnj Ã¶t
ĠpÃ¥verk ade
Ġpurs ue
Ġsmy ger
tog ether
Ġcomprom ise
ĠNY PD
Ġecon omy
Ġbatt les
Ġambassad Ã¶r
Cass ie
Cons ider
Ġteor in
Ses Ã¥
Ġtrupp er
ĠframgÃ¥ngs rik
Ġsho vel
Ġtelefons amtal
Ġcompass ion
Ġorgas m
Ġkomplim ang
Ġbour bon
Ġpolisst ationen
ĠmÃ¤ng der
Ġtraff icking
Ġsou ven
Ġbiz arre
ĠFergus on
Ġuppg Ã¶relse
Ġbarbe cue
MÃ¤rk ligt
ĠsmÃ¥ning om
4 3
6 8
8 8
A udrey
B M
B an
B land
B eth
B rien
B uddy
C ur
C ast
F at
F yll
G ott
G ift
H itt
H ouse
K al
K am
L ots
L ex
M as
M uch
M Ã¥let
N am
N iles
O F
P ack
P ower
R ent
R edan
S et
S ig
S el
S ens
S par
T usan
T anken
V Ã¤ntar
W N
Y ES
b its
b jÃ¶r
c ere
c row
d Ã¶r
f ars
f ym
i ater
i Ã¶st
l Ã¥dan
m ake
r ill
s w
s Ã¤nd
t om
t ons
v art
v arez
Â ĸ
Ġ Ãĸppna
Ġ ï»¿
Ġt i
Ġt ore
Ġt weet
Ġt vek
in erad
Ġa ster
Ġd al
Ġd jÃ¤r
Ġd vÃ¤r
Ġh Ã¥n
Ġh olog
Ġm unt
et era
an terna
Ġf ots
Ġb unny
Ġw edd
at own
it era
Ġv ast
Ġv akten
Ġv oted
Ġv Ã¤ktare
Ġg ur
st iden
re sh
Ġk app
Ġl ane
Ġl ined
is elle
is ionen
Ġin red
Ġc ord
ĠI owa
Ġj aw
ch y
es i
Ġatt rakt
ow itz
ot isk
el ey
Ġdu des
Ġr av
Ġst ans
Ġe pic
Ġwh ale
Ġsk ade
Ġme ga
ra st
ra ff
Ġvar ul
Ġvar umÃ¤r
ĠS ak
ĠS AT
ĠS EN
ĠS leep
ĠS arge
od ie
Ġfor k
Ġdo se
ĠM A
ĠM ain
ĠM erry
ĠM iy
Ġwe igh
il ot
Ġmed elt
ĠH und
ĠH ann
Ġfr ansk
ter ling
ĠA WAY
Wh ose
Ġsh ore
Ġsh ave
Ġsh elf
ĠD um
ĠD AD
Ġvi b
Ġvi cepresident
ant ine
ith a
ĠC D
ĠC LO
ĠB U
ĠB ir
ĠB ul
ĠB ass
ĠB ates
sk all
sk rid
kt ions
Ġav klar
Ġcan na
ĠT ate
ĠT ER
ĠT urt
ĠT UR
ea ble
ĠN C
ĠN ico
ĠG and
Ġlo op
ic erar
ĠJ es
ĠL ink
ĠL enny
ĠL adies
ĠL APD
ste st
ste ban
ĠO P
ĠO la
ĠO tis
Ġab ilities
Ġbl ivande
ĠP M
ĠP and
ĠP art
ĠP ink
ĠP res
Ġout law
ry pt
ff en
Ġsa int
ink el
Ġsp aghetti
ĠF un
ĠF oot
ul et
um pen
ĠR ES
ĠR everend
Ġmen yn
ne ider
Ġher d
Ġpl Ã¥ga
Ã¤nd else
ĠK ra
ĠK ur
ĠK ol
ĠK GB
ud de
ĠE VEN
ĠmÃ¥ lade
Ġhel ig
ab led
ab outs
Ġdin er
os of
Ġpro stitution
Ġar row
ĠW ing
Ġle ase
Ġback yard
att s
De c
De ad
De ep
qu in
Ġgr ades
ĠÃ¶ver ger
Ġkl im
Ġby rÃ¥n
Ġser um
FÃ¶r klara
Ġhand c
Ġhand duk
Ġdr agging
Ġdr owning
Ġpe anut
ĠCh o
Ġhem met
Ġam ate
ĠHe ar
ĠHe ights
Ġkom bin
Ġcl o
Ġcl iff
akt iver
Ġqu ant
Hur somhelst
Ġny e
Ġte amm
Ġco zy
ue z
Ġlea p
ond o
Ã¤v es
Ġpart iet
Ġplan ets
Ġmiss f
Ġner ves
ile en
var ade
vis ad
Ġtra ces
Ġbest Ã¤ller
act ive
io tt
Ġens ure
Ġtj ocka
yr kan
Ã¤kt a
Ġvil sel
ĠlÃ¤ xor
Ġpass era
Ġmind es
gr an
ph ia
Ġexp ose
Ġtag en
ĠÃ¤nd ras
ĠÃ¤nd rats
Ġsju tton
ĠBr ett
Ġfru ar
Ġfamilj erna
Ch icago
nad erna
Ġres ume
Ġpu pp
Ġdum heter
by g
Ã¶k at
Ãĸ D
ĠlÃ¶ ne
ĠDon ovan
Ġob est
Ġtest ade
ĠEn joy
Ġstud erat
vel ous
IS E
Ġsent enced
ĠRe v
ĠRe ich
ĠNew ton
TH ERE
Ġsw ore
Ġspr Ã¤nger
Ġsleep y
ĠfÃ¶re bild
ĠSte in
ivit eter
God a
Some how
ĠSp ike
Ġcoll apse
Ġsol ar
Sen ator
Ġmod igt
Ġmod erna
Ġposs essed
eth oven
Ġart ifact
ekt Ã¶ren
ET S
Ġkro ck
Re becca
ĠGr attis
ĠAmer ikas
Ġol Ã¤mp
Ġpress ing
Ġent it
Ġroll s
Ġoper era
Ġprof essorn
ĠtjÃ¤n ste
Ġpull s
ĠfÃ¶rÃ¤ld ral
str om
Tr uth
Ġgrund lÃ¤ggande
Ġlov ande
Ġpast orn
Ġbok st
Ġchef s
LE ASE
Ġuppt Ã¤cker
Ġsick ness
Ġbank rupt
Br and
Ġbrott et
ĠJul io
Ġmem o
ai ro
ĠgÃ¶m stÃ¤lle
Ġboss es
augh n
Ġhonest y
Ġsituation er
ĠrÃ¥d et
Ġrob ots
Ġpen cil
ĠQu in
Ġcreat es
etter na
Ġly ft
Ġpolit iker
Ġorgan ic
Ġexplain ing
ĠNe ed
ĠNe ither
Ġrespect s
Ġclos ely
Ġdiv ing
Ġbill iga
ĠBill ie
ĠTy vÃ¤rr
orr h
ĠNick y
ĠBo om
ĠInd iana
Ġport rÃ¤tt
Ġmilit Ã¤ra
Ġren over
Ġutom jording
Ġkaff et
Ġsupport ive
gre jer
but ik
Ġappro ve
Ring de
Ġsens es
Ġsens ors
Ġsnack ade
Ġchick ens
CT V
Ġok Ã¤nda
ĠRE M
Ġpossib ilities
Ġow ed
Ġintr Ã¥ng
Ant ar
tem ot
Car oline
ĠÃ¶r at
Ġfisk en
ĠAny way
ĠBea utiful
ĠTe ch
Ġmater ials
Ġvackra ste
Ġsoci alt
Ġuppr Ã¶r
Ġtor ch
ĠJud ith
Ġcrack ed
ĠjÃ¤m nt
Ġtunn els
RI END
Ġrapporter ar
ĠknÃ¤pp t
Ġkamp en
ĠGreg ory
ĠbesÃ¶k are
bes Ã¶k
rep ren
ĠlÃ¤sk iga
Ġdescri ption
Ġincl uded
Ang Ã¥ende
Ġod jur
Ġtit el
ĠKl ockan
EM BER
Ġtum or
ĠfÃ¶rvÃ¤nt as
Ġpassion ate
Ju an
Ġuniform s
Ġexplod erar
Ġdusch a
ĠDor is
Ġtradition al
ĠStr ange
Ġyr ke
Barn en
ĠRu fus
ĠDam ien
Ġsoldat erna
hund ra
ĠMet ro
ĠklÃ¤tt rar
ĠLex i
Ġeffekt iv
Ġflo at
spro blem
ĠbekrÃ¤ft ade
ĠClay ton
Ġvag nen
Ġconv icted
Sweet heart
Ġtras iga
Cool t
Ġschem a
Ġterrit or
Ġteen age
tv iv
ĠgrÃ¤l ade
Work ing
Ġmart yr
Fre sh
Kill arna
Ġfrig iv
Ġincre ase
Ġuppfost ra
ĠsmÃ¤l ter
Ġnag lar
Ġdistur bing
ĠplÃ¥n boken
Ġveter an
Fel ix
Ġpj Ã¤sen
ĠAustral ia
Ġsiffror na
Ġknack ade
ĠvÃ¤lsig ne
ĠANY THING
Ġuppfatt at
ĠTan ner
Ġliqu id
ĠklÃ¤d de
Ġhomosex ual
Ġvacc in
ĠWes ley
ĠGi ul
Ġpsychiat ric
vag nen
ĠSus ie
Ġkalk on
Ġoccup ied
Ġitalien ska
ĠfÃ¶ruts Ã¤g
Ġabort ion
ĠFore st
Ġkval ific
ĠÃ¶ster ut
Ġpassager are
Ġattra her
ĠfÃ¶rg Ã¤ves
Ġparticip ate
bund et
Ġheav ily
Ġcann on
Ġobekv Ã¤mt
Rub y
ĠPu erto
ĠBrid get
ĠMadd ie
Ġpud ding
ĠBudd ha
Ġgaran tera
Ġdent ist
ĠsÃ¶nd ags
Gabri el
Ġkyrkog Ã¥rden
Hanna h
ĠuttrÃ¥k ad
Ġmuff ins
Ġsemin ar
ĠOre gon
Ġkland rar
Ġtvill ingar
Ġkomb ination
ĠUND ER
ĠSinc lair
Ġinapp ropriate
B Ã¶rjar
C OM
C over
D ON
D ale
D ouble
D irekt
E ld
G ER
G ivetvis
H A
I RE
I VER
I OUS
J esse
K A
K arl
K Ã¶tt
L ustigt
M ill
N in
N ora
O peration
P ost
P engar
R iktigt
S and
S aw
S ister
S jung
T Y
T am
T alar
T vinga
W es
W endy
W OMAN
b elle
c ter
c ens
d is
d ans
e ur
f Ã¥
g lass
h Ã¤
j as
k are
l Ã¤pp
m ons
n ere
o in
o ffic
p y
p red
s ons
u ar
v ise
z u
z onen
Â Ń
Ġt amp
Ġt une
Ġt ugga
Ġs que
Ġs udd
Ġs outhern
Ġs ustain
Ġs Ã¶rjer
Ġd ice
Ġh Ã¤ck
Ġh ott
Ġm ount
an as
Ġth read
Ġf isher
Ġf arkost
Ġb inder
Ġb olt
Ġw ink
at re
Ã¶ ta
Ã¶ ns
om ber
Ġv ed
Ġg on
Ġg ates
ag as
re z
Ġp ige
Ġk a
Ġk inder
Ġo bet
Ġin stÃ¤llning
Ġc in
Ġc app
Ġc ured
Ã¶r erna
ad vokat
ĠI b
ch air
te sy
Ġdet ention
el p
Ġdu ties
Ġen rum
Ġr iv
ĠfÃ¶r Ã¶varen
am on
am iner
Ġi P
Th row
ke ppet
Ġst um
Ġst up
Ġst under
Ġst Ã¤mde
Ġst alking
Ġst unning
ver ker
ut u
ut on
Ġsk atter
Ġsk iva
ĠpÃ¥ t
ĠpÃ¥ bÃ¶rj
Ġvar ar
Ġvar ifrÃ¥n
Ġhar mon
Ġhar vest
ĠS at
im ir
Ġan hÃ¥ll
Ġan fÃ¶ll
ĠM and
ent h
ce mber
ĠH ale
ĠH ollow
ĠH ands
ĠH assan
ter as
ĠA ff
ĠA be
ĠD eck
ĠD odd
Ġom k
ĠhÃ¤r med
ant le
ĠC R
ĠC CTV
Ġse Ã±or
Ġtr onen
ri ef
sk it
sk are
sk ning
sk Ã¥pet
de z
Du bb
ĠT rey
ĠT ammy
ĠG ree
ĠG arden
Ġjust ify
ĠJ P
ĠJ ade
ĠJ Ã¤tt
ĠL ars
ĠL uk
ĠL ONG
Ã¤tt ar
Ġab used
are lla
ĠP C
ĠP la
ĠP olisen
ĠP rivate
ĠP atterson
em en
Ġout rage
He ja
Ġsa bbar
Ġsp ik
ĠF isk
ĠF IN
ĠF lynn
ul an
Ġch erry
um er
Ġut rot
Ġmen s
Ġor bit
ĠE V
ĠE xt
ĠV at
ob el
ob ile
Ġpr in
Ġpr ett
fÃ¶r ening
ven ser
end ern
Ġsl ap
Ġing ick
uck ed
uck le
if all
ard ed
att ing
qu el
qu il
Ġbo ld
Ġbo ost
Ġint rÃ¤ffade
ost ret
Ġun re
Ġun ika
ip her
be h
Ġsm ula
Ġcome back
ĠfÃ¶rs Ã¶rja
Ġkv ick
ĠvÃ¤n tan
En ter
Ġvis as
Ġsv im
Ġsv aren
Ġsv iker
Ġid ol
Ġber get
ĠU lt
ĠfÃ¶ reg
St orm
ju ice
Ġny heten
Ġsc ars
ĠsjÃ¤l en
Ġtillb ringar
Ġmo tell
Ġbef olk
Har old
Ġpol ite
Ġpol arn
amm it
Ġperson nel
ĠOh h
Ġgen uine
ian i
Ġtra ppa
Ġcar tel
Ġcar bon
Ġfly tande
Ġad vis
Ġad apt
Ġbit a
Ġbes par
ĠSh ort
ott om
AN N
Ġem pire
Ġold est
Ġsam lat
orn et
Ġsur g
Ġsky ller
ope z
Ġbort sk
Ġinf ant
ĠFr asier
ĠAl most
ib ilities
Ġkon flikt
Ġmar ins
pe ople
Ġweek ends
ĠBr others
Ġtack samma
Ġtack samhet
Ġ4 4
Ġcomm s
Ġcomm ents
Ġnum era
ĠvÃ¤rld ar
Ġbak s
Ġturn Ã©
Ġres ent
Ġresp ir
Ġpu ke
by xor
Ġinv Ã¥n
Ġob es
ĠÃ¥ter kommer
Ã¤k arna
oss ibly
Ġvan ligtvis
God e
Ġkul orna
Ġfig uring
vÃ¤g ar
Ġfact or
Ġidiot erna
Ġsim mar
Ġlever erar
Ġent us
Ex cellent
ĠfÃ¶rsv inn
ĠslÃ¤pp s
Ġmilj ontals
oun ge
ĠlÃ¤tt nad
Ġkvinn as
Bl oody
Ġfollow s
ĠUn it
Sp el
ĠFrank enstein
Ġsvar at
Ġsat ans
Ġshoot s
Ġegen skaper
komm ande
Ġair plane
unn ed
gÃ¥ng sfÃ¶rbud
Ġinvest ed
ĠHer b
ĠHer man
Ġcur sed
ĠMc K
Ġalong side
Ġstad ens
res an
ĠRo osevelt
ĠJul ius
Ġtw elve
Ġdrive way
amer ikan
ĠCon stant
EL Y
Ġbygg des
Ġpost en
NÃ¥n ting
ĠPro te
ĠHi ro
Ġkar ate
Ġfund erade
Ġkor sa
ĠMad am
ĠMad eline
Ġvin sten
Ġcol onel
ĠMa ine
Ġcoff in
ĠCo sta
ĠHel ena
Ġkontakt at
ĠKing dom
ĠspÃ¥r ade
Ġtrick ed
Ġtext en
Ġuppf ann
ray s
Ġakt ie
Ġcho ir
chn ically
Ġsun set
Ġfir ma
Ġfir man
Ġrestaur ants
Cl ay
rym d
ĠInd ust
Ġport ion
Sa fe
ĠPhil ipp
brott s
Ġdrunk na
Ġpur ple
kon st
itz er
Ġdou bts
Ġsuggest ion
ĠSl Ã¥
Ġscrew ing
asc al
Ġsyn ner
Ġtechn ique
gift ning
ĠPer cy
ĠPer fekt
Ġlaugh ed
Ġintell ect
Ġdiscuss ion
Ġfrukt an
ĠStar b
Ġbutt ons
ĠRobert o
Charl otte
ĠfÃ¶n stren
Ġinbland ning
Ġras ande
Ġobe h
ĠfÃ¶rh oppningsvis
Far vÃ¤l
Ġcit ron
Ġexem plar
ĠfÃ¶rhÃ¥ll andet
Tro ligen
Ġshock ing
Ġmarket ing
Ben jamin
Ġug nen
ĠHaw k
ĠskÃ¶ter ska
NÃ¥ ja
ĠÃ¶verlev nad
Ġerk Ã¤nnande
Ġcru cial
Ġod Ã¶d
Ġhyp not
Ġkons ul
Ġsvag het
ĠMont ana
ĠHam mer
ĠfÃ¶rvÃ¤nt ningar
ĠslÃ¤kt ingar
Ġsettle ment
Ġindust ri
Ġkok a
Ġexec ute
ĠhÃ¤ft ig
Ġond ska
Ġanl Ã¤nde
Ġbond s
Ġcere al
Ġstarka ste
Ed ward
oren zo
Ġactiv ated
Ġlaunch ed
Res ult
Ġexperien cing
Ġuns ub
ĠHÃ¶r de
Ġkem ikal
ĠsvÃ¥ra ste
Paul a
ĠbekrÃ¤ft at
Sec urity
ĠIng rid
worth y
Ġbug s
ĠPort land
Ġkomplic erad
Ġhals band
Sweet ie
Ġlid it
Ġreag erade
Ġinbjud en
ĠbegÃ¤r an
Ġquarter back
ĠpÃ¥m inn
Ġfruktans vÃ¤rd
Ġgradu ated
Ġlamp an
Ġsnut ar
ĠbefÃ¤l et
ĠMus lim
ĠSqu ad
Ġsikt a
Ġliber ty
ĠÃ ģ
Ġgala x
Ġreplace ment
mÃ¶ te
Ġpara ch
Ġkna ppen
Ġkna cka
Ġlill asyster
Ġplock ade
Des pite
Ġtve ka
Ġpaket et
Jess ica
Ġskru v
lyss a
Ġmechan ic
Ġassass ination
Ġavs ikter
ĠfÃ¶rrÃ¤ deri
Ġcand le
Ġdott ern
Ġelever na
Po Ã¤ngen
Ġnj uter
Ġnin ja
ĠsmÃ¤rt samt
Ġded icated
Ġpant ies
ĠTen nessee
ĠvÃ¤gg arna
Ġrepet ition
Ġjunk ie
Dam on
ĠLin us
Ġgrat itude
Wr ong
Ġmeas ures
Ġyog urt
Ġfeg is
Ġupply s
Ġkandid at
Ġskak ade
Ġharass ment
ĠBrig gs
Ġencour age
Ġmedal j
ĠNich olas
ĠSad ie
Ġstrict ly
Ġcri cket
Ġmatt ress
bÃ¶ cker
ĠOct ober
ĠkÃ¤nslom Ã¤ssigt
hur st
Ġeter nal
Ġprescri ption
Ġcoordin ates
ĠofÃ¶rsk Ã¤md
ĠÃĦl skling
ĠtrÃ¶j an
ĠGRE AT
Eth an
Event ually
usal em
Ġphil os
ĠImper ial
ĠAssoci ation
Ġwand ering
Ġrans om
Ġseiz ure
ĠBened ict
ĠFranc ine
Ġgymnas iet
Ġreceip t
Ġcertific ate
Luck ily
might y
ĠsjÃ¤lvfÃ¶rtro ende
Ġperf ume
ĠSug ar
ĠWiscons in
" '
9 6
A x
A IL
B AR
C U
C ount
E gentligen
F T
F eels
H om
H ittar
J UST
K iss
K ung
L ot
L Ã¶jtnant
M ord
M orm
M ain
M ED
N ad
N OT
O ICE
P O
R os
R ym
R aring
S C
S un
S pl
T em
W ater
a fton
c ie
c ross
d alen
f am
f rey
g jord
k ers
k oll
l ow
l Ã¤mna
l istan
m ill
m itt
m amma
n itt
n Ã¤t
o va
o oh
p ath
p appa
r ous
s co
u pt
w art
w yn
Ġt ass
Ġt ender
Ġt Ã¤lt
Ġs ve
Ġs essions
Ġa fri
Ġa kta
Ġd izzy
Ġm it
Ġm unk
Ġth under
Ġth ieves
Ġf ox
Ġb reeze
Ġb ounty
Ġw inners
Ġv y
Ġv Ã¥t
Ġg umm
ing a
ag d
st ore
re ma
Ġp es
Ġp als
ig s
Ġn ud
Ġn Ã¥l
Ġk als
Ġk ings
Ġk Ã¤pp
is i
Ġo vÃ¤
Ġin quir
Ġc akes
Ġc yn
Ġc attle
ad der
Ġj Ã¤r
ch ief
ill as
es p
es on
Ġatt ic
ot yp
ve stig
al ade
Ġbe es
Ġen vy
Ġr uled
ĠfÃ¶r n
ĠfÃ¶r aren
Ġst rik
Ġand an
Ġwh ipped
Ġsk ilda
Ġsk ippa
Ġha cka
Ġha kan
Ã¤n na
ĠpÃ¥ gick
ĠS ie
ĠS ever
ĠS ax
ĠS OM
ĠS IG
ĠS ierra
Ġre ver
Ġre gr
im b
Ġfor med
Ġhe els
out ing
ĠM I
ĠM os
ĠM OR
ĠM ika
ĠM ills
Ã¥r ande
Ġmed ge
ust ral
Ġgo sse
ĠH ub
ion de
ĠA gu
ĠD ill
ĠD ess
ĠD oll
ĠD IS
Ġvi c
ss pel
ĠC ary
ĠC athy
ĠC ontrol
ĠB ast
ĠB orde
ĠB ug
ĠB ets
ĠB rick
ĠB abe
ĠB laine
Ġdig it
ri ster
sk Ã¥p
Ġne at
Ġne arest
kt uren
Ġmin es
Ġav en
Ġcan s
ĠT i
ĠT ool
ĠN Ã¥
ĠN og
ĠG ick
ĠJ our
ĠL amb
ĠL acey
ĠL iverpool
ste ps
ste kn
ĠO M
Ã¤g arna
ta ke
Ġbl az
Ġso pp
He ard
Ġsp ol
Ġsp isen
um my
ĠE z
ĠE sp
ĠE lla
ĠE agle
ation erna
ob han
ĠdÃ¤r med
Ġsl ant
Ġsl Ã¤ck
Ġsl agen
Ġbr ansch
he j
ĠW at
ĠW ah
da fri
Ġer ase
Ġas iat
Ġle ktioner
Ġle aning
att i
Ġsee king
la pp
Ġtal ents
In ne
Ġdem ent
ĠDet samma
ens ions
ĠÃ¶ver sten
ft ar
Ġint imate
Ġun believable
Ġhand skar
ood le
Ġdr Ã¤kten
Ġpe ka
opp ers
Ġkv alitet
ĠCh annel
Ġover all
Ġover come
Ġhem lÃ¶sa
ĠÃ¶ len
ich Ã©
Ġcl ick
ĠU tah
Ġsak es
Ġjobb iga
ĠSt ack
bl ood
ske ppet
ju v
red je
ĠVi ktor
Ġverk samheten
Ġte aring
irst en
Ġco tton
Ġsc issors
Ġmat es
Ġsn uck
ĠbÃ¶r da
Ġfri heten
lar m
ikt ig
Ġstart at
ru pp
ru ly
ath a
var en
Ġtur ist
ult en
Ġfram ed
Ġtre spass
ĠTH R
ĠTH OUGHT
Ġmust ache
Ġdis m
Ġkind ly
ĠIn n
ĠIn nan
Ġpar agra
Ġpar fym
Ġbes Ã¶kt
Sk ad
ĠSh in
ĠSh ay
ĠSh ell
rat ive
Ġord ent
Ġem bassy
Ġbil olycka
Ġbre ven
isst Ã¤nkt
rÃ¤ dare
ĠMar ion
ĠMar ga
ĠMar jorie
ĠlÃ¤r aren
ĠSo cial
Ġmar ion
Ġhopp ats
Sh awn
Ġfil er
Ġlik ing
Ġpri ces
ĠBr asil
ĠBr endan
ask inen
Att ention
Ġskri vet
jud et
Ġprecis ely
ĠsÃ¥n ger
ĠlÃ¥ng sam
Ġinter cept
Ġlag ret
Ġdum pa
ĠTHE IR
ĠstÃ¤ll ning
Ġkr ut
Ġkr ama
Ġkr ona
Ġob sc
Ġperfe ction
Ġvikt en
Allt ing
Ġstud ie
Ġstud ier
Ġval id
Ġprom ising
Ġpat ron
Ġrel ay
ĠÃ¥ter skap
ĠBl ock
ena ste
ĠSte vie
Ġret ired
Ġkonst ant
ĠLe ila
Ġinform ant
Ġskad an
Ġset up
Ġinc omp
Ġbur k
Ġbur glar
ĠfÃ¶rv Ã¤nta
ĠbehÃ¶v des
Ġol ag
Ġsim ul
Ġsim pl
Ġexper ts
Ġrad ical
Ġblod tryck
any a
Ġspeak er
Ġoper erar
Ġpresent erar
Ġprof its
ĠfÃ¶rr Ã¥da
Ġsj Ã¤tte
Sp ara
fl ies
fl ickan
Ġball et
Ã¤t are
Ġdep uty
Ã¤nn iska
Ġbild a
Ġbok a
Ġind ul
Dr Ã¶m
Ġexpect ations
Ġform ula
ĠBar on
ĠmÃ¤r ks
ĠLook ing
Ġsan ct
ĠMin i
Ġrisk ing
Ġcur tain
Ġcur iosity
ĠMc Gee
ĠAd jÃ¶
res ents
Ġcell er
Ġhy dro
Ġhy brid
Ġclass ified
Ġtelefon nummer
ĠPr inc
bor ah
ĠÃ¤g na
Ġbrott splats
Ġgalen skap
ĠGu er
Ġtyp ical
ĠAb el
ĠAb igail
ogra fer
Ġpapp or
ĠMart a
ĠbÃ¤st is
Ġra ising
Ġdress es
Ġham burgare
arbet et
Ġgener ally
ĠhÃ¶ll s
Ġpolit isk
Ġtem pel
Ġheal ed
Sam antha
arth y
Ġtext ing
ĠfÃ¶rm Ã¥gor
Ġakt iviteter
Ġexist ens
Ġris ing
Ġsun shine
Ġrent ed
ĠFran ces
Ġport en
ĠsÃ¥d Ã¤r
Ġcamp s
Ġlar met
Ġfyll d
Ġelect ronic
Ġ0 8
but iken
Ġlim o
Ġhonor able
ÃŃ as
Ġneg le
ĠÃ¥tervÃ¤nd e
Ġpiss ing
Ġcas ual
Ġot ill
Ġintell ekt
jÃ¤v lar
Ġopportun ities
Ġtravel ed
Ġequ ally
Car ter
Car ol
Ġprop osal
vent h
Ġtred j
Sv art
Ġsty rel
Tj ugo
Ġcy cle
Ġgrupp er
ĠfÃ¶delsed agen
plan et
Ġmisslyck ats
Ġcivil ian
Ġsle eve
Ġjournal ister
ĠÃ¥ld ern
Ġkommun ik
ĠÃħ t
Ġcollect ed
Ġfaith ful
Ġtour nament
fÃ¶rs Ã¤k
Ġutveck la
Ġgro tta
Ġappl ication
Ġaut ograph
ĠmÃ¤rk liga
Ġalternat ivet
ĠstÃ¶ ta
Ġavslut at
Ġdiskut erar
Ġdeb ts
Ġshirt s
Ke ith
Ġhorri f
Ġsched uled
ĠAS K
ĠfÃ¶rvir rande
Ġanfall a
Bo om
ĠÃ¶vervak ning
Ġax lar
ĠFR ÃħN
ĠWood y
Tar get
Ġgru van
mod ern
ĠLy on
ĠSy nd
ĠAri el
kr Ã¤m
Ġobser ve
Ġpump kin
Ġyng sta
ĠnÃ¥d de
Ġtrygg t
Ġrit ade
ĠsprÃ¤ng de
Ġpir at
Ġperform ed
Ã¤nnisk or
Ġzomb ies
Ġhed ers
ĠBeck ett
Ġappoint ed
Ġdisg race
Ġmotiv ation
Ġfys isk
Ġess entially
ĠMum my
ĠvÃ¤rde full
Talk ing
ĠLight ning
ament et
Co ach
bour ne
ĠgrÃ¤s et
Ġ194 4
Ġsatell it
Ġholiday s
Ġlamp orna
Ġbekym rar
Ġnons ens
Ġhelik optern
Ġassoci ates
ĠvÃ¤st ra
Ġseger n
Ġcompla ints
Ġmaj s
ĠHard y
ĠGuard ian
Ġtermin al
Ġskrivbord et
Ġvink el
Ġtrou bles
Ġprosec ution
ĠjÃ¤ttef int
ĠfÃ¶rsk ott
Ġseri Ã¶s
Ġcounsel or
Ġsatisf ied
Ġrefle ction
Ġexecut ive
Ġanteck ningar
Ġingred ients
Ġorigin ally
ĠChan el
Ġmonitor ing
ĠbestÃ¤ll ning
ĠPhill ips
famil jen
Ġbevak ar
Ġrykt as
Ġtwist ed
Ash ley
Ġchalleng ing
Ġchalleng es
Ġhalluc ination
ĠsmÃ¤ll en
ĠFly tta
Wr ite
Ġrut in
ĠskÃ¶ld p
fir ma
ĠPlan et
Ġvand rar
adel phia
ĠVick y
Snabb t
ĠByr on
Ġinher it
Ġtugg ummi
Ġkrasch ade
ĠomÃ¶j liga
lÃ¤ng es
ĠCT U
Ġrepubl ikan
ĠLiber ty
ĠsuperhjÃ¤l te
Ġforens ic
ĠZo ey
Ġkassask Ã¥pet
Ġwid ow
Ġanpass a
Ġdepos it
Ġdisgu ise
ĠvÃ¤rldsk riget
ĠNet flix
Ġurs Ã¤kter
ĠpÃ¥lit lig
Ġaccomp any
Ġlun atic
ĠChr issy
Kommissar ie
ĠHAPP EN
Ġsammant rÃ¤ffande
ĠÃ¥rtion den
strÃ¥ le
ĠVoy ager
Ġinev itable
ĠÃ¶verhuvud taget
Ġrov djur
ĠtillfÃ¥ng at
Ġentit led
3 2
A y
A ff
A men
B jud
C e
C ow
C ry
D ri
D one
D ream
E G
F a
G or
G al
H Ã¤nderna
J i
J in
J ill
J ones
J eez
K urt
L Ã¤ng
L Ã¤karen
M Ã¤r
M oney
M ellan
R andy
S vÃ¤r
S leep
S mÃ¤r
S yd
S akta
S uddenly
S enaste
T ag
T ough
T ina
V ara
V ING
Y up
] :
a ire
b at
b rev
b ased
b unden
c ra
c ol
c ourse
d Ã¶d
f Ã¥r
f inger
f Ã¶re
g om
g Ã¥tt
g rav
i our
k al
l Ã¶
l ett
l ampa
m om
m Ã¤ss
m jÃ¶lk
r ors
r erade
r ullen
t im
t alk
v Ã¥g
v brott
y tt
Â Ĳ
Ã ª
Ã ´
in ery
er ier
Ġa fton
Ġd od
Ġd arn
Ġh atten
Ġh ills
Ġh iring
et ely
an vÃ¤nd
an ium
Ġf erry
Ġf enomen
Ã¥ lig
Ġb aka
Ġb alen
Ġw olves
it os
it ious
it ution
Ġv as
Ġv ouch
Ġg el
ag in
ag net
st ate
Ġp and
Ġp ose
Ġp isk
Ġk aka
Ġk een
Ġl Ã¥r
Ġl ans
Ġl ass
Ġl amm
Ġl Ã¶k
is ering
Ġo oh
Ġin mates
ed rÃ¤kt
ad Ã¥
ad ays
ĠI vy
Ġj ap
Ġj eep
Ġj ultom
ow ell
id d
Ġdu ktiga
al ry
al ine
Ġen heten
ĠfÃ¶r seg
am Ã¥ende
Ġst ero
Ġand en
Ġand ar
ut rymm
Ġwh isk
Ġsk i
Ġsk Ã¤mmer
ra ket
Ġhar med
ĠS ud
ĠS la
ĠS edan
ĠS upp
ĠS erg
Ġre build
im us
se ok
Ġan at
Ġan ro
Ġan stÃ¤nd
Ġli zard
ĠM ade
ĠM ell
ĠM ister
ĠM ai
ent ic
Ġall es
Ġmed itation
ro se
Ġgo of
ĠH us
ĠH ern
ĠH AND
ĠH orse
ĠH Ã¤lsa
Ġfr Ã¤s
Ġfr ites
ĠA ur
Ġsh ade
Ġkn as
ĠD IG
ĠD wight
ĠD aryl
We st
ant om
ĠC op
ĠC ost
ĠC ain
ĠC ash
ĠC ris
ĠC oke
ĠC obb
ĠC RA
ĠB la
ĠB attle
un nan
ĠsÃ¥ vida
ri or
sk in
sk ur
ly st
de ll
Ġmin ska
Ġden ne
Ġav br
Ġav vik
op ia
ĠT ot
ĠT ree
ĠT ariq
ĠN ation
ĠN SA
ĠN ixon
ĠG av
ĠG io
ĠG igi
Ġlo tt
ĠJ ur
ĠJ ensen
ĠL yle
ĠL IFE
ick ade
ste am
ĠO S
ĠO THER
ĠO llie
Ġbl ott
Ġbl unt
Ġman e
ĠP av
ĠP eg
ĠP rest
Ġout come
ff el
Ġsp ine
ĠF ight
ĠF eel
ul in
Ġch a
um ing
um met
Ġno od
ĠR iv
ĠR est
ĠR anger
ĠK el
ĠE min
ĠE yes
ĠE aster
ĠmÃ¥ lar
Ġhel pless
ap o
Ġupp stÃ¥r
Ġupp fÃ¶rande
Ġal f
Ġany ways
ge vÃ¤r
Ġsl ack
Ġsl icka
Ġsl ampa
Ġbr at
Ġbr as
ĠW ick
Ã¤m ne
Ġex agger
if ta
Ġle kar
Ġle ktionen
Ġoff ended
Ġcon vert
Ġgr ows
ĠÃ¶ver reag
Ġbo skap
Ġbo ende
Ġbet rakt
per iment
Ġfl ug
Ġfl Ã¤sk
Ġpre sid
Ġun ikt
Ġun load
Ġun likely
ous in
ous es
Ġhand ika
ood oo
Ġsm aken
ĠY a
Ġkv ad
ark s
ark in
Ġover re
ĠÃ¶ stra
Ġkom pan
Den nis
Ġcl in
Ġefter rÃ¤tt
bb ing
ĠU nd
ĠhjÃ¤l pl
pt ions
ci als
Ġmot stÃ¥
ling ton
Ġte et
Ġstor es
Ġsc otch
Ġsn ara
Ġsn atch
Ġsn iper
Ġfri ade
Ġbef ria
Ni o
ikt en
ikt iga
ĠvÃ¥r an
Ġpol y
ĠvÃ¤r den
we iz
Ġslut gilt
ĠrÃ¤tt s
ĠrÃ¤tt sl
Ġper ver
ru z
old s
Ġact ors
ian ska
Ġtra vell
ĠsjÃ¤lv fÃ¶rsvar
Ġfly ter
Ġfram stÃ¥
Ġtre ason
Ġtj atar
Ġty sk
Ġrem inder
Ġrem embers
nat ural
Ġbes Ã¤ttning
Sk olan
ott ag
AN E
Ġapp les
Ġgod dess
inn ed
Ġtyck t
ris et
ĠMar cel
ĠAl ma
wh ite
ĠSo fia
Ġste gen
Ġste pping
Ġbro ker
Ġgra cious
Ġtro tto
dag ar
ub an
Ġbeg Ã¤ra
Ġreg net
Ġreg eln
Ġ5 8
ask an
ole y
Ġcomm itting
Ġland at
Ġmet od
OR N
min us
air y
Ġtom b
reg ler
Ġdum pl
An nie
ĠTHE SE
Ġ20 16
olog ists
Ġute slut
ĠZ ero
Al icia
ote s
ĠBe ing
ĠBe ethoven
ict able
Or der
Ġmus iker
ĠkÃ¤nd is
Ġlug gage
Ġspr ut
Ġinne b
ĠfÃ¶re stÃ¤llning
ĠfÃ¶re stÃ¤ller
Ġret a
ĠhÃ¶g tal
ĠLe vi
Ġrest ri
oss om
Some where
ĠSp ell
Ġrep ay
Ġrep resents
Ġprote ster
erat ure
Ġsol ned
Ġattack er
Ġcool er
ĠjÃ¤tt er
Ġbur en
Ġlight er
me ga
Ġtrans mission
ugg ling
Ġshot gun
aff Ã¤ren
Ġcont rary
Ã¶n stret
Ġquestion ed
ĠGo tta
Ġpress kon
Ġfree zer
Ġensam t
Ġoper ationer
Ġsj unde
Ġoffic iella
str arna
fl ick
Ġfilm ade
Ġsmart aste
Ġform id
Mar ge
Ġinvest ors
klag are
Ã¤d rar
Ġeng ines
See ing
IC T
Ġmist a
Ġsub tle
Ġstar ve
OK AY
Ġpresident ial
Ġpack ar
Ġpack ade
Ġband age
ĠIN TER
Ġbank kont
Br it
leas ure
Ġstat ements
amer orna
Ġvak nat
ĠfÃ¶rl usten
Ġcir cuit
fr isk
Ġworth less
ĠPro ject
arm ing
Ġloc ations
ĠEd win
ĠrÃ¤k ningen
ĠEx akt
igg les
Ġinvol ves
tel sen
Ġlju v
drag et
Ġserv ants
ĠMad dy
ĠSm urf
Ġcol umn
Ġpolit iskt
ĠHel vete
Am ber
Ġmask iner
vak ta
Ġ200 8
ele ste
ele ine
Ġrespect ed
Sam la
Sam tidigt
ĠvÃ¥ld samt
Ġdiv ine
Ġdiv ided
Ġjul afton
ĠPat ri
iller mo
sb rott
ĠhÃ¤ xor
Ġfir ade
Ġcontin uing
Ġrespons ibilities
Ġrent al
Ġpris er
Ġproper ties
Ġlur at
Ġvisit or
Ġbesk ed
ĠMary land
oper ation
Ġkidnapp ad
Ġsupport ing
Ġbehand lat
Ġviol in
Ġviol ation
ĠGen om
Ġrev ben
Ġerbjud andet
IL D
Ġ0 9
Ġgol v
ĠkrÃ¤v de
stru ct
stru ction
Ġgirlfriend s
Ġvers ionen
Ġrema ined
Ġlos ers
ĠkrÃ¤ k
Ġchick s
FÃ¶rst Ã¶r
Ġunders Ã¶kte
ĠRE AL
Ġstudent er
ENT S
ĠComm un
ĠMel vin
Ġment ally
Ġguld et
vi ction
ĠskÃ¤r pa
bry tare
ĠWar ner
ĠWith out
Ġlycklig are
Sv arta
lÃ¤g er
ĠNor we
Ġvac uum
ĠCam el
Ġhind rade
Ġdesper ation
Ġcock s
Ġpres ume
Ġtunn eln
ĠJac ques
hem met
Ġemploy er
Rob in
Ġabs urt
ĠEast ern
ĠJer usalem
Ġram la
ĠdÃ¶ds fall
Ġhack ed
ĠGET TING
Ġcontract s
syn ta
ĠBu tter
ĠrÃ¤d slan
Ġfrukost en
Ġbid ra
Ġknark are
Ġcomb ined
Ġhyp oc
Ġmut or
ĠMont y
Ġax eln
Ġregret s
ĠGre ene
Ġsaving s
Ġond skan
Ġobser vation
ĠgrÃ¤ ver
Ġgiss ning
ĠGeorg es
ĠfÃ¥n ig
ĠSta ff
Ġperform ing
Ġeftermid dagen
Ġparker ingen
ĠsÃ¤nd ning
rib ute
Ġwheel chair
ĠMet rop
ĠMarsh al
ĠCle o
Tog ether
Ġfys iska
Ġess ential
Ġloj ala
ĠanmÃ¤l er
Ġconv ention
Ġmans ion
Ġbeund rare
Ġladd ade
ĠÃ¶vertyg ande
ĠSv ara
ĠPen elope
Ġambass ador
Luc as
Ġprakt iskt
ĠSant iago
Ġkonk urs
Ġtillbring ade
rapp orten
mask inen
Ġtorn et
ĠfÃ¶rdel ar
Carl os
Jud ge
Ġmeth ods
Ġtrigger ed
ĠFall on
Ġsikt ar
Ġvolunte ers
Ġfrust rated
ĠSid ney
Ġincre asing
Ġekonom iska
Ġkrist na
Ġfrys a
still stÃ¥nd
Ġbegg ed
ĠbÃ¶n or
ĠDem oc
Ġknack ar
Typ iskt
ĠSwed ish
Ġcandid ates
poj ken
Ġkrimin ell
Ġbegra ver
Ġrykt et
Ġanstr Ã¤ng
Ġhipp ie
Ġkryp skytt
ĠViv ian
Ġcontroll ed
Ġsmar test
Ġfrequ ency
Ġkapit el
Ġinspect or
ĠAG AIN
Ġursprung liga
Ġaddition al
Ġrecru it
Ġabdu cted
gro ans
Ġgest ure
ĠIsab elle
ĠGret a
Ġteor ier
Lik som
ĠAle c
Ġsequ ence
Ġplat form
Ġdelight ed
ĠBron x
ĠtillgÃ¤ng lig
Andre a
ĠvÃ¤ster ut
mind ed
ĠVis ste
Ġconven ient
Ġelef ant
Ġtjall are
infl amm
Ġmaff ian
ĠTrum an
ĠjÃ¤tted u
Ġster il
ĠASA P
Ġexped ition
ĠSW AT
ĠTard is
Ġdevast ated
ĠSnygg t
ĠVern on
fÃ¶rm Ã¥ga
ĠScarl ett
Ġasyl um
Ġlou der
Ġsaus age
Ġgenuin ely
Ġadministr ation
ĠSup reme
ĠJup iter
Ġguid ance
ĠWilco x
Ġaster oid
ĠdvÃ¤r g
Ġmissf oster
gom ery
' !
5 5
6 2
9 8
B L
B ed
B il
B ud
B ella
D ire
D ela
D jur
D iane
F ORE
G ro
G RE
G rey
G rip
G ordon
K all
K ara
K ling
K ev
L and
L ogan
L Ã¥ngt
M ack
M ic
M eg
M EN
M aten
P ot
P ret
R Ã¶d
T ok
V AR
V Ã¥ld
W ish
Z oe
b ound
b ach
b aby
c ist
c ool
d imension
e ed
e ad
f ing
f al
f art
f ist
h amn
h agen
h Ã¤ngen
h jul
k un
k ick
l i
l ista
n umret
p as
t rycket
z ia
Ġt akten
Ġt asty
Ġs ikte
Ġs Ã¤nda
Ġs allad
Ġa f
Ġa gon
Ġh Ã¶st
Ġh Ã¤cken
Ã¤ ma
Ã¤ ften
ar se
Ġm aken
Ġm aps
ou x
ou bt
Ġf Ã¤der
Ġf arewell
Ġb achelor
on ge
or al
it te
Ġv ine
st in
st ed
st jÃ¤nsten
Ġp ep
Ġp ond
Ġp ansar
Ġn ys
Ġn urser
Ġk ru
Ġk up
Ġl ant
Ġl end
Ġc ath
ĠI R
Ġj ar
as p
Ġatt ending
el u
Ġdu gg
Ġbe e
Ġen light
Ġr ational
Ġr endez
ĠfÃ¶r ny
am ad
Th ird
Ġst als
Ġe c
ut ing
ut bild
na cket
Ġsk et
Ġsk ala
Ġsk andal
Ġha ul
ra it
Ã¤n ningar
Ã¤n kta
ĠpÃ¥ b
Ġvar mare
ĠS Ã¥n
ĠS amma
Ġan om
Ġan tid
Ġdo omed
Ġli la
ĠM P
ĠM ull
ĠM Ã¥nga
ĠM useum
Ġwe ep
all ows
ro teln
Ġgo o
ĠH Y
ĠH alf
Ġfr igg
ol ence
ĠA ra
ĠA ns
ĠA rs
Ġsh ining
Ġkn Ã¤na
ĠD emon
ĠD alton
ĠhÃ¤r bÃ¤r
ĠC V
ĠC ove
ĠC ron
ĠC OUR
Ġse w
Ġse as
Ġtr um
Ġtr ous
ĠB oth
ĠB rist
ĠB utt
ĠB EL
sk et
sk Ã¤mt
Ġav fÃ¤rd
op erat
ĠT all
ĠT un
ĠT iny
ĠT asha
Ġdon or
ĠN iger
ĠG abby
Ġlo ads
th ouse
ic it
ĠJ ug
ĠJ AG
ĠL ie
ĠL eah
ĠL opez
ste cken
Ã¤tt s
ĠO cean
Ġbl end
Ġbl inda
Ġbl amed
ull igt
Ġman nens
ĠP ig
ĠP ere
ĠP ant
ĠP un
ĠP ER
ĠP ush
ĠP uss
Ġso fa
em ic
Ġout er
He art
ry s
Ġsp ind
ĠF le
ĠF AM
ĠF lem
ul or
Ġch ess
Ã¥g ade
Ġut gÃ¥ngen
Ġut nÃ¤m
Ġno stal
ĠR aj
ĠR agnar
ka p
ĠK ab
ĠK ang
ĠK alla
ĠE ddy
ĠmÃ¥ ll
ĠV on
ab ler
fÃ¶r d
ans a
Ġupp man
os am
ĠdÃ¤r emot
ĠdÃ¤r borta
Ġbr ass
he us
Ġar tef
Ġar ranger
Ġex klus
iv ated
Ġas h
ÃĦ LL
est ion
ande z
No zzo
Ġgr in
way ne
ĠÃ¶ver ge
Oh h
Ġbet ong
Ġby rÃ¥
Ġby rÃ¥k
ind ust
Ġfe ature
per ing
Ġfl our
Ġfl own
Ġun stable
Ġun pred
be ck
be cause
be vak
Ġsm yg
Ġsm ycken
Ġdr u
ock ing
ĠY ak
Ġsen aten
ich e
Ġsin nes
ĠNo va
Ġqu ad
Hur ra
St y
Ġhitt as
Ġny Ã¥r
Do ing
Ġtry gga
Ġsc um
Ġsc umb
Ġsc ulpt
Ġmat te
Ġsn itt
Ġmo ld
ons ider
Ġsy nt
Ġdi lem
NÃ¤r a
ef ul
ĠThe odore
Ġbad kar
sh Ã¤ndelse
ise x
var or
ĠTh an
Just in
Ġvid rig
Ġdel at
Ġdel tar
oh a
ann els
Ġfel ony
ult y
Ġreal ised
Ġins inu
oy a
Sk yll
ĠDe x
ĠDe xter
ĠSh arp
OU SE
Ġem pat
Ġsch ack
igh teous
Ġend less
Ġexp osure
Ġelse where
ĠFr aser
ĠMar is
ĠAl t
wh ich
Ġmar gar
Ġhopp lÃ¶st
Sh a
Ã¶v ning
Ġfil osof
Ġnum b
ĠDo e
Ġbak ed
Ġbak ter
Ġbak lÃ¤nges
OR RY
Ġkvar lev
Ġinv and
ĠkÃ¤r e
olog iskt
par ent
Ġob sta
ĠFÃ¶r st
Ġgenom fÃ¶ra
Ġmag in
Ġdoll s
Ġac ademy
Ġstud erade
Ġval p
ĠSe oul
pr oduc
ĠRe be
Or gan
Ġfem ton
Ġbety d
Ġsw ell
az ines
ĠSte f
Ġret ain
Ġext ension
ubb a
br itann
Ġorder ing
God natt
Ġimport ance
ĠCl ose
Ġsol ving
Ġfav ors
Ġforts att
Ġsort ed
ĠSk jut
Re geringen
nings mannen
Ã¶n are
Ã¶n ster
Ġexper ter
ĠfÃ¶rsv innande
Ġhistor iska
Ġroll ed
ĠfÃ¶rstÃ¥ else
Ġball ong
cer ely
kan er
Ġchef er
Ġform ation
let ter
Ġclean er
Ġz ip
Of ta
Ġadd ing
ald i
Ġlock down
ĠmÃ¶ ss
pro grammet
ĠIN S
Ġche ering
ĠÃ¤g gen
Ġbek Ã¤nn
amer ika
lad d
Ġtyp iskt
Ġnerv Ã¶sa
ĠEd wards
ĠTom orrow
ĠSch neider
Folk et
Ġgener ator
Ġbru na
Ġkick s
ĠPaul ie
Ġcol our
Ġamb ush
Ġtem plet
ĠRich mond
Ġ11 0
Ġflyg plats
Ġpan cakes
pris et
ĠGra b
ĠvÃ¥ld samma
ĠfÃ¶lj are
Ġjul klapp
ĠChe ese
Ġcook ie
ĠMer cer
ĠbrÃ¶llop sdag
Ġlur ad
Ġport f
Ġappreci ated
Ġbland ning
ION S
kÃ¤n slan
Ġfur ious
Ġ0 7
Ġapolog ise
ĠrÃ¥ ka
ĠPol and
ĠfÃ¥ng arna
AG E
Ġwitness ed
.' "
Ġvatt ent
Ġlay er
stad iet
May a
Ġpray ers
ĠnÃ¶d s
Ġalter ed
Ġtarget s
US H
Ġmyster ium
Ġaud io
Ġdisc reet
Tj Ã¤n
Ġcy kl
Ġmisslyck ande
Ġtor kar
ĠfÃ¶rber ett
Ġinterview ed
Em il
Ġpotent ially
ĠÃħ R
ĠHold en
ĠÃ¥ng rade
Ġcrack ing
Ġmedvet na
Ġsem i
Ġearth qu
Sy stemet
tr ans
ÂĢ ÂĻ
ĠhÃ¶j dare
ĠRam on
Ġinspir erade
Ġinspir erande
icy cle
ĠMarc os
Ġsight s
ĠjÃ¤k ligt
Ġadm ir
Ġerk Ã¤nt
Ġstry ka
Ġkam rater
Ġanklag ade
ĠJam al
ĠGl ass
Ġtol k
Ġknark lang
Ġrefer ring
ĠLO VE
Ġmut ual
Ġfy nd
Ġproduc ent
Ġdator er
Ġerfaren heter
ĠIm p
ĠspÃ¶ a
Ġrepe ated
ĠÃ¤m nen
ĠÃ¤m net
Ġult imately
amen te
Ġprot okoll
Ġengel sk
ĠCole man
Pol it
Ġkal as
ĠfÃ¥n iga
Ġpir ates
dr Ã¤kt
Ġparker a
Ġhust le
Ġrespek tera
Ġfys ik
Ġsjukdom en
Col in
Ġflo ors
Ġgemens am
ĠmÃ¶tt es
Ġmic row
Ġavl id
Ġspecif ikt
Co oper
Ġcontain er
Ġfilmer na
Hit ler
ĠÂ ¶
ĠtÃ¤ck ning
ĠSav age
Ġmart ial
ĠmÃ¤kt iga
ĠBor is
Ġpaj amas
tton de
ĠGU Y
Ġkines isk
ĠAR OUND
Ġspo iled
Ġmort gage
Ġtri ang
Ġintegr itet
ĠDef ense
mÃ¥n ad
Ġku vert
Ġmechan ical
Ġinit iat
Ġrekommend erar
Ġdece mber
Ġna ive
Ġshark s
Ġelimin ate
Ġnegat iva
Ġsabb at
Ġcraw ling
Ġirrit erad
Grand ma
Ġremote ly
NÃ¤m en
Ġemotion ally
Bas ically
Ġqual ities
Stra ight
Ġhumili ated
ĠVen ice
ĠifrÃ¥gas Ã¤tta
ĠifrÃ¥gas Ã¤tter
mus ik
Ġyog hurt
Ġconsult ant
Ġbesvik na
Rock y
ĠâĢ ĭ
utred ning
ĠbelÃ¶ ning
ĠinstÃ¤ll d
glas Ã¶gon
Ġklin iken
ĠKir by
ĠfÃ¶rolÃ¤mp ning
ĠnÃ¤rm ast
ĠÃ¶verst Ã¶kat
SÃ¤ker het
Dag ens
ĠlÃ¤ke medel
MÃ¶rd aren
wr iting
ĠGon z
byr Ã¥
Ġgitar r
Ġnoggr ann
ĠColumb ia
ĠYE ARS
Ġembra ce
Pier re
def ense
Shel don
ĠsjukskÃ¶ter ska
Ġdiabet es
Ġevalu ation
Ġrescu ed
Ġledar skap
Ġutfor ska
utrust ning
entan yl
Ġachie ved
erem iah
Ġmorm ors
Ġcasu alties
Ġsouven ir
Ġoutrage ous
Ġobeh agligt
Ġphilos oph
ĠPrinc eton
Ġrendez vous
Ġdilem ma
' ...
3 3
3 9
6 9
6 00
B J
B ODY
C L
C at
C atch
C amp
C ID
C asey
C ontrol
D ong
D rive
E ner
F isk
F aster
F orts
G ina
G iven
G loria
H us
H eter
H uman
I nde
J E
J apan
K ol
K ort
K oll
K enny
K ungen
K atherine
K vinnan
L in
L IG
L AND
M Ã¶r
M Ã¥l
M OR
M arty
N ate
N eg
O OL
O scar
P an
P eace
R uth
R IS
S av
S Ã¶t
S eth
S atan
S ELF
T s
T el
T op
T usen
T ILL
T olv
V it
V itt
V IS
V ince
W all
Z e
b rist
c up
c ulous
d ade
d ict
f sa
f arty
g ubb
g rip
h orn
h ail
j ak
j orna
l Ã¶k
m ary
n h
n ine
o an
s ome
t ack
v ux
Ã ī
à ¸
â Ĥ
Ġ ort
Ġt Ã¤nde
Ġs Ã¤nker
Ġs almon
Ġa de
ar in
Ġm op
Ġm aste
Ġm itz
Ġm asc
ll ar
Ġf ont
Ġf iska
Ġf iske
Ã¥ nd
Ġb os
Ġb ult
Ġb iff
Ġb apt
Ġb Ã¤ltet
on zo
at ures
or ker
Ġv oc
Ġv ax
Ġg aff
ag m
st alt
Ġp i
Ġp el
Ġp end
Ġp ets
Ġk Ã¥t
Ġk asin
Ġl era
Ġl Ã¶m
Ġl uff
Ġl ump
Ġo ktober
[...]
