#version: 0.2
č Ċ
Ġ t
i n
Ġ s
e r
Ġ a
Ġ d
Ġ h
e n
Ã ¤
a r
Ġ m
o u
e t
a n
Ġt h
l l
Ġ f
Ã ¥
Ġ b
o n
Ġ w
a t
Ã ¶
o r
i t
o m
Ġ v
Ġ g
Ã¤ r
in g
a g
s t
r e
Ġ p
Ġ y
i g
Ġ n
Ġ l
Ġ k
Ġy ou
i s
Ġ o
Ġth e
Ġ in
. .
e d
Ġ c
Ġt o
t t
Ã¶ r
a d
n d
Ġ I
Ġ j
Ġ Ã¤r
c h
t e
c k
i ll
e s
a s
' s
Ġ u
Ġa tt
e l
Ġd et
o w
J ag
o t
v e
i d
Ġd u
.. .
a l
Ġb e
Ġin te
Ġ en
Ġ r
Ġf Ã¶r
Ġo f
a y
a m
l e
Ġj ag
Ġ i
Ġ it
l d
T h
er e
' t
k e
Ġs t
Ġ e
v er
Ġa nd
Ġth at
n a
u t
p p
Ġs k
Ġw h
Ġs om
Ġm e
Ġ on
Ġh a
D et
r a
Ã¤ n
Ġp Ã¥
Ġv ar
Ġo ch
Y ou
Ġh ar
Ġ S
Ġ is
Ġ re
i m
ad e
u r
s e
Ġf or
o o
an d
Ġa n
Ġh e
ou t
r o
Ġl i
Ġd o
h t
Ġw e
a ll
Ġ M
Ã¥ r
i l
Ġd e
Ġa ll
Ġm ed
en t
Ġ H
i r
c e
u st
Ġf r
Ġm y
a k
Ġt ill
i on
t er
Ã¥ n
Ġm ig
Ġs h
W h
Ġk n
Ġw as
Ġ A
Ġ D
Ġ -
W e
Ġv i
s s
Ġg o
an t
Ġh Ã¤r
' m
Ġ om
Ġth is
Ġ C
it t
et t
Ġyou r
Ġha ve
Ġk an
it h
ig ht
Ġ B
Ġs e
r i
' re
o l
Ġd ig
Ġkn ow
u n
ou ld
Ġs Ã¥
d e
Ġn ot
Ġn e
s k
c t
Ġw ith
V i
a ck
l y
Ã¤ l
Ġm in
k t
Ġt r
Th e
D u
Ġd en
Ġa v
l ig
e a
Ġ T
Ġc an
Ġj ust
Ġh an
Ġd on
Ġ G
Ġh on
Ġ N
t h
o p
u s
Ġ L
om m
Ġwh at
l i
Ġ J
Ã¤ tt
st e
ar t
Ġa re
ar a
Ã¤ g
Ġa b
Ġ O
Ġli ke
i c
u ll
Ã¥ t
Ġs o
Ġ P
ar e
n ing
Ġv ill
Ġ ett
Ġm an
in k
f f
e ll
Ġ F
Ġs a
Ġ out
om e
i ck
r y
or t
e m
I t
Ġg et
er s
Ġsk a
Ġs p
a ke
o d
Ġu p
u m
H e
Ġc h
Ġn o
Ġg Ã¶r
Ã¥ g
Ġab out
k a
Ġh ere
ou r
Ġu t
Ġm en
Wh at
' ll
on e
Ġn i
u l
Ġw ant
Ġ R
oo k
A nd
i e
n e
t a
Ġf in
Ġh er
Ġk omm
i st
es s
Ġh im
oo d
Ã¤ nd
a st
h er
Ġd id
Ġ K
or e
all y
Ġv et
Ġp l
Ġr ight
Ġth ere
Ġ or
Ġa t
Ġw or
Ġ Ã¶
Ġ E
Ġth ink
Ġ V
Ġ "
u d
H an
Ġb ara
Ġm Ã¥
Ġb l
at ion
a b
ou g
g a
o b
Ġon e
f Ã¶r
Ġb ut
Ġl o
ll er
ea h
Ġh el
Th at
Ġd in
a p
Ġp ro
Ġs u
' ve
Ġp r
Ġthe y
a u
v en
an s
o s
Ġu pp
n s
k er
Ġd Ã¤r
m a
Ġ Jag
Ġi f
Ġg ot
en d
Ġt im
Ġan y
Ġu s
ĠmÃ¥ ste
h ing
h e
Ġkomm er
g e
d a
e j
Ġb r
Ã¤ m
Ġ ing
Ġa r
Ã¤ ll
Ġhon om
Ġsom e
Ġ You
Ġsh e
Ġv ad
Ġsk ull
i f
j Ã¤l
Ġ W
Ġa l
u nd
Ġe x
Ġs l
Ġ er
Y eah
g er
on na
Ġfr om
u ck
ar d
Ġe ver
f ter
Ġg onna
Ġskull e
We ll
Ġn u
at e
it e
Ġa s
M en
i ve
Ġl e
Ġn ow
Ġne ed
Ġw ould
is s
O ch
Ġwh o
Ã Ħ
V ad
on g
Ġn Ã¤r
l a
Ġb ack
am e
Ġg u
n er
Ġw ill
Ġse e
at t
Ġvar a
k ay
Ġu nd
Ġall t
e st
e p
Ġt al
ou nd
Ġh en
Ġtim e
Ġh is
Ġv er
B ut
i v
Ġof f
d er
Ġs ay
Ġs ig
Ġthe m
Ġo ss
Ġbe h
as s
q u
an k
S o
. "
Ġl ook
Ġc on
I n
Ġgo ing
ow n
D e
N o
g en
Ġde m
st a
Ġc ould
Ġw ere
ĠgÃ¶r a
Ġn Ã¥g
and e
Ġh ad
Ġth ing
w ay
Ġ Det
ig t
au se
Ġbe en
Ġf Ã¥r
Ġb o
or d
en s
ĠÃ¶ ver
Ġ 1
Ġb ra
Ġg r
ar s
Ġf e
lig t
f t
Ġg ood
Ġh ade
O h
Ġb et
Ġh ur
Th is
Ġ our
b le
Ġs Ã¤g
Ġb y
o ll
Ġc om
in d
Ġd Ã¶
or de
Ġfr Ã¥n
Ġ ig
0 0
Ġt a
as e
p er
h et
a v
f e
V ar
r ig
Ġever y
c ause
th ing
y s
J a
Ġin t
The y
Ġh and
l o
u re
oug h
id e
Ġwh en
' d
H on
l ar
o st
Ġund er
Ġt ell
Ġf Ã¥
Ġhen ne
ÃĦ r
Ġj ob
Ġsom et
A ll
Ġto o
i re
F Ã¶r
Ġu n
Ġs er
i k
Ġg j
b er
in e
Ġdid n
Ġd Ã¥
Ġp re
Ġw ay
ou s
Ġre ally
ot her
Ġc ome
Ã¥n g
Ġh ow
Ġwor k
Ġe ller
i ce
Ġl et
ĠI t
ĠfÃ¶r s
Ġd r
Ġbeh Ã¶
Ġt ake
Ġig en
Ġd own
Ġtal k
Ġs m
Ġn Ã¥t
u g
b e
Ġk v
Ġ Y
a pp
Ġk ill
ck et
O m
m er
ar na
Ġp e
Ġm ake
Ġha pp
Ġsomet hing
Ġh as
Ġv Ã¤n
Ġc all
Ġt v
Ġall a
op le
ar n
c i
ĠC h
S Ã¥
Ã¤n g
ke j
Ġsh ould
E n
Ġli v
Ġne ver
N ej
is k
Ġm ore
Th ere
o pp
am ma
a ce
S he
n y
Ġs en
Ġk Ã¤n
Ġv is
Ġo ver
Ġ Ã¤n
D en
Ġb li
Ġn Ã¥n
ar k
Ġg Ã¥
Ġme an
y ck
Ġg Ã¥r
Ġhe m
g et
itt le
v a
Ġa m
Ġt id
j a
er na
i ch
â Ļ
re at
ld rig
âĻ ª
ĠH e
Ġs v
s p
Ġp o
oug ht
i es
Ġk om
Ġsa id
it y
i a
Ġpe ople
d d
o se
Ġ Ã¥
Ġs in
i p
Ġ 2
Ġ id
Ġth en
Ġa ldrig
n t
Ġpr at
o g
Ġt Ã¤n
is h
I f
Ġl ittle
Ġ We
e ct
Ġd ag
Ġdo es
Ġmy cket
Ġl ite
n an
el f
ĠbehÃ¶ ver
Ġ What
w o
p a
p t
er a
i ld
ak t
Ġtr or
Ġd ay
at s
Ġe fter
on t
Ġ U
Ġi m
S t
u b
Ġb er
Ġm itt
Ġs ak
Ġv Ã¤l
od y
re e
Ġh itt
Ġh jÃ¤l
Ġf uck
Ġbl ir
Ġjob b
H ur
Ġing en
ĠN o
Ġ qu
e w
ers on
m an
ĠfÃ¶r st
Ġhel p
ck s
am il
Ġfin ns
Ġg l
Ġf Ã¶
Ġon ly
s ke
Ġn y
ĠD u
Ġ Wh
Ġm u
Ġm or
Ġfin d
j u
ĠS t
ad y
Ġfe el
re d
k en
in t
Ã¶ m
a ch
ak a
lig en
a it
Ġkan ske
n ar
Ġm ot
Ġt e
ĠA nd
Ġ Vi
Ġm er
l ing
Ġl ea
k ar
Ġj u
Ġ Ã¥t
le ase
Ġf l
D o
re ss
Ġ el
Ġh Ã¤nd
th er
Ġe ven
or ry
Ġk l
ga in
ag e
Ã¤ ck
Ġf amil
H ow
Ġm o
i z
Ġtr y
u e
Ġver y
Ġt ar
Ã¤ v
Ã¥ ll
on d
Ġwh y
an na
Ġwh ere
ir st
an g
Ġbe cause
Ġst or
ay be
He y
Ġs c
Ġb Ã¶r
Ġh Ã¶r
Ġmu ch
v ing
Ġa gain
Ġp art
Ġt wo
Ġlo ve
Ġt ro
o ck
Ġ Yeah
Ġfr i
st er
Ġint o
Ġs n
oo l
Ġw on
Ġs jÃ¤l
Ġbe f
Ã¤tt a
â Ģ
at ch
Ġv Ã¤r
Ġtill b
Ġp erson
Ġ Ã¥r
on s
Ġd i
Ġhapp en
el y
s elf
Ġs y
Ġst r
N i
Ġno g
H ar
an ce
Ġv Ã¥r
Ġp ol
e ep
am m
Ġtv Ã¥
ĠdÃ¶ d
Ġgj orde
M y
r ar
at er
Ġing et
Ġf ick
ĠO h
s l
w n
Ġy e
Ġdo ing
e f
Ġpl an
o ld
Ġst ill
k te
Ġo kay
Ġo ther
Ġsu re
Ġhan s
Ġh it
tt a
Ġst art
Ġfor t
Ġb ad
i x
Ġtillb aka
or m
p l
r u
w e
en ce
Ġa sk
Ã¤l sk
a c
le v
ir l
i le
at h
ĠfÃ¶rs Ã¶
Ġth ought
Ġb el
Ġsp e
Var fÃ¶r
Ġf ar
Ġli fe
ĠsÃ¤g er
Ã¤ st
Ġth r
Ġtr Ã¤
g on
ning en
Ġth an
m ent
Ġm iss
am n
ig a
Ġsl ut
N Ã¤r
Ġany thing
E R
Ġl ast
Ġ The
Ġf irst
Ġ Ã¤lsk
Ġp er
Ġthe ir
Ġne w
Ġvill e
s h
Ġv Ã¤g
Ġn er
Ġr Ã¤tt
a ve
i kt
Ġc l
Ġb ort
c c
Ġf un
Ġg ive
Ġo cks
Ġr o
g g
Ġocks Ã¥
ĠM r
O kay
Ġk id
Ġ Th
v is
Ġa ct
e k
Ġthing s
I N
Ġk und
ak ing
e ck
u te
Ġb arn
r et
e ver
Ġthe se
r ing
Ġ That
Ġfri end
Ġwe ll
at her
d ay
r en
J ust
L et
N u
Ġto ld
Wh y
Ġt ur
way s
Ġbef ore
s en
ble m
Ġr ing
an n
ol k
Ġh ome
M in
b b
x t
Ġd is
Ġv id
Ġd itt
ul t
n g
Ġn ight
Ġt ra
Ġr un
v ar
Ġb orde
Ġr Ã¤
Ġd el
ĠV ad
o h
Ġand ra
Ġs orry
ĠsÃ¤g a
ĠsjÃ¤l v
b ody
s a
Ã¤ kt
Ġa way
Ġb it
Ġkund e
N ow
D on
ou se
L ook
Ġf el
ĠnÃ¥g ot
Ġb u
Ã¶ j
Ġf a
Ġk eep
Ġg en
Ġg irl
Ġbe st
lig a
B e
k l
Ġc ar
Ġfr am
Ġmin a
en g
is e
i an
Ġs on
Ġs Ã¤
ar en
Ġw r
Ġa ss
Ã¤ ld
app a
ĠT H
ĠJ a
Ġsh ow
Ġp ut
Ġpro blem
Ġin s
O kej
Ġre d
Ġ '
et er
t ar
Ġa fter
Ġc ou
l and
Ġk ind
Ġm Ã¥n
Ġen s
Ġse c
Ġm Ã¤n
Ġal ways
K om
i o
Ġth ose
ĠtrÃ¤ ff
d de
ĠI n
Ġa g
ot h
ett ing
Ġl ot
Ġgu y
ĠbÃ¶r j
r Ã¥n
Ġ âĻª
sk a
Ġut an
Ã ©
Ġf ly
Ġgu ys
Ġver k
Ġdoes n
n es
e y
or s
Ġre m
Ġp h
Ġvar it
ĠD e
Y es
Ġt re
is kt
c is
Ġh u
o k
u p
Ġg e
Ġbet ter
v ed
Ġprat a
Ġp ar
Ġre al
in s
Ġb ig
Ġallt id
ar y
Ġwant ed
am p
ab le
Ġt j
st en
Ġan n
I s
i er
Ġw ait
y r
Ġa d
Ġm ade
Ġf an
Ġm at
Ġb lev
Ġh us
K an
e e
ĠG od
j e
u ally
Ġt y
Ġm ust
i ous
Ġbel ie
Ġl ed
Ġl ong
Ġar ound
j Ã¤r
el s
âĢ ĵ
Ġc o
Ġsp el
Ġfr Ã¥g
Ġ 3
ĠsÃ¥ g
Ġt ri
Ġnot hing
Ã¤ sta
un g
Â ł
b et
Ġto g
au g
e g
Ġl it
Ġevery thing
Ġgj ort
O U
Ġc are
ion s
ad es
r s
Ġpl ay
Ġthr ough
u ff
Ġm amma
Ã¶ g
or n
Ġpl ace
Ġim p
Ġdon e
Ġye ars
i ke
Ġs ir
Ġv il
r or
Ġo wn
ĠsÃ¤ ker
r ow
one y
Ġb es
ĠS h
Ġg ill
v Ã¤nd
Ġs ch
Ġn ame
n en
Ġl Ã¤
ĠH an
Ġe m
Ġhel a
N ot
v et
Ġse x
Ġfuck ing
Ġg reat
Ġmig ht
o y
S k
Ġkomm a
Ġvet a
Ġf all
Ġor d
Ġl Ã¤m
Ġp lease
Ġu h
em ber
ĠA ll
Ã¤ll a
ĠkÃ¤n ner
Ġcom p
Ġcom ing
Ġlea ve
Ġs te
al k
Ġd ri
at ed
Ġsome one
p en
Ġo ld
Wh en
ĠnÃ¥g ra
A N
S om
in a
or na
Ġbe ing
ĠH ar
D Ã¥
Ġc our
Ã ħ
al s
ent s
ĠN ej
Ġst ay
Ġhe ar
Ġmin d
He j
l es
Ġb re
Ã¶ t
Ġp ass
Ġhe ad
Ġs ist
Ġp appa
op e
A T
Ġh ouse
Ã¥ d
Ġre p
Ġan s
ĠB ut
Ġbelie ve
M an
Ã¶ d
Ġsu pp
l or
Ġs Ã¤tt
Ġw om
Ġin f
Ġdin a
Ġle ft
y e
Ġf olk
r is
ver y
ak es
v in
Ġsk y
C ome
Ġa pp
on st
c y
k et
Ġen d
Ġhe ll
itt a
Ġl Ã¥t
Ġ Ã¤
Ġm il
- -
is ka
In te
Ġp a
ill a
Ġs am
Ġb il
Ġc ame
Ġre s
r at
ff er
Ġb ab
Ġg ick
Ġg etting
f ul
r Ã¤
Ġk Ã¶
Ġel se
Ġf ound
Ġre c
Ġs ur
Ġtry ing
Ġt yck
Ġm om
ig h
ĠM ar
Ġkv in
Ã¥ ra
Ġb ro
Ġk ont
as h
ĠV ar
f ar
m ar
v es
Ġk Ã¶r
ri st
Ġw anna
is st
Ġs it
Ġan other
ta in
Ġwor ld
et s
Ġst op
Wh o
Ġex p
ĠtÃ¤n ker
h op
Ġunder st
Ġm ar
li ck
o tt
Ġh opp
it ion
Ġc le
Ġmin ute
Ġl Ã¥
ĠS o
m en
Ġ Well
Ã¤tt re
Ġm oney
Ġme et
ing s
Ġk all
Ġen ough
w h
Ã¥ l
D id
Ġl Ã¤r
Ġf ull
ĠF r
g r
a w
l ed
Ġp eng
Ġwas n
ĠÃ¤lsk ar
Ġg Ã¥ng
" .
Ã¶r d
Ġtro dde
Ġhappen ed
Ġs ett
er as
Ġl y
ut a
O N
t y
Ġb Ã¤ttre
Ġfamil y
Ġ 5
id ent
Ã¥r t
ĠY es
m m
Ġverk ligen
T ack
i ver
n ade
a ct
o ot
Ġm other
an ge
Ġb us
Ġrem ember
Ġa cc
Ġlook ing
R E
Ġo kej
IN G
Ġh al
Ġf il
You r
j er
Ġs ame
Ġgo tta
ct or
Ġni ce
Ġhen nes
ĠnÃ¥g on
n ed
p h
Ġtalk ing
U h
Ġw ent
Ġj Ã¤v
S ka
Ġy eah
Ġis n
Ġt ack
Ġm a
im e
i b
Ġs ju
as k
T a
Ġt ag
or k
aug ht
Ġunderst and
Ġm on
Ġf ast
A re
C an
V ill
o c
t ro
Ġl Ã¤g
Ġsh it
Ã¶ s
Ġkv Ã¤ll
get her
Ġli k
Ġvis ste
t al
er ar
Ã¤ pp
Ġv em
Ġgill ar
Ġh Ã¥ll
ĠfÃ¶r sta
if e
Ġh our
ĠH ow
v it
Ġd es
Ġn um
Ġkn ew
ĠmÃ¥n ga
Ġc ra
V em
Ġg ra
id d
Ġhar d
Ġdo g
Ġ ...
Ġto gether
Ġsak er
Ġne xt
ank s
Ġpre s
ĠhjÃ¤l pa
v Ã¤r
Th en
Ġan nan
Ġfr u
ĠO kay
Ġth ree
ĠO ch
Ġfin e
Ġhitt a
M aybe
S h
Ġbe g
Ġhel t
Ġcour se
Ġm aybe
if t
m in
Ġ Ã¤nd
Ġl and
Ġu r
Ġwe ek
Ġtill s
um p
Ġk lar
ow er
ĠB r
d el
Ġ Ġ
Ã¥ ller
Ġin nan
n ad
s o
00 0
Ġwr ong
A tt
Ġvar fÃ¶r
ĠS he
C h
E N
n et
Ġto day
Ġde ad
Ġl Ã¤ng
Ġd ro
Ġbab y
Ġt er
Ġc r
L L
i ble
Ġwh ich
Ġdr ink
p le
re s
Ġu se
al a
al t
ĠHe y
Ġro om
l er
Ġs na
Ġp ri
ett y
ĠhÃ¤nd er
o le
as on
ir d
ĠvÃ¤r ld
Ġs itt
Ġe v
ĠM en
Ġmen ar
os ed
Ġg Ã¥n
Ġcall ed
b y
Ġl ag
Ġfamil j
Ġman y
Ġt on
Ġf ather
far ande
? "
Ġre g
a h
i en
at ing
Ġsk ri
Ġan vÃ¤nd
Ġwould n
s on
Ġs le
er t
A R
Ġm ay
Ġsa w
n as
Ġsch ool
Ġl Ã¤n
Ġr ikt
ut er
Ã ĸ
Ġc omm
Ġen da
ĠfÃ¶ l
Ġdi ffer
ĠmÃ¤n n
V il
a il
it s
re ady
Wh ere
ĠA l
Ġse en
Ġh os
Ġm et
Ġm ost
Ġg re
Ġber Ã¤tt
el se
Ġyour self
sk ap
O R
j ud
m y
c u
at or
Ġbo y
Be cause
d u
tt er
Ġhe ard
Ġal ready
Ġwho le
ĠhjÃ¤l p
Ġact ually
Ġsay ing
d en
Ġin ter
ct ion
lo ck
Ġtoo k
Ã¤ld igt
Ġr Ã¶
ĠD o
oh n
E very
s y
Ġf ix
un t
ĠdÃ¶ da
Ġfort farande
ĠfÃ¶rsÃ¶ ker
M r
Ġt om
re am
Ġk Ã¤r
ĠH on
Ġ2 0
Ġper fe
S l
Ġs Ã¥n
ĠC ar
ri ed
ab ly
Ġus ed
rs Ã¤kt
ĠlÃ¤n ge
I S
Ġ ÃĦr
Ġv Ã¥ra
Ġl Ã¥ng
if rÃ¥n
d y
Ġb ak
Ġli ve
ĠH ur
ic al
el n
Ġdet ta
or row
ro ss
ĠTH E
l Ã¥t
Ġ [
Ġsec ond
Ġb ur
Ġre sp
d da
Ġw atch
lig het
Ġch ild
Ġpre cis
Ġid ea
i al
Ġ 4
re g
m ed
in ess
Ġf y
Ġw alk
it ch
ist or
In gen
ĠfÃ¶rst Ã¥r
Ġk un
Ġbr ing
G et
Ġh Ã¥ller
an e
Ġw ar
or g
ot s
ĠtÃ¤n kte
E tt
Ġh eter
es e
Ġs amma
Ġd Ã¶r
Ġmo ve
ut h
c es
Ġsk it
ĠD on
" ?
Ġd ire
ation s
Ġ They
Ġdu m
ci al
Ġgen om
p e
Ġh jÃ¤r
A n
Ġde al
ĠF Ã¶r
Ġany one
Ġqu est
Ġte am
Ġtyck er
n or
Ġs Ã¶
ag en
Ġr y
att en
P Ã¥
Ġn amn
ad er
Ã¤n ta
ĠrÃ¤ dd
L Ã¥t
S e
b ably
Ġk oll
um m
Ġgu ess
All t
Ġkv ar
Ġpol is
Ġ This
en de
id a
Ġwor d
Ġwom an
c er
Ġb ar
on er
Ġu te
Ġst Ã¤ll
w ard
al en
Ġgo d
Ġch eck
Ġpo int
v el
Ġ Z
Ġha ven
Ġmy self
un ch
Ã¤nd e
Ġgl ad
c ome
o te
Ġfe w
z y
Ġt est
Ġv Ã¤ldigt
ĠI s
u pp
Ġh Ã¤m
Ġc ase
Ġde f
ce pt
Ġmor ning
H er
H Ã¤r
Ġre ady
v ud
Ġg er
ĠL et
ĠJ o
Ġwant s
Ġber Ã¤tta
ĠlÃ¤ng re
V et
ĠN ew
Ġar bet
c o
ing en
Ġst Ã¥r
ĠE n
Ġpr etty
Ġag o
Ġb ry
Ġv al
Ġk r
Ġo b
ĠM a
Ġwith out
All a
Ġkid s
Ġd ad
Ġst ra
Ġha ving
Ġse em
Ġpeng ar
e b
ar ed
G o
i el
k v
t il
id er
Ġkill ed
Ġred an
ĠlÃ¥ ter
Ġh und
Ġv in
Ġdo ll
ol og
Ġcou nt
n ess
Ġs we
Ġv eck
Ġwh ile
Ã¤n t
Ġsp r
Ġph one
Ġmat ter
Ġsle ep
O r
n at
Ġd ra
Ġh old
st Ã¤ll
as y
Ġst and
Ġvi kt
ĠhÃ¤nd e
Ġa ff
Ġm us
ĠÃ¶ gon
E ller
Ġlo st
O n
T H
Ġf ight
ed an
Ġsk ick
Ġevery one
Ġfriend s
Ġ 6
Ġpr om
ĠbÃ¶rj ar
G e
Ġ There
Ġb oth
Ġl ug
Ġre st
ĠL e
Ġday s
wh ere
D in
er ade
ĠB e
Ġbet y
Ġbre ak
p r
Ġb Ã¤sta
Ġp at
Ġo pen
Ġli sten
ak en
ĠC ome
Ġal so
D Ã¤r
Ġh istor
Ġm ur
Ġw ife
ĠfÃ¶r lor
Ġst ud
ĠJ ust
Ġpl ats
Ġtid en
p s
Ġs w
ag s
Ġin ne
ub b
F or
l ess
Ġg av
Ã¤n k
ĠA n
ĠD en
ning ar
Ġthink ing
Ġa c
ag t
re v
ĠmÃ¤nn isk
Ġf ire
re w
ig het
Ġon ce
ist er
ĠY OU
iz e
b and
i ot
Ġb ed
Ġp ay
Ġst uff
ĠA r
ort s
Ġprat ar
Ġgl Ã¶m
le y
Ġun til
c ed
an a
Ġf em
Ġg am
Ġl yck
Ġton ight
Ġdiffer ent
P lease
i et
on y
Ġv Ã¤
Ġde c
ĠJ ack
Ġny a
S Ã¤g
o ke
Ġh ope
Ġk onst
Ġst Ã¶r
ĠÃ¥ ka
Ġp ick
Ġl ig
ĠS Ã¥
Ġd ie
Ġv a
Ġi hop
ĠÃ¥ ter
t en
Ġs ound
Ġh um
Ġh Ã¶g
ck a
Ġre ad
Ġor der
Ġing a
Ġwork ing
Ġbort a
G od
b land
h a
ĠfÃ¶r b
Ġd it
Ġal one
Ġmor gon
Ġhu h
G ood
T o
Ġm ag
ĠÃ¶ pp
Ġcon f
Ġhu vud
Ġbus iness
Ġf re
ith er
ĠJ ohn
s om
Ġe ach
ĠB l
Ġsupp osed
Ġinf orm
a z
Ġm ess
Ġg one
Ġsk ad
Ġsju k
Ġd eras
Ġh ot
ste m
Ġle g
ĠCh ar
a ut
s er
Ġf akt
is on
al e
ĠS e
ning s
Ġtj ej
act ly
ĠD ad
Ġpro te
Ġpro bably
Ġbr other
c le
en a
Ã¤ k
at es
im es
Ġar t
ĠvÃ¤n ner
Ġstor y
i ct
Ġw ater
Ġst ick
li e
ne y
Ġhur t
ĠfÃ¥ tt
F r
Ġk ul
le k
ĠS te
il t
Ġsin a
Ġye ar
S T
m or
Ġt el
ar ing
Ġbl ood
Ġver kar
Ġsn art
ĠtrÃ¤ff a
Ġsist a
A l
S ome
a in
b ar
Ã¶ k
Ġc lo
nd er
Ġcould n
Ġtur n
m e
Ġs ent
Ġa li
et h
el a
Ã¤g g
Ġh igh
Ġf lick
Ġy es
Ġin v
ĠR e
Ġ Q
Ġm r
Ġp ower
el t
Ġwon der
Ġann at
Ġem ot
Ġminute s
H ere
Ġt aking
om b
Ġv an
ĠS p
Ġs agt
st Ã¥
Ġr et
Ġvar je
Ġre l
ĠjÃ¤v la
A ny
Ġs et
Ġa in
Ġm akes
Ġg ave
us h
ĠL u
li c
ist en
Ġpo j
ĠfÃ¶ re
B ara
Ġs ol
Ġd om
Ġsk j
Ġdo or
ĠM ich
Ġpol ice
ĠvÃ¤g en
Ġins ide
u tt
Ġb as
Ã¶r a
Ġe ar
ĠhÃ¥ll a
S n
f ri
m ore
ll an
Ġf ace
Ġu m
Ġhapp y
M ed
R e
i ff
Ġf ig
Ġatt ack
Ġre ason
Ġne j
ĠT O
Ġhand s
ĠvÃ¥r t
ĠfrÃ¥g a
Ġtom orrow
ou ch
Ġf ree
Ã¥ da
Ġg un
Ġp os
Ġc oll
Ġsk ol
ro pp
Ġch ar
Ġpo ss
Ġpart y
Ġmil j
aught er
Ġhour s
S en
o ve
Ġst opp
ĠM an
Ġso on
Ġch ans
Ġch ange
Ġ1 9
ft en
ug g
A s
Ġt itt
Ġd ess
Ġh Ã¶
Ġth ank
Ġr ad
Th ank
Ġme ans
ra ct
Ġsin ce
er al
Ġtr ue
Ġpro f
Ġask ed
Ġmur der
E T
V Ã¤nta
g ent
Ġm Ã¥r
an ska
Ġy et
Ġin c
Ġj Ã¤tt
Ġwor ry
Ġsay s
Ġlook s
oll ow
J o
L ike
i ka
Ã¥ k
Ġl ight
ĠfÃ¶r ut
Ġl u
ĠWh y
Ġfort s
ĠsÃ¤ker t
r ade
Ġm aking
ĠS k
Ġab le
Ġhitt ade
Ġimp ort
rsÃ¤kt a
Ġclo se
c ent
v Ã¤g
Ġc ool
Ġr um
il y
ent ion
Ãħ h
Ġcle ar
Ġmon th
r on
Ġf our
it a
Ġj a
Ġme llan
Ġch ance
Ġsig n
B ra
Ġs ing
Ġc ut
pp ed
Ġle ver
att ar
Ġsv Ã¥rt
Ġad v
O ne
u al
Ġf av
Ġb or
ĠD r
Ġknow s
ĠG e
Ġex t
ĠhÃ¶r a
Ġstart ed
ĠvÃ¤rld en
Ġkun na
Ġdoll ar
E x
Ġa w
Ġhe art
out h
Ġf ant
ĠC an
Ġex actly
Ġcon t
Ġfakt iskt
l an
u ss
er at
Ã¤ der
Ġb ook
it al
Ġl Ã¶
Ġl Ã¤tt
... ?
ere st
Ġtr ust
Ġlea st
a el
Ġs ide
Ġm ark
Ġr oll
Ġsu ch
est er
ĠCh rist
Ġliv et
ĠkÃ¤n ns
we en
p ar
t on
Ġd y
pl et
a ste
m s
Ã¶ tt
ĠN ot
Ġlit en
ĠmÃ¤nnisk or
i ed
Ã ¢
er g
Ġh at
Ġex per
iss a
f er
v ie
y ss
Ġm isst
Ġf ot
ig are
Ġtim es
he ad
Ġspe ak
Ġfig ure
Ġimport ant
L E
j ur
o j
Ġm idd
Ġb ody
and ra
ĠM y
ĠD an
Ġid ag
ĠhÃ¶r de
Ġcou ple
Ġcra zy
T ror
d ing
s am
Ġd an
ou ble
am es
Ġli ka
us et
Ġbl od
ation en
Ġhitt ar
n u
n sk
an y
Ġv ore
Ġp ub
Ġl a
Ġsu per
ans ke
Ġbety der
b r
m ost
o ice
y es
Ġm ass
Ġw ish
Ã¶ l
Ġbe aut
Ġde ath
Ġmin uter
Ġtr ans
R ight
S er
i ra
j ect
t id
v Ã¥
er n
un k
ic a
ell o
Ã¤st an
Ġquest ion
H ave
s ide
Ġw in
it et
Ġv ap
ĠS am
Ġgo es
vet e
Ġnum ber
W ait
a ir
b o
c ess
Ġin ve
ill y
Ġbe vis
na pp
Ġget s
if ul
Ġ1 0
Ġbet ween
ire d
amm ans
Ġrun t
Ġled sen
ĠVar fÃ¶r
cu se
T ill
Ġa p
am a
Ġhem ma
at ur
Ġe asy
Ġan g
Ġgo tt
Ġany more
T ell
a ff
Ġr u
Ġvis a
Ġbli vit
d om
e kt
u k
Ġs edan
Ã¤ ller
Ġb en
ag et
ĠfÃ¶r v
am er
ĠbehÃ¶ v
ĠvÃ¤n ta
Ġid Ã©
ĠWh o
G Ã¶r
h Ã¥ll
w er
Ġ 8
Ġb all
Ġl ater
Ġk ropp
Ġfr ont
ĠA mer
Ġmin ns
ĠG ood
Ġpre ss
Ġigen om
Ġagain st
Ġhopp as
ĠÃ¤nd Ã¥
I T
f ra
Ġs end
Ġc op
Ġfor g
Ġde p
ent ing
Ã¤m t
Ġbu ild
Ġbil en
W ith
Ġm Ã¶rd
id an
ver s
ĠG r
Ġtj Ã¤n
Vil ken
Ġfav or
G Ã¥
er ad
Ġf ollow
Ġe at
ĠG ud
ell a
Ġar g
ĠfÃ¶rsÃ¶ kte
o ss
Ġm Ã¶j
le x
ur n
Ġyour s
ĠfÃ¶rst Ã¥
ĠWh ere
Ġens am
ĠlÃ¤m na
ĠlÃ¥t a
ĠFr ank
Ġrikt igt
A S
E D
Ġd aughter
Ġm ill
Ġk Ã¤nde
Ġen t
Ġit s
Ġtr uth
Ġcon s
Ã¤ck er
Ġtri ed
Ġkvin na
Ġhal f
iel d
Ġinform ation
fra id
l in
l ut
Ġt ouch
Ġm od
Ġn Ã¤stan
Ġst an
Ġe yes
Ġha ft
Ġlo se
Ã¤m mer
Ġsl Ã¤pp
Ġoff er
FÃ¶r lÃ¥t
Ġjobb ar
U t
f ull
i ent
Ġm atch
ou nt
Ġf ood
Ã¶ st
re st
Ġp ull
ĠfÃ¶r r
ĠfÃ¶r Ã¤ld
Ġer a
Ġslut a
reg ud
S p
d r
Ġ illa
Ġg ift
Ġl aw
Ġc or
Ġsk r
Ġtell ing
Ġun g
Ġid iot
Ġred o
ious ly
Ġfy ra
D r
N D
ar ch
or ter
Ġl uck
ĠB ar
em ent
Ġch ef
Ġoff ic
Ġbeh ind
Ġ1 5
Ġgr und
Ġstor a
umm et
Ġlig ger
Ġg Ã¤r
Ġg ame
Ġr ol
Ġint erest
ĠgÃ¥n ger
Ġdire kt
O W
o v
in it
Ġs ant
Ġn Ã¤sta
Ġin st
ri c
ic ally
ff ic
iv ing
ĠkÃ¤n na
Ġs im
Ġth ough
on ger
Ã¤r d
ĠfÃ¶r Ã¤nd
ĠhÃ¤r ifrÃ¥n
Ġch ang
Ġtim mar
Ġcom es
Ġcom plet
Ġevery body
ĠfÃ¶rs v
ĠY ork
Ġkom p
Ġly ss
Ġfil m
i or
Ġa fraid
Ġl ine
ĠdÃ¶d ade
ĠrÃ¤ dda
kl ag
Ġwait ing
Ġmom ent
Ġswe et
I G
in al
Ġv ack
Ġp ie
ĠYou r
Ġhus band
Ġsna bb
H Ã¶r
H Ã¥ll
Ġt ea
Ġf ive
Ġc ap
ĠS c
ĠL ook
ĠJ u
ĠdÃ¤r fÃ¶r
ĠvÃ¤n tar
ĠtÃ¤n ka
ĠgÃ¥n gen
k an
r as
s Ã¥
on es
ig n
Ġl j
Ġe gen
ĠH ej
Ġsh ot
Ġsh oot
ĠP h
Ġal ong
Ġal most
Ġsl Ã¥
Ġdi ed
Ġsy stem
Ġbu y
ĠbÃ¶rj ade
up id
Ġspel ar
O M
Ġs es
er y
ou n
Ġg amm
Ġl illa
Ġk ra
Ġyou ng
ĠA re
ĠO r
ĠgÃ¥ tt
ĠÃ¥ ker
ĠU n
Ġpres ent
Ġbeaut iful
B r
N Ã¥g
O T
i ven
Ġa ir
Ġo per
Ġsk Ã¶
Ġhel st
Ġqu ite
Ġtills ammans
Ġpri v
N A
g Ã¥ng
k n
k omm
Ġ !
Ġs at
Ġl ate
Ġk on
ap e
Ġupp t
Ġle arn
âĢ Ĳ
Ġwom en
Ġgam la
E S
M ar
Ã¤ t
Ġm Ã¤r
Ġb ild
Ġb Ã¥da
ad en
ĠM iss
Ġbo ys
Ġ1 2
sh ip
Ġbit ch
ĠsÃ¥n t
Ġtel ef
at ely
ing er
ĠO kej
Ġnew s
Ġmar ried
Ġperfe ct
F Ã¥r
Ġs j
Ġs an
Ġs ix
Ġd ist
Ġc ell
Ġst anna
Ġfor m
ĠA d
Ġar en
Ġsm art
ĠhjÃ¤l per
ĠhÃ¶r t
es us
Ã¤n ner
ĠK an
Ġoff ice
Ġcon tro
Ġfl er
Ġsec ret
ĠIn te
Ġ3 0
Ġ 9
or ge
Ġlo v
ĠW ill
ĠTh ank
Ġring de
Ġfa ct
Ġprote ct
A L
L isten
U m
i hop
j en
l et
Ġ $
Ġs ort
Ġd ream
it ed
Ġi h
Ġdo tter
ĠG o
Ġso ld
Ġsa ve
ĠE m
ap s
ĠnÃ¤r a
Ġspe cial
T itta
T Ã¤nk
i am
l ag
Ġm ist
Ġb ull
Ġg if
Ġc ur
ck er
Ġvis st
Ġfan ns
Ġklar ar
K anske
n ie
s ol
u ld
v an
Ġ 7
Ġd amn
Ġh Ã¤l
Ġm Ã¶
Ġp ast
ĠI f
Ġe ither
un n
kt a
ĠG et
ĠJ e
Ġsa fe
Ġsv ar
Ġspel a
ĠlÃ¥ng t
Ġfant ast
ĠgÃ¤r na
A t
E fter
h Ã¶r
h and
p ect
Ġh y
Ġf lo
Ġb ud
Ġn orm
Ġvar andra
Ġde st
ĠH er
ĠB en
Ġneed s
Ġhus et
U rsÃ¤kta
s m
in ed
Ġl ad
Ġto wn
Ġfor get
ro tt
Ġmin e
ic s
ĠP r
ast er
ge st
Ġbo tt
av id
Ġjobb et
Sl uta
Ġchild ren
Ġinve st
A D
T y
o on
u h
or y
re et
al d
Ġst ol
ut en
Ã¤n n
Ġli st
ent ly
ĠÃ¶ nsk
Ġbr or
Ġkl art
Ġsc en
Ġpar ents
S orry
in ing
Ġwhat ever
Ġing enting
Ġcle an
s el
t j
y l
y m
Ġh ate
Ġc am
ĠD id
Ġden na
ĠN i
ĠO K
ĠF or
Ġring er
H i
n ot
y n
Ã¤ d
Ã¤r a
Ġk rig
Ġre da
Ġhe ller
ĠM c
ĠM e
ĠM in
omm y
Ġout side
ĠK e
Ġhel vete
iz ed
Som et
Ġexp ect
A h
I C
O ur
S ee
p ro
Ġr Ã¶r
ro om
Ġtal a
Ġkill e
Ġcl ass
T ake
f all
g Ã¥r
i um
Ġwe ird
Ġar m
Ġsm all
iver s
ĠhÃ¤m ta
A r
B er
O K
Ġa dd
Ġm ord
Ġf Ã¤ng
and en
ro ll
Ġav sl
li pp
ĠP ar
Ġbr ought
ard s
Ġhapp ens
Ġdag ar
ĠÃ¤ ven
Ġrec ord
Ġcount ry
, "
b all
l ade
t o
u ation
Ġt en
Ġc ent
Ġfel t
fri end
G r
O f
T r
a ul
t s
v id
Ġt aken
Ġs Ã¤l
Ġh Ã¥r
ou d
ing ar
st ans
Ġp sy
Ġst upid
ĠO m
Ġwor th
Ġsu b
Ġdr Ã¶m
ĠÃ¤n nu
ĠbÃ¶r ja
Ġrun ning
Ġann ars
Ġsist er
ĠÃ¤ ta
ĠkÃ¤r lek
Sn Ã¤lla
P ro
Â ª
Ġ Ã¤g
or th
Ġst ar
ir th
Do es
ict ure
Ġali ve
ĠMich ael
j or
Ġp ur
ed er
Ġen g
ant s
ĠC l
Ġif rÃ¥n
ik en
Ġthr ow
Ġbro tt
Ġpolis en
Ġrel ation
U nder
o ch
r um
Ġ ?
Ġ es
Ġb ank
al m
ĠC ol
ell e
Ġdin ner
Ġsen are
Ġgirl s
Ġtre v
Ġans wer
ĠfÃ¶rÃ¤ld rar
Ġgamm al
I D
V E
g an
p ital
r ad
Ġt w
at a
re l
Ġp ack
Ġn att
Ġl Ã¥g
Ġl ess
ĠI N
el come
il ity
sk t
Ġgr and
oll y
het en
Ġaff Ã¤r
H is
U T
i ker
Ġ .
Ġh or
kt ion
ĠN ow
um mer
ĠE ng
Ġlo ck
Ġle va
Ġdag en
Ġfeel ing
Ġlea ving
ĠhÃ¤nd a
Ġter ri
A Y
e ar
Â Ļ
Ġt itta
er tain
Ġd am
Ã¤ s
ĠS om
Ġsh ip
ĠR ob
ation al
Ġsome body
Ġplan et
Ġvil ja
kv Ã¤ll
Ġhum an
Ġtelef on
! "
f ort
i pp
m b
o x
en ny
et te
Ġp ap
Ġst at
ĠT ack
Ġch e
ess ion
Ġ1 00
Ġjobb a
Ġperson al
Ġlug nt
stÃ¥ nd
f orm
Ġ z
Ġh op
Ġf est
is en
Ġin sp
Ġc ir
ill s
ĠM om
ter s
ĠO F
ul ar
Ġkomm it
iv es
ĠU h
Ġph ot
Ġco ver
ĠanvÃ¤nd a
Ġmill ion
Ġs us
er en
Ġp icture
Ġl ady
Ġk ap
ra v
ĠK om
Ġex c
Ġbo k
Ġbo x
Ġny tt
Ġring a
Ġplay ing
Ġmonth s
z a
en se
Ġb irth
Ġw ind
ut ion
ĠS ara
ull e
Ġbl ack
Ġhand lar
B l
L e
l en
o int
s in
in er
in es
ag g
Ġin d
Ġto p
le as
ri ck
Ġfin ish
Ġle v
In get
ĠMr s
Ġdis app
Ġty p
Ġ5 0
Ġdef init
Ġstra ight
V isst
e ople
h am
r ight
er ry
om p
is a
id ence
Ġli e
Ġtr ouble
Ġint ress
Ġliv es
B I
K omm
r id
Ġs ick
Ġs Ã¤tta
Ġf oot
Ġb and
at ter
Ġc atch
ĠS er
ĠC on
Ġhan g
ĠJ im
Ġliv ing
ĠlÃ¤m nade
Ġkvin nor
U n
Ġp app
ill e
sk y
Ġhon ey
Ã¤tt er
ound s
Ġsy ster
lock an
Ġbak om
Her regud
b art
in ner
Ġd ate
ll a
Ġl unch
Ġo tro
ch er
Ġr isk
Ġme st
ĠM art
Ġse ll
Ġknow n
Ġsp end
ĠV em
iv t
Ġshould n
Ġsen se
Ġsit ter
Ġmeet ing
Ġskol an
A M
W ill
W ow
t at
Ġ 000
Ġt io
ou l
Ã¶ v
Ġv atten
Ġg alen
Ġk iss
Ġc ity
Ġan t
all Ã¥
ĠG u
Ġdr ug
Ġste p
ĠdÃ¶r ren
Ġseem s
Ġcoll e
Ġvap en
Ġcontro l
Ġih Ã¥g
P er
ar l
Ġm ad
ag er
re y
oo se
ent le
Ġne ar
ĠR ight
Ġbet al
ny gg
Ġsv art
Ġprat ade
Ġqu ick
Ġkl ara
Ġbry r
Ġpos ition
E ven
r al
in n
Ġs ke
Ġp en
is ed
id es
am b
Th ese
Ã¤n ga
Han s
Ġask ing
ĠfÃ¶rsÃ¶ ka
Ġtag it
Ġprom ise
C H
m Ã¤r
er ing
Ġf ara
Ġv ak
Ġv ide
Ġp ot
Ġp op
Ġl onger
Ġk ick
Ġc ertain
ĠfÃ¶r f
Ġha ir
Ġsh ut
ell t
Ã¤nd er
het er
Ġtid igare
og ra
Ġvil ket
Ġhal v
Ġpres ident
ĠberÃ¤tt ade
Ġperfe kt
Ġdess a
Ġkomp is
d ag
Ġh Ã¤nt
Ġb reat
Ġc ol
Ġme ant
ĠH ere
ri k
Ġhon est
ĠL a
art ment
ry ck
Ġsp ring
ie f
FÃ¶r s
Ġhitt at
Ġhappen ing
Min a
Ġcomp any
Ġpeng arna
" ,
A b
W ould
k lar
l as
r Ã¤ck
u x
u es
z e
or a
it ing
Ġg Ã¶m
Ġk ast
ĠS ch
Ġhe y
Ġall s
Ġall ow
us ed
ĠO ne
ĠmÃ¥ l
Ġneed ed
Ġim ag
Ġdri ve
Ġrep ort
ĠkÃ¶r a
ĠfÃ¶l ja
b jud
g ar
i ence
s c
ar m
Ġm ob
ĠT e
ap tain
Ġbo ss
Ġfly tt
Ġbes lut
A fter
G u
H ello
b or
r an
v ice
Ġs idan
Ġa head
Ġh ote
ar bet
Ġf und
Ã¥ tt
Ġv itt
Ġl ab
Ġl ju
Ġk ort
Ġbe come
ut s
pp en
Ġan tar
Ġmed ic
Ã¥n ga
Ġse k
ĠE l
Ġpr ison
Ġkill en
Ġfun ger
Ġfun ny
ĠfÃ¶l jer
Ġkoll a
G ive
o id
o ff
Ġt reat
Ġg anska
is m
nd a
Ġen erg
Ġr ob
Ġr Ã¥d
Ġe g
Ġe ye
ĠT a
Ġbr Ã¶
if ic
ĠW H
Ġex ist
la in
Ġby gg
Ġvid are
Ġhos pital
ĠChar lie
Ġmilj oner
l ad
p el
z ing
Ġh Ã¥rt
Ã¶ n
Ġg al
Ġr id
Ġe ff
ver n
Ã¤n ger
ĠT o
Ġlo c
und a
Ġund an
Ġlook ed
oll a
Ġweek s
Ġskri va
Ġdan ger
Ġent ire
c ri
m as
r Ã¥d
Ġd ans
Ã¥ ld
Ã¥ ter
re en
Ġbe k
ak er
ĠA ng
ct im
Ġcan not
Ġwork ed
Ġ2 00
Ġsn Ã¤ll
Ġpol it
ĠlÃ¤r a
Ġly ing
Ġposs ible
3 0
C ould
E L
M e
S Ã¤tt
p te
Ġ (
Ġm Ã¶r
Ġw all
Ġw eren
ĠI S
Ġj ud
te l
ĠfÃ¶r tj
Ġst ort
ur t
Ġall ihop
ir t
ĠD Ã¥
ri v
ĠN u
ĠR o
Ġsee ing
Ġcl os
Ġpa in
Ġgra bb
Ġpie ce
M amma
a ven
b il
i ans
y ou
ou b
Ġb Ã¤st
it ies
Ġj o
ro y
ĠT om
ĠK ing
In ga
ĠlÃ¤m nar
o es
Ġt em
in ce
ou p
Ġf ell
Ġb ill
Ġb omb
Ġk opp
Ġc ost
Ġr an
Ġre f
ter a
ĠA b
ĠP ro
Ġfin ally
und er
Ġex pl
Ġsomet imes
Ġmo ving
Ġsky dd
ĠkÃ¶ pa
c om
i us
k om
k el
s et
s la
v ak
in da
Ġn atur
ld ig
ut ure
ur y
and et
Ġde ep
ĠH i
ĠD avid
Ġvi ctim
ĠB ra
Ġman nen
Ġfin t
Ġle ad
ord en
Ġdag s
Ġfl era
Ġmiss ing
ER E
Ġro ad
ĠTh anks
ĠrÃ¤ k
res ident
Ġvikt igt
Ġtitt ar
N Ã¥n
f or
Ġo pp
Ġc ry
Ġmed an
ĠT r
ta ct
ĠE x
Ġcall ing
Ġefter som
ĠU S
Ġass ist
Ġsit uation
Ġsound s
C ause
N e
l Ã¶m
o e
w ood
Ġf le
ig g
Ġr Ã¤cker
Th anks
Ġre ach
Ġmed del
Wh ich
ĠB ob
ĠL ike
Ġno body
Ġher r
Ġfa ir
ĠsÃ¤tt er
C K
F an
F uck
S te
t an
Ġ Ã¢
Ġs att
Ġh ung
Ġg ri
ag ed
st Ã¥r
al th
Ġde cis
ĠA ND
ĠT V
ul es
Ġpro du
Ġcon ne
ous and
Ġsm Ã¥
Ġid ent
Ġfly g
Ġres ult
ĠlÃ¤g ga
ĠstÃ¤ll et
Ġsjuk h
ĠQ u
B y
l it
s ch
Ġt akes
Ġs ong
en skap
et y
Ġth anks
Ġb ag
Ã¤r sk
Ġk ost
Ġj ump
Ġbe at
Ġi kvÃ¤ll
ĠP aul
Ġch oice
Ġpro gr
Ġbr u
Ġ1 8
Ġser ious
Ġsc ared
Ġstr ong
ĠÃ¤lsk ling
Ġwr ite
Ġkont akt
Ġmus ic
Ġinv ol
Ġpub lic
Ġcomplet ely
E r
F olk
G en
M a
S ir
j oy
u c
Ġf attar
Ġp ark
Ġin fÃ¶r
Ġc li
Ġsk rev
ĠS l
Ġdo ctor
Ġde j
ter na
ĠT y
Ġhim self
Ġor gan
Ġsl og
Ġig Ã¥r
lar na
St op
Ġjobb at
Ġte xt
Ġfa ult
Ġfram fÃ¶r
Ġsing le
Ġext ra
ĠbehÃ¶v de
Ġbuild ing
Ġchang ed
F in
a i
f r
m ber
n al
r it
Ġd iv
Ġd ress
Ã¥ s
at an
Ġp ost
Ġk napp
ĠS ka
Ġpr is
Ġupp e
Ġany way
Ġgr ow
Ġkill ar
Ġsn Ã¤lla
Ġnum mer
Ġword s
Ġrol igt
ĠÃ¶nsk ar
ĠSara h
A v
H E
P eople
T vÃ¥
d es
in o
Ġd ar
Ġd ju
en ry
Ġg entle
ag es
Ġp an
Ġc aught
ĠI T
Ġi vÃ¤g
Ġwh ite
Ġre qu
ur s
ur ity
and y
ro p
Ġall var
ent y
ri an
ic an
Ġsp Ã¥r
Ã¤nd a
Ġar rest
ep t
ac es
Ġspe ci
Ġtur ned
aug h
Ġsur v
ester day
Ber Ã¤tta
Ġcolle ge
M itt
S am
g ga
k s
m t
p ort
Ġ ill
Ã¶ sa
st r
Ġo li
ed ding
ad d
Ġr a
Ġr ock
ĠM on
Ġsh all
ly ck
Ã¥g a
ist ol
Ġor ol
Ġwor se
Ġwor ried
Ġsome where
ÃĦ ven
ĠnÃ¥n sin
ĠfÃ¶rst Ã¶r
Ġbarn en
Ġgen er
kl art
Not hing
Sk ulle
ĠBl ack
Ã¶l j
Ġd isk
Ġh Ã¤
Ġf at
Ġf ir
Ġf uture
ver k
Ġan led
Ġwe ap
all t
Ġso va
Ġbet ala
Ġhand le
Ġlet ar
Ġsm ell
Ġvis ar
Ġsak en
Ġgl ass
ĠWh en
Ġkl Ã¤der
Ġfa il
Ġutan fÃ¶r
ĠvÃ¤ x
Komm er
h aps
i ant
p ris
r ummet
y le
Ġt able
in ation
Ġa kt
Ġh am
Ġf inger
ill ar
Ġu rsÃ¤kt
id s
Ġst ark
ĠS m
ĠM or
un gen
ct ed
end er
Ġus ing
Ġta pp
ĠkÃ¤n sl
ect ive
Ġpart ner
ru pt
ĠTH AT
Ġag ent
Ġco ff
Ġfamilj en
ĠanvÃ¤nd er
ĠJo e
utt ing
Ġm ask
Ġm ention
Ġn ere
id ge
Ġst Ã¥
ut om
il a
ĠB E
ĠN e
ĠO N
ĠO n
ĠP ol
ĠV ill
Ã¶t s
Every thing
Ġwatch ing
Ġquest ions
I M
R A
U S
b it
f Ã¤r
o f
r ay
Ġd jur
Ã¥ de
Ġb ath
st one
Ġk li
id ed
Ġst und
Ġme mor
ĠP et
Ã¤m na
qu e
ik an
Ġim or
Ġmo vie
ĠvÃ¤r re
ĠdÃ¶d ar
ok at
Ġsky dda
Ġkont or
nad en
Ġry m
ĠhÃ¶ ll
Ġmist ake
Ġbirth day
- [
J u
U pp
l ish
Ġs ida
Ġth reat
Ġv Ã¥ld
Ġg ud
Ġl Ã¶s
Ġk Ã¤m
ĠI nd
Ġst od
Ġon t
ĠM ark
ĠM aybe
ĠM ike
us en
Ġor o
Ġer t
Ġwork s
Ġner v
ĠmÃ¥n ader
Ġdri cka
Ġkall ar
Vil ket
Ġvin na
Ġinvest ig
Ġterri ble
T wo
c on
c ing
d et
k ra
l t
m iss
Ġ Ã¤kt
Ġt ank
Ġs ud
Ġg iving
Ġk ar
... "
Ġst ad
Ġst ation
Ġvar t
kt en
ĠP at
ul a
ĠE d
ĠV il
Ġpro ve
Ġpro per
os h
att le
iv a
Ġcon tact
Ġbra in
Ġ2 5
Ġty st
ĠsÃ¤ker het
AN D
Ġbus y
Ġcons ider
sel ves
H allÃ¥
L Ã¤gg
b l
b ye
f y
Ġth ousand
Ġl ur
Ġst yr
and er
Ġtill f
ĠA nt
ĠC he
ĠB o
ĠB er
ol y
ĠG O
Ġab sol
ĠR ich
Ġpr et
end s
Ġslut ar
ĠÃ¤lsk ade
ĠberÃ¤tt ar
Ġpat ient
Ġhat ar
Ġsnabb t
A K
P re
a j
Ġn ed
Ġc reat
ow s
Ġr app
Det ta
ra kt
ro g
ĠM E
ĠM m
ĠJ ames
ff a
ĠF BI
Ġsp ace
ĠE li
Ġlo var
Ġlo ved
Ġ1 1
ĠbÃ¶rj an
vÃ¤r r
ĠfÃ¶l j
ĠÃ¶gon b
ĠstÃ¶r re
Ġhuvud et
Ġmisst ag
ĠtjÃ¤n st
Ġrelation ship
J ack
at ive
Ġk or
Ġc ook
Ġto t
ĠfÃ¶r et
am s
ur g
il es
ĠA s
um e
end a
Ġfe et
Ġdr ar
Ġsen aste
co ver
Ġob v
pr ise
Ġmess age
Ġear ly
Ex cuse
ĠJu li
Ġsan ningen
ĠfÃ¶rtj Ã¤n
H el
K olla
M iss
T om
b ord
l Ã¶s
r Ã¤tt
Ġ X
Ġs al
Ġs elf
Ġd ark
Ġf i
Ġf red
Ã¶ ver
Ġn Ã¶j
Ġo p
Ã¶r en
ĠfÃ¶r m
Ġst ri
Ġsk uld
ur ch
ĠA tt
ess or
Ġbo ard
dd ie
Ġveck or
IG H
Ġdefinit ely
Ġtot ally
I bland
k or
p at
Ã Ń
er k
Ġa ma
Ġm outh
et ter
or l
Ġg iven
Ġp ea
Ġp leas
Ġn atten
Ġk ept
Ġo h
Ġc old
Ġj our
Ġr om
Ġi bland
ĠS T
ĠM ed
un ity
th ers
ĠJ esus
ĠW E
Ġtalk ed
ju k
Ġfeel s
Ã¤ck a
kl ara
Ġty d
Ġbeg in
Ġhistor ia
Ġforts Ã¤tta
yss na
Ġmass a
Ġdest roy
Ġimor gon
I A
I L
P ol
S m
a f
o ver
Ġs un
Ġd oub
Ġm ach
Ġb an
Ġb od
Ġg ar
Ġp istol
Ġin om
Ġsk all
Ã¤n ker
Ġde ar
ĠH A
ĠB ill
ol a
ct ually
Ã¤l t
ĠG er
ĠO f
um ent
ist s
Ġun ivers
ĠÃ¥ kte
og n
Ġsak nar
Ġperson er
Ġbel ong
Ġcl oth
ĠTh en
Ġpass ar
Ġpa id
Ġsam tal
Ġbro ke
Ġresp ect
Ġhund red
Ġcoff ee
P l
V art
W as
e el
g re
s b
t ade
z z
en n
re ci
Ġc re
ow ers
Ġha ll
Ġtr Ã¤n
Ġso v
ĠP lease
ĠE ll
Ġlo ss
Ġtim me
Ã¤m ma
Ġste al
Ġpa int
Ġtyck te
Ġev idence
Ġresp ons
Ġveck a
ĠBe cause
ĠGe orge
Somet hing
Ġpap er
orl unda
b ror
c a
g n
p et
r am
Ġs ad
Ġs il
Ã¶ ss
Ġp ract
Ġk il
Ġdu de
Ġon es
Ġfor ever
ĠA lex
Ġse arch
ste ad
ob b
ob ody
os a
ĠW ait
Ġallt sÃ¥
Ġgr ound
Ġliv ed
Ġreal ize
ĠlÃ¤ t
Ġexp lain
ĠkvÃ¤ll en
Ġfix a
ĠhjÃ¤r ta
ĠMa x
Ġvikt iga
ĠfÃ¶rb i
ĠmÃ¶j ligt
Ġske pp
vern ment
Ġbru kar
o gen
y d
ll op
Ġb jud
at te
it er
Ġv ir
Ġy esterday
Ġn yck
el ess
Th ose
Ã¤n gen
oo f
ter n
ĠD NA
kt or
ĠN Ã¤r
op h
ĠL ou
ĠL ord
Ġbl and
Ġsu g
Ġsl Ã¥r
iv et
Ġ2 4
ĠfÃ¶ d
ĠSt ar
Ġfun kar
Ġag ree
Ġcr ime
ĠÃ¶pp na
Ġcont in
ĠfÃ¶rr Ã¤n
Ġflo or
Ġsus pect
Ġdecis ion
A LL
I LL
T ER
g ift
w ell
ar ry
Ġf Ã¤r
Ġb ri
Ġc ross
Ġst ress
Ġre sa
im p
im ent
ĠM al
ĠsÃ¥ d
ĠL ond
em ember
Ġany body
uck er
Ġfram tid
ĠtrÃ¤ff ade
Ġann orlunda
Ġapp reci
Ġdec ided
Ġret urn
Ġstan nar
Ġbud dy
ĠfÃ¤ng else
Ġorol ig
C he
H a
P appa
e en
g h
g o
l u
l ine
t ime
Ġt ough
Ġt uff
Ġa mer
ar th
Ġb ord
it ness
re ad
Ġp ort
Ġk Ã¤nd
Ġk aff
Ġj ack
ch n
Ġu tt
Ġr ide
Ġof ta
ay s
ke y
Ġst Ã¤mmer
ĠS n
Ġre sta
ĠH E
ak et
ĠA t
li v
Ġpro cess
end ing
if y
Ġwho a
Ġund rar
ure d
Ġun ge
Ġbes k
Ġfall et
Ġma in
res ent
Ġsna ck
Ġskri ver
Ġarbet e
Ġmidd ag
Ġmob il
Ġdanger ous
Ġama zing
Ġcloth es
C E
V Ã¥r
b ed
h mm
l at
s as
v il
Ġk Ã¤
Ġk ung
Ġk lockan
Ġo thers
ad a
Ġen k
Ġr ent
Ġre sten
ĠM el
Ġsh are
Ġsh ort
ĠC lar
Ġtr uck
ĠG en
ĠF re
Ġor s
Ġupp dr
Ġtal ar
Ġ1 6
Ġgr oup
ĠsÃ¤g s
ik te
Ġvis it
ats en
Ġqu iet
ĠsjÃ¤l va
Ġcar ry
ĠtrÃ¤ff as
els er
Ġlit a
ĠÃ¤ ter
ĠlÃ¤g ger
ĠstÃ¤ll e
stÃ¤ll et
Ġmidd le
Ġkra ft
Ġes c
ĠbrÃ¶ llop
Ã¤rsk ilt
Ġoli ka
F F
H opp
P r
T ro
b ild
f att
u el
u per
w ork
Ġm un
on en
Ġw elcome
or r
it ive
Ġv Ã¥g
Ġv oice
Ġg Ã¤ller
Ġp ush
Ġc iv
Ġen joy
ĠfÃ¶r l
le m
im m
ir s
ce p
Ġgo vernment
ĠB ur
ĠN ick
Ġare a
ĠP er
Ġut s
Ġfin nas
ure s
ĠdÃ¥ ligt
ĠtÃ¤n kt
ling en
Ġsy nd
Ġsec urity
Ġans var
Ġacc ident
Ġdes er
ĠrÃ¶ st
Ġwalk ing
Ġac ross
Ġkonst igt
Ġlyss na
komm en
Ġsat te
Ġgif ta
Ġsud den
ĠLond on
Ġresta ur
K Ã¤nner
L ug
T ja
V ER
b ara
j Ã¤v
v Ã¤
Ġ 0
Ġt ick
Ġs qu
Ġs oul
Ġh ide
et her
Ġf it
Ã¥ ende
Ġw edding
Ġl ar
Ġk rÃ¤
Ġen ter
Ġr ules
Ġst reet
Ġe get
im in
Ġwe ar
ĠH el
Ġfr Ã¤m
Ġgo ld
Ġsp ark
Ġbl ow
Ġbr uk
Ġar ri
jÃ¤l p
Ġig Ã¥ng
ĠfÃ¶rs vin
Ġkill ing
Ġgl as
Ġtra ck
ĠlÃ¤ sa
Ġdro g
Ġgre j
Sl Ã¤pp
eb ra
Ġskick ar
DÃ¤r fÃ¶r
Ġskad a
ĠsÃ¤l ja
D an
N ice
P P
P ut
b ut
e v
h ole
m Ã¥l
Ġh om
Ġh ost
Ġin vit
ed d
Ġc amp
el eb
Ġr is
ĠfÃ¶r klara
Ġst ate
ir ty
ion en
ĠA m
ĠC r
ol f
kt orn
ĠT ake
ĠG ra
um b
Ġwor st
ap an
Ġpro v
Ġbeh and
ĠÃ¶ver allt
Ġsm Ã¤r
Ġcall s
Ġtv ungen
ci ally
Ġeven ing
Ġcl ub
ok us
Ġkall a
Ch ar
Ãĸ ver
ĠberÃ¤tt at
Every one
Ġ4 0
Ġluck y
Ġanled ning
1 5
A G
R ing
b Ã¤r
b oll
k Ã¤n
k ring
m it
r ate
Ġ ..
an ces
Ã¥ ste
Ġb Ã¥t
Ġw ake
Ġv e
Ġg as
Ġl Ã¶g
Ġc at
as c
id en
Ġr Ã¥
Ġst Ã¤lla
Ġre v
ur en
Ġfor ward
ĠH ave
ak ed
Ġgo l
ant a
Ġtr yck
ic es
Ġsp ot
ĠE ur
Ġany where
jÃ¤l v
Ġcon d
ens ion
Ġfe ar
ĠdÃ¥ lig
Ġdr ag
Ġtv ing
Ã¤ck te
sh it
Ġbu tt
ĠfrÃ¥g ade
Ġmind re
Ġsupp ort
Ġkall ade
Sh ould
Ġdro p
ĠsÃ¶ ker
Ġmus ik
Some one
Ġskj uta
Re ally
Ġforts Ã¤tter
ĠChrist mas
vie w
Ġcop s
Ġnorm al
ĠKe vin
rÃ¤ck ligt
Ġpea ce
G lÃ¶m
K eep
M m
U R
f ord
l Ã¤g
t ing
Ġ ide
Ġs ens
Ġs itta
Ġth ird
Ġf Ã¥ng
Ġg ett
ag o
ig ger
Ġk ey
Ġj ul
Ġr ound
Ġst ack
ĠM ad
ĠM ay
Ġgo da
ĠC aptain
Ġsp ir
Ġut om
ĠW il
Ġ1 4
ĠWe st
St anna
Ġdi ffic
Ġmiss ed
Ġem p
ĠHar ry
Ġsur pris
Ġkall as
ĠglÃ¶m de
Ġwonder ful
Ġchar ge
Ġadv okat
ĠfÃ¶rsv ann
Ġtrev ligt
Ġdiffic ult
A d
K l
k are
m are
u se
Ġ ed
Ġ ÃĦ
in en
Ġm is
Ġf ill
Ġf ool
Ġv ers
Ġy a
ig e
Ġl im
Ġj ail
ill er
Ġdu ring
Ġr Ã¶ra
ĠfÃ¶r klar
am ed
Ġi ce
Ġe ight
ĠS an
Ġan im
Ġvi ol
ri es
Ġne igh
Ġav sk
ic o
Ġmen ade
Ġsu cc
Ġupp sk
Ġbo at
Ġdr unk
Ġhem skt
Ġam b
Ġfuck ed
ĠSt op
Ġmo ved
Ġplan e
Ġrec ogn
cu ss
ĠfÃ¶rlor a
Ġflick a
Ġexper ience
ĠPh il
Ġsj un
Ġpsy ch
ĠMart in
D ad
M ake
O L
Q u
m p
Ġt red
Ġs orts
Ã¤ ker
Ġg ry
ag n
Ġp iss
Ġp iz
id ing
Ġst jÃ¤r
Ġe as
Ġe gent
pp na
ĠS en
Ġre ma
un e
Ġne g
Ġtr Ã¶tt
art y
Ġso ver
ĠF uck
Ġbr and
Ġer bjud
Ġcon cer
ire s
Ġpre p
akt en
Ġgirl friend
ĠfrÃ¥g ar
ĠfrÃ¥g or
Ġsky ldig
Ġma jor
Ġbeg rav
min stone
ĠCar l
Ġveck an
Ġhistor y
ighet er
ĠglÃ¶m ma
ĠChar les
Ġvack er
Ġsug gest
J ohn
V Ã¤l
f ield
g es
h ip
j ut
k ort
l sk
Ã ĥ
in y
Ġb i
Ġb j
Ġb ought
Ã¶ ken
om an
Ġc as
Ġr en
ĠfÃ¶r lÃ¥t
Ġst y
Ġst uck
Ġsk Ã¤r
Ġsk ill
and a
Ġse ven
ri age
ol m
li ver
ĠP resident
Ġch amp
Ġbl ock
ab y
Ã¤m ta
ĠW as
ĠfÃ¶rs ikt
Ġel d
ren ch
els ed
Ġvil ken
Ġans ikt
Ġans ikte
Ġmil es
ĠkÃ¶ pte
Ġmon ster
Ġrikt ig
ĠmÃ¤nn iska
ward s
Ġhold ing
On ly
ĠAmer ican
Ġtea ch
ĠJe ff
Ġfunger ar
Ġeg na
Pre cis
Ġbruk ade
C T
G ra
I K
L yssna
O j
S a
b ack
g ed
r ask
Ġa ge
Ġd ance
Ã¤ ss
on a
Ġp un
Ġn one
Ġk yr
Ġc eleb
Ġst jÃ¤l
ĠD O
un ic
ĠsÃ¥ na
ĠR E
Ġbl ind
Ġsu it
ge ant
la im
Ġgu ld
att net
Ġ1 3
Ġta x
Ġhas n
Ġim m
ĠhÃ¤nd erna
ĠvÃ¤r d
ath an
ute ly
Ġtra in
Ġfly tta
je kt
Ġsitt ing
Ġkr Ã¤v
Ġac cept
ĠAmer ica
Ġlaw y
Ġoffic er
ĠSc ott
ĠPar is
ĠÃ¶gonb lick
A nt
A ctually
F irst
b rott
j ag
Ġs and
Ġs Ã¶t
en nes
Ġb Ã¶
Ġp il
Ġl ay
Ġk us
Ġo k
Ġin n
Ġin se
Ġc ab
Ġc ous
el sen
Ġinte ll
Ġr ummet
Ġst ore
Ġsk in
ĠS orry
Ġhe alth
ĠM er
ĠC al
ĠT ony
ĠP eter
ĠR ed
ĠE tt
Ġbl Ã¥
Ġgr upp
Ġhem lighet
ĠWh ite
Ġte ck
ĠTH IS
ĠIn gen
Ã© n
Ġtri ck
ib ly
Ġev ent
Ġfix ar
Ġstand ing
Ġfight ing
ĠstÃ¶r sta
Ut an
Ġvide o
Fin ns
. '
H old
V ery
b ers
c l
in c
Ġf ur
Ġf oc
Ġb al
Ġb orn
Ã¶ ka
st ru
Ġl ow
Ġo w
Ġto tal
as Ã¥
Ġen em
Ġr ather
Ġi r
Ġst Ã¤ng
all er
Ġtill hÃ¶r
Ġtill rÃ¤ckligt
ĠD in
ĠC o
Ġne ck
th e
us an
ĠP ark
ell y
ĠF lor
What ever
ĠR y
ĠR ay
Ġfin al
Ġher o
ĠE very
ab ri
Ġpr oud
la ce
FÃ¶r st
ĠbehÃ¶ va
Ġsv Ã¥r
ach el
Ġsc rew
ef ore
Ġspe aking
Min ns
Ġlit er
rÃ¤ ff
Ġacc ount
Ġdire ct
ĠÃ¶gon en
Ġlug n
ĠQ ue
Ġstopp a
Ġprof ession
Ġforg ot
Ġprogr am
Ġtillf Ã¤ll
Ġenk elt
2 0
A m
B es
C ar
D amn
F Ã¥
J esus
L u
c ame
f l
f il
h ost
h ouse
k ter
Ġ âĢĵ
Ġf att
Ġb Ã¤r
Ġb uck
on el
it or
ag a
Ġc alm
tt e
Ġj oke
na ck
Ġsk Ã¶t
ĠpÃ¥ min
ĠS E
ĠS w
ĠS ir
ĠS Ã¤g
ro ller
ak ta
Ġ- -
ĠC ity
Ġsp ent
ess a
Ġlo s
he art
Ġim med
Ġny heter
Ġmor se
ĠtrÃ¤ d
Ġlit et
uth or
Ġrad io
Ġsim ple
Ġscen e
Ġinvol ved
Ġimmed i
D ra
D itt
G ud
I ON
P h
T j
b s
h ood
k ade
n is
n ight
n ers
n oon
s v
u ra
y a
Ġs ci
Ġw ood
Ġw itness
it u
om as
Ġk ing
Ġk amer
Ġo t
Ġin stead
ed u
Ġi stÃ¤llet
Ġhar m
Ġis s
oo p
ro du
Ġgo dd
sk an
ea ve
ĠN orth
Ġso cial
ĠP Ã¥
Ã¥g od
Ġor ig
ĠE arth
Ġbl ame
ĠvÃ¤n ster
sp el
ĠSt an
Ġstart ing
Ġspe c
Ġtri p
Ġmil it
ĠFr an
tal et
Ġsecond s
olog y
Ġskick a
Ġinterest ed
Ġimag ine
Ġfle sta
Ġciv il
Ġegent ligen
F rÃ¥n
R emember
c an
p ose
r arna
in na
Ġs Ã¤ll
et ch
Ġf ield
on i
Ġc ust
Ġc ard
Ġr akt
Ġst ab
Ġre ce
im inal
Ġan klag
all a
ĠM ary
ĠH a
ĠH enry
ak s
ĠD el
Ġom kring
lig are
ĠG ar
Ġhon or
ĠJ oh
ĠK en
Ġthink s
ĠV et
Ġsu ffer
end ed
ĠW in
Ġex cuse
la w
Ġwill ing
av s
av y
Ġway s
Ġlet a
Ġhelp ing
red it
ling ar
Ã¤ck t
ment s
gg s
Ġfa ith
Ġrep resent
Ġsupp ose
Ġfru kt
Ġdrink ing
ĠLu c
Ġmisst Ã¤n
ĠmÃ¶j lighet
ĠRob ert
Ã¶ts ligt
Ġdoub t
Ã¶ss es
ĠfÃ¶d elsed
Ġappreci ate
Ġkaff e
M rs
N Ã¥t
N OW
O D
S ure
T ry
d o
g ing
m Ã¤n
r ation
t ryck
v i
Ġt ree
in i
Ġs nygg
Ġh ole
en ed
Ġm id
Ġf al
on nie
at is
at ure
st ad
Ġn Ã¶d
Ġl etting
Ġc ow
el at
ĠS ome
ĠS outh
Ġre se
Ġan ing
ĠH all
ĠA ust
ĠA li
Ġav g
ĠT ell
Ġut red
ĠV an
if ied
sta irs
ĠkÃ¤n t
St ay
Ġmot or
Ã¤st are
ĠtrÃ¤ff at
Ġbro ken
Did n
Ġlik ed
Ġdiffer ence
Ġbur n
Ġdum p
ĠhÃ¤m tar
Ġvin ner
Ġswe ar
Ġstud ent
ĠÃ¥ter vÃ¤nd
Ġdy ing
Somet imes
Ġpsy k
Ġotro ligt
Ġlju ger
IGH T
Ġmach ine
E A
N obody
S ay
U N
U ST
Ġt ip
Ġt ired
Ġs lipp
Ġd ick
Ġf ing
it ter
Ġk ross
Ġk yss
Ġo l
ve ck
Ġbe came
Ġe qu
ĠS a
ro te
il ty
ĠA T
ĠB a
ĠT ill
Ġch ick
ĠR ick
ĠR uss
ĠE r
fÃ¶r a
Ġpr ay
Ġex am
Ġex cept
Ġcom fort
ci ous
ĠÃ¥ tta
Ġte chn
Ġel ect
Ġpart ic
Ġdis cuss
Look s
Ġkeep ing
Ġafter noon
Ġbig ger
Ġcour t
Ġapp ro
Ãĸ ppna
Ġskick ade
ĠfÃ¶rlor ar
ĠfÃ¶rlor ade
Ġpoj ke
Ġfavor ite
Ġinterest ing
OM E
Ġbull shit
unn it
Ġbreat h
Ġbath room
ĠkÃ¤ ften
1 0
B ack
G H
G ot
I R
M om
s n
s ikt
v Ã¤n
v ent
Ġh ind
Ġh Ã¥l
Ġm ent
Ġm Ã¶t
Ġm ira
an ke
Ġf isk
Ġf Ã¤rd
Ġb le
Ġb other
at en
at al
Ã¶ ker
it z
Ġp utting
ig ar
Ġn Ã¥
Ġc ash
al er
pp ar
ĠS H
ĠS her
im on
Ġwe ak
all en
ĠM o
ĠA N
ĠB ara
ĠB illy
ĠG Ã¶r
ĠF rench
iv ed
In nan
ĠÃ¶ver rask
Var je
Ja ha
Ġkill er
ĠÃ¥t minstone
ress ion
Ġtar get
Ġkid ding
Ã¶j ligt
ĠmÃ¤n sk
Ġste g
Ġdri ving
ĠlÃ¥t sas
rÃ¤ d
ĠkÃ¶r de
Ġmar riage
ĠhjÃ¤lp te
Ġskit en
orts Ã¤tt
ĠSte ve
Ġkropp en
Ġlj Ã¶g
Ġoper ation
Ġcam era
Ġhop ing
Ġkap ten
H ade
K Ã¶r
M ay
M ich
M Ã¥nga
N ever
R O
b el
e ared
f est
m o
n ars
s amma
u ch
u sk
v al
Ġt ight
Ġs li
Ġh ers
et a
Ġb ase
Ġw ild
or ld
Ġg ay
ed s
Ġc a
Ġr Ã¤tta
ĠfÃ¶r ra
Ġst en
Ġsk Ã¤mt
ro a
ĠM ars
Ã¥n gen
Ġsh oes
ĠC H
ĠL Ã¥t
ĠJ ane
ning arna
ĠF Ã¥r
ĠF red
ĠF OR
ĠV Ã¤nta
ma il
gen cy
ens ive
ĠÃ¶ver le
Ġhand en
Ġser vice
app y
Ġsv Ã¤r
Ġpo or
Ġsc ream
Ġsy n
pl an
Ġdel ar
Ġvil ka
Ġfolk s
Ġkvin n
ĠlÃ¤r de
Ġmother f
Ġfavor it
ĠslÃ¤pp a
Ġlj us
ĠAd am
ĠhÃ¤l sa
Ġlad ies
ĠEng land
Ġpot ent
ogra ph
Ġhote ll
Ġenerg y
Ġsjukh uset
Ġgentle men
Ġsucc ess
L D
S E
b an
e c
f ast
j est
k ost
p or
p ol
Ġ ]
Ġ ou
Ġs Ã¤ng
Ġm rs
Ã¶ ja
om en
Ġl augh
Ġk o
ed om
Ġc ast
Ġc up
Ġto ppen
Ġj Ã¤m
Ġj orden
Ġvar e
ĠH olly
Ġsh op
Ġkn ock
ĠA h
kt ig
ĠT ommy
Ġsa ved
Ġch urch
ud d
Ġpro ject
Ġsl ag
Ġsl ags
Ġund ers
Ġtal at
Ġbeh Ã¥ll
ars Ã¥god
fe ct
Ġint rodu
lo y
ĠnÃ¥n stans
Ġprat at
pt ion
Ġjobb ade
Ġbarn et
Ġdis cover
Ġtra vel
Ġbu ilt
Ġwr iting
Ġproblem s
Ġag re
Ġgill ade
Who a
Ġacc ess
ib ility
Ġland et
Ġ6 0
Ġwonder ing
Ġlu ft
Ġfigure d
vers ation
full y
NÃ¥g on
Ġstol t
Ġbetal ar
Ġquick ly
Ġmeddel ande
Ġweap on
Ġuppdr ag
Ġris ker
Ġtred je
K ill
L ed
R ob
g in
h an
h ere
n Ã¤r
w en
Ġt it
er o
Ġh unt
Ġm amm
Ġm aster
an o
Ġf ish
Ġf okus
Ġb ow
Ġw rote
Ġv it
Ġv elat
Ġg ym
Ġp al
Ġk ry
Ġin bland
el d
ot a
Ġbe ar
Ġr ich
ĠfÃ¶r h
Ġwh ether
Ã¤n s
ĠS on
ĠS ure
Ġwe aring
Ġde b
ĠH Ã¤r
ce ll
ak ar
ĠC or
ĠC la
itt en
ĠT ed
ĠT ra
ĠN or
Ġfin a
Ġpl ans
Ġpl aces
ĠW al
Ġex akt
Ġgu ilty
Ġun less
ci a
Ġfuck in
Ġmiss ion
Ġact ion
ĠAll t
Ġdri ver
Ġstay ing
Ġbre v
ye ar
Ġmar ry
ott en
Ġter ror
Ġsleep ing
ĠfÃ¶rb ann
Ġmag ic
Ġtjej er
ĠDad dy
Ġinc red
ĠjÃ¤tt ebra
Ġcomplet e
Ġpriv at
Ġpriv ate
ĠhÃ¤l s
Ġfantast isk
ĠEng lish
Ġhote l
rÃ¥d et
Ġopp ort
ĠRich ard
ĠfÃ¶rtjÃ¤n ar
Ġsurpris ed
Ġpiz za
Ġinn oc
Ġcous in
5 0
C all
I TH
J im
L ite
S c
T re
W H
a wn
b oy
e ys
h al
i at
k arna
Ġs Ã¥r
Ġs Ã¤rskilt
an ne
Ġb orrow
Ġw aste
Ġv ol
Ġv ac
ag ue
Ġp ath
is hing
te s
ĠfÃ¶r ber
am in
Ġsk il
Ġre ger
and on
ro l
ĠH is
ĠH ello
ir m
ter ar
Ġkn ull
ĠA ny
itt ing
ĠB rian
Ġne cess
li k
ĠJ ake
ara c
Ġso ci
ĠF l
ĠE ller
ĠE ddie
Ġgu est
ĠnÃ¥g ons
Ġhad n
Ġ1 7
ĠÃ¤n t
Ġtid igt
Ġ2 1
ish ed
int s
ĠmÃ¥n ad
Ġrem ind
ĠfrÃ¥g an
Ġhopp a
Ġlik ad
Ġgra b
Ġval de
Ġac cep
Ġstopp ed
Ġsign al
Ġext re
Ġang ry
Ġvack ra
Ã¤nn ande
Ġallow ed
ĠUS A
Ġrequ est
Ġamer ikan
Ġlawy er
Ġgodd amn
avs ett
A P
D ina
P rat
Y OU
r ats
v Ã¤l
Ġ Ã¥ng
Ġt or
Ġs our
Ã¤ ster
Ġb red
at ta
Ġv amp
Ġv issa
Ġv ux
Ġg iss
Ġl Ã¤st
Ġc rew
Ġc laim
id ay
Ġst Ã¶
ĠS al
oo per
Ġhe j
ĠM Y
ĠM ac
ĠC omm
Ġtr ots
Ġsa ke
Ġsp ar
Ġup on
Ġut veck
Ġher rar
ab e
ate g
Ġle vel
Ġund v
Ġbo ll
ligt vis
ĠnÃ¥n ting
yck er
pt y
St r
Ġkid napp
ĠTh omas
oh ol
Be h
Ġass hole
ĠtrÃ¤ff ar
Ġhu ge
Ġcare er
Ġres er
ĠkÃ¶ tt
Ġkvin nan
Ġkont roll
Ġcra ck
Ġfre sh
ĠlÃ¶ sa
Ġbevis a
Ġpress ure
oss ible
Ġlov ely
Ġwind ow
Ġintress ant
ĠAng el
Ġjo in
miss ion
Ġrapp orter
Ġintell ig
ĠÃ¤nt ligen
" ...
- "
B efore
O oh
S y
h ow
l erna
n st
s fÃ¶r
v y
z ab
Ġa ud
Ġd ouble
Ġh ook
Ġh Ã¤st
en ing
Ġf ake
Ġv attnet
st Ã¤nd
Ġn ames
Ġk lo
Ġc it
Ġc ute
es ome
Ġdet ail
al y
Ġr ain
ĠS ee
ĠM at
ĠH old
ĠH mm
ĠC ent
ĠB ro
Ġmin ut
Ġtr ad
ĠT w
ĠG ive
us ion
li er
Ġch oose
Ġni o
ĠK ate
Ġlo g
Ġpr in
Ġus ually
ĠW ith
Ġsl ow
ÃĦ lsk
ord ing
ci p
ĠfÃ¶rst Ã¶ra
Ġhelp ed
we et
Ġmiss lyck
Ġdel a
ĠIn ter
Ġph ys
Ġty pe
Ġsam man
Ġsur prise
Ġ5 00
ĠjÃ¤v el
Ġlik es
Ġinter view
ĠDo ctor
ĠCar ol
Ġfy ll
Ġdra w
Ġstud y
Ġtjej en
sam het
Ġgott en
Ġuppt agen
Ġlearn ed
Ġadd ress
Ġfinish ed
Ġclos er
Ġknapp t
Ġdar ling
Ġobv iously
Ġliter ally
A lex
G reat
H ennes
I ns
S v
S jÃ¤lv
T e
c ret
d own
e ch
m idd
p ade
v o
v ille
Ġ #
Ġ Ãħ
in der
Ġa uthor
Ã¤ na
Ã¤ dd
ar i
Ġm eter
Ġb ast
Ã¤r t
Ġc al
te st
es h
Ġbe b
Ġbe er
Ġbe klag
Ġst al
Ġis land
Ġfor ce
itt ed
Ġwith in
ĠL ee
ĠJ apan
Ġsp oke
Ġup set
ul ous
Ġhel d
Ġsu ck
Ġfe ed
Ġby gga
ost er
Ġlet ter
Ġte kn
Ġstr ange
sl ag
ĠfÃ¶rsÃ¶ k
bb y
Ġco de
Ġcare ful
Ġplay ed
AN T
Ġsam arbet
Ġfull t
ĠlÃ¤g en
Ġresp ekt
Ġdum ma
On ce
Ġprom ised
Ġlisten ing
ubb en
ĠglÃ¶m mer
Ġdec ide
ĠhÃ¶g t
Ġread ing
Any way
NÃ¥g ra
Ġstol en
ĠMe x
Ġexc ited
Ġdrug s
Ġcertain ly
ĠÃ¤kt enskap
Ġinvit ed
Ġimmedi ately
Ġrese arch
O P
O roa
e al
j ar
k es
r ass
v ad
w ise
Ġt our
Ġa ut
Ġd irty
Ġh i
Ġf j
Ġf art
at ic
it en
Ġg ard
st on
re sten
Ġp ul
Ġn Ã¤m
Ġn amed
Ġc ause
Ġc igar
ĠI D
as ed
al ity
Ġr ik
Ġit self
ld er
Ġe mer
Ġdo c
Ġmy ster
ĠL iz
li es
ĠJ ac
ic ago
ĠF in
od ay
Ġpl enty
ation er
ab el
Ġlo ves
ĠdÃ¤r ifrÃ¥n
ĠW AS
Ġcon vin
En ligt
sp l
St ill
St Ã¤ll
ile y
Ġact ing
Ġshow ed
Ġins Ã¥g
Is n
Ġimp ro
Sk y
ĠkÃ¶ per
Ġfil men
Ġcra p
EN T
Ġdro pped
Ġwar m
TH E
ĠAn na
Ġlig ga
Fr om
ĠRe ally
ĠNot hing
Ġru in
ĠGr and
ĠslÃ¤pp er
Ġchef en
Ġlyss nar
Ġlev ande
Ġsek under
Ġdju pt
ĠkÃ¤nsl or
Ġpleas ure
Ġfoc us
L A
L ast
M Ã¥ste
N Ã¤sta
W E
g iv
j orde
l ight
in ion
Ġh Ã¤ng
Ġm ate
Ġm ater
Ġb attle
Ġg Ã¤ng
Ġk itch
ed el
Ġc y
Ġatt ention
el e
Ġr ap
Ġr aring
Ġst ink
Ġst aden
Ġst Ã¤nga
Ġsk ogen
ra p
ĠpÃ¥ gÃ¥r
Ġsh ots
Ġkn Ã¤pp
ĠD om
ĠC ra
ĠT ur
ĠG Ã¥
ĠJ on
ĠF an
Ġsa f
Ġska pa
od en
ul ations
ĠR oy
ĠK at
ĠV isst
lo e
ĠdÃ¥ liga
Ġtv Ã¤tt
ĠSt reet
ĠvÃ¤r sta
ĠÃ¥r et
Ġfar m
Ġring t
amp an
Ġlit ar
Ġend ed
iver se
Ġfast er
Ġinter v
Ġ20 1
med el
ĠhjÃ¤r tat
Ġbreak fast
rev ligt
Ġskj ut
Ġtitt ade
Ġlight s
ĠDan ny
Ġap artment
ĠmÃ¶rd are
ĠslÃ¥ ss
Ġcir c
Ġphot o
FÃ¶rs Ã¶k
Ab out
Ġcli ent
Ġmemor y
Ġoro a
Ġjour nal
ĠHA VE
ĠGer man
Ġide as
Ġneigh bor
Ġkus in
ĠQue en
Ġlos ing
F ortsÃ¤tt
H as
J Ã¶sses
Y o
b ook
g gen
j Ã¶l
k on
m et
r om
y ond
Ġs ight
ar r
Ġf ac
Ġb ird
om er
Ġv ann
Ġg ives
re p
Ġp ers
Ġk at
Ġo cc
ch e
ve y
am on
Th ree
Ġsk oj
Ġan stÃ¤ll
Ġmed vet
ent ligt
ĠH al
Ġkn ife
ĠA S
ĠC IA
ĠB ell
ĠB oy
Ġse at
Ġtr u
ĠT wo
ĠN OT
ic ed
em pt
Ġska ffa
Ġsp o
Ġpl ant
Ġpl Ã¶tsligt
ĠÃ¶ l
Ġbr Ã¥
Ġgu ard
ĠÃ¶ver lev
ĠdÃ¶ tt
Ġevery where
Ġpre gn
ĠCh ris
ny tt
Ġpo Ã¤ng
Ġny ss
Ġplan ning
Ġstart s
Ġfar ligt
Ġslut et
Ġslut ade
Ġins er
ĠbÃ¶rj at
Ġspel ade
ĠÃ¤ t
ctor y
Ġskri v
Vil ka
Every body
Ġbring ing
Ġkoll ar
Ġstick a
Ġstick er
ĠLu ke
Ġbas ket
Ġcoll ect
ĠbehÃ¶v s
ĠUn cle
ĠskÃ¶ ter
ĠmÃ¶ te
Ġavsl Ã¶j
ĠsÃ¤l jer
Ġpur pose
Ġtrev lig
fort un
Per haps
Ġcol or
Ġbred vid
Ġpregn ant
B en
C on
F ar
F ort
H jÃ¤lp
M ore
O ver
T ime
W elcome
b ra
j Ã¶
k ont
n am
s u
t r
v Ã¤nt
Ġ Ã¤ld
er ande
Ġd ry
Ġh iding
Ġm akt
Ġb unch
Ġw itch
Ġg ro
ag on
st Ã¤lla
Ġp in
Ġp uss
Ġn ine
Ġo we
.. ..
Ġj Ã¤k
te e
Th ink
Ġst ole
ro f
ĠM s
il ing
Ġsh ock
un ior
Ġnot ice
ĠN E
th at
ĠL A
ĠL i
ĠL arry
ĠJ UST
ĠO liver
ic le
ick a
od d
Ġch arac
ĠR os
ĠK NOW
Ġbr ud
Ã¤m de
ĠW ITH
la x
ord in
Ġta ste
Ġpre fer
Ġvis ade
Ġsv ag
Ġsv ara
ĠU m
ĠfÃ¶rst od
ĠfÃ¶ dd
Ġkl Ã¤n
Ġstor ies
âĢ Ķ
Ġfar bror
ĠrÃ¤ d
eng th
Ġproblem et
Ġcou n
els et
eg an
ĠAll a
Ġstra x
Ġfire d
Ġlyck as
Ġlyck lig
ĠJack son
Ġpick ed
Ġskad ad
Ġleg s
Ġchans en
ĠGe org
ĠWill iam
Ġtw ice
Ġill eg
ĠWil son
Ġeas ier
Ġenem y
ĠfÃ¶delsed ag
Ġopport unity
ĠnÃ¥gons in
Ġkitch en
A RE
D om
E m
K n
M er
T Ã¤nker
e ars
f te
i as
j ord
l ay
l ass
Ġ Ã¶r
Ġd at
Ġd are
Ġd ata
Ġh ired
en ces
et ition
Ġth er
Ġb Ã¥de
Ġp ig
Ġl ust
Ġl jud
Ġo sk
Ġo van
Ġo sky
Ġc ream
Ã¶r ja
nd e
Ġj ord
as ka
Ġdu e
Ġdu bb
... !
al ys
Ġof Ã¶r
ay lor
ld en
Ġst ry
Ġst Ã¶d
pp ing
Ġsk Ã¤l
Ġre lig
ĠH it
ĠH ouse
ĠD ra
ri e
ri Ã¤r
Ġav oid
ĠT im
ĠT ror
ĠG reg
ĠJ er
ĠJ en
ul ation
ĠR ock
ĠK im
ĠK elly
ĠV er
Ġbl ue
ans en
end en
Ġbr Ã¶st
Ġar my
Ġar ms
ate st
Ġle ka
Ġthem selves
Ġcon versation
Ġhur ry
Ġser iously
Ġtv iv
Ġny het
ĠvÃ¤r t
Ġplan er
Ġdel iver
Ġshow s
Ġshow er
Ġtri al
ĠlÃ¤ ser
ĠlÃ¤ kare
Ġord ers
Ġdes ig
Ġdes per
Ġnum bers
Ġdog s
Ġlag et
ĠanvÃ¤nd e
Ġboy friend
Ġwalk ed
Ġkun nat
An nars
Ġarbet ar
Ġaff ord
ĠfÃ¶rlor at
Ġap art
ĠfÃ¶rv ir
ĠfÃ¶rÃ¤nd ras
Ġcap tain
Ġlock ed
Ġdisapp eared
ĠJim my
Ġdeser ve
Ġpartic ular
F ick
F em
F Ã¶lj
I F
J Ã¤v
L eave
a x
j an
m on
m ark
n ande
p Ã¥
y al
Ã ³
Ġ ers
Ġt Ã¤v
Ġt usen
Ġt anke
Ġs ummer
er i
Ġm ix
an ger
an cy
Ġf ile
Ġw ine
at in
om s
Ġg host
Ġp ool
ig en
Ġn or
Ġl Ã¥n
Ġl ang
is ar
ill iant
le ep
Ġe ating
Ġre lax
im ate
oo g
ĠC am
ĠB ea
ĠB eck
Ġse a
ct ions
ly n
ĠG ot
ĠG reat
ĠG reen
ĠL isten
ĠJ ones
ic ide
ull y
Ġch air
ĠR achel
ĠE ast
ud y
Ġlo ad
ap ten
ĠW ar
ĠW ow
ĠW ay
ĠW ould
Ġal ter
Ġle ader
iv al
Ġgr Ã¤
Ġour selves
ĠCh uck
sp r
St ick
Ã¤ck en
ĠdÃ¶d en
Ġfun n
Ġbest Ã¤mmer
Ġled er
Ġimp ossible
ĠSh ut
Ġem pty
Ġpass ed
ris on
Ġhell o
Ġhell re
Ġmil k
rat or
Ġrec ently
ĠlÃ¤r t
ĠlÃ¤g g
ĠÃ¤nd ra
del es
Ġblood y
Ġear lier
Ġmurder ed
Ġaw are
Ġaw esome
Ġmark et
ĠmÃ¤r k
Ġlov ade
ĠEm ily
Ġskydd ar
Ġhung ry
ĠSl uta
Ġdiv or
Ġpract ice
Ġbord et
ĠkÃ¤nd es
Lug n
ĠkrÃ¤v s
. ,
A w
B ring
N Ã¥
b arn
g ru
h el
m ans
r ant
r are
v or
x a
x or
Ġt Ã¥r
Ġt Ã¤nd
Ġd amer
it ions
om et
Ġg ang
Ġp und
Ġy ell
ig er
Ġk lipp
Ġo ly
ch ie
Ġbe ll
Ġbe yond
Ġr ace
Ġr ub
am ie
Ġst age
Ġst Ã¤ller
Ġe st
Ġha vet
Ġre cept
and s
ĠH uh
ust er
ĠD ick
Ġvi ld
ĠB ru
un tar
ĠG ET
ĠN O
th ew
Ġab s
Ġsa bb
Ġno se
ka st
ĠR od
ap t
ns on
Ġbr ut
Ġvad Ã¥
if er
if ier
ord on
Ġgr ad
Ġcom b
ind en
lo ad
Ġun iverse
ĠvÃ¤n tat
sp e
Ġ2 3
ĠvÃ¤l ja
Ġfeel ings
Ġmo de
Ġstr id
Ġspe ech
ĠÃ¤lsk a
vis a
Ġtur ns
ĠsÃ¤ kra
Ġins ane
ok ing
Ġgill a
ĠlÃ¤ ste
Ġord na
Ġhear ing
Ġkont roller
ĠlÃ¥ na
ON E
ĠlÃ¤g et
Ġfru kost
Ġev il
Ġdum b
Ġdoll ars
Ġinne bÃ¤r
ĠglÃ¶m t
Ġlyck ades
ĠSte ven
Ġflick an
Ġlu kt
ĠDan iel
Ġap olog
Ġsweet heart
Ġtea cher
Ġfantast iskt
uten ant
Ġkrig et
Ġinsp ir
Ġnear ly
Ġlju ga
Ġmedic in
ĠWH AT
Ġdans a
Ġrespons ible
Hopp as
Ġcond ition
Ġskill nad
Ġansikt et
ĠRy an
Ġhers elf
Ġinnoc ent
zab eth
C aptain
D avid
H mm
H elt
L Ã¤mna
M ad
R ed
b es
b ry
b ok
c ue
f ly
f ta
f essor
i ar
Ġ ,
Ġs ats
Ġh ug
Ġh Ã¶j
ar p
Ã¶ da
Ã¶ nt
it o
Ġv iss
Ġg um
Ġg atan
ag ar
ag ne
st ra
re k
Ġp ants
ig an
Ġn Ã¤s
Ġc ake
Ġj Ã¤mt
ch en
Ġatt empt
al f
al ar
Ġbe com
ĠfÃ¶r hÃ¥ll
Ġst re
ver t
Ġre fer
Ġfor sk
Ġan m
Ġli ed
Ġli ft
ĠM ur
ĠH igh
Ġtill stÃ¥nd
ĠA B
ĠD ave
ss on
ĠB ig
sk ar
li st
ĠJ ord
ĠF ar
Ġsp read
Ġsp Ã¤nnande
Ġut nytt
ĠK n
ĠK or
ĠV in
fÃ¶r s
Ġar r
Ġsl Ã¶s
Ġer k
ger y
Ġnow here
Ġdem on
ĠÃ¶ver ty
Ġtell s
ĠfÃ¶rs Ã¤k
ĠvÃ¤n tade
ont ing
Ġingen stans
Ġkl ass
Ġmo on
Ġstor m
cc a
ather ine
Ġ3 00
Ġcomp uter
Ġapp ar
Ġgra vid
Ġklar ade
ĠvÃ¤rld ens
Ġrikt iga
Ġnamn et
vel op
Ġdad dy
Ġfre edom
Ġpower ful
Any thing
Ġpoj kar
Ġposs ibly
ĠhÃ¶ ger
Ã¥k igt
Ġcont ract
bo ard
Ġ8 0
NÃ¥g ot
ĠJe an
Ġbott le
Ġavsl ut
Ġsub ject
ĠÃ¤g er
Ġgrabb en
Ġsurv ive
Ġrym d
Ġabsol utely
ĠfÃ¶ret ag
Pol isen
Ġors ak
Ġuppsk attar
Ġkyr kan
Ġfur ther
Ġmotherf ucker
ĠbehÃ¥ll a
Led sen
Ġtru ly
F ast
O pen
P o
T ur
V a
V Ã¥ra
b i
g if
h o
h y
h us
i erna
l Ã¤gg
n o
p un
p are
v akt
x y
z o
Â Ģ
Ġs id
Ġd yr
Ġh inner
Ġk am
Ġc ult
Ġto il
ad or
Ġbe ach
Ġr as
am t
Ġme at
Ġon line
ĠS ol
ĠS und
Ġfr an
Ġkn ark
ĠD Ã¤r
ĠD oug
Ã¤l j
Du de
op a
us ive
ĠJ ew
ĠJ osh
Ġman ager
Ġch est
one st
ĠV al
ob by
Ġpro p
Ġupp f
ĠW ood
att an
ĠfÃ¶rs var
Ġsm oke
ug o
ĠCh icago
ling s
ĠÃ¥r en
Ġsy mb
Ġstr ateg
Ġcl osed
ian a
ĠIn get
Ġreal ized
Ġco ach
Ġord nar
Ġapp ear
wh at
Ġweek end
Ġsle pt
Ġgre atest
org an
ĠsÃ¶ nder
Ġarbet a
Ġstra ff
ĠLe o
Ġemot ion
Ġvan ligt
Ġskol a
sam t
ffic er
Ġkra fter
Ã¤t et
Ġdream s
Ty vÃ¤rr
Ġcent er
Ġsek und
Ne xt
ĠBob by
Ġconne ction
Ġsjukh us
Ġkost ar
Ġinvestig ation
Ġpret end
Ġbegin ning
Che ck
Ġarri ved
Ġspir it
VÃ¤l kommen
ĠstjÃ¤l a
Ġprofession al
Ġorig inal
Ġincred ible
Ġbeklag ar
' .
B o
J e
J asÃ¥
K e
L Y
L o
R Ã¶r
S Ã¥g
S ince
V id
V arsÃ¥god
g as
g ress
i ers
i pped
j ust
p ic
r ag
y g
y ra
Ġ Ã¤m
Ġa x
Ġh ol
Ġh amn
Ġf asc
at et
or es
Ġy tter
Ġk ass
Ġk eys
Ġo be
Ġo dd
Ġc row
el ine
Ġen ligt
Ġr ac
Ġst il
Ġsk or
Ġsk Ã¤m
Ġhar der
ĠS il
im b
ur se
se y
and id
Ġli es
ĠM il
il ar
ĠH ill
Ġsh ift
Ġkn iv
ĠD ay
ett en
ĠB arn
Ġnot iced
Ġav tal
Ġhan tera
ĠL O
ĠL o
Ġsp lit
Ġpro cent
Ġupp mÃ¤r
Ġbr oth
Ġal right
ong ress
ong rat
Ġtal as
FÃ¶r sta
ber t
Ġpo ison
ĠtÃ¤n k
Ġqu een
man nen
Ġper haps
Ġgen eral
amp le
Ġad op
Ġbes v
ĠlÃ¤ sk
ĠsÃ¤tt et
Ġsett le
Sh it
Ġcomm unic
ĠDo es
ĠkÃ¤r a
ĠFÃ¶r lÃ¥t
Ġdef end
kv Ã¤n
Ġsw ord
Ġfre ak
ĠJohn ny
Ġflick vÃ¤n
Ġear th
Ġum g
Ġchar m
Ġbook s
Ġru le
ĠWho a
Ġball s
Ġfollow ing
Ġcor re
Ġinst ru
Ġcur r
Ġbrott s
ĠaffÃ¤r er
Ġche ese
Ġpapp er
Ġpapp as
Ġjud ge
Ġham nar
Ġtapp ade
Ġkli ent
Ġnerv ous
Ġkar riÃ¤r
Ġbod de
Ġbod ies
Ġcontin ue
ĠFlor ida
edu le
Ġcomfort able
Ġou tta
' ,
F ly
M ost
P S
P ar
R eg
S on
T ar
T ra
T oo
V issa
V isa
b ud
c ra
d on
h Ã¤ll
p ress
r ust
s an
y stem
Ġh ette
Ġf Ã¥n
Ġf ira
Ġb Ã¤ra
at on
or mer
Ġv ote
Ġv ita
Ġg Ã¤st
Ġc redit
Ġto k
Ġst aff
Ġvar ann
ur ing
Ġdo ck
Ġdo ktorn
Ġwe ight
il i
il s
ĠH aw
ce an
ĠA RE
ĠA gent
ĠD E
ĠC our
Ġse m
ri a
ol an
Ġne ither
Ġcan cer
ĠN ever
th ur
ĠJ an
ĠP al
ĠF ather
Ġsa cri
ist a
ess ed
ĠÃ¶ n
Ġpro gress
Ġupp r
Ġupp en
Ġbr illiant
Ġex em
att is
ĠÃ¶ver vak
fe kt
Ġunder bar
Ġun ga
ug ust
ĠhjÃ¤l te
ĠVi ctor
Ġtry gg
Ġspe ed
Ġact iv
Ġtra pp
land s
Ġad m
OU T
Ġvil a
Ġsur r
Ġsur gery
Ġtack a
Ġdro tt
Ġreg lerna
Ãĸ R
Ġinter n
sy n
lighet en
Ġfy lla
ĠrÃ¤dd ade
Ġmatter s
ighet erna
Ġart ist
bar rass
Ġret ur
Ġclear ly
Ġfot boll
Ġfollow ed
Ġpull ed
Ty st
Ġcam eras
ĠCol onel
Ġsvart a
Ġkick ed
Ab sol
Gu ys
Ġrob ot
Ġvictim s
Ġcry ing
Ġassist ent
Ġfat ta
Ġweap ons
Ġkontor et
ĠÃ¤kt a
ĠVil ken
ĠfÃ¶lj de
Ġrom ant
Ġesc ape
Ġbj Ã¶d
Ġnecess ary
Ġsour ce
Ġtrad ition
Ġbast ard
A gent
B ig
B arn
D ags
L O
L ittle
M s
N ew
S S
S nygg
T w
b ell
b org
e x
h uset
j ort
j ung
l ud
m ord
y st
Ã ¡
Ġt um
Ġt Ã¥g
Ġt ie
in ct
Ġs ize
Ġa gg
Ġd ip
Ġh ig
Ġf ars
Ġb on
Ġb ett
Ã¶ rel
or ney
Ġp owers
Ġl in
Ġk Ã¤ll
Ġo lyck
Ġin fe
as ure
Ġatt ract
Ġof ten
Ġha ck
Ġre act
Ġhe aven
Ġde v
Ġall deles
ce ed
Ã¥n ad
ĠA ir
ĠA LL
ĠD ar
ĠD av
ĠC om
itt y
ĠB eth
Ġse ver
Ġknow ing
sk i
ĠT R
ĠL y
Ġab ove
ic ulous
ĠP ut
Ġsa ving
Ġsp ell
Ġch ock
Ġch ief
Ġno te
ĠR ep
ĠÃ¶ ga
ĠE ric
Ġbl omm
Ġsu ger
hing ton
ĠW orld
uck y
ÃĦ n
Ġtal ent
Ġgr an
Ġgood bye
Ġour s
Ġunder bart
Ġpre d
Ã¤ng d
opp a
opp en
Ġvis ion
Ġsv Ã¤rd
Ġpo cket
ip e
ĠfÃ¶ red
Ġfind ing
Ġlea ves
amm e
amm et
ĠfÃ¶rsÃ¶ kt
Ġdel en
Ġlot s
Ġled a
Ġdri cker
Ġhead ed
ĠMar c
ash ed
vÃ¤r d
ĠBr own
AR R
Ġcomm on
ĠHon or
Ġ4 5
Ġskit st
Ġdum t
pe cially
Ġry ggen
Ġcheck ed
Her r
ĠMa jest
Ġspr ang
Ġpay ing
ĠÃ¶pp nar
Ġsjuk dom
Ġpoj ken
Ġpoj kvÃ¤n
Ġgun s
Ġmark en
Ġexper t
With out
Ġcor ner
Ġung ar
Ġoffic i
Ġrol ig
Ġgif ter
Ġnorm alt
Ġbott om
Ġrecord s
Pro bably
Ġhor ri
ĠSom et
Ġpicture s
Ġspring a
sc ar
ĠTe x
Ġgal na
Ġloc al
Ġexpl os
Ġassist ant
Ju li
ĠnÃ¶j d
Ġop inion
Ġskuld en
Ġtyd ligen
Ġbjud a
ĠGen eral
ĠEur ope
Ġemp loy
ĠfÃ¶rsikt ig
IK E
Ġpil ot
ĠFran cis
Ġpotent ial
Ġdiscover ed
Ġmamm as
Ġinbland ad
Ġmater ial
ÂĢ Â
Ġsymb ol
Ġsacri f
- ...
E l
I E
I I
O H
O b
R ich
T ycker
b en
f aren
h und
k al
m ande
m ask
p ack
v s
v ir
w ers
z er
z en
Ġ Ãħh
Ġt ab
Ġt unn
Ġs Ã¶m
Ġs org
Ġs Ã¤ngen
Ġa st
Ġh ed
ar on
ar es
ar ian
Ġm ut
Ġm um
Ġm ama
Ġm oun
Ġf ro
Ġf ys
Ġb ang
on ica
at o
at ri
Ã¶ re
or i
or en
Ġl ord
Ġk ol
Ġk inda
Ġo s
Ġo st
Ġc ru
Ġto al
ĠI r
Ġj ur
Ġj ury
ch uck
ch ef
as er
al ed
Ġr it
ĠfÃ¶r hÃ¶r
Ġand as
Ġsk ott
ra k
Ġfor est
Ġhe avy
ĠM ont
ir k
Ġtill gÃ¥ng
ĠB u
sk ri
ct ors
ĠG ary
ĠN ice
ĠL isa
ick s
em s
Ġsp y
Ġut man
ĠR a
ĠR eg
ĠK omm
ĠV ir
ns el
Ġbr Ã¥k
Ã¤ll de
ĠW all
ĠnÃ¤r mare
ĠÃ¶ver ens
Ġbet ray
ost on
Ġliv s
Ġefter midd
ĠU t
ĠU rsÃ¤kta
Ġjobb igt
Ġqu ar
Ġgl Ã¤d
Ġte eth
kar en
Ġtro ll
Ġdi am
Ġsy st
Ġstr ength
ĠdÃ¶d at
My cket
pl es
Ġper form
Ġper mission
Ġmat en
Ġimp ress
Ġsch edule
Ġcomp la
Ã¥d an
ON G
ĠjÃ¤v eln
Ġtag et
Ġdes cri
idd en
vÃ¤r t
ĠBr it
ĠBr ad
Ġcr iminal
Ġdrink s
Ġpri or
Ġpri ce
Ġreg ret
Ġgre en
ĠhjÃ¤r t
ĠhjÃ¤r na
An vÃ¤nd
ĠLe on
ĠBl ue
Ġleg end
Ġart ik
Ġskj uter
Ġ19 4
cent r
ĠidÃ© er
Ġung dom
Ġbild er
Ġgif te
Ġhor se
Ġfest en
agg ie
Ġdisapp ear
Ġkast a
Ġflytt ade
Ġeff ect
Ġbek rÃ¤
tel se
kom na
Ġhung rig
Ġdej t
Ġorgan is
ĠhÃ¤ ft
ĠSm ith
ĠPet e
ĠAnt on
Ġstri ke
Ġframtid en
ĠClar k
Ġsudden ly
ĠkrÃ¤ ver
ĠlÃ¶g n
Ġteck en
ĠHolly wood
SjÃ¤lv klart
Ġemer gency
ĠÃ¤t it
ĠÃ¤ld re
Ġilleg al
ongrat ulations
B aby
C le
F l
G illar
H Ã¤l
H ell
L Ã¥ter
M art
S edan
T oday
W ant
a os
a ult
f Ã¤rd
k ret
u vud
Ġ Ã¤ck
Ġt ask
Ġs alt
Ġa ger
Ġh Ã¤nger
Ġm jÃ¶l
et e
Ġf am
Ã¥ p
Ġb oo
it es
Ġv ag
st al
Ġp ir
Ġk att
Ġo d
Ġc ock
Ġc ards
ĠÃ¤r lig
Ġu lt
Ġdet al
Ġen orm
Ġr at
Ġr ab
am en
Ġst ir
pp er
pp et
ĠS ta
Ġan fall
Ġli sta
Ġdo k
ĠM ag
ĠM mm
il j
Ġde velop
Ġmed ia
ĠH or
ĠH ERE
ĠA ss
ĠD ep
Ġom bord
Ġom rÃ¥det
itt ar
ĠB ack
ĠB la
ĠB ye
ri p
ri ch
ri ke
ol n
ol ution
un ny
sk or
ĠN Ã¥g
ĠN ik
us ing
ĠJ ess
ste in
Ã¤g et
ic y
Ã¥t a
ff s
um s
Ġch allen
ĠR ad
ie utenant
ud dy
Ġpro jekt
Ġpr im
Ġbr ors
Ġsl Ã¤kt
iss ar
Vad Ã¥
Ġallt ing
ĠnÃ¥g onting
ĠÃ¶ver l
oll ins
lo g
ber g
Ġdr am
Ġhem sk
Ġhem ska
ĠÃ¥ lder
ip s
Ġ2 2
og an
Ġstr untar
pl ant
Ġkeep s
Ġad ress
Ġty vÃ¤rr
Ġem barrass
onst ans
Ġlik ely
Sh ut
ĠÃ¤nd rar
Ch rist
Ġcomm it
Ġgre jer
Ġaff air
Ġmorgon en
ĠÃ¶pp en
ĠLu cy
Ġattack ed
Ġ19 8
Ġprof essor
ĠfÃ¶rut om
Ġben ef
Ġmod el
ĠBar ry
Ġchang es
oun ce
ĠskÃ¶ nt
Ġdist ri
ĠEm ma
Ġes pecially
Ġdefinit ivt
ogra f
Ġspring er
Ġflytt ar
Ġenerg i
Ġloc ation
Ġgri p
ĠEli zabeth
Ġjack et
Ġmun nen
jÃ¤v ul
Char lie
ĠJoh nson
ĠmÃ¶t et
ĠÃ¶verle va
ĠCla ire
fortun ately
Ġcrow d
ĠuppmÃ¤r k
1 2
A ng
C om
D ess
E M
L ove
U nd
V is
W atch
d ri
f iken
g u
g Ã¥
g iving
i que
l ook
n ster
o ved
Ġ Ã¤ng
Ġ ought
Ġt aught
Ġt Ã¤nder
Ġa te
Ġd ator
Ġh eder
Ġm onst
Ġth rew
Ġf ed
Ġf jÃ¤r
Ġw ound
Ġg n
Ġg ull
Ã¤r en
st it
Ġn j
Ġn Ã¥r
Ġn ation
Ġn orth
Ġn ature
Ġl ys
is her
Ġo pt
Ġin de
Ġc ars
as ing
Ġdet er
ow ing
Ġdu ty
Ġst ars
ut i
ĠS yd
Ġre leas
se x
all e
il ed
Ġfr Ã¶ken
Ġwas h
ĠA sh
ett a
ĠB oston
ol s
ack en
ĠT er
ĠG OT
ĠL ady
ĠL ove
ĠJ ose
ĠO UT
ĠP ier
ĠR on
ie st
Ġkomm un
ast ing
ĠK l
ĠK yle
Ġvet enskap
Ġpl ock
Ġtal ade
Ġsig ned
Ġbeh av
ĠDet ective
Ġby ta
ug s
arn as
ĠCh ief
ĠkÃ¤n sla
yck a
ĠU P
ĠSt r
ĠAnd y
vis ion
IN K
ann en
Ġtra ining
Ġbest Ã¤mma
Ġass ume
Ġbig gest
Ġbes Ã¶k
Ġsex y
Ġcomp lic
Ġste ps
Ġend s
Ġexp ensive
ott er
Ġlik som
Ġdes k
Ġgra v
Ġlag a
ĠAl an
Ġbar ely
Ġpoint s
Ġbry ta
Ġlug na
Ġhistor ien
Ġplats en
Ġgam es
Ġkonst ig
Ġflick or
Ġsol en
Ġsol ution
Ġpos itive
Ġmilj on
Ġaw ful
Ġdy ker
Ġsend ing
Ġsweet ie
Ġshoot ing
Ġsan ning
ĠMc C
Ġmord et
Ġpap ers
Ġphot ograph
Ġcover ed
Ġind ust
Ġfoot ball
Ġbreat he
Ġgal et
Ġrid iculous
Gen om
Ġspeci ell
Ġdisk ut
Ġfail ed
ĠlÃ¶s er
Ġnerv Ã¶s
Ġobv ious
oph ie
Ġbri ef
Ġsnack ar
Ġrestaur ant
ĠfÃ¶rsvin ner
Ġvers ion
Ġanim al
Ġgry m
Ġconcer ned
Ġceleb rate
Bes ides
Ġwood s
Ġchick en
Ġsaf ety
Ġinterv ju
Ġther ap
ĠJord an
1 9
B illy
F ine
H oney
K en
K apten
N ick
N ING
T O
U L
U CK
b ol
d ar
e at
f ather
f olk
h av
i era
j Ã¤n
k ins
m os
m other
m ond
o ci
y dd
Ġt ort
in ne
Ġs ne
Ġh o
an ny
Ġf ader
Ġb ib
Ã¶ kt
Ã¶ gon
it i
om i
Ġv ul
Ġv akt
Ġg ather
Ġp u
Ġp et
Ġp ump
Ġy r
Ġn on
Ġk op
Ġk ons
is er
is es
Ġo cean
Ġto l
nd ag
ch es
te m
al es
al itet
Ġr ull
Ġr iver
Ġi ron
Ġst ul
Ġst yck
Ġe h
Ġon to
Ġvar ken
ĠS uper
Ġdo in
all ey
ĠM att
Ġde vil
ĠH anna
ak or
Ġsh irt
ĠA fri
ĠD oc
Ġvi ew
Ġom edel
ĠB el
Ġse par
Ġmin ne
ĠT vÃ¥
ĠG ordon
th ough
li ke
ĠJ ason
art s
ĠF el
ort en
Ġmen ing
ĠK anske
ĠV a
Ġpr ins
Ġupp lev
Ġbr Ã¶t
Ġex ch
ĠnÃ¤r heten
De f
sta v
Ġbra ve
Ġgr Ã¤n
Ġby g
opp ing
ĠkÃ¤n s
Ġam ong
ĠU nder
ew is
ĠfÃ¶ tt
ĠfÃ¶ nst
Ġfl u
Ġfl ight
iz ing
Ġpart ners
Ġtillb ring
ĠdÃ¶d s
sl Ã¶s
Ġfun eral
IN D
Ġdis c
Ġbu tter
Ġverk ade
ok es
Ġad mit
AT OR
Ġsam hÃ¤ll
Ġres ist
ash ion
Ġcomm and
Ġbur ning
Ġdeal ing
ĠJo ey
Ġvikt ig
Ġaff ect
Ġpick ing
ĠhÃ¶g re
Ġadv ice
Ġtrans fer
tid igt
Ġvap net
Till s
Ġben en
Ġcop y
klag aren
Ġvack ert
Ġpresent era
iam i
Ġsvar ar
Ġdam en
Ġphot os
Ġintress erad
Ġexpl od
Ġnatur al
ĠEx cuse
Ma x
Ġarrest ed
Ġfir m
Ã¤lt et
Ġcre ep
ĠsÃ¥d an
fatt at
Ġlar ge
ĠsmÃ¤r ta
Ġanim als
Ġcas es
ĠWas hington
Ġbuck s
Ġsci ence
Ġcharac ter
Ġtoil et
Ġbroth ers
Ġsem ester
ĠfÃ¶red rar
ĠTex as
Ġdok ument
Ġchallen ge
F ive
H ela
H enry
H Ã¤mta
S K
T A
W ere
b j
c ut
d are
d ers
e ase
f ace
i od
i ents
l om
l im
l Ã¶sa
p ly
t ag
u ella
w a
y p
Ã ¨
Ã ¼
Ġ Ã¤v
Ġ Ã¤gg
Ġt u
Ġt and
Ġt ung
Ġs illy
Ġd ating
Ġm ars
Ġm ult
an ie
Ġv Ã¤nda
Ġg iant
Ġy ng
Ġl id
Ġl ink
Ġl oose
Ġyou n
is ing
is ion
Ġin jur
Ã¶r n
ad s
te ck
as ons
Ġu ns
Ġr am
Ġr Ã¥n
ĠfÃ¶r tro
ĠfÃ¶r resten
am ent
le ken
Ġme j
Ġme mber
Ã¤n tar
Ġvar m
Ġvar enda
ĠS O
ĠS pe
ĠS anta
Ġre k
ur ance
Ġli c
all ar
Ã¥r ing
ĠH Ã¥ll
Ġfr isk
ĠD or
ĠD ub
ant en
Ġse ason
ol t
ct ure
ĠT or
ĠG i
ĠN ational
op s
ĠL in
Ã¤g are
ĠO wen
ĠP ort
ĠF er
Ġsp Ã¶
od ligen
Ġup stairs
um a
um ber
ĠR iver
ist r
ist an
ĠÃ¶ de
Ġbr idge
Ġal ert
Ġsl app
Ġer faren
Men ar
ong en
ĠnÃ¤r mar
Ġcon v
Ġgr atis
Ġbet alt
ĠdÃ¶ l
het ic
av tryck
FÃ¶r stÃ¥r
ĠCh loe
Ġtid ningen
ild a
ĠvÃ¤l jer
Ġqu it
Ġny ligen
ĠSt ates
nar are
Ġmot s
Ġfamil ies
we ar
Ġtra il
Ġwr itten
Ġtj Ã¤na
Ġsch em
vet et
Ġsex ual
Ġord et
Ġord entligt
ĠHar old
Ġpass a
Ġhead s
Ġinf lu
ĠMar ia
ash a
Ġhopp ar
Ġlik nar
ĠHow ard
Ġry gg
Ġob ject
Ġopen ed
ĠYOU R
Ġorder ed
Fr ank
Al right
Ġvan liga
ĠMich elle
Ġbas ically
Ġpos it
Ġinc ident
Ġinc lud
Ã¶tt e
Ġinve ster
Ġforg ive
Ġdep artment
ount y
ĠfÃ¶rÃ¤nd rats
Ġcap able
Ġ9 0
Ġbull et
Ġhy p
ĠfÃ¤ng elset
Ġdisapp oint
mÃ¤r kt
Ġhalv t
Ġpolit ical
Ġgrow ing
ĠkÃ¤m pa
AK E
ĠfÃ¶ret aget
erk ligen
ĠfÃ¤r g
Ġunge fÃ¤r
Ġrecogn ize
itu de
Ġiss ue
ĠsÃ¤ll skap
ĠAust ral
Ġappro ach
Mich ael
Prat a
ĠJac ob
ĠjÃ¤k la
ĠrÃ¤d sla
Ġosky ldig
Ġlang u
Ġlukt ar
Ġuppr Ã¶rd
ÂĢÂ ¦
" !
2 2
G irl
H und
J Ã¤tt
L ad
M at
M ark
M ove
S pe
b ie
d og
i ens
l Ã¶st
n att
r Ã¥de
t rÃ¥d
v at
v ies
Ã ±
Ã Ĥ
Ġ %
Ġ et
Ġt ape
Ġh ous
Ġh Ã¤nga
Ġm s
ou te
Ġf Ã¥g
Ġb id
Ġb ond
Ġv ent
Ġp ill
Ġy o
Ġn ational
Ġk art
Ġk ult
Ġo il
Ġin k
ed y
ĠI ng
ch o
es p
as ion
Ġr ough
am pa
Ġjag a
Ġvar mt
Ġre lease
im me
Ġfor mer
Ġhe at
ĠM ove
Ġde fe
Ġmed ical
ĠH Ã¶r
Ġfr ia
ak na
Ġkn Ã¤
ĠD ON
ĠD ID
ss k
Ġse g
The ir
ĠT E
ĠT aylor
ĠN ic
us hing
ĠL au
ĠL ittle
li ken
Ã¤tt ning
ell er
ĠF ort
Ġch ose
Ġno ise
Ġni vÃ¥
ul f
ĠR ose
Ġher re
ist ent
ist ic
ĠE le
ĠE ven
ĠV ery
os en
Ġupp gift
ĠW ANT
und e
Ġle ktion
Ġwho se
Ġund rade
Ġoff ret
Ġdem onst
ĠnÃ¥g onstans
Ġgr own
Ġbet e
ĠdÃ¶ k
av es
lo tte
Ġsm s
Ġsm ile
arn ed
Ġhem ligt
Ġam ount
pt on
Ġber or
Ġmitt en
ĠvÃ¤l s
ĠAnd re
ĠAnd rew
iz ation
Ġperson en
Ġperson ally
Ġsy m
sl and
ac on
Ġmiss ade
Ġdis p
Ġass um
Ġshow ing
ĠtrÃ¤ff ades
Ġbil j
Ġlag t
Ġlag ar
Ġbur ned
Ġskit er
stÃ¤ll ning
Ge orge
pr il
Ġplats er
Ġsw itch
Ġfem ale
Ġhurt s
Ġvan lig
Ġlu ften
Ġexper iment
Ġforg otten
ĠmÃ¶rd aren
ĠGud s
Ġoffic ial
Ġperfect ly
Ġcur ious
Ġexpect ed
Does n
Ġdam age
Ġstat ement
Ġhang ing
ĠGu ard
ĠbrÃ¶ der
Ġstark are
ĠBer lin
Ġpistol en
Ġrespons ibility
ĠLou is
Ġgol f
Kl art
ĠfÃ¶rklar ar
Ġprep ared
Ġow ner
ĠtrÃ¤d gÃ¥r
Ġkamer an
ĠLuc as
Ġavg Ã¶r
EA H
ĠfÃ¶dd es
Ġexem pel
' ?
1 1
A li
B E
B ry
D eras
E d
G Ã¥r
H uh
I VE
L a
O ut
R OU
S ounds
T revligt
U M
V Ã¥rt
b al
b ru
c olm
d s
d Ã¥
f ru
g Ã¶ra
g Ã¥ngen
h em
h ab
j us
k i
m el
n i
o de
r ande
s ar
w ord
Î ¿
Ġ Ãĸ
Ġt ap
Ġs iff
an ter
Ġb ust
Ġb ite
at ors
Ã¶ ter
Ġl ack
Ġl ung
Ġl oud
Ġk uk
Ġc ere
Ã¶r j
Ã¶r ren
ad o
te en
ill en
Ġu g
Ġbe kv
Ġr ope
ld e
ld iga
Ġst ock
Ġst ann
Ġe ggs
ut ch
Ġsk ur
Ġsk um
Ġsk Ã¥d
ĠS and
ĠS usan
Ġfor e
Ġan lit
Ġan alys
ĠM ommy
il en
ent als
ĠH ay
ĠH allÃ¥
ak an
ak ter
ĠB on
ĠB or
Ġse ger
Ġtr ash
ĠT IM
Ġjust ice
ĠG ard
us es
us se
ĠL ewis
ĠJ ay
Ġab andon
ĠP appa
ĠF ord
ĠF irst
Ġska ff
Ġska pade
od er
Ġch o
Ġch ea
ĠR u
ĠR am
ĠK eep
Ġpl ac
ĠE X
ĠE v
fÃ¶r ande
ap a
ap er
Ã¤m d
Ġsome how
Ġex act
lo ss
Ġser v
ĠIt al
Ġdr ama
Ġsm ugg
âĻª âĻª
Ġber Ã¶m
ĠWh ich
Ġte en
Ġmo vies
Ġsc are
Ġfri het
ster n
ĠvÃ¤r de
Ġstr anden
Ġtur ning
bb en
Ġtra p
Ġgen ast
Ġfly ger
Ġreal ity
Ġfan cy
Ġled igt
aug hing
Ġfall er
ĠlÃ¤m nat
Ġsist ers
Ġinf ormer
Ġapp ears
ĠkÃ¶ ket
ĠFr iday
gr ound
ph y
Ġdes ign
Ġhard ly
min ister
Ġdro ger
Ġlag en
Ġperfe kta
Ġresp ek
ĠJack ie
Ġkonst nÃ¤r
Ġconf irm
Ġbas ed
Ġchar ges
Ġmilj ard
ĠChrist ian
ĠDan i
ĠfÃ¶rstÃ¥ s
ĠfÃ¶rsv ara
ĠUn ited
ĠskÃ¶ ta
Ġsecret s
Ġsvar ade
Efter som
ĠHer regud
Ġhonest ly
ĠgÃ¶m ma
ĠgÃ¶m mer
Ġkast ade
ĠAng ela
ĠfÃ¶rstÃ¶r de
Ġoro ar
ĠEd ward
Ġstyr ka
ĠJuli a
Pl us
Ġviktiga ste
Ġskepp et
ĠvÃ¥g ar
Ġtick ets
ĠGra ce
kÃ¤n na
ĠbÃ¥t en
Ġhealth y
ĠAli ce
Ġca used
Ġintrodu ce
Ġlikad ant
eal ous
ĠHit ler
Ġoly cka
onest ly
Ġumg Ã¥s
B et
K ont
K lockan
P ass
P oj
R I
S ch
S amma
V Ã¤ldigt
c el
d ra
d agen
e ga
f in
i ste
j am
n ummer
p ing
s es
s dag
t own
v on
» ¿
Â ´
ï »¿
Ġt ing
Ġt ve
Ġt aket
Ġs op
Ġh ust
Ġh ud
et ag
an i
Ġf if
Ã¥ pet
on ed
or et
Ġv Ã¥n
Ġv unnit
Ã¤r k
st y
st id
Ġn ons
Ġn uts
Ġl amp
Ġk m
Ġk em
Ġk ors
is era
Ġo g
Ġin b
Ġin uti
ed a
Ġto wards
ĠI F
Ġj ealous
al ter
Ġen c
Ġr ate
ay a
Ġe p
Ġe ast
Ġe ars
Ġon d
Ġvar s
ĠS u
ĠS ant
ur al
Ġfor ced
and al
ĠM et
ĠM ir
ĠM other
ĠM itch
ĠM iami
Ġmed el
ent yr
ĠH ans
ĠH IS
Ġfr un
ion er
Ġsh ape
Ġvi a
ĠB ern
ri er
ol en
un ter
ĠT Ã¤nk
ĠG old
ĠG abri
us entals
ĠL os
ĠL IKE
li kt
ĠJ ud
ĠO ut
ĠO ur
ĠP op
Ġvill age
em on
ĠR om
ĠR IGHT
ast y
ast ic
ĠK rist
ud rey
Ġbl ess
att y
Ġcon stru
ind y
Ġig nor
Ġjob s
ug h
ĠY ep
Ã¤ng de
Ġsen ior
Ġhem liga
sp ro
Ġ2 7
Ġ2 8
nt il
ish op
Ġqu e
Ġny tta
ĠvÃ¤r del
Ġhit s
pl ats
pl atsen
ath y
Ġbel ow
Ġmiss ar
Ġtra ined
var ande
Ġdel ic
Ġbu ss
Ġfram gÃ¥ng
Ġfly kt
Ġpar ker
Ġled are
els erna
Sk icka
Ġhead ing
Ġans wers
Ġapp oint
led ge
del ningen
ĠrÃ¶ da
Sl Ã¥
An na
An other
Ġkoll ade
Ġseem ed
ĠLe x
Ġlyck a
Ġleg al
Al so
Some body
Ġali en
ĠSp an
ĠlÃ¤tt are
Ġexper ien
Ġdan cing
ĠfÃ¶rv Ã¤nt
Ġtouch ed
Ġpriv ile
Ġprotect ing
Ġsold at
Ġ7 0
Ġexpect ing
Ġavsl uta
Gr attis
Ġind iv
Un less
ĠfÃ¶rf lut
Ġkast ar
gar et
ĠsnÃ¤ll t
Fuck ing
Ġprodu ct
Ġconne cted
Gen eral
Ġra ise
ĠklÃ¤der na
Ġabsol ut
Ġdestroy ed
Ġbelong s
Ġcre ate
Ġsil ver
ALL Y
ĠSn Ã¤lla
Tro dde
Ġrema in
Ġcab in
Ġcust om
Ġhind ra
Ġagre ed
cell ent
Ġundv ika
Beh Ã¶ver
ĠMat thew
ĠInter net
Sky nda
ĠBru ce
spe cially
ĠAB OUT
ĠKor ea
Ġarr ang
ĠSund ay
Ke vin
Ġcorre ct
Ġhorri ble
vir on
Ġomedel bart
Ġexch ange
4 0
A ldrig
A cc
B ar
B ro
B etter
C A
F ind
K ul
L y
M or
O ff
O ther
S it
S weet
T E
T on
T alk
U D
V er
_ _
b urg
c il
f et
g y
g ree
i os
k ohol
l n
l Ã¤nd
n os
r ades
s na
x ter
Ġs Ã¤nd
er iff
Ġa k
Ġd amm
Ġh yr
Ġh als
Ġf ate
Ġb ound
Ġw oke
ing o
st ar
re sp
Ġp ed
Ġp ills
Ġp ounds
Ġp ension
Ġn et
Ġn Ã¥d
Ġn Ã¤tet
Ġn urse
Ġl ower
Ġl ines
Ġk al
Ġk yck
Ġo lag
Ġc lock
Ġto pp
ad ow
ill ing
es pel
as hing
ve st
Ġen viron
Ġst ationen
Ġe j
Ġsk ed
ĠS P
ĠS un
ĠS imon
Ġre ve
Ġre ven
im a
Ġli b
ĠM ick
ĠM olly
Ġall erg
ĠH ard
ir ing
Ġsh opping
Ġsh eriff
ĠD i
ĠD un
ĠhÃ¤r om
Ġom Ã¶jligt
ĠC a
ĠC le
ĠC all
ĠC ould
ĠC ast
ĠC AN
de m
Ġmin nas
Ġtr ade
Ġtr igger
ĠT re
ĠL es
ĠL ily
ara h
ĠO scar
Ġso ff
Ġso ft
ĠP e
ĠP en
ell an
Ġsp Ã¥ra
um ents
Ġut bild
ĠR en
ist isk
Ġhim len
ĠK al
Ġpl us
ĠE N
fÃ¶r t
Ġlo yal
Ġpro va
os es
Ġbr own
Ã¤m p
if orn
iv itet
Ġgr Ã¶
Ġgr Ã¥ta
het s
Ġun cle
Ġser ve
ik anska
ci ent
ace y
ĠWhat ever
Ġber edd
Ġmot iv
ĠVi et
ĠÃ¥t al
Ġsc r
Ġsc ar
Ġpart s
ock ey
Ġsy ss
Ġstr ang
amm y
rar y
Ġplan en
Ġfar far
Ã¤st aren
ĠTh ese
Ġdis ease
ian o
Ġass ault
Ġpar ad
Ġad ult
Ġbelie ved
eg as
OU LD
Ġord ning
AN K
Ġbre ad
Ġbre aking
Ġpass ion
Ġres cue
Ġkont rakt
Ġsit u
Ġunderst ood
lick a
ĠlÃ¤r are
Ġbeg Ã¥
Ġter ms
Ġreg ler
AR D
Ġcomm unity
Ġfix ed
ĠCar rie
ĠstÃ¤ll de
Ġtest s
Ġob ser
Ġhund rat
Ġbed room
Fr Ã¥ga
Ġinv ent
Ex cept
Ġfant as
Ġla id
Ġang el
Ġpull ing
Sp ring
Ġoffic ers
Ġchang ing
HÃ¶r de
Ġcap t
Ġfantast iska
Ġcam pa
Tr ots
Ġeng el
Ġeng ine
ĠRob in
Ġstat us
Per fekt
Ġbetal ade
bil en
Ġtem per
Ġbill ion
ĠAb out
ĠThanks giving
Ġreach ed
Ġknapp ast
augh s
Ġfinger avtryck
Ġtank ar
Ġproper ty
enn ifer
Ġbjud er
Ġpush ed
ĠHel en
ĠEur opa
Ġsjun ga
Ã¤ker t
ĠCarl os
Ġchamp agne
ĠtillfÃ¤ll e
Ġfrukt ans
Ġfing ers
Ġrisker ar
gin ia
Ġextre m
Ġcit iz
ĠCent ral
ÃĦlsk ling
JÃ¤v la
Ġalter nat
Ġkontroller a
ĠnÃ¤s an
Ġappar ently
Ġdip lom
Ġhig her
ĠSomet hing
ĠKomm er
ĠWall ace
ĠDep artment
8 0
A ren
B oy
G jorde
H onestly
I m
K r
K Ã¤r
K Ã¤ra
M ary
M mm
P at
R IS
T urn
U GH
Y ep
f it
f ik
h in
h all
h uh
l are
m i
m at
m Ã¶
r er
r ough
s Ã¤g
s juk
v ere
v ard
y lan
Ġ *
Ġt ong
Ġt att
Ġt ju
Ġt orn
Ġs ve
Ġs ite
Ġs outh
er nas
ar an
ar io
Ġm art
Ġm ale
ll ing
Ġf ought
Ã¥ telse
om y
om eter
Ġg em
st jÃ¤r
re ak
Ġp itch
Ġp unch
Ġn in
Ġn orr
Ġin bjud
ed ing
Ġto w
tt on
es se
Ġdu sch
al ing
Ġen kel
Ġr Ã¶d
Ġr Ã¥k
Ġr oute
Ġi ck
Ġe ur
Ã¤n na
ĠS U
ĠS y
Ġre asons
Ġan l
Ġdo ctors
Ġwe ather
Ġmed borg
ĠH oly
ĠA L
ĠD es
ĠD ana
Ġse es
ol o
un ga
ĠT itta
ĠG U
ĠG irl
li cer
ĠJ enny
ĠJ amie
ĠO b
ĠP an
ĠP re
ĠP ac
ĠP eople
Ġman age
Ġska par
Ġsp l
Ã¥g an
Ġwant ing
ĠR es
ast rof
ĠK aren
Ġhel gen
Ġsu gar
end ent
Ġer kÃ¤nna
ate ful
Ġas leep
ÃĦ R
ep h
In t
Ġbo ot
Ġbo ken
Ġby ter
Ġlet ters
Ġsm Ã¤ll
ĠgÃ¥ va
Ġmean ing
Ġsv Ã¥ra
Ġim age
ub lic
ĠSt ate
Ġkl ubb
Ġfamil jer
ER S
Ġper cent
ĠrÃ¤tt eg
ikt igt
Ġcl own
Ġfriend ly
bb a
Ġgen ius
Ġbest Ã¤mt
Ġass ass
Ġins urance
Ġens amma
Ġfly ing
Ġpar an
Ġled trÃ¥d
Ġ3 5
Ġbes Ã¶ka
Sk it
Ġfall ing
pen cer
Ġold er
Ãħ k
Ġstay ed
Ġans er
Ġsky nda
Ġsam tidigt
Ġbab e
Ġbab ies
Ġrec over
Ġhopp ades
Ġfil es
Ġtack sam
oc ol
Ġcr it
Ġpri ck
Ġmet h
Ġinter rupt
ĠdÃ¶r r
Ġglad a
Ġstud ents
ĠÃ¶pp et
ela x
Sn art
Ġ19 7
Ġprof ile
Ġmurder er
ĠSk y
vÃ¤g en
Ġadv ent
ĠlÃ¶ n
Ġmidd agen
hÃ¥ll a
ĠmÃ¶rd ade
Ġoffer ed
Ġsim ply
Ġpie ces
Ġuppt Ã¤ckte
Ġdist ance
Ġsold ier
ĠmÃ¶ ta
Ġstar kt
Ġeng ag
Ġtw ist
Ġtelefon en
Ġz omb
Ġexc iting
Bl ir
ĠSer geant
ĠRo ger
Ġfell ow
Ġresult s
Ġham na
Ġmention ed
US E
ĠVil ka
Ġlur ade
Ġcreat ed
Ġjour ney
Ġgar age
Ġvir us
Ġcarry ing
Lug na
Ġve h
Ġgol vet
Ġed uc
Ġchamp ion
Ġir rit
ĠnÃ¶d vÃ¤nd
Ġsuccess ful
Ġfokus era
WH AT
Ġvux en
Ġintellig ence
spl atsen
Ġneighbor hood
ĠWay ne
ĠgrÃ¤ va
Ġstre ets
Ġanm Ã¤l
gif ter
ÃĦn nu
ĠuppmÃ¤rk samhet
Ġreleas ed
Ġcomplic ated
ĠHanna h
Ġbyg ger
ĠfÃ¶nst ret
Ġlangu age
. ]
5 00
B Y
B u
B orde
B LE
C ra
C la
C ool
E specially
F ri
F our
F akt
F amil
G re
L Ã¤
M c
M Ã¤n
M Ã¥r
P eter
P resident
R a
R un
V Ã¤r
W ork
g el
h ar
h Ã¤r
h Ã¥l
i per
i ots
j s
k in
k ing
l on
o om
r ull
u ed
v ist
Ġt at
Ġs um
Ġs Ã¥ng
Ġs ons
Ġd ies
Ġd ish
Ġh Ã¤v
Ġh idden
en e
en ad
an or
Ġb ump
Ġb ail
Ġb atter
Ã¶ vel
Ġg lo
ag an
ag ligen
st ag
st and
Ġn ic
Ġn aked
Ġl ately
Ġk ur
Ġo avsett
Ġthe ory
Ġc os
tt o
as en
el and
el ter
ot ion
Ġr ena
ĠfÃ¶r d
Th ought
Th ings
ere k
Ġst om
pp a
Ã¤n kte
ĠpÃ¥ ver
ĠS HE
ĠS OME
Ġre komm
ur r
and o
Ġan ger
ĠM amma
ĠM AN
Ġall mÃ¤n
Ġmy st
Ġsh ame
ĠA bby
ĠD a
ĠD onna
ĠD ire
ĠC li
ĠC ap
ĠC yr
ĠC ole
ĠB ry
ĠB ishop
un nen
Ġtr as
Ġtr aged
Ġtr Ã¥kigt
ĠT al
ĠT alk
ĠG a
ĠN az
op y
op ter
ĠL iv
ĠL aw
ĠL ogan
Ã¤tt ra
ĠO R
ĠO oh
ĠP a
ĠP am
ff in
ĠF ace
ort a
Ġsp ort
Ġno ll
Ġut by
ul s
ie ur
ta ins
ĠK ar
Ġvet at
Ġlo j
Ġsu p
end et
Ġbr ings
Ã¤m pa
Ġar ch
Ġal arm
Ġal kohol
Ġwho ever
ys st
Ġdown stairs
be cca
ci pl
Ġsen ast
Ġsak nade
ĠfÃ¶ ll
Ġfl ask
Ġfamil iar
Ġmo ves
Ġsc reen
ock h
ons ieur
Ġplan ned
Ġper for
Ġper iod
ĠvÃ¤g rar
bb ie
Ġins ist
ĠDe an
Ġplay s
Ġimp oner
Ġbes vÃ¤r
AT ION
wh ile
Ġhal va
Ġfil mer
ned y
ĠjÃ¤v ligt
Ġma x
ĠBr ook
its nack
skap et
ator y
ĠCar ter
ĠTHE Y
Ġbur ied
Ġ4 8
Ġkun gen
Ġwar rant
org m
ĠFÃ¶r s
ĠsÃ¶ ka
Ġgod k
Ġgod s
ĠhÃ¤m nas
Ġhund en
Ġhund ar
Ġhund ra
Ġdra ck
TH AT
TH ING
Ġstud io
Ġsw im
ĠAn th
ĠAn ne
Ġlyck liga
Ġhum ans
Ġmag i
Ġmag az
ĠÃ¶pp nade
Ġmess ed
Ã¤k lar
mor gon
Al ways
Ġforts Ã¤tt
Ġmass or
Ġtrans port
Ser geant
IT T
ĠtjÃ¤n ar
full a
Ġmatch en
Ġlyss nade
Ġcell s
Ġsold iers
ĠmÃ¶ ter
ĠPr ince
Ġlist an
Ġstar ka
Ġthrow ing
Ġotro lig
Ġeff ekt
kom st
ĠrÃ¤k nar
Ġdress ed
Ġgentle man
Ġpan ik
Ġra ised
ĠvÃ¥ld t
Ġthousand s
ĠGO ING
Ġunivers um
Ġunivers itet
ĠfÃ¶rsvin na
Ġve get
Ġsjun ger
Ġpiss ed
Ġpun ish
Ġevent ually
Ġdirect ly
Ġrece ive
Ġslipp a
Ġslipp er
ĠÃ¶verrask ning
Ġhotell et
Ġvamp yr
Ġdetail s
ĠJapan ese
Ġconvin ce
ĠklÃ¤n ning
Ġcoun ter
Ġnyhet erna
Ġfunn its
Ġbecom es
Ġbesv iken
Ġdrott ning
Ġsever al
Ġsacrif ice
chuck les
ĠBrit ish
Mart in
Ġfam ous
Dess utom
Ġerfaren het
Lad ies
Ġhous es
ĠfÃ¶rflut na
Ġenviron ment
Ġhundrat als
B ad
B ye
C l
C ol
D R
E P
E le
E ver
F ull
H itta
J an
N y
N er
N one
O avsett
P aul
R y
R ep
S O
S P
S ame
T en
T ommy
b on
c ase
d an
d jur
g at
g Ã¶r
h m
j obb
k o
k ward
l Ã¥
l ats
l aughs
o cks
p her
r ot
u ce
u ell
u ga
v ation
v ik
v ia
w are
Ġ ess
in ese
Ġs ann
Ġs umm
Ġa chie
Ġh ire
Ġh ated
Ġm as
Ġm ood
Ġm ap
Ġm ik
Ġm Ã¤kt
an en
Ġf ann
Ã¶ p
or der
Ġv ett
Ġv Ã¤st
Ġv aken
st ick
ig ga
Ġn ail
Ġl on
Ġl av
Ġk ro
Ġc oo
tt ag
ĠÃ¤r ligt
Ġdet ect
Ġdet samma
ow ns
Ġen a
Ġr od
Ġr ens
Ġr oof
am ber
Ġsk att
Ġsk rÃ¤
Ġsk rek
ĠS ay
ĠS im
ĠS ophie
ro s
ĠM O
ĠM ake
ĠM ama
Ġde vice
Ġmed lem
ĠH ER
ust ing
ter ade
ĠA v
ĠA ri
ĠA my
Ġ- [
ĠC her
ĠC ass
itt ade
ight s
ĠB UT
ĠsÃ¥ lde
Ġmin nen
Ġmin ister
Ġav ail
ĠG un
ĠG rey
ĠN ancy
ĠJ unior
ĠP L
ning sk
Ġman s
ĠF R
ry m
ry mm
Ġut re
ĠR h
ĠR un
ĠR og
And ra
ie go
ĠK enny
Ġright s
ĠÃ¶ v
ĠmÃ¥ let
Ġbl ank
Ġhel vetet
Ġsu icide
Ġif red
Ġus ual
Ġus eless
Ġbr ight
ĠW OR
Ġex ample
ard on
ĠnÃ¤r ma
Ġtal ang
Ġcon du
Ġgr Ã¤l
Ġgr Ã¤s
Ġgr ateful
oll ar
av ing
Ġhand lade
Ġun f
Ġser ver
ug ga
Ġkill arna
ĠCh an
Ġbli ck
Ġpo ker
dd y
ose x
ip ment
Ġmu sk
Ġmor mor
Ġmot stÃ¥nd
Ġfl ag
Ġkl Ã¤
Ġsn ow
Ġstr Ã¶m
Ġstr ugg
pl ay
ĠvÃ¤g gen
Ġdis g
Ã¶j t
kl are
Ġcar es
ian e
ĠTH ERE
Ġfly ga
Ġverk liga
OU R
Ġplay er
Ġbes eg
Ġsex ig
Sk riv
Ġcomp etition
AN G
Ġpa ir
Ġbil ar
Ġres our
rat ing
rat ta
Ġcle ver
Ġkall t
ĠFr om
gr am
ĠhÃ¥ll it
del se
Ġter min
Ġsna cka
Ġresp ond
Ġdire ction
pe kt
Allt sÃ¥
Ġtest a
Ġbry ter
Ġval et
Ġopen ing
ubb el
ighet en
ĠAr thur
Ġskad ar
ĠChar lotte
ĠSe an
ĠSe cret
Ġtel e
ĠfÃ¶re stÃ¤lla
Ġ19 9
Ġcool t
LE S
Ġla unch
Ġwin ning
Ġmill ions
Ġbuy ing
ĠmÃ¤r kte
Ġbott en
Ã¤nn isk
Ġarm Ã©
Ġbok stav
Ġspend ing
Ġpen is
Gu ess
Ġfund era
Ġbygg naden
Ġgrabb ar
Ste ve
ĠSl Ã¤pp
Ġpris et
Ġallvar ligt
Ġsurv ived
ĠvÃ¤x er
ĠlÃ¶s ning
ÃŃ a
ĠEll iot
Ġpaint ing
Ġnyck el
ĠMal colm
ĠsÃ¥d ant
Ġtuff t
ĠPer fect
Ġutom jord
Ġviol ence
Ġavsk ed
ĠstjÃ¤r n
Ġhemlighet er
Ph il
Ġsci ent
Ġmilit ary
ĠKen nedy
ĠmisstÃ¤n kt
ĠÃ¥tervÃ¤nd a
ppar ently
Ġunders Ã¶ka
Ġagre ement
Kill en
Ġsoci ety
ĠAngel es
ĠlÃ¤gen het
Ġkat astrof
Ġapolog ize
ĠfÃ¶rhÃ¥ll ande
pun kt
ĠDav is
ARR ATOR
ĠMajest y
ĠVir ginia
HÃ¤l sa
ĠmjÃ¶l k
Ġdiskut era
ĠÃ¤v entyr
Ġyoun ger
Ġextrem ely
Ġick e
Ġstom ach
Ġrekomm end
1 8
B ill
D el
E nd
F lick
H em
H appy
M o
M us
M other
M AN
N E
N O
O k
S an
T id
T im
T og
V erkligen
b ur
c ond
c ons
c ise
c ohol
d ags
f s
h Ã¥ller
k ven
o ende
r Ã¤m
u i
u in
w an
w ich
w orth
Ġ Ã
Ġt all
Ġt ak
Ġt Ã¥l
in ating
Ġs Ã¤m
Ġs etting
Ġa u
ar ge
Ġm Ã¤stare
ll y
Ġf uel
Ġb ags
on se
Ġw et
Ġw ing
Ġw ow
at Ã¶r
it ation
om pl
Ġg y
st ant
re ck
re ster
Ġp ins
Ġp upp
Ġn ut
Ġk av
Ġk ampan
ĠI sland
Ġj Ã¤r
Ġj oy
Ġj erk
ch ester
es k
es ar
as ch
ot ed
Ġbe ating
Ġr ak
Ġr ip
am ing
Ġst Ã¤d
ver na
Ġwh is
Ġme mb
ĠpÃ¥ stÃ¥r
ĠS Ã¤tt
ĠS ep
ĠS av
ĠS atur
ĠS pencer
Ġre ag
oo ps
and om
Ġan vÃ¤nt
out s
Ġdo ors
ĠM us
ĠM ort
ĠM ore
il ities
ĠH AD
ĠH ugh
Ġfr ight
Ġfr amme
Wh ile
ĠA unt
ĠD R
ĠD ef
ĠD amn
Ġgo de
Ġgo sh
Ġom rÃ¥de
ĠC ir
ĠC urt
ĠC ounty
ĠB A
ĠB y
ĠB ull
ri x
ri kt
ol es
ĠsÃ¥ hÃ¤r
sk Ã¤r
sk arna
ct ing
Ġmin sta
ĠT ime
ĠG ON
ĠN athan
op her
ĠL ieutenant
art a
ĠO ver
ic ans
Ġch em
Ġmen ingen
ĠÃ¶ d
ĠV art
ĠV egas
ap h
ap ole
Ġpr ot
Ġpr int
au ff
ĠW atch
Ġal b
Ġal cohol
und en
Ġex ec
Ġas ide
ÃĦ N
att ack
Ġgr ann
lo tt
ik o
Ġsm ak
ug gen
Ġhem lig
Ġhem ifrÃ¥n
sp ir
man n
man ent
Ġny fiken
ju ka
Ġfl at
Ġel ev
Ġsc ary
Ġstr u
sl et
ef ully
ath ers
Ġthought s
Ġfar lig
Ġmiss at
iga ste
Ġro le
Ġro ller
ring ar
ann el
Ġdel i
kl ubb
ĠTH INK
Ġcou nsel
Ġkind s
Ġco at
vin n
Ġpa us
Ġrec omm
Ġexp la
Ġfull a
gr Ã¤ns
Ġacc ording
Ġsju kt
Ġannan stans
Sh all
Ġter rit
Ġcr imes
Ġev igt
Ġev ents
ien de
AR T
Ġinter net
lock a
ĠsÃ¶ ta
ĠstÃ¤ll en
Ġcheck ing
ĠZ oe
Ġob lig
pr ints
Ġpat ients
Ġpat hetic
For get
ĠAn n
Ġconf ident
Ġleg it
Ġprote st
ĠSte w
Al though
Ġali bi
Ġdom are
Ġbor ing
Ġaw kward
air s
Ġru ined
ĠfÃ¶rv Ã¥nad
Ġdep ression
ĠslÃ¤pp te
Ġskr Ã¤m
ĠfÃ¶rÃ¤nd ra
Ġkon f
Ġih jÃ¤l
Ġsold ater
Ġflo tt
sm Ã¤ss
ĠDid n
ĠKe ith
ipp ing
Ġcir k
Ġlev de
ĠTe am
Ġmedic ine
Ġeff ort
ĠmÃ¶r kret
Ġexpl an
ĠrÃ¤k na
Ġopp os
Ġspeci ellt
Ġmask in
ĠkÃ¤m par
kra ft
Hel p
Ġkil o
Ġkil ometer
Ġnyck eln
Ġbesk ydd
vÃ¤ p
ĠfÃ¥ng ar
Ġviol ent
Ġconcer n
ĠbÃ¶ cker
inc oln
fil m
ĠpÃ¥min ner
ĠStan ley
Ġstab il
Ġutred ningen
Ġequ ipment
Ġmira cle
Ġsli p
ĠFin ns
ĠbrÃ¥ ka
ĠÃ¶verlev de
oog le
Ġdivor ce
Ġhamn ade
Snygg t
Ġagg ress
Ã¶rel se
Ġskitst Ã¶vel
Ġexplos ion
ĠJose ph
Ġbehav ior
Ġsne ak
Def init
ĠfÃ¶tt erna
Ġlic ense
Ġinclud ing
Ġsiff ror
Ġindiv id
Ġreven ge
ĠViet nam
Ġcampa ign
ĠAnth ony
Ġavail able
Ġmemb ers
ĠGON NA
2 00
6 0
A mer
A IN
A my
B li
B ob
D Ã¶d
D Ã¶da
F re
H it
H ad
I V
J on
J ess
L uc
L ivet
M Ã¥
M el
M ust
M ike
S na
S il
S her
S arah
U r
U gh
U ntil
V in
V an
W on
W alter
b a
b ot
b our
b aka
f an
f on
f ive
f red
g Ã¤ng
g irl
i Ã¶st
n amn
o oth
p an
r igt
r Ã¶m
s f
s or
s he
t ande
u a
u z
u ellt
v Ã¥n
v ara
v ap
w in
x an
x orna
z ed
in ary
Ġs ed
Ġs ikt
Ġa utom
Ġd irt
Ġm ister
Ġf et
Ġb Ã¤
Ġw ave
or ed
Ġv ig
Ġv ind
Ġg ross
Ġg orge
ag ing
Ġp ure
Ġp ip
Ġp aket
Ġn ar
Ġl es
Ġl ade
Ġl ej
Ġl ider
Ġl Ã¤cker
Ġk ock
Ġk amp
Ġk ork
ed nes
Ġc art
Ġc orn
Ġc ooper
tt it
ad ing
ĠI ns
ch an
Ġu na
Ġatt orney
el et
Ġdet ective
Ġdu ktig
Ġr ow
Ġr utt
ĠfÃ¶r t
ĠfÃ¶r ol
ĠfÃ¶r Ã¤lsk
ĠfÃ¶r hand
am an
Ġjag ar
Ġst one
Ġst aring
Ġst Ã¤nger
Ġwh eel
ra ck
ĠS A
ĠS eb
ur i
se ende
Ġan str
ro at
Ġli qu
Ġdo ktor
all ow
ĠM um
ĠM ina
ĠM organ
ĠH um
Ġfr ys
Ġtill Ã¥ter
ter prise
Ġsh r
ĠA g
ĠA ven
ant age
ĠC ON
ĠB O
ĠB at
ĠB onnie
un te
sk olan
Ġmin st
Ġmin im
ĠT em
Ġhan n
ĠG len
ĠN ina
ĠL ight
ĠL ug
li ote
ĠO pen
Ġso oner
ĠF our
ĠF ine
ĠF ox
Ġsp ion
Ġsp orts
Ġch ap
Ġno ga
ast a
ast ian
ĠK Ã¶r
ore an
Ġvet er
ĠE ver
ĠE rs
ga v
ap i
Ġpro ced
Ġsu ttit
au nd
Ġupp n
Ġupp s
end om
he im
Ġbr inner
ĠYou ng
if orm
ĠW oo
Ġex h
Ġle ks
la us
Ġgu ards
iv ely
qu is
Ġcon se
Ġcon tain
Ġgr Ã¤v
Ġgr Ã¥ter
ars on
Ġgood ness
Ġta il
Ġhand led
Ġunder rÃ¤tt
FÃ¶r utom
Ġsm Ã¶r
Ġhapp iness
Ġsak na
ĠWh it
Ġfind s
nar en
Ġju ice
Ġkl ubben
iz er
Ġpart ies
Ġstr onger
Har ry
ĠvÃ¥r d
Ġstart a
orm al
Ġcl ue
ĠTh ree
Ġkund er
ĠsjÃ¤lv klart
ĠsjÃ¤lv mord
kl ass
Ġass ure
Ġput s
ĠmÃ¤n nen
Ġge vÃ¤r
Ġad vis
Ġled de
Ġspel et
ĠSh it
ĠSh aw
Sk Ã¥l
Ġmind s
Ġpass ing
Ġrep ut
Ġrep orts
Ġrep lace
Man y
ĠlÃ¥t it
Ġres an
ĠkÃ¶r t
Who ever
ĠFr ance
Ġacc used
Ġacc ompl
Ġma il
Ġunderstand ing
Ġfru it
Sh h
Sh ow
Ġbeg an
Ġdro ve
Ġreg ular
AR S
else a
ĠrÃ¶ v
Ġwar ning
Ġdire ctor
Ġval ue
Ġspr Ã¥k
Ġmur ders
ĠJust in
Ġhum or
Ġart icle
ĠSte ph
Ġinv ite
Ġskj uten
Ġinc re
Ġblod et
ĠGr ay
ĠfÃ¶rstÃ¥ tt
full t
Ġsystem s
ĠskÃ¶ n
Ġsat is
Mar ia
Ġbild en
Ġsj Ã¶n
ĠhÃ¤l ften
Ty p
Ġscen en
Ġclean ing
Ġclean ed
IC E
Ġarm Ã©n
Ġten nis
Ġgrand mother
ĠaffÃ¤r s
ktion er
ktion en
ette s
Ġvak na
Ġvak nar
Ġpresident en
Ġentire ly
Ġcost s
Ġcli ents
Ġgener ation
Ġglass es
ĠPat rick
Ġproper ly
Ġfi enden
Ġtyd ligt
Ġhundred s
ĠEll en
ĠSn ow
Ġmobil en
Ġesc ap
ĠbrÃ¶llop et
Ġrestaur ang
Ġspark en
ĠlÃ¶g ner
Ġrev olution
Ġtryck a
Ġamb ass
Ġneg at
Ġprep are
John ny
Ġtax i
ĠpÃ¥min na
ĠSE E
Ġiss ues
ĠAust in
Ġkross a
Ġmira kel
Ġhunt ing
Ġdeb t
Ġterror ist
Ġreger ingen
ĠMex ico
ĠnÃ¤m nde
ĠGerman y
Ġspo ken
Ġskriv bord
Ġpuss y
ĠÃ¶verty g
Ġemotion al
Ġcurr ently
rust ning
Ġuppen bar
Ġsurr ound
Ġretur ned
Absol ut
ĠsÃ¶m n
Ġmoun tain
Vis ste
look ing
ĠPier ce
Ġug ly
ĠskÃ¥d espel
Ġchea p
Ġnons ense
Ġcustom ers
Ġsoff an
Ġtatt oo
Ġtat u
Ġperfor man
apole on
Ġexplan ation
ednes day
B ER
B UT
C ut
E ll
F e
F il
F ix
F yra
F Ã¶re
H Ã¶rd
H oly
I P
M edan
N or
P ER
S ol
S uper
T ony
U p
b ing
c les
c lock
e es
f ic
i ally
l ow
l ant
n k
r in
r Ã¤kt
t ill
Ġs ade
er ingen
Ġh et
Ġh ors
Ġh eta
ar ning
Ġm al
Ġm agen
an ing
Ġf Ã¤st
Ġf Ã¤lla
Ġf aces
Ġf ishing
Ġb io
at ar
Ã¶ der
Ã¶ kte
it ution
Ġv Ã¤nder
Ġg issa
ag h
st ud
Ġp j
Ġp le
Ġp age
Ġp rakt
Ġy og
Ġn Ã¤
Ġn asty
Ġl Ã¶jligt
Ġl aughing
Ġc utting
Ġto ler
ad ill
ĠI an
Ġr are
Ġr ika
le e
Ġst Ã¤m
Ġe gg
pp le
Ġsk er
Ġsk ratta
Ġwh om
Ġon da
ĠS ally
Ġre he
Ġre pa
Ġli ps
ĠM aggie
Ġde gree
Ġsh h
Ġsh own
Ġsh elter
ĠA G
ĠD is
ĠD iego
Ġgo al
ant ha
ĠC at
ĠB ow
ĠB ay
ĠB aby
ri ve
ri ver
ol i
Ġne ur
Ġtr ag
ea st
ĠT ar
ĠT ri
ĠG ina
ĠN Ã¥n
ĠN ate
ĠN ord
ĠN OW
ĠN obody
ĠL ake
ĠL Ã¤gg
ĠL yn
ĠL inda
omm a
ĠJ erry
ste g
ĠP ri
ĠF inn
em a
od es
od de
ul Ã¤r
ĠE M
Han g
ab et
ab lo
ob er
Ġhel g
Ġpr oof
end y
Ġbr Ã¥tt
Ġar men
Ġsl ump
uck it
ard rÃ¶m
iss ion
Ġallt ihop
Ġsig ns
De ar
Ġby tte
av isst
rig et
Ġun h
Ġgj ord
ug an
ĠY o
Ġpe e
ĠCh urch
ĠCh inese
Ġshould er
Ġhem s
Ġsv in
sp Ã¥r
ia c
ĠÃ¥ sikt
ĠÃ¥ klagaren
Ġ2 9
pt en
akt Ã¤r
akt ion
St and
Ġgl or
ĠSt anna
How ever
Ġsc ore
Ġsn ut
Ġperson ligt
ely n
Ġstr Ã¥l
Ġstr etch
ĠdÃ¶d ad
ĠtrÃ¤ na
Ġper manent
Ġfun ka
gg ie
Ġact ual
Ġdis co
Ġdis miss
Ġrun s
Ġbest Ã¤ll
Be ing
Ġfram Ã¥t
ĠsÃ¤ k
Ġins ult
ĠIn ga
ee z
Ġ3 2
Ġcomp an
AT H
Ġapp l
Ġend ast
igh s
ĠMar ch
Ġkont akta
Ã¶rd are
ĠhÃ¥ll et
Ġpres ence
Ġbeg Ã¤r
Ġland s
Ġcomm itted
Ġgre w
OR T
Ġdeal er
ĠsÃ¶ kte
Ġry kte
Ġkoll at
Ġpolis er
Ġbar ns
Ġtest ify
Ġdef ense
Ġarbet s
Ġkr am
Ġspr Ã¤ng
stÃ¤ll ningen
Ġvikt igare
Ġpat tern
ĠDen nis
Ġhum Ã¶r
ĠfÃ¶rb l
Ġfre aking
Ġmess ages
Ġfakt um
Ġprote ction
stÃ¥ ende
Ġsol ved
Ġstopp ar
Ġlu ra
Ġfot o
Ġwin ter
Ġwin ner
bo x
Ġang Ã¥ende
Ġdep ends
ĠGr ant
Ġmod ern
Ġcor rupt
Ġskr att
Ġskr Ã¤mma
Ġidiot er
orter s
Ġinst all
Ġkra ften
Ġcur se
Ġfantast ic
Ġdest o
pro v
ĠPar ker
Tr ust
ĠdrÃ¶m mar
ĠlÃ¥g t
Ġgrand father
Ġpersonal ity
Ġsus p
omp any
Ġsell ing
Ġimag ination
ĠWH O
Ġexist erar
Ġbek ym
Ġjud g
Ġclos et
ĠPro fessor
Ġlead s
Ġherr n
Ġident ifier
Ġresult at
rop ri
ĠvÃ¤x a
ĠvÃ¤x te
ĠON E
Ġmemor ies
Ġfi ender
ĠfÃ¶rm odligen
osa ur
liv ia
Ġmain tain
Ġsqu ad
ĠrÃ¥ kar
Ad am
Ant ingen
Ġsand wich
ĠSw ed
Ġorig in
Ġspec if
Ġspec ific
Ġmotor cy
Ġtip s
ĠRuss ian
Ġment al
ĠfÃ¤rd ig
Ġble w
ĠÃ¶verle ver
Ġkvinn orna
Ġcast le
Jim my
Ġvac c
Ġaccep tera
ĠÃ¥ng ra
ĠComm ander
Ġaud ition
Ġphys ical
Ġdoc uments
Ġdubb el
ĠRod ney
Ġgum man
ĠslÃ¶s eri
Ġytter ligare
cra ft
ĠCour t
Ġreact ion
Rich ard
Ġast ron
Ġtoal etten
Ġeftermidd ag
Ġsyst rar
ĠbekrÃ¤ ft
Ġstyck en
Ġmult ip
Ġyng re
Ġstann ade
ĠTIM E
Ġtong ue
Ġmedborg are
Ġmagaz ine
Ġlon ely
Ġtele vision
ĠSatur day
Ġgorge ous
ĠAven ue
Ġperforman ce
ĠbrÃ¥tt om
1 00
2 3
4 7
A pparently
B A
B el
C lar
F el
F org
G er
H and
I dag
L ady
L ife
M ag
M ur
M il
M ight
M ac
N ah
P e
P ull
R Ã¤tt
S Ã¥n
S ju
S ix
U s
b is
b ly
b Ã¥t
c urity
f ore
f ied
g Ã¤r
h es
h jÃ¤l
l ska
m id
m aren
n are
n ik
o ard
p oint
t le
y o
Ġ )
Ġ âĢĲ
Ġ Ãĸver
Ġt Ã¤ck
Ġt iny
Ġs ly
Ġa unt
Ġd a
Ġh Ã¤kt
Ã¤ sk
Ġm ic
Ġm elt
Ġm akten
Ġm ardrÃ¶m
ou ston
et en
Ġf iende
Ã¥ la
Ġb at
Ġb ens
Ġw ard
Ġw ide
Ġw ins
it ar
it an
Ġv en
Ġg ate
Ġp ant
Ġn a
Ġn av
Ġl app
Ġl Ã¥nga
Ġl Ã¥dan
Ġo ption
Ġin led
ed ay
ed ro
Ġc ure
Ġc andid
Ġto ast
ad ed
Ġj e
ĠÃ¤r a
te ll
te le
ill ed
ill ance
as in
as per
Ġu rsÃ¤kta
el o
el ar
ot i
ot ing
ot ic
ve illance
al et
al ph
Ġr andom
ĠfÃ¶r lo
ĠfÃ¶r del
ut y
Ġsk ip
Ġha unt
ra el
ĠS andy
Ġis ol
Ġre li
Ġre jÃ¤l
ur ice
Ġfor th
Ġan ony
Ġhe av
Ġli p
all eng
ĠM itt
ĠM ath
ĠM aster
Ã¥r d
Ġde ck
ĠH ade
ĠH ank
Ġmy nd
Ġsh adow
Ġkn iven
ĠA c
ĠD ark
Ġ- ...
Ġvi ctory
ĠC amp
ĠB etty
ly ing
Ã¤l s
Ġtr Ã¥d
Ġav st
Ġav stÃ¥nd
ĠT erry
ĠG il
ĠG lÃ¶m
ĠN ight
th an
ĠL and
ĠL atin
ĠO ld
ĠO CH
ĠO fficer
ĠP enny
Ġvill kor
ff Ã¤r
ĠF E
ĠF rÃ¥n
ĠF eder
od ge
Ġch ain
Ã¥g as
ist erna
ĠK arl
Ġor ange
ĠÃ¶ k
ĠE st
ĠE ve
Ġhel ik
end Ã¶r
Ġbr itt
if iera
ĠW ednesday
Ġsl ott
uck ers
ard o
Ġback up
Ġgu aran
In gent
ft on
ĠdÃ¶ ende
av in
ure au
Ġunder hÃ¥ll
Ġsomet ime
Ġun it
Ġhow ever
Ġlet ade
ĠfÃ¶rs lag
Ġtalk s
Ġpe kar
Ġtv Ã¤tta
ci es
ĠCh elsea
Ġtid er
ĠU pp
St an
Ġsak nas
Ġhelp s
Ġte ar
Ġfl ower
Ġfl owers
Ġel ement
ond ay
Ġperson ligen
Ġperson lighet
Ġsy ns
Ġpol are
sl in
sl aget
Ġbad ly
ru it
ru kt
Ġfar vÃ¤l
Ġslut at
Ġcl in
ĠTh ink
ann on
Ġdis cipl
Ġtra ffic
Ġtra uma
var o
Ġcou ch
ĠmÃ¥n aden
Ġph ones
ok rat
Ġtj ock
Ġann oy
els on
Ġtri cks
ĠlÃ¤ kar
Ġdri va
Ġinf o
ĠkÃ¶ p
ĠkÃ¶ pt
Ġtyck a
Ġtyck s
ĠMar garet
Ġhopp ade
ĠlÃ¥ da
Ġremember ed
Ġlik nande
Ġgra ve
Ġbeg ins
ĠÃ¤nd a
Ġcr ash
Ġskri vit
AR K
Ġmet al
Ġmost ly
Ġinter nal
ĠrÃ¶ tt
ĠrÃ¶ rel
ĠTHE M
Ġkun skap
Ġry kt
Ġstand ard
TH ER
ĠBe h
Ġsw allow
rev or
ĠÃ¥ter upp
Good bye
Ġconf er
Ġleg at
cle ar
Ġhurt ing
ĠSp ock
ĠfÃ¶re sl
Re ady
Jo ey
Ġsing ing
Ġsing el
Ġaw ake
ĠlÃ¶ st
Ġtrust ed
Ġhat ade
Ġbeaut y
Ser iously
Ġvap nen
Ġru de
Ġforg iven
Ġarg ument
ĠFrank ie
ĠFrank rike
Ġskr attar
Ġskr Ã¤mmer
Ġkomp licer
Ġsat ell
Ġuppt Ã¤ckt
ES S
ĠmÃ¤r ker
iam ond
Ġsvar et
pect or
Ġbott les
ĠFor ce
Gr and
ĠkÃ¤rlek s
Ġpur ch
ĠCl ay
ĠCl int
Ġinsp ired
Ġlev els
ĠSer vice
Ġant i
Ġvak nade
Ġbreat hing
FÃ¶rs Ã¶ker
Would n
ĠSch ool
Ġflytt at
Ġvitt nes
ĠEl vis
Ġprison ers
Ġtreat ed
ĠmÃ¶r da
Ġfell as
Ġjump ed
ĠTy sk
ĠPol ice
Ġtank en
Ġcook ing
ĠnÃ¶j e
Ġban an
imp son
Ġamer ikanska
ĠFre ddy
Ġtick et
Ġenter tain
Ġgold en
Char les
Ġtving a
Ġtving ade
Ġamb ul
Ġerbjud er
ĠJeff erson
Ġaccept ed
ĠsÃ¶t nos
ĠCo ast
ĠÃ¥tervÃ¤nd er
Ġelect ric
sn itt
ĠSher iff
Ġscream ing
Ġko ka
Ġknock ed
Rob ert
Ġvux na
Ġsamarbet ar
Ġgard en
Ġmyster y
Ġcirc um
su it
Ġstry k
ĠVer onica
ĠmÃ¤rk ligt
gru pp
Ġgrad u
ĠBarn es
Ġadop t
Tw enty
Ġbetray ed
Ġquar ter
ĠhÃ¤ft igt
ĠAnton io
Ġtherap y
Ġbib liote
Ġtol v
ĠgrÃ¤n sen
Ġbete ende
ĠvÃ¤ls ig
Ġmiljard er
Ġkyck ling
Ġolag ligt
ĠDire ctor
ĠFace book
ĠSeb astian
Ġconse qu
Ġreput ation
Ingent ing
1 7
2 7
A sh
B ak
B Ã¤st
B oss
C C
D rop
E G
E asy
E ither
F red
F int
F ather
G onna
I gÃ¥r
K ate
K onst
M A
M O
M ot
M Ã¤nnisk
P ick
P erson
R es
R ick
S A
S U
T T
T al
T ala
U E
W r
a ver
b u
j t
j un
k la
m arna
p ass
p erson
r ater
t ur
u v
u li
v iously
w ing
z on
Ġ Â
Ġt ent
Ġt end
Ġt iss
Ġt ugg
Ġt ied
Ġs or
er ed
Ġd im
Ġd jÃ¤vul
Ġh Ã¤n
Ġh ockey
en ix
Ã¤ da
ar ly
ar ily
Ġm ir
an c
Ġth ief
Ġf as
Ġf ab
Ġf ence
Ġf lock
Ġb ot
Ġb itt
Ġb ones
Ġw ings
Ġw olf
Ġw reck
at isk
Ã¶ gen
Ã¶ var
or er
Ġv o
Ġv Ã¤nde
Ġg all
Ġg ap
ag ent
ag ine
st ig
st ill
Ġp iano
ig o
Ġn ick
Ġn Ã¶rd
Ġl arm
Ġk od
Ġo xy
Ġin ner
ed ic
Ġto a
Ġto ss
Ġj ung
ch ed
te mber
el ia
Ġdet on
ot en
Ġdu st
Ġbe und
Ġbe vak
Ġr ust
Ġr ack
Ġr ast
Ġr ange
ĠfÃ¶r a
ay la
le en
Ġit u
Ġst Ã¤nd
Ġst yle
Ġe con
Ġsk v
Ġsk ar
Ġsk ith
Ġsk Ã¤ra
Ġsom maren
Ġme chan
ra pp
ĠS ing
ĠS ix
ĠS asha
ĠS impson
Ġan k
Ġan ar
ro st
ro ke
Ġli ber
Ġdo tt
Ġwe st
Ġwe ed
ĠM eg
ĠM uld
ĠM iles
ĠH am
ĠH ome
ĠH ud
ir al
Ġfr iv
Ġsh ark
ĠA k
ĠA st
ĠA pril
ĠD AY
ĠD erek
ss a
ĠC O
ĠC and
ĠC ard
ĠC ross
ĠC indy
ett i
un i
un s
sk Ã¶ter
ct ic
Ġtr Ã¶
Ġtr Ã¶ja
Ġden y
ĠT u
ĠT ry
ĠG re
ĠG al
ĠN y
ĠN apoleon
us a
ĠL eg
ĠL ester
ĠJ asÃ¥
ĠJ esse
ic ing
ic les
Ġso vit
Ġso cker
ĠP ost
Ġman ip
Ġman aged
ĠF at
ĠF ast
ĠF itz
em ents
Ġsp ara
Ġch uck
Ġch alleng
Ġut press
ul ate
ĠR ome
ĠR ub
ĠR ey
ie ve
ta v
Ġfin an
Ġhim mel
ĠK id
ĠK ong
ĠK ings
ĠK urt
Ġpl Ã¥n
Ġpl ate
ĠE s
ĠV ita
ab les
Ġlo k
Ġpro se
Ġpro vid
Ġpro ceed
Ġsu cks
Ġpr Ã¤st
Ġupp re
Ġupp le
he y
ge on
ej en
Ã¤ll an
ĠW on
Ġex cellent
Ġsl av
ĠnÃ¤r m
est en
iv an
ass er
qu es
ĠÃ¶ver ste
Ġbra ins
Ġgr Ã¤t
Ġby n
ase y
Ja pp
Ġhand la
lo se
All var
ik es
Ġpre vent
Ġdr uckit
Ġsm uts
ĠvÃ¤n nen
Ġtv Ã¤rt
SÃ¥ na
ny gga
ĠgÃ¥r den
Ġpo Ã¤ngen
ĠÃ¥ kt
Ġ2 6
ect ion
Ġdag arna
St Ã¤ng
Ġber g
Ġsak erna
Ġhitt ades
Hur ry
Ġmor al
ĠSt ay
nar rator
Ġkl in
Ġsc an
Ġbef inner
sl an
sl ut
Ġplan erat
old s
ĠrÃ¤tt igheter
ĠrÃ¤tt visa
cc er
gg y
IN E
ret a
ring en
ren e
blem et
Ã¶j er
Ġfa ctory
ĠsÃ¤ s
Ġins ats
Ġrem ote
Ġrem oved
Ġtre es
Ġtre asure
Ġge ar
Ġ3 7
ĠSh h
AT E
Ġrep ar
Ġsupp ly
Ġrec all
Ġbro der
Ġsett led
Ġsju ka
Vill e
ĠlÃ¤g e
Ġcra w
vÃ¤r der
vÃ¤r lden
Ġklar at
del ning
Ch uck
Ch ris
Ġsna p
by gg
Ġreg ister
Ġcomm ent
Ġgre jen
ĠrÃ¶ k
ĠhjÃ¤r n
ĠhjÃ¤r tan
Ġteam et
Se x
Se ven
ĠIs n
ĠhÃ¤m nd
ĠEn terprise
Ġbry dde
Ġval u
Ġkr on
Ġkr it
Ġob s
olog ical
Or d
Ġskick at
Ġpat et
band et
Ġfem te
ĠvÃ¤ ska
Ġdec ent
Ġmag net
Ġconf used
Ġskad or
Ġhigh ly
Ġrel ated
Any body
Ġpoj karna
Ġdom in
ĠhÃ¶ ga
Ġrad ar
Ġprof il
Jo e
Ġhat a
Ġpub lish
ekt Ã¶r
Ġben et
ĠfÃ¶rv and
Ġung arna
Ġ15 0
Ġsim ilar
ĠUn ivers
Ġkon k
âĢĲ âĢĲ
ĠHer r
ĠÃ¶nsk an
ĠrÃ¶r de
fall et
Ġpur se
Ġpack age
Ġship s
Ġcir cle
Bl ack
Ġlev t
omp son
entle men
Ġvide os
Ġpop ular
rik es
Ġvitt na
Ġvitt ne
Ġtreat ment
Ġrob ber
Ġeg endom
Ġbygg nad
Ġbek ant
ĠmÃ¶r kt
oe be
Ġfair y
Ġjump ing
Ġpark ing
Ġpris oner
Ġpan ic
Ġfail ure
ĠOn ly
Ġthreat ened
Ġkar aktÃ¤r
fy ing
Tom orrow
gre j
Ġsteal ing
Ġsearch ing
ĠHel p
ĠfrÃ¤m st
ĠstjÃ¤r na
Ġrema ins
Ġimm ig
Ġimm un
Ġbal ance
ĠEvery thing
Ġscrew ed
Ġsuffer ing
Ġsuffer ed
ĠmÃ¶jlighet en
Ġexam en
Ġtit le
ĠWal ter
Ġvol unte
Ġrequest ed
Ġgiss lan
Ġspar ka
Ġboll en
Ġprin cip
Ġsamarbet a
ĠlÃ¤gen heten
Ġpul se
Ġconvin ced
spl ats
Ġimpro vis
ĠRoy al
ĠKat ie
ĠanstÃ¤ll da
ĠavslÃ¶j ar
Ġtviv lar
Ġdesper ate
Ã³ n
spr ung
Ġdivor ced
Ġmode ll
Red o
Ġsid or
Je ff
Ġpred ict
ĠglÃ¤d je
Ġdeter min
Ġabandon ed
ĠItal ian
Ġfif th
Ġdelic ious
Ġlib rary
Ġengel ska
Ġtju v
Ġadvent ure
Ġutby te
ĠnÃ¤rma ste
Ġresour ces
Ġles b
HÃ¶rd u
adill ac
Ġjudg ment
mid t
, ...
1 6
4 5
A ss
A sk
B or
C o
C or
C omm
D E
F BI
G lad
H jÃ¤l
H ope
H uset
I nd
K alla
L ik
L Ã¤get
M Y
N ic
R Y
S Ã¤rskilt
b age
b orn
c en
f isk
f ish
h jÃ¤r
h uvud
i i
j o
j as
j ul
l Ã¶
m un
m ine
n ity
p he
p lace
r Ã¥k
r Ã¥gas
s idan
u f
v itt
v atten
w oo
w oman
z ard
Ġt utt
in as
in ter
Ġs narare
er ator
Ġa pt
Ġh iss
en o
Ġm ath
Ġth or
Ġf u
Ġf la
Ġf Ã¥nga
Ġb ul
Ġb ars
Ġb aj
Ġb acon
Ġw asting
Ã¶ ll
or able
it eter
Ġv ess
Ġv Ã¤cker
Ġv egan
Ġv inden
Ġg ig
Ġg ala
Ġg Ã¤ster
ing arna
st ic
st yr
Ġy tt
Ġy ard
ig ned
Ġn igga
Ġl ap
Ġk ust
Ġk alk
Ġk ris
Ġk nack
Ġk akor
Ġo syn
Ġin j
Ġin kl
Ġc ri
Ġc lar
Ġc ris
Ġto ols
ĠI ris
Ġj et
Ġj okes
es ley
Ġatt ach
el ves
ow een
id el
Ġdu ss
al i
Ġbe ast
Ġbe gg
Ġbe grÃ¤ns
Ġbe vÃ¤p
Ġinte gr
Ġr idd
Ġr ubb
Ġst all
Ġst Ã¤mma
ut an
Ġsk og
Ġsk ild
Ġsom eday
Ġha v
ra her
Ã¤n kt
Ã¤n ns
ĠpÃ¥ stÃ¥
ĠpÃ¥ verk
ĠS qu
Ġre ject
ade my
and ler
ro d
Ġli ck
Ġmed ium
ent on
ĠH os
ĠH amm
ĠH unter
ir urg
Ġfr is
Ġfr anska
ĠA ma
ĠA ugust
ĠD U
ĠC y
ĠC ub
ĠC ooper
ĠC ollins
ĠB uck
ri al
ri sten
Ġknow ledge
un na
sk ont
ack a
Ġav s
Ġav bry
ĠT ILL
ĠG ri
ĠG us
ĠG PS
ĠG oogle
ĠN ash
th a
th et
th is
ĠL as
ĠL ane
ĠL eave
ĠL incoln
li p
ĠJ une
Ġab oard
ĠO livia
ic ia
ĠP arty
ĠP apa
Ġvill ig
ell ing
ĠF e
ĠF all
ĠF ive
Ġout fit
ort on
em an
ers hip
od ka
Ġch at
Ġch ip
Ġch ances
Ġch amber
Ġut fÃ¶r
Ġut fÃ¶ra
Ġut mÃ¤rkt
ĠR ing
ĠR uth
ĠR oss
Ġher regud
Ġkomm issar
ast ed
ĠK Ã¤nner
Ġpl ain
Ġor kar
Ġat mos
ĠE sc
ĠV Ã¤l
ĠmÃ¥ la
Ġbl ink
Ġbl uff
Ġpro ffs
Ġpr ints
au de
ans chen
Ġupp fÃ¶r
Ġar mar
Ġsl Ã¤
Ġas ham
ÃĦ t
ÃĦ nda
Ġsee k
iv Ã¥
Ġoff ren
Ġsig nat
qu ar
So v
ord et
Ġgr ader
Ġwhen ever
Ġunder wear
Ġun iform
ber ed
Ġdr Ã¤kt
Ġsm oking
Ġtv ung
En ough
isk y
ĠkÃ¤n nas
Ġsv Ã¤l
nt ligen
ĠU N
Ġim pa
St art
ĠvÃ¤l komna
Ġhitt ing
ĠNo ah
Ġgl ob
ĠfÃ¶ res
ĠfÃ¶ nster
Ġmu se
ĠSt ick
Ġfl ash
Ġfl esh
Ġfl aska
ress ed
Ġel eg
Ġel den
Ġsn uten
Ġbef Ã¤l
Ġperson liga
ĠÃ¥r s
Ġstr anger
ĠdÃ¶d ades
sl agen
Ġplan erar
Ġfort une
Ġask s
Ġfar liga
Ġmiss hand
Ġnew sp
Ġcl imb
ng el
Ġtra pped
var ter
ĠVad Ã¥
Ġgen i
Ġbest Ã¤mde
Ġfram t
Ġass oci
Ġshow en
ĠDe ath
Ġpar ent
Ġty sta
eg or
OU GH
Ġvil ar
Ġvil se
Ġown ed
ĠSh a
Ġfall s
Ġste pped
ĠHar ris
Ãħ t
Ġfolk et
onst ru
Ġend ing
Ġsam la
rÃ¤ k
rÃ¤ dd
Ġsur veillance
ĠMar ie
Ġmar ker
wh o
Ã¥l en
Ã¥l et
Ġhal sen
Ġmon itor
oc a
ĠÃ¤nd rade
Ġur sprung
ĠlÃ¤ng s
Ġcr ush
Ġroom s
Ġreg ard
Ġreg iss
ĠAl aska
ĠberÃ¤tt else
unt s
Ġtom t
ĠkÃ¤r leken
IS H
Ġwatch ed
ĠsÃ¶ der
ĠrÃ¤dd ar
ote l
ĠhÃ¤m tade
cept ion
Ġkr asch
Ġstra w
Ġspr ider
Ġsw ing
Ġsw imm
ĠvÃ¤ skan
Ġdec or
SÃ¤g er
ĠÃ¥ter h
ĠfÃ¶rb jud
ĠRe becca
ĠSp ace
Any one
Ġsol ve
Ġbas ement
Ġhands ome
Ġchar ity
Ġrad i
ĠSk ulle
Ġfour th
Ġcut s
Ġadv ance
Ġadv antage
Ġheart s
ĠlÃ¶ fte
Ġtrans p
Ġquestion ing
Ġbevis ar
ĠbehÃ¶v t
Ġkropp ar
Ġpress en
IT Y
ĠmÃ¶rd ad
Ġeat en
Ġoffer ing
Ġsnabb are
ĠLook s
ĠJu lie
Ġlj uset
ĠPh ill
Ġsystem et
komm a
Ġlate st
Mar c
Ġtelef ons
Ġdist ur
Ġfact s
AL K
Ġlad da
Ġscen ario
Ġrecord ing
ĠCol in
Ġless on
Ġz ero
Ġcir ka
Ġwind ows
ĠCon nor
Un fortunately
Ġrisk en
AM E
Ġant agligen
amb urg
ĠfÃ¶rf att
Ġkompis ar
ĠLa uren
Ġreport ed
arbet e
Ġlab or
Ġfunger a
Ġloc ated
ĠRo ad
Ġkopp la
Ġcost ume
com ing
ĠrÃ¤k nas
Ġdecis ions
Ġdej ta
Ġsmell s
Ġtapp at
Ġmask inen
fy ll
Ġlur ar
ĠBer Ã¤tta
Ġpret ending
ĠfÃ¶rtjÃ¤n ade
Hel vete
Ġfred ag
ĠfÃ¶rm Ã¥ga
ĠGer mans
Ġsil ent
Ġpract ically
Ġnyck larna
Ġuppdr aget
Ġcond itions
Ġspir its
Ġfill ed
Ġneg ative
Ġerbjud ande
Ġhero in
ĠsvÃ¥r are
Ġmilit Ã¤r
Ġrece ived
ĠmisstÃ¤n kte
Ġcow boy
Ġkyss a
rÃ¤d are
Ġbase ball
Ġvac ation
Ġskil smÃ¤ss
ĠAny thing
Ġguest s
Sy nd
ÃĦlsk ar
Ġphys ically
Te am
Ġauthor ity
Ġbeb isen
ĠCra ig
ĠJon athan
Ġfac ility
Ġbasket ball
ĠklÃ¤n ningen
Ġlust igt
Ġosk uld
Ġrelig ion
ĠbrÃ¶st et
Ġtviv el
ĠfÃ¶rvir rad
Ġest ate
Ġerk Ã¤nner
Ġdyr t
Ġuppf ost
Ġadm itted
Ġromant ic
ĠtÃ¥g et
Juli a
Ġdiam ond
Ġdetal j
Ġbenef it
Ġfed eral
ĠSyd ney
Ġindust ry
Ġcreep y
bj Ã¶d
Ġinjur y
Ġhalvt imme
Ġkult ur
ĠLau ra
Ġbekv Ã¤m
Ġskum t
Other wise
Ton ight
Ġsitu ationen
Ġsve k
stjÃ¤r na
Ġparan oid
Ġveh icle
VÃ¤r lden
Ã¶jt n
Ġbokstav ligen
ĠIns pector
Ġhors es
Ġcompan ies
Ġbitt i
Ġasham ed
Ġtvung na
% .
2 1
5 5
A ns
A kta
B est
B oth
B Ã¥da
C alm
C arl
D A
D ar
D is
D own
D ER
E K
E O
E at
E li
F eel
G E
H A
H al
J ob
J Ã¤klar
K unde
L yck
M al
P D
P lan
R ock
S H
S itt
W ar
b in
b re
b lad
b ury
f i
f amil
f oot
g or
g ick
h attan
i ro
i ance
k ul
k Ã¤nn
l id
m us
m juk
o enix
p ed
s d
t v
v ide
Ã ł
Ġt Ã¶m
Ġt usan
Ġs ink
Ġs anna
Ġs lick
Ġs ides
er ob
Ġh ood
Ġh ip
Ã¤ ft
ar er
Ġm el
Ġm ort
Ġm ile
Ġm iste
Ġth in
ll or
Ġf ans
Ġf yr
Ġf akta
Ġf ashion
Ġb in
Ġb one
Ġb orgm
Ġw ore
Ġw ire
at us
at erna
at orn
Ġv on
Ġv ink
Ġv ans
Ġv ana
Ġv Ã¤cka
ing ham
ag le
st ers
st Ã¤ller
st ances
Ġp or
Ġp ara
Ġp od
Ġl ake
Ġl Ã¶rd
Ġl apt
Ġl aund
Ġk yl
Ġk ines
Ġk arl
Ġk aos
Ġin vis
ed i
Ġc ave
Ġto oth
Ġj oint
Ġj apan
ĠÃ¤r an
es a
as es
Ġatt end
el k
ot o
Ġinte l
Ġr ot
Ġr age
Ġr ang
Ġr Ã¥tt
am man
Ġst Ã¤da
Ġe k
ver nor
na st
ut iful
pp y
Ġsk en
Ġsk Ã¥p
Ġme al
Ġha bit
Det ective
ra h
ĠS K
ĠS ounds
ĠS atan
im i
im eter
im ony
se kven
oo s
Ġan cient
Ġli fet
Ġwe alth
ĠM em
ĠM ason
ĠM onday
Ã¥r ig
Ġde ce
Ġall ra
ĠH y
ĠH ope
ĠH IM
ĠH jÃ¤lp
ir med
Ġfr ag
Ġfr ig
Ġfr ust
Ġfr itt
Ġsh out
Ġsh ared
ĠA V
ĠA w
ĠA na
ĠA fter
ĠA aron
ĠD A
ĠD em
ĠD iv
Ġgo in
Ġom stÃ¤nd
ĠC ait
ĠC up
ĠC atherine
ĠC adillac
ĠB re
ĠB ook
ĠB ab
ĠB rig
ĠB ang
ĠB ee
ĠB uddy
ol and
un o
sk omm
sk alle
ack er
Ġmin i
Ġmin or
kt iga
Ġtr amp
Ġav vis
Ġav lÃ¤g
ea ven
ĠT an
ĠT ro
ĠT urn
ĠT odd
ĠG host
ĠN ob
ĠN ah
ĠL ut
ĠL ind
ĠL ang
ĠL yssna
li ed
ĠJ ennifer
ĠO z
Ġso ccer
ĠP o
ĠP erry
ĠP edro
ell s
ĠF A
ĠF ri
ĠF ire
Ġsa uce
ry cka
em y
ĠgÃ¶r as
Ġut rymm
ul u
ĠR emember
ĠR elax
ook ie
Ġfin ans
Ġkomm unic
ast es
ĠK laus
ĠE va
ĠV Ã¥r
ĠV alley
ab ility
Ġlo an
Ġlo vers
Ġlo kal
Ġpro st
Ġupp gifter
ej s
Ġbr Ã¶d
Ġing Ã¥r
Ġar k
Ġar rog
Ġar rester
ĠW y
ĠW ere
ĠW ant
ger na
Ġnu clear
Ġle k
Ġgu ilt
est a
Ġver ka
Ġoff ense
Ġsig ner
Ġbeh ov
ank en
So on
Ġcon test
Ġcon stant
Ġdem and
Ġbo ots
ens en
ĠÃ¶ver tal
Ġgr ant
Ġby xor
ĠdÃ¶ mer
Ġig n
lar ar
ÃĦr ligt
Ġun gen
Ġsm y
Ġsm ar
Ġsm Ã¤l
Ġsm aka
Ġsm akar
be k
ĠY e
Ġkill s
opp ed
Ġvis at
Ġ2 000
Ġid iots
Ġefter Ã¥t
St Ã¥
St ack
St oppa
Ġfuck er
Ġqu ality
Ġte or
Ġte ch
ĠVi v
Ġmer cy
Ġfl Ã¶g
ress ing
Ġkl ag
Ġkl Ã¤tt
Ġfamil je
Ġmo le
ĠhÃ¶r net
Ġsn ur
Ġbef ord
ĠÃ¥r atal
Ġdi agn
amm ed
Ġother wise
Ġstart ar
Ġfort are
ru p
Ġmiss fÃ¶r
ĠvÃ¤g g
ĠvÃ¤g er
ĠrÃ¤tt en
ĠTh ompson
Ġact ive
ute s
Ġbarn barn
Ġring ing
bb ar
Ġtra cks
Look ing
kl Ã¤der
Ġcar ed
Ġcar ried
Ġass ign
ĠJa ha
land et
ĠmÃ¥n en
ĠIn stag
oth y
Ã© s
ok ed
up s
Ġann ivers
Ġwait ed
Ġbelie ves
jÃ¤r n
Ġcare fully
Ġbes att
ĠSh ar
ĠSh ow
ĠlÃ¤ pp
Ġfall en
Ġord en
Ġord fÃ¶rande
Ġcomp rom
Ġcour age
Ġstay s
Ġrep eat
Ã¶d ra
lor ia
Ġsky tt
ĠlÃ¥t s
Ġsam t
Ġsam lar
Ġsam vete
Ġres ur
ĠMar io
gr und
aw son
Ġma j
tro ligt
Ġdes p
Ġton Ã¥ring
Ġreg istr
Ġskri ka
Ġskri ker
ail y
ĠAl ph
ĠAl right
ĠrÃ¶ ka
ĠFÃ¶r stÃ¥r
Ġkoll ega
Ġkvar ter
Ġdef in
ĠMa jor
olog ist
Ġbety da
ĠAr my
ĠstÃ¶r a
Ġskad as
Ġskad ade
Al an
ain ed
Ġflick orna
Ġpoj k
Ġbas ic
Ġreason able
Ġposs ibility
Ġrad ion
eral d
ĠjÃ¤tt e
Ġforts atte
Ġbor ed
ĠCan ada
Ġdy g
tid en
bo ken
ĠfÃ¶rv Ã¤ntar
amer on
ĠAmer ika
Ġcop ies
Ġyours elves
Ġtouch ing
Ġmod ig
Ġsnabb a
kn own
ĠmÃ¤r ke
ĠmÃ¤r kt
Ġnorm ally
Ġlad d
ĠPr in
AD E
ĠMin ister
Ġadd ict
Ġavsl Ã¶ja
Ġcent ury
ĠhÃ¥r d
ĠhÃ¥r et
ĠdrÃ¶m mer
Ġeng aged
ĠCl ass
ipp a
Ġche at
Ġz one
Ġsus pic
Ġkap abel
rav o
Ġblack mail
Le o
Ġind ic
Ġintress erade
Ġband et
Per fect
Ġmad am
Ġpop ulation
Ġsek ret
Ġbygg t
Ġclos ing
Ġjo ined
Ġref use
Ġfle w
Ġgri pa
sch ef
Ġkost ym
Ġprogr ammet
Ġpark en
ĠTy ler
urs day
ĠNe il
Upp fattat
ĠVil ket
Ġcreat ures
Ġdark ness
ÃŃ as
Ġpleas ed
ĠHA PP
Ġunivers ity
Pl ay
gre es
gre jen
zz le
ĠtrÃ¤n ar
Ġsil ence
ivet vis
ĠsÃ¥d ana
Ġutt al
ĠClar ke
FF FF
uper t
Ġenter ing
Dan ny
ĠCr ane
ĠsmÃ¤r t
Ġbutt on
Ġlim it
Qu ick
Ġneg oti
Ġbegrav ning
Ġbegrav ningen
ĠfÃ¶rlÃ¥t a
Gra b
Ġenem ies
ĠtillfÃ¤ll et
Ġking dom
Ġrepresent erar
mÃ¤n nen
Ġfal se
ĠBa iley
Ġtechn ology
atal ie
ĠmÃ¤nsk liga
ĠMars hall
Ġbow ling
ĠSon ny
Ġborrow ed
ĠFl ash
ĠTw itter
Ġmisslyck as
Ġbeb is
Ġocc ur
Ġskoj ar
Ġabs or
Ġsats a
ĠÃ¶verty ga
Ġcult ure
Ġstrateg i
ĠLO OK
ĠlÃ¤sk igt
Fly tta
ĠfÃ¥n ge
Ġblomm or
ĠsvÃ¤rd et
ĠFrancis co
Ġtunn el
chef en
Ġartik el
Ġdetal jer
ĠBla ir
Ġlys ande
ĠdÃ¶l ja
ĠNic ole
ĠEle anor
Ġsym pt
ĠtrÃ¤dgÃ¥r d
ĠavgÃ¶r ande
Ġfore ign
Ġhust ru
Ġconstru ction
Ġappoint ment
ĠSpan ish
Acc ording
Ġsked de
Ġutbild ning
Ġfruktans vÃ¤rt
Ġgem ens
ĠPre cis
ĠnÃ¶dvÃ¤nd igt
ĠRog ers
Ġkampan j
ĠSep tember
ĠskrÃ¤m mande
Ġoppos ite
Ġexh ib
Ġuppenbar ligen
Ġrehe ars
Ġappl Ã¥d
Ġconfer ence
ĠTysk land
Ġconsequ ences
Ġoxy gen
Allvar ligt
ĠtvÃ¤rt om
Ġswimm ing
Ġlaund ry
, ..
2 5
A gain
B as
B ea
B rian
B obby
D amon
E ach
E ric
E ddie
E CT
F y
F ader
J ames
J amie
K on
K im
K vin
L ord
L ee
L ucky
M ig
M ind
O per
O liver
P ress
P rev
R on
R os
S end
S HE
S imon
T io
T ING
U se
a ins
c ake
d amn
f a
f el
g ard
g ins
g las
i ellt
j in
j amin
k Ã¤r
k as
k varter
l ers
m ad
m ony
p in
p ot
p ir
p ost
r ated
r ida
t or
t are
t io
u ing
u gen
u als
v ade
w ife
z ie
z zy
Ġ ÃĦven
Ġt one
Ġt Ã¥rt
Ġs ack
Ġs ven
Ġs amm
Ġs Ã¤rsk
er are
er cise
Ġd edic
Ġh ink
Ġh atch
Ġh ates
Ġh oly
ar ens
ar ies
Ġm Ã¶tt
Ġm ommy
an gen
Ġth roat
Ġf ra
Ġf ej
Ġb is
Ġb are
Ġb um
Ġb Ã¶g
Ġw ise
at ers
it ors
om ic
Ġv odka
Ġg az
ag na
ag ers
st ol
st ock
Ġp y
Ġp it
Ġp Ã¤r
Ġp oll
Ġl ill
Ġl ille
Ġk u
Ġk Ã¤lla
Ġk rist
Ġk urs
Ġk redit
Ġk ongress
is ode
Ġin re
Ġin ject
Ġc ert
Ġj akt
ch a
as ier
el ef
Ġdu ck
al ien
Ġr i
Ġr op
Ġr ul
Ġr iv
Ġr ise
Ġr ush
ĠfÃ¶r sk
le g
Ġi lska
ere my
Ġst ood
Ġst Ã¶tt
Ġe kon
ver ket
Ġand ras
Ġsk orna
Ġsk ills
Ġme x
Ġme kan
ra ft
Ã¤n ka
Ġvar ning
ĠS C
ĠS i
ĠS v
ĠS ab
ĠS ister
ĠS eth
Ġre ck
ur d
Ġfor ces
Ġan ty
Ġli ar
ĠM U
ĠM os
ĠM IN
ĠM oss
ĠM AKE
Ã¥r iga
Ġde grees
ĠH u
ĠH as
ĠH ell
ĠH em
ĠH aven
ĠH appy
Ġfr id
Ġfr us
Ġmy nt
Ġsh ake
Ġkn ip
Ġkn uff
ĠA M
ĠA le
ĠA ctually
ĠA udrey
ĠD ist
ĠC ab
ĠC OM
ĠC ALL
ĠB all
ĠB ible
ĠB ert
ĠB ravo
Ġse ction
Ġse aled
ri et
ri ct
ol ic
un ger
de st
Ġne ut
Ġne phe
sk en
Ġmin us
kt yg
Ġtr on
Du m
Ġav sky
Ġav sikt
ĠT oo
ĠT ina
ĠT ues
ĠT revor
Ġcan cel
ĠG l
ĠG all
ĠG ab
ĠN ar
ĠN Ã¥t
ĠN eg
ĠL ong
ĠL ance
ĠL ana
ĠL ena
ĠL iam
art en
ĠO s
ĠO ff
ĠP R
ĠP lan
ĠP RO
ĠP lay
ĠF il
ĠF ore
ĠF la
ĠF amil
ĠF olk
ĠF air
em at
Ġsp ill
Ġsp ott
od a
um es
um my
Ġch ill
Ġch auff
ul erar
ĠR and
ĠR oman
ie ce
ne w
ta il
Ġkomm ent
ist le
ĠK night
Ġpl Ã¥g
Ġpl ugg
Ġpl astic
ĠE nd
ĠE van
ĠE arl
ĠE VER
ĠV arsÃ¥god
Ġbl own
Ġlo va
Ġlo ser
ap ers
Ġsu ff
Ġupp d
Ġupp ly
Ġif rÃ¥gas
Ġany time
Ã¤m par
Ġing red
Ġshe ep
ĠW endy
Ġex ha
Ġex ercise
Ġle ende
Ġle arning
ÃĦ ntligen
der ick
Ġbeh Ã¥ller
qu ila
No g
ĠÃ¶ver dri
Ġgr is
Ġgr ade
Ġgr anne
Ġfe g
Ġta v
Ġint im
Ġint rÃ¤ff
Ġhand ling
Ġhand du
FÃ¶r b
FÃ¶r resten
Ġser ved
Ġpre v
Ġpre mi
Ġwork ers
Ġwork sh
Ġlet at
Ġdr as
Ġdown town
Ġsm itt
ĠY EAH
Ġtv ingar
ci ence
ĠCh o
ĠCh ina
opp er
va cy
Ġam p
sp lan
og s
Ġdag ens
ont rol
ree k
Ġqu ote
ĠWh oo
ach e
Ġte ars
Do ktor
Ġel ak
ving a
Ġpart i
Ġsy fte
amm are
Ġplan erade
Ġbad rummet
Ġmiss a
Ġner d
Ġcl oud
gg an
Ġkid na
ever ly
Ġtra ce
Ã¶j d
Ã¶j lig
Ġfa x
Ġgen et
Be en
kl am
Ġfram steg
eng ar
Ġverk ligt
ĠDe ad
Ġled ig
ĠSh awn
Ġem b
oy le
ĠAll en
Ġcomp lain
AN S
ĠHar per
ĠHar vey
ĠHar vard
Ġpass word
Ġsist one
Ġinf ly
ye ong
Ġsky lla
Ġsky ldiga
Ġapp et
ĠlÃ¥t en
rÃ¤ de
rÃ¤ der
Ġmom ents
ĠMar g
ĠMar ga
ĠMar ge
Ġcle ared
ĠSo v
ĠWell s
mm et
ĠjÃ¤v lar
Ġdes ert
Ġbeg ick
min ist
Ġland ing
ĠBr on
Ġpri est
Ġpri ze
Ġev al
ah n
Ġmet ers
Ġinter rog
ĠrÃ¶ sta
Ġfix at
Ġfix ade
ĠkÃ¤r n
ĠHur ry
Ġbur g
Ġfy ller
ĠDon ald
Ġry ggs
Ġgod is
ĠZ ach
ĠNew s
Ġvin st
olog i
Ġ6 5
Ġpat rol
Ġpat rull
ĠAn nie
Ġac qu
Ġlyck ligt
Ġkonst ap
Ġconf ession
Ġconf idence
Ġconf irmed
Ġhot ar
Ġtjej erna
Ã¤k are
Ġkul or
Ã¶k ning
ĠfÃ¶re mÃ¥l
Ġsol id
Ġposs ess
ĠSk it
Ġclose st
ĠGe off
Ex actly
fer ens
Ġmass ive
Ġtrans plant
ĠAmer icans
ĠmÃ¶rd ades
ĠtjÃ¤n ade
Ġent r
lin jen
Ġrol iga
Ġinst inct
ĠfÃ¶rÃ¤nd rar
ĠfÃ¶rsv unnit
ape ut
ĠAd ams
Ġprotect ed
let on
Ġbud get
ĠBen n
ĠKe v
IC K
Ġclass es
roll en
ĠÃ¤g a
Ġbrott splatsen
Ġpack a
form ation
Ġkap it
agg ed
Ġfoot age
ĠMart y
Will iam
ogra fer
Ġhalv Ã¥r
ĠSch midt
Ġfund erar
Ġlab bet
ĠEl ena
Ġfunger ade
cri pt
ĠmÃ¶r ka
Ġwall et
Ġbomb en
com fort
Ġdeep er
for ce
ĠEx actly
Ġconne ct
Ġinvol ver
Ġextra ordin
Ġdiv ision
Ġpan el
Ġrequ ire
Ġrequ ires
Ġallvar lig
Ġspeci es
ĠMon ica
Ġorol iga
Ġfir ing
Ġfinger prints
osh i
Ġconsider ing
ĠBo oth
ĠGO OD
Ġpatient er
Ġrapp ort
Ġcook ies
Ġskall en
Ġpaper work
Ġkil omet
Ġstress ed
Che f
Ġutt ryck
Ġkung ar
Hopp a
Pr etty
Ġansvar ig
imin als
Ġarri ve
Ġprov ide
Ġbehand la
ĠsmÃ¤r tan
Ġtryck er
Ġsens itive
Ġed ge
Ġuppsk att
Ġpsych iat
Ġgry mt
Ġskill naden
ĠEvery one
abri ken
Ġkamer or
ĠsÃ¤ll an
ĠmisstÃ¤n kta
ĠSa int
plan et
ban an
Ġslag it
Ġreger ing
Ġknull a
Ġextre mt
Ġamerikan sk
Ġrapporter a
Ġaud ience
Ġdraw ing
Ġtekn ik
Ġgard erob
Ġimpro ve
giv are
ĠGeorg ia
Ġdesig ned
Ġparticular ly
ĠtÃ¥r ta
Ġrecept ion
ĠSteven s
Ġbecom ing
Ġutnytt ja
ĠfÃ¶rsÃ¤k ring
Ġavslut ar
hy th
Ġappear ance
Bo ys
ĠÃ¤m ne
Ġrac ing
ĠskÃ¤m tar
Ġcommunic ate
ĠDoes n
Ġcurr ent
ĠHaw ai
Ġtrapp an
Absol utely
Ġolyck an
Ġtalent ed
ĠMarc us
mask in
ĠNÃ¥g ra
ĠNik ki
ĠJess ica
Ġnj uta
bol aget
ĠFel ix
Ġanlit ade
usse ll
Ġrespek terar
jam as
ĠvÃ¥n ingen
Ġbuss en
CA USE
ln te
ĠLes lie
Ġinbjud an
Ġutre der
Ġdisg usting
Ġpins amt
Ġalb um
Ġdeli very
Ġaccompl ish
Ġsurround ed
Ġguaran tee
ĠstÃ¤nd igt
ĠHos pital
ĠfÃ¶res log
Ã¶jtn ant
Ġinvis ible
Ġassign ment
ĠInstag ram
Ġnephe w
ĠTues day
* *
. ?
2 8
4 2
A pp
A men
B C
B O
B lev
B ek
B Ã¶rja
C r
C al
C our
C ass
D C
D em
D ist
F O
F ollow
F attar
G EN
G entlemen
H um
I EN
J ake
J avisst
K ind
L Ã¤r
L uck
L ong
L iv
L Ã¥ng
L ita
O w
O troligt
P H
P R
P app
R o
S ub
S upp
T ri
T ryck
T oppen
V Ã¤nd
W AY
Y esterday
Y EAH
b ad
b ro
b ul
b ler
b elle
c ul
c ast
c ceed
d ligen
e ce
f Ã¤ll
f ree
g s
g Ã¶ren
h i
h oles
i y
j ob
k Ã¶r
k all
k opp
k Ã¶tt
m od
n el
p o
p os
p ool
p ower
r ett
t ies
u ary
v ill
v Ã¤ll
v ida
v okat
w on
w orld
Â ¤
Ã ¸
Ġt Ã¶r
Ġt usentals
Ġs ar
Ġs ession
Ġa h
Ġa id
Ġa ugust
Ġd er
Ġd Ã¤ck
Ġd ated
Ġd jung
Ġh id
Ġh orm
Ġh inna
en ne
Ã¤ ta
ar ka
ar ma
Ġm os
Ġm age
an while
Ġf ella
Ġf eder
Ġf etch
Ġf usk
Ġf ulf
Ã¥ lar
Ġb om
Ġb ug
Ġb rist
Ġb ugg
on ing
on era
Ġw ra
Ġw arned
at iskt
at oes
or f
or ing
or ies
Ġv Ã¤v
Ġv alt
Ġg at
Ġg rott
ing ton
st an
st ood
st aden
Ġp ry
Ġp our
Ġp likt
Ġn ord
Ġn acken
Ġn akna
Ġl t
Ġl Ã¤tta
Ġl aser
Ġk ond
Ġk ok
Ġk Ã¥l
Ġo er
Ġin e
Ġin it
Ġin her
Ġin lÃ¥
ed eral
Ġc e
Ġc ats
Ġc red
Ġc andy
Ġc ongratulations
Ġto wer
ad el
ĠI nt
ĠI sa
Ġj oking
el m
el ett
id ents
Ġbe ord
Ġen vis
Ġen klare
Ġr ar
Ġr os
ĠfÃ¶r de
ĠfÃ¶r ne
am tal
le ans
Ġit alien
Ġst ake
Ġst ream
Ġst Ã¤der
Ġst airs
Ġe arned
Ġsk al
Ġsk am
Ġsk ett
Ġsk ate
Ġsk Ã¥l
Ġsk atte
Ġsk itsnack
ĠpÃ¥ b
ĠS id
ĠS ea
ĠS ide
ĠS yl
Ġre view
Ġre bell
Ġre hab
im o
im ents
ur ry
oo ke
Ġan tal
Ġan teck
out her
ro ck
Ġli kt
Ġdo zen
ĠM ig
ĠM ah
ĠM IS
ĠM iller
Ġall ey
Ġall eg
ĠH ad
ĠH and
ĠH ong
ĠH oney
ĠH omer
ĠH ouston
ce st
ce ller
ak ers
ion e
ter ing
ter ad
Ġsh aring
Ġsh arp
Ġsh itty
Wh oo
ss p
Ġom gÃ¥ng
ĠC T
ĠC it
ĠC ath
ĠC OME
ĠB as
ĠB ud
ĠB ank
ĠB ets
ĠB anks
ĠB everly
Ġse min
ri en
ri or
ri ka
ol ine
ol ves
un ge
Ġne st
ly ss
ly mp
Ġmin nes
Ġtr Ã¥k
Ġtr Ã¶st
Ġtr ubbel
Ġav und
Ġav snitt
ea ch
ĠT ok
ĠT revligt
op en
op at
li sta
li cket
ĠJ oy
ste st
ĠO w
ĠO lymp
ĠP u
ĠP eng
ĠP ope
ĠP RE
ĠP OL
ĠP ablo
ff ekt
ĠF O
ĠF ick
ĠF ÃĸR
ĠF isher
Ġsa fer
ry cket
Ġska pat
Ġsp a
Ġsp in
Ġsp Ã¤r
Ġsp Ã¤n
Ġsp Ã¶k
Ġup d
Ġch asing
ka h
ka pten
Ġut rustning
ĠR Ã¶r
ĠR ic
ĠR aven
ĠR iley
ook s
And re
ne ath
ess orn
ĠK r
ĠK ill
ĠK olla
ĠK ai
ĠK atherine
ĠK irk
ĠÃ¶ gat
ĠV en
ĠV era
ud ge
Ġbl ond
Ġbl ah
Ġbl oke
ga cy
ob y
Ġlo ving
Ġsu cceed
Ġpr ide
ans on
ĠdÃ¤r ute
he st
Ġbr on
ĠW ind
ĠW ILL
und y
Ġsl ave
Ġback ground
Ġgu ide
Ġund ra
Ġallt fÃ¶r
Ġoff ent
Ġbeh alf
ass y
Ġcon c
Ġcon cent
Ġcon dom
In stead
own ed
Ġdem ons
Ġbo om
ord s
ĠÃ¶ver v
ĠÃ¶ver vÃ¤g
Ġgr en
Ġgr at
Ġgr ill
Ġbet er
Ġint r
Ġint ent
Ġint res
Ġun t
Ġser ies
Ġser ien
ik ter
Ġlet s
Ġdr ill
Ġdr ank
Ġsm al
ĠY E
ĠY ear
app ar
Ġkill ers
ĠvÃ¤n lig
ĠvÃ¤n skap
ĠCh ase
Ã¤ng t
En joy
Ġliv stid
Ġtid ning
ja h
Ġsv ika
sp ace
ish a
ont in
ĠU l
ĠU p
St ra
ub ble
Ġber ed
ĠvÃ¤l kommen
ĠfÃ¶ da
ĠfÃ¶ tter
ske pp
ĠSt u
ĠSt ory
Ġmot ion
Ġte quila
Ġel ever
Ġkl ant
Ġmo ttag
iz ard
iz zy
ang ing
Ġsc ri
ons ider
Ġsy r
Ġstr ing
Ġstr and
Ġstr ids
amm ing
amm aren
sl Ã¶st
Ġsure ly
ix on
ru z
Ġthr own
ĠtrÃ¤ det
ĠvÃ¤g rade
Ġner ve
Ġbort om
Ġact ions
ek n
Ġdis ag
Ġdis aster
Ġnight mare
Ġtra fik
Don ald
Ã¶j liga
Ġwr iter
ĠtrÃ¤ff ats
ĠIn tern
Ġverk lighet
ey ton
Ġad orable
Ġty skarna
Ġco inc
Ġspel at
Ġ3 6
ĠsÃ¥g s
uff y
Ġgreat er
Ġfall a
Ġste ady
Ġpass ager
AT ER
Ġinf ilt
Ġbab ys
Ġfound ation
Ġsur face
Ġmom s
Ġexp osed
Ġmar ch
ĠlÃ¥ st
ĠSo f
RE D
ph one
oc al
Ġbeg Ã¥r
ĠBr other
ĠBr andon
ĠlÃ¤ng st
Ġpri vacy
Ġbur y
Ġwalk s
Ġwar p
Se ems
Ġkoll egor
umm i
Her re
Ġkr imin
ĠMa urice
Ġstand s
Ġmus cle
Ġbety dde
Ġbety delse
ĠmÃ¤nnisk an
ĠmÃ¤nnisk orna
ĠAr t
Ġgam le
ĠvÃ¤ d
ĠvÃ¤ ster
ĠhÃ¶g sta
Ġconf ess
Ġhot ade
ĠSe attle
nings vis
Ġstick ing
Fr Ã¶ken
ĠRe ady
ĠRe ese
Ġskj uts
ĠMich igan
utt le
Ġattack en
Ġposs ession
Ġmilj Ã¶
Ġtitt at
ĠjÃ¤tt ef
ĠjÃ¤tt eg
Ġrum ors
Ġfav our
Ġroll ing
Ġfot on
Ġfot ot
Ġfigure s
oj ar
br idge
Ã¶l jer
Till baka
Ġ8 6
AS E
Ġmatch ar
Ġcor por
ĠBar bara
Ġsim ma
ĠfÃ¶rsv ars
Ġcap ital
Br ad
ĠskÃ¶ ld
komm er
Ġkon sekven
Ġbild erna
Ġdist ract
ĠAd rian
Ġmist akes
Ġ7 2
ĠmÃ¶ nster
Ġnorm ala
Ġdest iny
ĠPr ime
Ġinvest ment
ĠrÃ¶r t
Ġsmall er
ĠCl ub
ĠCol omb
ĠaffÃ¤r en
Ġplanet en
Ġhop es
Ġhop efully
Ġcover ing
Bl ood
ĠCon rad
Ã¶v lar
Ġkiss ing
Ġkiss ed
ĠGu ys
Ġsvart sjuk
ĠfÃ¶rf ly
Ġmeant ime
ĠgÃ¶m de
arbet are
ific ation
ĠWH EN
ĠWH ERE
Ġbygg de
Ġpolit iska
Ġpolit ics
Could n
Me anwhile
Ġran ch
for sk
Ne ed
Ste p
Ġident ify
Ġflyg platsen
Ġresult atet
ĠQu inn
Ġkost ade
edding ton
Ġanled ningen
ĠBE EN
fÃ¤r en
Ġrym den
ĠInd ia
ĠInd ian
ĠsÃ¤kerhet s
Ġconsider ed
ĠChe ck
ĠChe ster
ĠfÃ¶lj t
Ġkor rid
Ġkor rupt
Ġsal es
Ġself ish
IL Y
Ġgar aget
Ġsamtal et
ĠtrÃ¤n ing
Ġsov rum
ĠLou ise
ĠStar f
Ġcontin ues
Ġstress ad
lu de
Ġtuff a
Ġenjoy ed
ĠfÃ¶rl ust
vÃ¤ ska
ĠfrÃ¤m ling
Ġglas Ã¶gon
Dan iel
Ġhom osex
okus era
kÃ¤n sla
Ġdrag it
ĠfÃ¶rklar ing
Ġeas ily
ĠFuck ing
Ġbj Ã¶rn
Ġsty v
Ġsty ra
ĠfÃ¶rsikt iga
Ġkyr k
Ġgrupp en
Ġfoc used
ĠCo ach
Lu ke
Ġbuck et
spel are
Ġcust ody
Ġstab bed
law s
do or
Ġfal sk
ĠHall oween
Ġutred ning
ĠVan essa
Ġtechn ically
Back a
Ġweak ness
pol isen
Ġbow l
ĠfÃ¶rbann ad
ĠfÃ¶rbann ade
ĠÃ¥ng rar
Ġvamp ire
Str unt
Ġintellig ent
stÃ¤nd igt
Ġprin cess
Ġfyll t
cret e
Ġdoc ument
LA UGH
ele ste
Ġkat ol
ĠLi ber
Ġcoun cil
ĠWilliam s
Ġdat orn
Ġovan ligt
Ġdeliver ed
gru ppen
Ġyell ow
Ġcomb at
Ġkam era
ĠJew ish
Ġhol iday
Ġinstru ctions
Ġtok ig
Ġintern ational
ĠkÃ¤ll aren
ĠRep ublic
ĠIr ish
ĠLeon ard
centr era
Ġungdom ar
Ġager a
Ġdevelop ed
Ġbrors an
ĠÃ¶verl Ã¤m
ĠÃ¶verl Ã¤mna
Ġembarrass ing
ĠÃ¤ng el
Ġmonst ers
ĠfjÃ¤r de
Ġopt im
ĠAsh ley
Ġkommun ik
Ġtort ure
ĠAfri ca
Ġtillbring a
Ġslapp na
Ġconv ict
ĠdÃ¶l jer
Ġdisappoint ed
Ġdefe at
Ġbilj etter
ROU ND
Ġtap es
Ġskaff ar
ĠGabri el
ĠframgÃ¥ng s
resp ect
ĠCast le
Ġcitiz ens
Ġalternat iv
Im agine
ĠrÃ¥k ade
ĠrÃ¤tteg Ã¥ng
Ġassass in
Ġeduc ation
Cla ire
Famil jen
ĠpÃ¥ver kar
ĠSOME THING
ĠCyr us
Ġimponer ande
ĠBrook lyn
Ġuniversitet et
Ġveget arian
pher d
Ġachie ve
Ġrecomm end
vap en
Ġlej on
ĠfÃ¶rÃ¤lsk ad
Ġproced ure
Ġescap ed
Fix a
ropri ate
Ġannoy ing
Ġforgiven ess
Ġcircum stances
Ġmir ror
Ġdott ers
ĠHud son
Ġfriv ill
Ġvalu able
ĠGri ffin
Ġimpa ct
Ġlifet ime
Stack ars
Ġannivers ary
ĠlÃ¥ts ades
Ġworksh op
Ġkidna pped
Ġaugust i
Ġintres se
) :
7 0
8 00
A p
A ir
A mb
D am
D onna
D ave
D uring
E ra
G ar
H y
H all
I ES
J en
J oh
J ason
K or
K asta
L ycka
M aggie
N ight
N Ã¤m
N ARRATOR
P L
P ay
R achel
S ur
S ak
S ab
S pr
T er
T iden
V Ã¤n
V IS
Y S
Y et
a int
b ow
b ute
b ird
b elt
c or
c red
d Ã¶rren
f ig
f ight
f eld
g un
g ande
g nan
g Ã¤ld
g Ã¥ende
i h
i j
i ors
k ind
m ade
m ind
n ades
o ven
o ine
p la
p lar
p rat
p oj
r isk
r ence
r ina
r ants
s Ã¤ker
t wo
u um
v ag
v as
v ention
w as
w ith
w ford
x ic
z es
{ \
Â ©
Ġt upp
Ġs el
Ġs ets
Ġs Ã¶dra
Ġa ck
Ġd ive
Ġd iss
en ger
en stein
en skomm
Ã¤ dda
Ġm attan
Ġm Ã¶tte
an ced
Ġth ick
Ġf en
Ġf arty
Ġf oster
Ġb ass
Ġb etting
Ġb ike
Ġb lek
on da
on erna
Ġw rest
Ġw rap
it ure
it ary
om Ã¤ss
Ġv irt
Ġv agn
st ation
st ift
st ationen
re m
re ll
Ġp ow
Ġp ile
Ġp ages
Ġp iller
Ġn om
Ġn ap
Ġn ark
Ġn Ã¥tt
Ġn urs
Ġn igger
Ġn jut
Ġl er
Ġk ring
Ġk andid
Ġk ysst
Ġyou th
is y
is ke
Ġin iti
Ġc ore
Ġc age
tt en
Ã¶r s
Ã¶r er
ad ian
ĠI I
ĠI d
ĠI van
Ġj unior
el ed
el ve
ow ski
ot or
ot ch
al in
al og
Ġen de
Ġr im
Ġr aka
Ġr ail
Ġr ape
ĠfÃ¶r se
ay ed
am al
Th ough
Th rough
Ġe mail
Ġsk ak
Ġme sta
Ġme asure
ra b
ra f
ra ce
Ġvar g
ĠS M
ĠS in
ĠS it
ĠS ven
ĠS lo
ĠS jÃ¤lv
Ġis en
Ġre b
Ġre in
Ġfor don
Ġan x
Ġan talet
Ġan cest
ro e
ĠM as
ĠM id
ĠM ust
ĠM ost
il ot
ent in
ent ial
ĠH en
ĠH EL
ir ts
ce y
Ġfr ank
Ġfr idge
Ġmy th
ak i
ter at
Ġkn ees
ĠD ale
ĠD iamond
Ġ- "
Ġvi br
ss ystem
Ġgo ss
ant ag
Ġom t
ĠC alm
ĠC arson
ight y
ĠB et
ĠB ond
ĠB ib
ĠB ird
ĠB ox
ri cks
ol v
Ġdig ging
un ta
ĠsÃ¥ ra
kt ur
Ġtr upp
ĠT j
ĠT ess
ĠT ucker
Ġcan na
ĠG ib
ĠG illar
ĠG erald
ĠN ed
ĠN ad
ĠN ora
th ia
th ey
ĠL E
ĠL il
ĠL ite
ĠL ET
ĠL ITT
li fe
ĠJ un
ĠJ udy
Ã¤g en
ĠO ct
ĠO la
ull ivan
Ġso da
ĠP oo
ĠP ic
ĠP atty
ink le
ĠF Ã¥
ĠF al
ĠF ra
ĠF oot
Ġsa bot
Ġout s
ick en
ick ed
Ġska p
Ġsp an
Ġsp are
od s
od Ã¥
Ġch ocol
Ġno ble
Ġut k
Ġut sl
ĠR ox
ĠR osa
ĠR alph
ook ed
Ġkomm endÃ¶r
ist ry
ĠK ent
ĠK ol
ĠÃ¶ kar
ĠE V
ĠE mm
ĠE rik
ud ding
Ġbl a
Ġbl ast
Ġhel iga
Ġpro stit
Ġsu its
au er
Ġupp Ã¥t
Ġbr Ã¤nna
Ġar med
Ã¤ll ande
ĠW ild
ĠW ater
Ġsl akt
Ġsl aughter
Ġsl Ã¶sa
Ġer m
Ġer bjÃ¶d
iss es
la ine
Ġback pack
Ġgu id
Ġgu bben
iv ity
Ġcon ven
Ġcon cept
Ġcon crete
In ter
ĠÃ¶ver d
ĠÃ¶ver g
ĠÃ¶ver fÃ¶r
Ġfe ars
av al
Var ifrÃ¥n
Var enda
rig a
lo ye
lo yd
Ġunder neath
FÃ¶r r
Ġun comfort
Ġser geant
Ġpre c
Ġpre cious
Ġsm ek
ug it
Ġkv art
Ġkv ittar
Ġpe pper
ĠCh ild
Ġliv rÃ¤dd
Ġsen ator
Ġam mun
Ġsv ett
ip ed
ĠU gh
St ar
St ora
ub s
ub liken
Ġber gen
Ġber oende
ĠvÃ¤l kom
ĠvÃ¤l gÃ¶ren
ĠhjÃ¤l pt
Ġqu al
ĠSt and
ĠSt one
ach er
Ġmot h
ĠAnd erson
ĠÃ¥t gÃ¤r
Ġfl it
Ġfl Ã¶r
Ġfl oden
Do ctor
ress ant
Ġel ekt
Ġel imin
Ġkl Ã¤dd
iz es
Ġwhere ver
Ġstor lek
Ġsc ale
ĠhÃ¶r s
Ġsn o
Ġsn or
Ġsn usk
Ġbef ann
âĢ ķ
Ġdi arr
Ġsy re
Ġsy ft
Ġnog gr
amm en
Ġplan es
Ġstill a
Ġstart ade
Ġbel Ã¶
Ġspe g
Ġfar mor
Ġthr one
ER Y
ĠÃ¤lsk at
sh ot
sh ake
Ġfun ction
Ġro de
Ġro cket
Ġkid ney
ĠTh ursday
vis ning
Ġact or
IN N
Ġfriend ship
Ġring en
xt on
Ġbit en
Ġbu zz
Ã¶j or
Ġbest Ã¤llde
eng arna
Ġass es
Ġass holes
ĠTH ING
Ġfly r
Ġverk lig
ok o
yr am
Ġhus djur
Ġty der
Ġco ast
Ġco ca
Ġtri es
Ġimp ression
row s
ĠlÃ¤ s
Ġem bra
Sk jut
Ġord nade
ĠlÃ¤m p
Ġcomp et
Ġcomp lex
Ãħ N
Ġpass es
Ġpass port
AT T
Ġrep et
Ġans Ã¥g
Ġsky lt
Ġapp lic
ĠMar tha
gr ammet
Ġly fta
Ġacc ent
Ġfil ma
Ġtack ar
Ġma jest
ĠkvÃ¤ll ens
Ġnum ret
idd le
Ġpres er
vÃ¤r k
Ġland ar
Ġland ed
ump y
Ch loe
Ġter m
Ġdrink ar
Ġev ighet
Ġlag ade
ĠanvÃ¤nd s
ĠanvÃ¤nd as
Ġmay or
Ġschool s
Ġmost er
OR D
ĠCar lo
Ġresp onse
lighet ens
Ġ4 00
ĠhjÃ¤r nan
Ġbar nd
Ġtest ed
Ġtest imony
ĠIs abel
Ġarbet et
Ġcount ries
Ġspr uta
Ġhold s
Ġprom enad
Ġbreak s
Ġlisten ed
ĠDen ise
Ġbed rag
ĠAr cher
Ġfem in
Ġkonst iga
Ġsound ed
Ġmag ical
ĠBl ake
Ġinform ed
Ġinform ationen
Ġsjuk skÃ¶ter
ĠSe curity
Fr am
Ġkul a
Ġtel eg
Ġsent ence
Ġali ens
ĠSp ir
ĠSp ring
Ġrel at
ĠLu ca
Ġdom aren
Ġbas en
Ġstopp ing
Ġstopp ade
ĠjÃ¤tt es
Ġlu kten
Ġbor gen
Ġmark nad
Ġmark naden
ĠChrist ine
Ġdy kt
yss land
Ġmisst Ã¤nker
Ġpub lik
Ġpub liken
br id
Ġtrans l
Ġbevis en
atur ligtvis
Ġang Ã¥r
Ġdep os
Ġarg ue
ĠmÃ¶j liga
dr ag
Ġskr Ã¤ck
ĠfÃ¶rsv unnen
ĠPh oebe
ĠPh oenix
Ġoper ationen
Ġcontro lling
Ġdream ing
lag ar
hÃ¶r t
pect ive
Ġhy ra
ĠBen ed
ĠMc K
Ah h
pro f
Ar m
Ar thur
ĠfÃ¤ng sl
ĠhÃ¥r dare
ĠdrÃ¶m t
Pro fessor
Pro blemet
iker na
Ġterri bly
Ġche er
Ġexc l
iner ande
agg ing
rid ge
ĠSer ena
Ġotro liga
Ġcolle ague
Ġbetal at
inn ande
Ġpot atis
Ġkick ing
ĠmÃ¥l tav
sc reen
Ġbeslut et
Ġfund erat
Ġvitt nen
Ġtreat ing
Ġeg o
Me et
Ġwall s
riv ate
Ġjo ining
Ġtem ple
Ġkopp ling
Ġref le
ĠAb sol
Ġroad s
igg y
Ġmeddel anden
ĠPaul a
Ġpost ed
Ġdju p
ĠspÃ¥r en
add ie
Ġra id
ĠhÃ¤ xa
Ġakt iver
ĠMor ris
Ġtapp ar
ĠkÃ¤nsl an
ĠkÃ¤nsl omÃ¤ss
ĠNe xt
ĠlÃ¶s ningen
ĠkÃ¤m pat
ĠInd ien
Ġinvestig ating
ĠÃ¶gonb licket
Ġrelationship s
ĠJuli an
ĠfÃ¶rm Ã¶gen
Ġstri p
Ġtyd lig
Pol ice
af Ã©
ĠMal ik
Ġutt rycka
ĠBur ns
Ġdeser ves
Ġsqu are
ĠfrÃ¤m sta
Ġhost age
ĠGra ham
Ġbehand lar
ĠMay a
Ġemp loye
Ad jÃ¶
Ġmis under
Ġlim ited
Ġamb ition
Ġrecogn ized
ĠSen ator
Ġsty rel
Ġpun kt
ĠtillhÃ¶r de
ĠQue ens
Ġfatt iga
Ġwitness es
Ġsnygg t
Ġmid night
ĠRick y
Ġexcept ion
ĠSher man
ĠjÃ¤m fÃ¶rt
Ġrisker a
Ġincred ibly
ĠhÃ¤ls ade
Sc ott
Ġskil ja
Ġlikad an
Ġamerikan er
Prat ar
Ġspar at
Ġslow ly
ĠMex ican
Ġcigar ettes
StÃ¤ll et
ĠhÃ¤ng de
Ġrap ed
Ġpers pective
Ġmedvet slÃ¶s
Ġwitch es
Ġshock ed
ĠRos ie
Em ily
ĠÃ¶r on
ĠJer sey
JÃ¤v lar
hel st
Ġsabb ade
Ġforsk are
Ġforsk ning
Ġerk Ã¤nde
Po or
Ġhol es
Ġshift s
Ġbrotts ling
Par is
Ġinfe cted
ĠDar ius
Ob viously
Ġfys iskt
oren zo
Ġos Ã¤ker
Ġimpress ive
Ġwound ed
Ġgull igt
Ġinde ed
Ġwash ed
Ġgrym ma
Ġtherap ist
jÃ¤n st
Ġvul ner
Ġyr kes
ĠkÃ¤ns lig
ĠsamhÃ¤ll et
Ġinjur ies
Ġmej l
Ġrek ry
Ġinflu ence
ĠAustral ia
Ġapproach ing
ĠfÃ¥g el
ĠTE LL
Ġdemonst ration
ĠAndre a
Ġcere mony
ĠberÃ¶m da
Ġlamp orna
ĠBern ard
Ġexperien ced
ĠfÃ¶rvÃ¤nt ade
Ġarrang ed
Ġnet work
Ġreve al
ĠKal iforn
Ġscr atch
Ġsyss lar
Ġfantas i
Ġcrit ical
Ġzomb ie
ĠhÃ¤v dar
Ġmax im
Ġbeseg ra
ĠstjÃ¤rn orna
Flick an
Ġwhis per
ĠBA CK
aph ne
ĠbÃ¤ ste
ĠLug n
ĠSteph en
ĠskÃ¶n het
ĠskÃ¥despel are
Ġdisco very
Forg ive
tele fon
Ġhaunt ed
ĠfÃ¶resl Ã¥r
ĠClint on
Ġvittnes mÃ¥l
Ġbibliote ket
Ġtiss ue
Ġlok ala
Ġobs essed
ĠUnivers ity
Ġdetermin ed
Ġthor ough
Ġvess el
Ġduss in
Ġmuse um
Ġutrymm e
ĠEVER Y
ĠBenn ett
Ġextraordin ary
Chef en
Ro ger
ĠinlÃ¥ st
outher n
ĠStu art
ĠIntern ational
ĠLITT LE
Ġuncomfort able
Ġemploye es
ĠKaliforn ien
. !
4 00
A in
A ct
A ST
A udrey
B S
B a
B abe
C omp
D D
D O
D NA
D rick
F ot
F okusera
G R
G ry
G RE
G reg
H or
H ot
H igh
H aven
I d
J E
J ay
K id
K liv
L i
L ily
M on
M ade
M ine
N Y
N yck
N ina
N ope
O fficer
P en
P am
P art
R uss
S et
S la
S ug
S Ã¤nk
S uch
S Ã¤kert
T S
T v
T or
T ot
T ON
U RE
V ap
W ake
b as
c at
c ers
c akes
d ollar
e fter
f ing
f ir
f yr
f gh
g ro
g os
g ate
h ag
h ur
h istor
j ade
k y
k ov
l s
l ur
m ous
m unt
n ame
o is
o ken
p se
r d
r Ã¥
r Ã¤g
r ine
r ous
r era
r Ã¤tta
s ed
s le
s erna
u ge
v t
w ight
x en
z ona
Â ¥
Ġ _
Ġ Ã¥n
Ġ Ã¶ra
Ġ Ãĸppna
Ġt akt
Ġt unga
in te
in erna
Ġs Ã¤nder
er r
er able
Ġa im
Ġa gency
Ġd ome
Ġh es
Ġh orn
Ġh ipp
Ġh iring
Ġh amburg
Ġm es
Ġm ak
an cer
ll e
ll ed
Ġf er
Ġf ond
Ġf ib
Ġf urn
Ġf ula
Ġf lies
Ã¥ na
Ġb ol
Ġb art
Ġb aking
Ġb ubb
Ġb rick
on z
Ã¶ va
Ã¶ tter
om on
Ġv att
Ġv ital
Ġg room
Ġg aller
Ġg ivetvis
ing u
ag ger
ag ement
st or
st orm
st ret
re sa
Ġp ink
Ġp ans
Ġp orn
Ġp unk
Ġn at
Ġn ag
Ġl n
Ġl obby
Ġl emon
Ġk it
Ġk la
Ġk locka
Ġo v
Ġo Ã¤nd
ed ly
Ġc and
Ġc ong
Ġc ough
Ġc arn
Ġto y
Ġto ys
ĠI M
ĠI m
ĠI mp
ĠÃ¤r r
ĠÃ¤r ende
te x
te ment
ill ade
id i
Ġbe ef
Ġr ag
Ġr ut
Ġr ats
Ġr ash
ĠfÃ¶r en
ĠfÃ¶r rÃ¤dare
am i
le et
Ġst er
Ġst able
Ġst uga
Ġand e
Ġand etag
ut et
ut ers
ut red
Ġsk aka
Ġsk ru
Ġsk ugg
Ġsk etch
Ġsom mar
ra ham
ĠpÃ¥ h
Ġvar dags
ĠS na
ĠS alt
ĠS AY
Ġre ver
Ġre lie
Ġre aktion
Ġre klam
se m
se mb
Ġdo ft
all ad
all as
ĠM all
Ã¥r en
il o
il ia
ent ine
ent agon
ĠH end
ĠH unt
ĠH otel
Ġfr ans
ak u
Ġtill Ã¤g
Ġsh y
Ġsh oe
Ġkn y
ĠA F
ĠD am
ĠD ea
ĠD iane
ĠC orn
ĠC onst
ĠC rist
ĠC RA
ĠC opy
ĠB R
ĠB ad
ĠB ek
ĠB ren
ĠB efore
ĠB udd
ĠB uster
Ġse qu
Ġse ats
Ġse pte
ol ycka
sk in
ct s
ack s
ly g
ly de
Ġtr oub
Ġav tryck
ea u
ĠT A
ĠT ara
ĠT Ã¤nker
ĠT ALK
ĠG or
ĠG ay
ĠG oth
ĠG abe
ĠN a
ĠN iles
th y
op ath
ĠL ola
ĠL Ã¤get
ĠJ r
ste p
Ġab ility
ĠO mar
ic opter
ull a
ull en
ull ar
ĠP O
ĠP l
ĠP el
ĠP ear
ĠP otter
Ġman nar
Ġman kind
Ġsa v
ick ing
em ot
Ġsp ons
Ġup side
Ġup load
um ret
Ġch osen
Ġut seende
Ġut vÃ¤rder
ul era
ĠR ita
ie v
Ġfin ner
ist iskt
ess an
ĠK ir
ĠK ling
ĠK itty
Ġpl at
Ġor Ã¤tt
Ġwor ries
ĠÃ¶ det
ĠE p
ĠE fter
ĠE asy
ĠE than
ĠV is
ĠV oy
ud er
ĠmÃ¥ ndag
Ġbl ade
fÃ¶r st
fÃ¶r tro
fÃ¶r etag
au x
os ing
os ure
Ġtim ing
Ġbr an
Ġbr as
Ġbr ann
Ġbr Ã¤nde
Ġbr Ã¤ns
Ġbr ilj
if ty
ĠW olf
und et
Ġnu varande
Ġle kte
iss y
ĠnÃ¤r varo
Ġback a
Ġund antag
Ġtal e
Ġcon cl
Ġdem oc
Ġdem okrat
ĠÃ¶ver enskomm
Ġgr ou
ars hip
Ġfe ver
Ġby xorna
oll en
Ġcom a
av ar
av delningen
Ġint ention
Ġunder cover
Ġunder bara
ik it
ik as
ber ry
Ġpre gnan
ĠfÃ¶rs Ã¤lj
Ġdown load
Ġkv itt
ĠY ale
Ġhapp ier
ĠCh a
opp y
opp ar
opp ningsvis
Ġsen a
Ġhem m
Ġtid punkt
sp ark
Ġpo et
ia h
ĠÃ¥ stad
og g
ĠU tan
St or
St Ã¶r
ĠNo el
ĠfÃ¶rst Ã¤rk
Ġhelp ful
ju ana
ĠSt ation
red s
ĠVi c
Ġfl ow
Ġfl ood
Ġfl Ã¤ck
ĠhÃ¤nd else
Ġkl Ã¤r
Ġkl aga
irst y
ang el
Ġtro tt
Ġsn Ã¶
Ġbef ri
Ġbef olk
ĠvÃ¤r da
Ġtillb aks
Ġsy mp
Ġstr uck
Ġstr unt
Ġpol ish
Ġpol icy
Ġbad a
Ġbad rum
ac ed
ath leen
Ġbel oved
Ġlast bil
ĠvÃ¤g led
ĠrÃ¤tt vist
cc o
Ġro cks
ĠTh under
ring ton
ann i
Ġhome work
bb s
Ġtra itor
Ġdel ta
Ã¶j de
Ġbest Ã¤lla
Ġcar pet
Ġins idan
Ġag es
Ġrem ove
Ġph ase
ĠDe bbie
ok ater
Ġpar et
Ġann ounce
ee ze
Ġty pen
ĠfrÃ¥g at
ĠfrÃ¥g orna
Ġ3 3
OU ND
orn as
Ġimp ul
Ġbes l
Ġbes Ã¶ker
ĠSh in
ĠSh ir
ĠSh ould
Ġsch ol
ĠlÃ¤ xa
ĠlÃ¤ karen
ĠAll ison
When ever
ĠHar rison
Ġbre ast
Ġbre vet
Ġrep orter
Ġsupp lies
Ġpa j
Ġsam lade
Ġres ort
ĠkÃ¶ k
Ġsur geon
Ġbro ad
Ġkont akter
ĠkÃ¶r kort
Ġexp lo
Ġexp ress
ĠlÃ¥ s
ĠlÃ¥ sa
ĠFr asier
mm y
Ġacc us
RE E
Ġfil ms
ĠjÃ¤v larna
Ġtack ade
oc ch
Ġvem s
Ġbeg ra
ĠÃ¤nd rat
Ġur gent
ump an
EN D
Ġdro pp
Ġdro ps
Ġter api
Ġcr iminals
Ġuse ful
alt on
Ġsna ke
Ġlag er
Ġreg n
Ġreg el
Ġsle e
Ġcomm er
ail s
ĠAl ma
ĠAl ways
Ġmet all
Ġgre et
skap en
cu its
ĠrÃ¶ ker
ĠrÃ¶ sten
sy nt
Ġbak grund
Ġbur ner
Ġ4 2
ĠdÃ¶r rarna
ĠFÃ¶r st
ĠsÃ¶ nd
ĠsÃ¶ ndag
Se cond
Ġpoint ing
ĠZ e
ĠZ h
Ġarbet ade
olog isk
Ġsleep s
Ġdra bb
stÃ¤ll d
asy ster
Ġmus iken
Ġ6 6
Ġprom otion
Ġbreak down
pr im
Ġstud era
Ġpay s
Ġdifferent ly
ĠvÃ¤ t
ĠvÃ¤ xt
God a
ĠfÃ¶rb li
ĠfÃ¶rb Ã¤tt
Ġfre aked
az ar
Ġmess ing
ĠSe o
Ã¤k ter
Al most
Ġret ire
Ġattack s
Ġchar ged
ĠMan ny
ĠMan hattan
Ġ19 3
ĠjÃ¤tt ek
Ġworry ing
Bra vo
Ġlever ans
Ġaw ait
Ġcont ent
Ġdy ka
Ġfot en
Ġfot ograf
LE Y
oj i
Ġsuper ior
ĠSam uel
Ġang le
aff e
ĠGood bye
IT E
ĠFrank lin
ĠFrank enstein
Ġcons cious
Ġmod els
orter a
OW N
Ġinst rum
ric s
ĠJu ly
oun ced
Ġkra v
ĠOr leans
Ġpriv ata
Ġbitch es
Ġsj Ã¶
Ġsecret ary
ĠEm p
ĠJe ong
Ġhy res
ĠHer re
tj ej
IC H
pro gram
Ġclass ic
Ar bet
Ber Ã¤tt
Tr ans
ĠhÃ¥r da
Ġworth y
Pro va
och e
Ġbank en
ID S
Ġhuman ity
ipp er
Ġche ek
Ġinsp el
Ġinsp ect
Le on
Ġpot ato
Ġpop ulÃ¤r
Ġmedic ation
Ġmedic iner
Ġgal ning
Ġdans ar
Ġpolit ik
Ġjud ging
Ġtem por
Ġref lex
Ġnatur ligtvis
Ġdeep ly
Ġlead ing
Ġgri pen
Ġident ifiera
ety der
Ma jor
Ġorgan ization
Ġdju pa
Ġdju pare
Ġsurv iv
add le
Ġfir ar
Ġakt iv
Ġakt ivitet
fÃ¤r g
ĠvÃ¥ld sam
ĠPat ri
bl od
ĠAnt ar
Ġabsol ute
Ġop ens
ÃŃ n
Sm art
af ael
Pl Ã¶tsligt
ĠEll is
Ġpaint ed
Ġpaint ings
Ġsearch ed
ĠfÃ¶d s
Ġprocess en
Ġors aka
ĠfÃ¶rl Ã¥ter
ĠfÃ¶rl Ã¥telse
Ġuts Ã¶kt
Ġ0 9
Ġhom icide
Ġhost ages
Ġcamp us
lÃ¤g e
ĠfÃ¥ng ade
Ġgett in
Ġstack ars
ĠÃĦ R
Ġavsk yr
Dad dy
Ġerbjud a
Ġsuggest ing
Ġsuggest ed
Ġcas ino
ĠCal iforn
ĠblÃ¥ ser
Ġlugn ande
Ġimmedi ate
Ġot ur
Ġfal ska
Ġfal skt
Ġcow ard
Ġavg Ã¶ra
Ġkross ar
Ġol ja
ĠAT T
ĠRuss ia
ĠEr nie
Ġpray er
Ġelect ion
ĠhÃ¥l et
ĠAN Y
ĠmÃ¤nsk lig
Ġkvinn liga
Ġmotherf uckers
pol is
Ġintrodu ced
ĠWal ker
Ġprivat liv
ĠfÃ¶rber ed
Ġgiss ar
Ġreser v
Ġstudy ing
Sv ara
ĠGrand pa
ĠgÃ¤ng et
Ġstink er
Ġfac ing
Ġocc asion
Ġmedvet en
Ġcollect ion
ĠNE ED
Ġcharac ters
Ġdat ab
Ġosk add
Ġovan fÃ¶r
Ġosky ldiga
ĠJen na
Ġdesper at
ĠtÃ¤v lingen
ĠBeck y
ĠWar ren
ĠmÃ¤rk lig
Ġyell ing
Ġbell y
ĠVin cent
Ġorsak at
ĠJew s
ĠSil ver
Ġuppen bart
Ġattract ive
Ġblomm a
ĠMajest Ã¤t
Ġmoun tains
Ġfro st
skri ft
ĠReg ina
Ġcompla int
Ġcompla ining
Ġdescri be
Ġorganis ation
ĠlÃ¶gn are
Ġcommit tee
Ġopt ions
folk et
jÃ¤n sten
Ġpu zzle
Ġresist ance
Ġaffect ed
Ã¼ h
Ġtu be
Ġlid it
ĠfÃ¶rtro ende
ĠTor res
ĠspÃ¶ ke
ĠDID N
bru k
Ġlung s
Ġskur k
ĠGard ens
Poj ken
Ġog illar
Ġbless ing
ĠvÃ¤rdel Ã¶s
ĠvÃ¤rdel Ã¶sa
Ġproduct s
Ġstrang ers
Ġinvent ed
Ġcapt ured
KÃ¤r lek
Ġrecover ed
Fakt um
Ġglo ves
Ġnic ely
ĠCli ff
Ġtraged y
ĠFÃ¶rs Ã¶k
Ry an
ĠAri zona
ĠCass ie
ĠPL AY
ĠWOR K
Ġstrugg le
cons cious
ĠjÃ¤r n
ĠCurt is
Ġexec ut
Ġelev ator
Ġstru cture
Ġterrit ory
Ġlegit im
Ġflott an
Ġliqu or
Ġuppn Ã¥
Ġvacc in
SÃ¥n t
Ġcandid ate
ĠrejÃ¤l t
Ġheav ily
ĠAc ademy
Ġadopt ed
Ġvo ices
Ġjung le
ĠRey n
Ġupple va
Ġcraw l
Ġattach ed
ĠHamm ond
ĠAma zon
Ġkrasch ade
Ġlapt op
ĠLut her
Ġconstant ly
Prev iously
Ġekon om
Ġmex ikan
Ġappet ite
ĠBron x
Ġkilomet ers
hyth m
ĠHawai i
ĠIsa ac
ĠBets y
Ġsemin ar
Ġdisag ree
Ġcoinc idence
Ġammun ition
yram id
Ġsepte mber
Ġpregnan cy
' '
. -
1 3
1 4
3 00
A j
B ur
B ab
B Ã¥de
C are
C ON
C lose
D es
D ep
D ire
E h
E rs
E nda
F R
F i
F ru
F ler
F ÃĸR
G ick
G issa
H ay
H ome
H ard
H jÃ¤r
H alf
H uvud
I O
J er
J enny
J obb
K T
K ar
K Ã¶
K am
K rist
K yle
K Ã¤nns
L ieutenant
M ass
M Ã¶rd
M aster
M annen
N ora
N athan
N umber
P A
P et
P ort
R en
R om
S es
S im
S ave
S ED
T u
T ed
T Ã¤nkte
V ING
W ay
W il
W anna
b ling
b ors
b orta
c as
c all
c ock
c Ã©
d i
d in
e ur
f ire
f Ã¶lj
f oster
f licka
g ood
g ond
h oo
h Ã¤nd
h urt
j et
j akt
j uset
l Ã¤
l Ã¤kare
m ak
m ic
m atch
m ors
m oon
m Ã¤ss
n m
n Ã¤st
o or
r Ã¶r
r ase
r age
s man
t aget
u ka
v ig
v and
v agn
v akten
w ar
w all
w ire
y our
y ard
z an
Ã £
Ġ eter
Ġ eth
Ġt ons
Ġt Ã¤ckt
Ġt Ã¶nt
in is
in ch
in ity
Ġs ou
Ġs Ã¤nde
Ġs ale
Ġs ample
Ġs nygga
er ta
Ġh ill
Ġh ay
Ġm ud
Ġm Ã¤ng
Ġm Ã¤ster
an ker
Ġf ink
Ġb ac
Ġb ann
Ġb ureau
on ent
on de
Ġw is
Ġw ounds
Ġw asted
Ã¶ ld
Ã¶ na
or se
or ial
it era
om a
Ġv and
Ġv Ã¤nd
Ġv Ã¤kt
Ġv Ã¤ckte
ag ens
ag net
st at
st olen
re me
Ġp ad
Ġp ound
Ġp ace
Ġp ork
Ġy tan
Ġn it
Ġl Ã¤ck
Ġl ida
Ġl amb
Ġk na
Ġk ling
Ġk issa
is co
is dag
Ġin brott
Ġin ches
ed e
Ġc m
Ã¶r jar
nd Ã¥
ĠI ron
Ġj er
Ġj unk
Ġj uni
ch y
te kn
ill ion
as ant
as ers
Ġu th
Ġatt itude
el ing
ow en
ot land
id ow
al o
Ġr ig
Ġr ally
Ġr att
Ġr ank
Ġr Ã¤cka
Ġr Ã¤ckte
Ġr ival
ĠfÃ¶r var
am et
ld a
ke ep
Ġst ig
Ġst ations
Ġst roke
Ġe c
Ġe ase
Ġsk ift
Ġsk Ã¶ts
Ġsk ugga
Ġwh e
Ġwh isky
Ġon Ã¶d
Ġon sdag
Ġha st
Ġvar na
Ġvar nade
Ġhar ass
ĠS ig
ĠS ur
ĠS us
ĠS pa
ĠS ummer
ĠS nygg
Ġre vis
im ension
Ġfor b
Ġfor ens
and es
Ġan ta
Ġan aly
Ġhe ck
Ġhe al
ro se
ro ach
Ġdo l
ĠM ass
ĠM agn
ĠM IGHT
il er
Ġde af
ent al
ĠH Y
ĠH ot
ĠH im
ĠH ol
ĠH art
ĠH oll
ĠH OW
ĠH Ã¤mta
ĠH ennes
ĠH ugo
Ġfr y
Ġfr it
Ġtill Ã¥telse
ion a
ion de
Ã¥n ing
Ġsh ield
Ġkn ep
Ġkn ee
Ġkn Ã¤cka
ĠA R
ĠA x
ĠA gain
ĠA cc
ĠA ye
ĠA mb
ĠA CT
ĠD own
ĠD IS
ĠD amon
ĠD iana
ĠD utch
Ġvi be
ant o
ant ast
ĠhÃ¤r lig
ĠC D
ĠC iv
ĠC ons
ĠC ameron
ight on
ĠB and
ĠB art
ĠB ug
ĠB ush
ĠB abe
Ġse al
ol as
ol ved
ol ph
Ġdig nity
un ning
ĠsÃ¥ klart
sk r
sk on
sk al
Ġav delning
Ġav ancer
ĠT ol
ĠT ja
ĠT oni
ĠG ill
ĠG ro
ĠG one
ĠN Y
ĠN one
ĠN ope
ĠN ya
ĠN avy
ĠN elson
ĠN atalie
op sy
us iness
ĠL ar
ĠL or
ĠL ill
ĠL ion
ĠL ive
ĠL ock
ĠL Ã¤mna
ĠJ ill
ĠJ ob
ĠJ eremy
Ã¤tt are
Ġab use
ĠO AK
ull et
ĠP ay
ĠP ull
ĠP orter
ĠP iper
ĠP entagon
are z
Ġman us
Ġman liga
ink s
ĠF ry
ĠF em
ĠF isk
ĠF int
ĠF ern
ĠF Ã¶lj
ĠF IND
ĠF rost
Ġsa il
ry gg
Ġsp aces
um n
um men
Ġch annel
Ġut m
Ġmen u
Ġni ece
ĠR i
ĠR ow
ĠR ud
ĠR ain
ĠR onnie
ĠR ussell
ĠR yssland
And rew
ĠK ry
ĠK ang
ĠK ane
Ġpl ast
Ġpl ug
Ġwor n
Ġwor ker
ĠÃ¶ m
ĠÃ¶ va
ĠE gy
ĠE ugen
ĠV D
ĠV el
ĠV ul
ĠmÃ¥ tt
Ġbl Ã¶d
Ġbl ocks
ab b
ab lish
fÃ¶r en
Ġbut ik
Ġlo pp
Ġpro ves
Ġsu ga
Ġpr ank
Ġpr ime
Ġpr Ã¶v
os is
os al
Ġupp ri
Ġupp munt
ns aker
Ġbr ide
Ġbr Ã¤nner
Ġbr inna
Ã¤m tar
Ġar ter
Ġar riv
if est
ĠW R
ĠW ade
ĠW ard
ĠW ats
ĠW alk
ĠW ald
ĠW right
ĠW OULD
Ġal tar
Ġsl ight
Ġle an
Ġle ak
Ġle gacy
Ġneed le
Ġver ktyg
qu er
So ld
Ġlook in
In om
gen s
Ġbo te
ens es
ĠÃ¶ver fall
Ġgr ounds
Ġby e
ĠdÃ¶ m
av i
av or
ys on
Ġint end
Ġint ens
All ihop
FÃ¶r ra
FÃ¶r bered
Ġun ion
Ġun fortunately
Ġun known
Ġser i
Ġsm ooth
Ġkv al
Ġkv Ã¤v
Ġmake up
ĠvÃ¤n t
ĠvÃ¤n ja
ci le
ĠCh ow
ĠCh ip
ĠCh amp
ĠCh andler
Ġover he
Ġbli xt
Ġam bit
Ġtid s
ĠHe ad
ĠHe ather
Ġsv al
sp ass
Ġsin ne
Ġid rott
ĠWe ek
akt ig
akt iver
Ġim per
St upid
ub a
Ġber get
Ġber Ã¤k
Ġsak nat
ĠhjÃ¤l pen
Ġjobb ig
ĠfÃ¶rst Ã¶rd
ĠSt ark
Ġmot orn
Ġmot stÃ¥
ĠVi ce
Ġju de
Ġkl Ã¤d
ang are
ĠsjÃ¤l ar
ĠvÃ¤r st
Ġdi kt
Ġstr ings
Ġstr ider
amm ar
Ġplan ets
lev ant
Ġbel t
ĠÃ¤lsk are
sh ine
ĠvÃ¤g ar
ĠTh or
ek ing
ever ide
Let a
Let ar
Ġtur key
sen ord
Ġring s
Ġdis play
Ġdis respect
Ġnight s
Ġdel tag
Ġbu ff
Be hÃ¥ll
kl ad
Ġcar go
Ġcou ples
Ġkind ly
io tt
Ġfly dde
ors dag
Ġph arma
amp s
ier ade
yr Ã¥
Ġad just
Ġad minist
Ġty ska
Ġled iga
Ġthrough out
uff s
Ġbes ides
oy a
ĠAll ah
Ġcomp uters
Ġste am
Hej san
Ġbre ed
Ġpass ade
AT TER
vin na
Ġpa w
Ġsam ples
Ġres idence
rat ic
Ġrec ent
ĠMar vin
ĠMar co
Ġkont o
Ġhopp lÃ¶s
ition al
ĠlÃ¥ ste
Ġfull y
ĠgÃ¥ng s
Ġly der
ON S
act ion
act ive
RE SS
aught y
Ġmon key
Ġfast nade
Ġfast nat
oc us
Ġgra p
Ġpres cri
Sh oot
Ch ief
EN S
ĠlÃ¤ng tar
Ġcr ashing
Ġton Ã¥r
Ġskri k
ĠanvÃ¤nd es
Ġgre p
skap er
cu it
ĠrÃ¶ ster
ĠlÃ¥ng samt
Ġchild hood
med lem
Ġskit a
ĠhjÃ¤r nsk
Ġteam s
ĠsÃ¶ k
ĠsÃ¶ kt
Ġnamn en
Ġguess ing
Ġtest ing
Ġob jekt
Ġstra ffa
Go ing
Ġcount ing
Ġdra wn
Ġmus h
Ge org
Ġrest ra
ĠLe v
ĠBe atri
pr oof
Ġhistor ier
Ġstud ied
Ġsw eep
ĠAn nars
Ġfire s
Ġpay ment
Ġstuff ed
ĠAr k
Ġlyck ats
Ġdec ades
Ġkonst ant
God damn
ĠfÃ¶rb Ã¤ttra
Ġmag iska
Ġconf r
Ġconf li
Ġconf usion
Ġfre qu
az z
ĠSe ven
Ġtel ep
eth oven
Ġinv asion
ĠRe id
ĠLu is
ĠMich a
ĠMich el
Ġattack ing
Ġattack erade
Ġcoll ar
Ġdess ert
Ġprof it
Ġmurder ing
ĠjÃ¤tt est
Ġsign ific
Ġlever era
ĠDr agon
Ex akt
Ġcont ra
Ġcont ri
Ġbook ed
Ġmark s
ĠMy cket
Ġdan cer
br and
Ġwish es
Ġdeath s
ĠSam antha
uk i
Ġpress a
Ġforg etting
ĠmÃ¶rd ar
AS A
Ġent ry
Ġmod er
Ġmatch es
ĠfÃ¶rÃ¤ld rarna
Ġskr Ã¤mde
Ġdirekt Ã¶r
ĠfÃ¶rÃ¤nd rade
HÃ¶r ni
ras ka
oun ter
Ġgamm alt
ĠUn it
ĠUn ion
Br other
Ġkon spir
Ġuppt Ã¤ck
Mar ie
ĠWill ie
let ter
aps ed
Ġbull ets
Ġdest ru
Ty dligen
ĠÃ¶nsk ade
yn thia
ĠMc G
Ġadd ed
Ġstar ving
Ġeng age
ĠCol t
ĠCol umb
Ġhor or
Ġlock ar
kvÃ¤ll en
Ġstat en
ĠOF F
Bl od
Le ft
ĠSer v
ĠSer iously
Un cle
Ġpapp ers
sky dd
Ġotro gen
Ã¶v s
Ġant ingen
ĠGu y
Ġvak ter
Ġvide on
Ġpop s
Ġcol onel
Ġhonest y
FÃ¶rs iktigt
ĠgÃ¶m t
Ġimag ined
bor ne
Ġfund ing
Ġkort a
oid s
Ġexist ence
Ġrid ing
Ġdans ade
Ġtem pt
ĠPro bably
sla pp
ĠTr ans
ĠTr ump
ĠEx cept
Ġfle et
Ġprodu cent
Ġsong s
Ġbeat en
Ġkontakt ade
Ġdej tar
Ġdej tade
ĠTy st
Ġdisk uter
Ġfir ma
ĠMor ning
ĠMor rison
Ġstund en
ĠPet ers
Ġrym ma
Ġgud arna
ĠkÃ¤m pade
ĠInd ust
Ġinvestig ate
Ġinvestig ator
Ġcontact s
AND E
Ġcook ed
Ġboard ing
Ġban ker
Ġgar bage
Ġskall e
Was n
gre pp
sb rott
Ġhall uc
ĠtrÃ¤n are
Ġvir uset
gift ning
Ġcross ing
ĠAt lant
bild er
Ġciv ila
imm ons
ĠrÃ¶st ar
Ġlar gest
Ġenter ed
Ġtrack ed
Ġhom es
Ġhost ile
Ġbehand lade
Ġtving as
Ġide al
ĠfÃ¥ng arna
ĠÃĦ n
Ġneigh bors
ĠPhil ip
ĠSen ate
Ġrema ining
ĠfÃ¶rsikt igt
Gra ce
Sa id
Ġlawy ers
Ant on
Ġkus iner
Ġskin ny
ĠMer lin
Ġbal ans
ĠstÃ¤ng t
Lu cy
Ġfatt ade
Tj ena
Ġanklag ar
ĠWin chester
ĠmÃ¶jlighet er
ĠRobert s
Ġmid natt
ĠSome one
ĠSome body
Ġdump ed
Ġexam ine
ĠmÃ¶t en
ĠfÃ¤rd iga
Ġble eding
ĠÃ¶verrask ad
Mich elle
Ġsli ps
Ġca uses
Ġscream s
ograph y
Ġko ordin
ĠfÃ¶rh ind
ĠfÃ¶rh Ã¶ra
Ġmarry ing
Ġsoci ala
Ġclaim s
Ġundv iker
Sy stem
sfÃ¶r bud
ĠBro dy
ĠInter pol
ĠMex iko
Ġpul s
ĠTur k
Ġsaf ely
Ġbird s
Ġpers pekt
ĠanstÃ¤ll d
ĠbrÃ¥ kar
ĠavslÃ¶j ade
fortun ate
ĠNE W
Ġbrud en
Em ma
Kn ow
Kn ock
ĠofÃ¶r sk
Ġrelig ious
IF E
Ġmix ed
Ġghost s
ĠlÃ¥n ar
spr Ã¥k
NÃ¥ vÃ¤l
ĠtÃ¥r ar
ĠtÃ¤nd erna
Ġvild a
Ġinspir ation
ĠHigh ness
Ġutnytt jar
fÃ¶rs var
Ġsubject s
pun kten
ĠDÃ¤r fÃ¶r
Ġstrateg y
Ġspirit ual
Ġfasc inating
Ġfasc inerande
Ġobe kv
ĠLo is
Ġcommunic ation
ĠVictor ia
Ġactiv ity
Ġsurr ender
Ġintern ation
Ġromant iskt
Ġbon us
Ġlin je
ĠTR Y
Ġgran nar
Ġoffici ally
Ġoffici ellt
Ġemploy ee
Ġfro zen
Ġrit ual
Ġeffect s
ĠbekrÃ¤ fta
ĠÃ¤ck ligt
Ġult imate
Ġrab bit
ĠAss oci
Ġdram atic
ograf i
Com ing
Com plet
Und rar
Ġmonst ret
Ġphotograph s
Ġgather ed
Ġkop ia
Ġkop ior
Ġstul it
Ġtung t
Ġlid ande
Ġuns ub
Ġposit ivt
ĠAustral ien
Girl s
JÃ¤tt ebra
Ã± or
ĠIng rid
ĠLau rel
Ġsym pat
Ġassum ing
Ed ward
ĠGard ner
Kont roller
dra w
Ġep isode
ĠMir anda
ĠBern ie
Ly ft
Ver kar
ĠMick ey
ĠHard y
ĠDun can
ĠCa esar
ĠbegÃ¥ vad
Ġcitiz en
Ġnorr ut
Ġspl itt
ĠrÃ¤tteg Ã¥ngen
ĠledtrÃ¥d ar
Ġnic er
ĠPam ela
Ġloj alitet
Ġflask or
ockh olm
ĠvÃ¥ldt Ã¤kt
Ġpunish ment
Col onel
Ġcoo la
ĠskrÃ¤ p
ĠCher yl
Ġpupp y
skÃ¤r m
Ġexpla ins
ĠStew ie
Ġaggress ive
Definit ely
Definit ivt
ĠBat man
Ġminim um
Ġleks ak
ĠWhit ney
ĠstÃ¤m ningen
Ġrepa ir
Ġunh appy
Ġdismiss ed
ĠsÃ¤k rare
Ġastron aut
Ġmic ro
Ġje ans
Ġhelik opter
ĠBeh Ã¶ver
Ġkoka in
ĠMuld er
ĠplÃ¥n bok
Ġuppre pa
ĠsÃ¤s ong
Ġkron or
Ġkonk urr
Ġrobber y
Ġapt it
Ġcris is
Ġskild e
ĠVÃ¤l kommen
quar ters
Ġeleg ant
ĠSha un
Ġkines iska
ĠomstÃ¤nd igheterna
ĠNob el
Ġkommunic era
Ġign ore
Ġresur ser
ĠAlph a
Ġdefin ition
ĠPrin cess
ĠtÃ¥rt an
Ġfra ud
Ġri bb
Dum ma
Ġchauff Ã¶r
Ġuppd ater
Ġexha ust
Ġprev ious
ĠMarga ux
Ġinterrog ation
Ġgarderob en
ĠvÃ¤v nad
ĠCT U
ĠPeng uin
Ġconc ert
ĠvÃ¤d ret
Ġancest ors
Ġchocol ate
Ġcoca ine
ĠfÃ¶rmÃ¶gen het
fgh an
tement et
ĠBudd ha
ĠGoth am
ĠÃ¶verenskomm else
Ġgrou ps
ĠCaliforn ia
ĠOAK LEY
ĠWats on
2 9
3 7
6 2
6 8
A ri
A ye
A IT
B M
B re
B ort
B jud
B eth
B reak
B etyder
C Y
C ir
C ap
C os
D a
D AY
D essa
D Ã¶rren
D ylan
E vent
G B
G Ã¶m
G ary
G EL
H op
H Ã¶g
H aw
H istor
H ands
H ittade
H aving
I LE
I morgon
J A
J erry
J odÃ¥
K at
L ou
L il
L ola
M ont
M ommy
N jut
R el
R od
R oy
S us
S ist
S Ã¶k
S ummer
S IGH
S ays
S ista
T vinga
T ekn
U ng
V al
V akna
W alk
W omen
b Ã¶
b oth
b ana
c ens
c ated
d ies
d Ã¶m
d Ã¶d
d ale
e ath
f em
f our
f ashion
f Ã¤ltet
f lott
f aced
g t
g al
g na
g ra
g ers
g lÃ¶m
g jorde
h ill
h our
i ol
i able
i als
i ago
i juana
j Ã¤ll
j ug
l am
l Ã¤m
l Ã¤ng
l ades
l orna
l Ã¤s
m es
m Ã¥n
m ud
m aster
n on
n ic
n ats
o a
o i
o ons
p ent
r ans
r Ã¶st
s ay
s ak
s Ã¤tt
s ug
s ighs
t as
u le
u va
v Ã¥r
v art
v attnet
w ang
w ater
z io
¿ ½
ï ¿½
ģ ngel
Ġt ig
Ġt as
Ġt Ã¤nda
Ġt Ã¤cka
Ġt ension
Ġt omma
in sp
in nan
in occh
Ġs oup
Ġs orters
Ġa ver
Ġa kade
Ġd ime
Ġd rev
Ġd rew
Ġd well
Ġd jÃ¤v
Ġh ant
Ġh ett
Ġh att
Ġh ats
Ġh ets
Ġh olog
Ġh ugg
Ã¤ x
ar se
ar med
Ġm oo
Ġm ull
Ġm att
Ġm Ã¥ng
Ġm ouse
Ġm ugg
Ġm Ã¤ss
Ġm Ã¤ngd
ou red
an an
an as
an qu
Ġf ling
Ġf ient
Ġf law
Ã¥ dde
Ã¥ ket
Ġb our
Ġb att
Ġb ark
Ġb ikt
Ġb ubble
on n
Ġw arn
Ġw aking
Ġw rist
Ġw ives
Ġw ax
it tee
Ġv est
Ġg oog
Ã¤r na
re al
re pp
re de
Ġp i
Ġp ity
Ġp ushing
Ġp yramid
Ġy nk
Ġn Ã¶t
Ġn aken
Ġn az
Ġl at
Ġl Ã¤nder
Ġk g
Ġk ud
Ġk ab
Ġk reat
Ġk oden
Ġo ber
Ġin tact
Ġc able
Ġc ents
Ġc akes
Ġc ement
Ġto e
tt ar
Ã¶r erna
ĠI ra
ĠI rene
Ġj ew
ĠÃ¤r liga
ch ant
ch eck
es en
es on
as a
Ġu ne
el ena
ot hing
id ers
Ġdu ger
Ġbe am
Ġr und
Ġr av
Ġr eng
ĠfÃ¶r k
ĠfÃ¶r Ã¶d
ĠfÃ¶r gÃ¶ra
am ot
Th or
Ġst Ã¤r
Ġst ing
Ġst ip
Ġst ats
Ġst ain
Ġst ones
Ġe arn
Ġe pic
Ġand re
ut o
Ġsk atten
Ġsk Ã¤mta
Ġsk elet
Ġwh istle
Ġme as
Ġha ird
ra cy
Ġvar ar
Ġhar sh
Ġhar med
ĠS W
ĠS ly
ĠS EN
ĠS andra
ĠS weet
ĠS Ã¤kert
ĠS ullivan
Ġis Ã¤r
Ġre ci
ur ora
Ġfor k
Ġfor ms
and ro
ro v
ro it
ro be
Ġli on
Ġwe b
ĠM ia
ĠM AY
ĠM oses
ĠM onsieur
Ġde als
Ġde alt
Ġde prim
Ġmed al
ĠH O
ĠH om
ĠH od
ĠH ood
ĠH ass
ĠH ang
ĠH elt
ĠH AS
ir en
Ġfr ame
Ġfr Ã¤ls
Ġtill it
Ġtill tal
ter as
Ã¥n ar
Ġsh ed
Ġsh ove
Ġsh uttle
Wh ether
ĠA qu
ĠA mber
ĠD I
ĠD itt
ĠD ane
ĠD ET
ĠD odd
ĠD ylan
ĠD oyle
Ġvi b
Ġvi c
ĠhÃ¤r ligt
ĠhÃ¤r nÃ¤st
ĠC re
ĠC ut
ĠC ry
ĠC ool
ĠC lev
ĠC ongress
ĠC ongratulations
ĠC asey
ĠC ruz
ett s
ĠB le
ĠB yr
ĠB rist
ĠB RE
ĠB erg
ol ve
ĠsÃ¥ s
de f
de z
Ġnot hin
sk as
sk orna
sk Ã¥pet
ct ive
ack ed
ly st
kt ober
Ġtr ump
Ġtr unk
Ġtr oops
Ġav gÃ¥ng
Ġav delningen
Ġav slapp
ea ce
ea per
ĠT ills
ĠT roy
ĠT RA
ĠT oday
ĠT rek
ĠT oppen
ĠT AKE
ĠG em
ĠG io
ĠG ail
ĠG amb
ĠG IVE
ĠG avin
ĠG reta
ĠG loria
ĠN er
ĠN ine
ĠN Ã¤sta
ĠN IGHT
ĠN ARRATOR
ĠN ixon
op er
ĠL ing
ĠL ed
ĠL em
ĠL ud
ĠL ass
ĠL ife
ĠL enny
li vet
ĠJ O
ĠJ in
ĠJ as
ĠJ os
ĠJ app
ĠJ AG
Ã¤tt en
ste ban
Ġab ort
ĠO H
ĠO k
ĠO ther
Ã¥t en
Ġso il
ĠP as
ĠP and
ĠP ink
ĠP ass
ĠP rat
ĠP res
ĠP olly
ĠP acey
Ġvill ain
Ġman uf
Ġman ifest
ff ins
ell i
ĠF u
ĠF ay
ĠF ound
ĠF lo
ĠF eel
ĠF ortsÃ¤tt
em ed
em bers
Ġsp Ã¤nd
Ġch ew
Ġno vel
Ġno tes
ĠgÃ¶r s
Ã¥g or
ul in
ĠR ING
ĠR andy
ĠR ico
ĠR ollins
ĠR upert
ĠR eddington
ie g
Ġher d
ĠK a
ĠK u
ĠK on
ĠK ul
ĠK ey
ĠK ung
ĠK erry
ĠK apten
Ġpl ot
Ġpl ants
ĠÃ¶ stra
ĠV ern
ud ing
ud ent
Han k
ĠmÃ¥ dde
ab out
fÃ¶r ing
Ġhel s
Ġhel icopter
Ġpro ven
Ġsu e
Ġpr ince
ans as
Ġupp er
Ġupp rÃ¤tt
Ġupp fatt
ker na
end ous
end ern
ge ance
Ġbr Ã¥d
ĠW ars
ĠW ork
ĠW ERE
Ġex it
Ġsl Ã¤ngde
Ġle ker
la ced
Ġback s
Ġback ed
Ġback wards
ner na
att s
Ġund erest
Ġoff ra
Ġoff ers
Ġoff entligt
ass istent
qu ir
ord nade
ĠÃ¶ver grepp
Ġgr Ã¥
Ġgr ay
Ġgr Ã¶n
Ġfe ather
ĠdÃ¶ ma
per or
per iment
av is
Ġhand lingar
lo pp
ide on
lar m
Ġun w
Ġun fortunate
ik s
ik al
Ġpre m
Ġpre par
Ġtalk in
Ġsm et
Ġsm iling
Ġpe kade
ĠvÃ¤n ligt
ci ety
ĠCh u
En g
isk ar
Den na
yck te
ĠgÃ¥r d
ĠHe art
Ġkom pl
ĠÃ¥ ld
ĠU r
ĠU ber
ĠU ND
Ġim it
ree ze
Ġhitt ills
man tel
Ġgl ory
Ġny kter
ĠDu ke
Ġmor s
Ġmor on
ĠSt ill
ĠSt ra
ĠSt ockholm
Ġte ori
ĠVi ck
kar l
Ġju li
Ġfl atter
Ġkl ump
Ã¤ck ar
Ã¤ck ande
Ã¤v ar
ond en
Ġsc rap
Ġsn ett
Ġsn iff
ĠvÃ¤r der
Ġperson s
Ġperson lig
ĠÃ¥r ets
Ġstr iden
Ġpol ite
Ġpol arn
ĠtvÃ¥ a
ĠdÃ¶d as
sl or
sl uta
Ġbad ge
Ġmiss foster
Ġper pet
ĠrÃ¤tt vis
Ġfun kade
Ġro omm
vis ade
Ġbarn vakt
Ġtra um
Ġtra kten
Ġdel ade
ĠsjÃ¤lv isk
Ġbu ys
kl us
kl Ã¤d
Ġwr it
Ã¤ld e
Ġsec ure
Ġag ents
Ġag enda
Ġverk ligheten
ors aken
Ġrem arka
Ġph il
Ġph rase
Ġpar as
Ġpar ole
ier ce
Ġad jÃ¶
Ġty per
Ġmust n
Ġled ning
Ġled ningen
Ġco in
Ġco ordin
Ġ3 4
Ġ3 9
Ġtri st
ung ar
bet al
OU S
Ġplay ers
Ġimp uls
Ġbes Ã¤tt
ĠSh el
ĠlÃ¤ ppar
vet te
Ġsex uella
Ġsex uellt
Sk ojar
Ġcomp ound
Ġste get
Ġdri cks
Ġdri vers
AN E
Ġbeing s
Ãħ ter
Ãħ tta
AT CH
Ã¶d en
Ġinf l
akes pe
Ġapp le
Ġapp ly
ĠÃ¤ pp
-- ?
rÃ¤ det
ĠkÃ¶ n
ĠMar is
ĠMar ion
Ġbro cc
Ġkont anter
Ġworld s
Ġexp ose
Ġkall ad
Ġfull stÃ¤ndigt
gr an
gr ader
Ġly da
Ġly fter
Ġfil thy
ph ere
ĠjÃ¤v las
Ġma ff
ask Ã¥pet
ork ade
ĠlÃ¤g ret
Ġlik ing
Ġdes ire
Ġland ade
Ġweek ends
ump or
Ch ase
Ġdro pping
Ġter apeut
Ġcr own
Ġcr ashed
res ult
alt ies
Ġreg net
ert o
AR Y
Ġrikt ning
Ãĸ nsk
Ġmet e
OR G
my nd
ĠrÃ¶ nt
ĠDo ktor
sy stem
Ġfix ing
unt ing
Ġ20 15
Ġbur den
itch es
Ġdeal ers
Ġry kten
Ġtest er
ĠIs rael
Ġdef ending
Ġbry ggan
Ġkr iminal
Ġob du
Ġvin tern
Ġvin naren
olog iska
Ġswe ater
Ġveck orna
Ġspr it
Ġspr ut
nat ur
Ġdra ft
Ġskick as
Ġ6 00
Ġprom en
Ġlug nar
ĠBe ar
ĠBe ethoven
Ġstud ion
ĠAr m
ĠAr ch
ĠAr chie
iet y
ĠvÃ¤ der
Ġpick s
Ġhum ili
ĠhÃ¶g l
ĠhÃ¶g st
ĠhÃ¶g het
Ġhuvud vÃ¤rk
Ġfre aks
ĠBl an
Ġskad at
Ã¤k ra
Ġart ists
Ġstick s
ilt on
ST E
Ġtel eph
Ġsent iment
Ġali as
Ġinv and
Ġsol o
Re al
iff en
iff any
Ġfig ur
Ġfree ze
Ġfree zer
Ġchans er
Ġ19 5
ĠhÃ¶ v
Ġrad ical
Ġinc lude
Ġlight ing
ĠfÃ¶rut sÃ¤g
Ġrum pa
Ġadv okater
Ġbor der
Ġaw fully
ĠlÃ¶ ften
Ġroll en
ĠChrist ina
Ġdy gn
Ġdy nam
erg io
Ġexper iments
head ed
itet en
Ġru ining
Ġben ch
amer ika
ĠidÃ© n
Ġfollow ers
Ġcons ult
Ġcons cience
Ġhalf way
Ġmod iga
dr Ã¤kt
dr aget
Ġcor oner
Ġinterest s
ffic ient
ĠfÃ¶rÃ¤nd ring
ĠfÃ¶rÃ¤nd rades
ĠSc ar
ĠJu an
Ġalong side
ĠOr ange
Br it
Ġair port
Ġair craft
kn iv
Mar co
ĠmÃ¤r ka
Ġdist ress
Ġsmart a
Ġ7 00
Ġhy brid
Ġflo at
ĠHer ren
Ġlad s
ĠPr itch
Ġstol thet
Ġscen es
ĠFor get
pro du
ball s
Ġcent re
Ġcent rum
ĠdrÃ¶m de
ĠÃ¤g are
Ġanswer ed
ID E
Ġtw in
Ġtw ins
Ġpack ing
Ġpack ed
ĠIN TO
Ġdam aged
Ġche ating
Ġz oo
Ġhop ed
Ġexc it
Ġtyp iskt
Ġcatch es
Ġrisk s
Ġnear by
Ġpen et
Ġpen na
mÃ¤r ken
Ġvak terna
ĠfÃ¶rf Ã¤der
ĠfÃ¶rf Ã¶lj
Ġmob b
Ġmob ile
Ġfund erade
Ġrob bed
ific ate
ĠWH Y
ĠAng ie
ĠmÃ¶r ker
Ġpain ful
bil ar
Ġbill ig
ĠAb u
Ġnatur liga
ĠrÃ¤k nade
Ne ither
Ste ph
Ġgri ef
Ġprodu cer
Ġident ity
ĠQu ick
fr om
fr ont
Ġknapp en
str Ã¶m
ĠMon roe
ĠfÃ¶rstÃ¶r t
Ġgener ous
Ġdisk en
ĠhÃ¤ x
ĠursÃ¤kt ar
Ġtapp a
US A
Ġdjur en
ĠPet erson
que z
Ġrym de
Ju an
Ġthreat ening
ĠMike y
fy ra
Ġtillf reds
ĠAnt oine
ĠGO D
Ġcreat ing
Ġcreat ure
ĠAtt orney
IL D
Pol is
Ġmach ines
Ġbelong ed
Ġhall way
Ġsov rummet
Ġsuspect s
Ġsuspect ed
Ġbri ster
Ġport al
Ġjack a
Ġbesk ri
Ġbesk riv
Ġenk la
ĠGen e
Ġdeser ved
Ġspark ar
Ġblow ing
Ġinvit ation
umb led
Ġbehand las
ĠrÃ¥ tta
Ġtving ades
Ġadvokat en
Kl ara
ĠÃĦ lsk
Ġtred j
Ġpiss ing
VÃ¤l komna
Ġstuck it
Ġteach ing
Ġceleb r
Ġceleb rating
ĠRE M
Ġguld et
Ġlay ing
Ġcous ins
cl ass
Ġow ns
Ġir lÃ¤nd
ĠstÃ¤ng de
Ġneck lace
rÃ¤ff ar
Ġaccount s
fil mer
Ph one
Ġkamer orna
Ġot ill
Ġcivil is
Ġfield s
ĠLuc ifer
ĠRobert o
Try ing
Ġmotor vÃ¤gen
Ġpsyk olog
Ġfing rar
Ġfing rarna
Ġkross ade
ĠEr in
ĠfÃ¤rd igt
ĠMo ore
ĠmÃ¤nsk ligheten
rÃ¤d ande
Ġsten en
Ġlaugh ed
Ġmamm or
eld on
ĠTed dy
ĠTra cy
ĠNor man
ĠfÃ¶rbann else
Ġinnoc ence
Ġvol can
ĠfÃ¶rber eder
ĠfÃ¶rber eda
Ġknull ar
Ġknull ade
ĠstÃ¶ ter
Ġkidnapp ing
Ġkontroll en
Ġklo k
Ġlog iskt
ĠCarol ina
Ġfj Ã¤der
Ġmyster ious
WE LL
ĠtvÃ¤tt ar
Ġcirc us
Ġjournal ist
Ġdubb elt
ĠRock y
ĠfÃ¶rvir ring
ĠlÃ¥n ade
Ġlang are
ĠBea ch
lyn n
Ġabs urd
Ġsabb a
Ġcomb ination
Ġhug ger
ĠhÃ¶j er
list an
Ġspread ing
Ġorsak ade
Tur ns
gif terna
lÃ¤gg ande
Ġfran c
Ġfran sk
Lo va
gas ps
Ġax el
Ġkniv h
Ã¡ n
Ġdev ast
ĠCom ing
ĠEurope an
Ġsorg ligt
Ġeftermidd agen
Ġperform ed
Ġartik eln
Ġhungrig a
Ġvag nen
Ġvag ina
Christ ian
Ang el
Ang Ã¥ende
Ġdator er
Ġlys er
ĠRon ald
ĠKl art
Ġplock a
hav are
Ġupplev t
ĠsamhÃ¤ll e
Ġtransfer red
Ġram lade
ĠDor othy
ĠDub ai
Ġschem e
Ġschem at
Ġpill ow
Ġink rÃ¤kt
ĠIng enting
esp ite
Ġplac ed
Ġserv ant
Ġteen ager
minister n
Ġenc our
Ġque er
__ __
ĠSP E
Ġsheriff en
Ġloyal ty
Ġnin ja
Ġeur o
Ġanl ita
ĠOb ama
ĠPac ific
Ġtwist ed
Ġchampion ship
Ġirrit erande
Fri ends
Fakt iskt
President en
stand ing
Ġkur sen
ĠpÃ¥ver ka
Ġtras ig
ĠLaw rence
Ġarch ite
Ġflask an
ockh art
Ġvett igt
Ġlav a
Ġcondu ct
ĠSecret ary
San ningen
ĠsÃ¤m sta
Ġfright ened
ĠCir cle
Ġkork ad
Ġkork ade
ĠHum an
Ġambass ad
Ġtatu ering
Ġpj Ã¤s
ĠnÃ¤ sa
ĠAG AIN
ĠDis ney
ĠbestÃ¤ll ning
Ġmultip le
Clar k
Ġsly na
Ġbens in
Ġanony mous
Ġlip stick
Ġbritt iska
slin jen
Ġdiscipl in
Ġpurch ase
Ash ley
MÃ¤nnisk or
ĠÂ £
Ġecon omy
rapp ort
Ġank le
ĠtrÃ¶ tta
Ġfinan cial
Ġpublish ed
HjÃ¤l per
Nic ole
Ġhiss en
Ġosyn lig
Ġinj ured
ĠpÃ¥verk ade
ĠEsc ob
Ġnewsp aper
Ġframt ida
ĠPhill ip
Ġtelefons amtal
Ġborgm Ã¤stare
Ġfrag ile
Ġdesp ite
Ġdyg net
Ġoccur red
Ġsamm ant
Ġbis cuits
Ġpy jamas
Ġanty der
Ġneut ral
Ġcancel ed
ĠOff ice
Ġpremi Ã¤r
Ġinfly tande
Ġentr ance
Luck ily
Ġwra pped
Ġoer hÃ¶rt
Ġce iling
Ġscri pt
ĠjÃ¤ttef in
Ġkonsekven serna
ĠStarf leet
fig ur
Ġpow der
ĠSjÃ¤lv klart
ĠEmm ett
aval ry
ĠÃ¥tgÃ¤r der
Ġmajest Ã¤t
Ġbedrag are
ĠSpir it
prof ession
Ġexcl usive
ĠmÃ¥ltav la
Ġfurn iture
ĠHend erson
ĠbrÃ¤ns le
Ġdemoc racy
Ġschol arship
Ġsurviv ors
call ed
Ġwhe els
Ġdestru ction
ĠServ ices
ĠAtlant ic
Ġperspekt iv
ĠAssoci ation
fghan istan
fashion ed
inocch io
Ġholog ram
Ġstip end
Ġreci pe
ĠClev eland
Ġmanuf act
6 9
7 5
A ah
A aron
B L
B it
B am
B all
B ud
B ild
B Ã¤sta
B Ã¤ttre
B ella
B rott
B arry
C am
C ry
C OME
C ongratulations
C onsider
D i
D ay
D oug
D jÃ¤vul
E arl
E rik
F Ã¤r
F un
F und
F ire
F jÃ¤r
F air
G L
G or
G etting
G reen
H os
H ouse
H ittar
J ennifer
K ing
K al
K ry
K rig
K illar
K larar
L ag
L ot
L au
L ock
L ever
L illa
L aw
L ift
L ots
L ila
M E
M od
M att
M ia
M ER
M akes
M ask
N Ã¤
N ine
N amn
N ya
O wen
P O
P oint
P arty
R et
R ose
R ub
R eb
R ita
R AD
R aven
R elax
S al
S av
S aken
S outh
S Ã¤ker
S usan
S ophie
S narare
T ina
T aylor
T iger
U P
U LL
V A
V itt
V IN
V AR
V Ã¤nner
V Ã¤ntar
W O
W alt
W olf
a a
a way
a jen
b at
b out
b un
b uck
b est
b lar
b ring
b urn
c H
c r
c ine
c orn
c ula
d Ã¤r
d ad
d ock
e h
e z
e ger
e aring
f u
f uck
g ad
g age
g den
g jort
h h
h is
h im
h aw
h olm
i ella
j Ã¶r
j orden
k ur
k ers
k od
k Ã¤nd
k att
k alla
k illen
k rÃ¤m
l Ã¤r
l Ã¤n
l aget
l Ã¤mna
m ate
m odligen
n in
n ick
n ivÃ¥
o sk
p it
p art
p ers
p orts
p endent
p rah
p iece
r un
r ens
r Ã©
s it
s se
s ix
t et
t is
t ra
t ion
v ant
v ol
v ning
v arna
v els
w ill
w ick
w est
w ide
x ury
y ing
y ah
Ã º
Ä º
â Ħ
Ġ Ãĥ
Ġ âĢĶ
Ġt ut
Ġt Ã¥n
Ġt ant
Ġt oug
Ġt ub
Ġt Ã¤cker
Ġt orr
Ġt ires
Ġt astes
Ġt isdag
Ġs Ã¶g
Ġs oph
er m
Ġa ward
Ġa kta
Ġa pril
Ġd ot
Ġd ough
Ġh mm
Ġh unch
Ġh unnit
en en
en ch
en cy
Ã¤ ften
ar o
ar us
Ġm ant
Ġm Ã¶ts
Ġm juk
ou ri
et ent
an nan
Ġth ou
Ġth irsty
Ġf ett
Ġf are
Ġf ian
Ġf uss
Ġf lex
Ġf lipp
Ġf oul
Ġf Ã¤lt
Ġf Ã¤ltet
Ġb ik
Ġb iz
Ġb aren
Ġb alen
Ġb ounce
Ġb ugs
Ġb lyg
Ġw el
Ġw eld
Ġw ipe
Ġw aves
at re
at iv
Ã¶ dd
or ker
or ma
it ets
om ed
om rÃ¥det
Ġv ast
Ġv oting
Ġv rede
Ġg ut
Ġg oo
Ġg ir
Ġg oose
Ġg uts
Ġg Ã¤llde
Ã¤r er
Ã¤r ke
ing a
ag i
ag u
ag ner
ag ues
st Ã¤
st il
st ack
st ats
st able
re mer
re sh
Ġp oo
Ġp omm
Ġp est
Ġp imp
Ġp oop
Ġp etition
Ġn ud
Ġn Ã¤t
Ġn Ã¤mna
Ġn anny
Ġl un
Ġl ob
Ġl ind
Ġl era
Ġk ed
Ġk os
Ġk ard
Ġk ys
Ġk lev
Ġk atter
Ġk ejs
is se
Ġo vÃ¤nt
Ġthe ories
Ġc unt
Ġc ities
Ġc odes
Ġto an
Ġto ol
Ġto ward
Ã¶r nen
ad da
ad way
ĠI ce
Ġj an
Ġj ub
ch ild
te z
te xt
te sy
ill in
as is
Ġu rs
Ġatt ity
el er
el igt
el ope
ow ell
al ade
al ty
Ġbe ans
Ġbe ard
Ġbe ats
Ġen orma
Ġr if
Ġr Ã¤ck
Ġr ida
Ġr igg
Ġr ipped
Ġr hythm
ĠfÃ¶r akt
ĠfÃ¶r gift
Ġof tare
am o
am od
ke ys
Ġst ere
Ġst are
Ġst up
Ġst unt
Ġst ubb
Ġst Ã¥tt
Ġst rikes
Ġe ats
ver ige
ut ions
pp ade
Ġsk an
Ġsk iv
Det samma
Ã¤n are
Ã¤n ge
ĠpÃ¥ se
ĠpÃ¥ gick
Ġvar elser
Ġhar vest
ĠS ick
ĠS end
ĠS ue
ĠS we
ĠS lut
ĠS ammy
ĠS verige
Ġre ar
Ġre un
Ġre ly
im er
ur k
ur ate
ur ies
se e
Ġan stÃ¤lla
Ġhe ars
Ġli ver
Ġdo ften
Ġwe ars
all et
ĠM uff
ĠM ED
ĠM Ã¥ste
ĠM egan
ĠM anson
Ã¥r et
Ã¥r den
Ġall as
ĠH ind
ĠH eaven
ust in
Ġmy t
ak istan
Ġtill verk
Ġtill gÃ¤ng
Ġsh ap
Ġsh orts
Ġsh ining
Ġsh utting
Wh ite
Ġwas hing
ĠA ah
ĠA fghanistan
ĠD al
ĠD EN
ĠD rop
ĠD awn
ĠD OWN
ant ing
ĠC u
ĠC ou
ĠC ur
ĠC ro
ĠC oll
ĠC ody
ĠC row
ĠC HE
ĠC ec
ĠC ompany
ĠC EO
itt Ã©n
Ġkan in
Ġkan on
Ġkan al
ĠB Y
ĠB in
ĠB ed
ĠB oo
ĠB os
ĠB est
ĠB lo
ĠB ath
ĠB ring
ĠB alt
ĠB oss
ĠB elle
ĠB aker
ĠB urt
un ters
un ities
sk ning
sk ift
Ġwith draw
Ġmin s
Ġmin uten
Ġav rÃ¤tt
Ġav fyr
ea vy
ĠT it
ĠT ab
ĠT ER
ĠT UR
ĠG lock
ĠG ates
ĠG reek
ĠG ideon
ĠN et
ĠN ich
ĠN iger
ĠN anny
ĠN orton
ĠN ASA
th en
ĠL an
ĠL ea
ĠL ars
ĠL ib
ĠL odge
ĠL loyd
ĠL ockhart
li a
li ff
ĠJ Ã¤tt
Ã¤tt e
Ã¤tt ar
ĠO l
ĠO UR
ic ip
Ġso ck
Ġso le
Ġso ap
Ġso aked
ĠP H
ĠP i
ĠP il
ĠP itt
ĠP un
ĠP ond
ĠP oint
ĠP LA
ĠP ardon
are st
ink a
ĠF a
ĠF i
ĠF ly
ĠF ind
ĠF ix
ĠF orm
ĠF let
ĠF idel
ĠF ederal
ĠF iona
Ġsa x
ry n
Ġsp ect
Ġsp anska
od in
um et
um pa
um pen
Ġch ase
Ġno ises
Ã¥g et
ka pp
Ġhere by
our se
Ġut pl
Ġut gÃ¥ng
ul ent
ul ated
ĠR ig
ĠR ams
ĠR amon
ook y
And y
ie ves
ne ys
ta ils
Ġfin na
ist ing
ood le
ĠK h
ĠK le
ĠK ina
ĠK iller
ĠK athy
Ġpl att
Ġor g
Ġwor m
ĠÃ¶ ster
ĠE h
ĠV Ã¤n
ĠV ol
Ġ" ...
ud ar
Ġbl und
Ġbl ott
Ġbl ows
oug e
fÃ¶r et
Ġlo ver
Ġlo ft
Ġlo cka
Ġlo cker
Ġdin osaur
Ġpro ff
Ġpro var
Ġpro ved
Ġsu bba
Ġpr on
au reen
Ġupp ror
Ġupp off
Ġupp fy
Ġupp hets
Ġif all
end o
Ġus el
he e
Ġbr id
Ġar ga
Ġar ena
Ġar sle
Ġshe et
ĠW u
ĠW ol
ĠW agner
Ġex agger
Ġsl et
Ġsl it
Ġsl ide
Ġsl ita
Ġsl Ã¤nger
Ġsl iter
uck a
Ġas yl
Ġle ve
Ġle ague
Ġback ing
ner y
att ad
Ġsig ning
ass ion
ank y
Ġcon ce
Ġcon vers
De ep
De bbie
Ġdem oner
Ġwere w
ĠDet ta
Ġbo g
ens on
ĠÃ¶ver st
ĠÃ¶ver sten
ĠÃ¶ver lÃ¤g
ĠÃ¶ver ordnade
Ġgr am
Ġfe ber
ble ep
Ġcom pl
Ġcom edy
Ġta j
Ġta ct
Ġunder ground
FÃ¶r modligen
Ġun ik
Ġun ique
Ġser ial
Ġser iÃ¶st
ik ar
ik lar
ĠdÃ¥ re
Ġdr one
Ġsm ick
Ġsm Ã¥ning
be vis
be hand
ĠY ard
ĠY anke
Ġhapp ily
Ġtv Ã¥ng
ci ellt
ĠCh ap
SÃ¥ ja
Ġshould ers
Ġvis et
Ġover wh
Ġam mo
ĠHe ar
Ġsv amp
Ġsv aga
sp ort
Ġpo le
Ġkom a
Ġkom b
og ue
ĠWe stern
akt igt
Ġefter namn
ĠU kra
St Ã¤mmer
Ġsak ta
Ġsak nad
Ġjobb iga
amil ton
Ġmu ffins
ĠSt art
Ġmot ive
Ġmot iver
Ġmer ely
Ġfl ed
Do ktorn
ress ive
Ġel der
How ard
iz za
Ã¤v ling
ond o
ang le
Ġstor men
Ġsc ans
Ġsc atter
ĠhÃ¶r n
Ġtro gen
Ġtro phy
Ġtro sor
Ġfri ed
ster oid
Ġsn odde
ĠsjÃ¤l en
Ġbef ria
Ġdi ct
Ġsy d
Ġsy nas
Ġsy skon
ance y
Ġpol ar
ĠdÃ¶d lig
Ġfick an
sl Ã¶sa
pl os
ac o
ac y
ac ity
lev el
ile en
Ġspe gel
Ġper f
Ġper mit
ikt ig
Ġcl ues
Ġro ot
Ġro ots
gg ed
Ġact ress
Ġtur ner
Ġtur bul
Ġdis m
Ġdel Ã¤gare
Ġbit ar
Ġbit ter
Ã¶j an
Ġfa int
Ġfa ctor
Ġass ess
ĠTH OUGH
ĠJa x
Ġins ert
Ġfly get
ey la
ĠDe b
ĠDe vil
Ġreal ise
Ġtj ugo
Ġann ons
ĠGod s
Ġbelie ving
Ġco ke
Ġspel are
Ġ3 8
Ġ3 000
Ġlit ade
Ġlit ter
Ġbes Ã¶kte
ĠSh all
ĠSh ane
Ġsch ysst
ĠlÃ¤ karna
Ġem ellan
Ġord inary
Ġcomp ared
Ġste el
Ġste ep
ĠHar lan
Ãħ r
Ġbre eding
Ġrep res
Ġrep laced
Ġsky m
Ġres idents
ĠkÃ¶ ns
Ġelse where
Ġsit com
Ġstop s
Ġmeet ings
gr ad
gr im
Ġacc ompany
Ġacc urate
RE N
Ġfil ed
Ġma id
ib s
ib ilities
ask an
aught ers
Ġgra ven
vÃ¤r re
ĠBr ady
ĠBr enda
ĠBr uno
so ever
ĠlÃ¤ng esen
Ġskri ft
Ġcomm ander
Ġcomm ission
Ġdiffer ences
ĠAl fred
Ġmet oder
ĠberÃ¤tt elsen
OR N
jud et
ator er
ĠCar roll
Ġbur st
Ġbur ger
Ġgenom s
ĠhjÃ¤r nor
An n
ĠsÃ¶ tt
ĠsÃ¶ ner
Ġry ska
ĠrÃ¤dd ning
Ġbar be
ĠstÃ¤ll t
Ġpoint ed
ĠEn ough
ĠMa e
Ġvin nare
Ġcount s
Ġcount y
Ġswe at
Ġspr id
Ġspr ay
Ġspr ung
Ġspr iten
stÃ¤ll de
Ġskick ades
Ġ6 4
ĠLe ague
pr om
pr int
ĠfÃ¶rlor ad
Ġinne hav
ĠAr gent
Ġgam bling
ĠvÃ¤ skor
Ġkonst ru
ĠÃ¥ter stÃ¥r
ĠÃ¥ter igen
ĠhÃ¶g ra
Ġdit Ã¥t
Ġconf using
Ġhuvud en
som helst
ĠBl ood
az or
ĠSe x
nings f
Ġprote in
ĠSte lla
ST ER
Some where
Ã¶k an
Ġhigh way
ĠRe c
ĠRe agan
Ġwonder ed
Ġemot ions
Ġrel ations
ush i
utt ers
Ġfree zing
Ġskol or
Ġdess utom
Ġlu kta
Ġlu xury
ĠSk icka
ron ic
Ġadv anced
Ġfant asy
uss en
erest ing
Ġmark ed
ĠChrist opher
par tementet
Ġfot ografer
Ġspeak s
Ġsuper her
br Ã¶d
Ã¶l ja
air y
Ġang ri
Ġball oon
Ġsend s
Ġbuild ings
ĠmÃ¶rd at
ĠtjÃ¤n ste
ĠtjÃ¤n sten
ĠmÃ¶j lig
ĠfÃ¶rstÃ¥ nd
Ut om
ĠfÃ¶rÃ¤ld er
Sp ela
dr agen
Ġlaw s
Ġidiot en
Dr Ã¶m
Ġgrund lÃ¤ggande
init ely
Ġinst it
Ġinst itution
Ġlyss nat
IG T
ĠSc otland
kan er
Ġshoot er
Ġbuy er
oun tain
Ġoper a
Ġoper ate
Ġkon versation
Ġform al
ĠAd jÃ¶
Ġcontro lled
Ġ9 3
Ġmist aken
Ġcur sed
van ia
Ġ7 5
ĠmÃ¶ bler
Ġpast or
hand ed
ĠHer b
ĠBen ny
ĠBen jamin
Ġlad der
rott ning
ĠPr etty
ĠPr inc
Ġstol ta
ĠFor rest
Ã¤d rar
ĠMc N
pro blem
room s
ĠÃ¤g od
ĠCl ara
Ġrelation er
Ġbank rupt
Ġtrev liga
Ġanswer ing
Ġtw enty
Ġless ons
Ġhor ny
ertain ly
Ġstat ist
Ġhop eless
Ġinsp ekt
Ġinsp ektÃ¶r
Ġintress en
Ġsick ness
ĠCon n
ĠMart a
Ġsell s
Ġspend era
oul son
Ġcontrol s
arl ett
Ġmad ame
amb ers
mÃ¤r ke
Ġvak ta
Ġcol our
FÃ¶rs vinn
las ka
ĠgÃ¶m d
Ġreport ing
ĠTe ch
Ġbeslut at
Ġlab b
Ġenerg in
Ġbygg des
Ã¶n are
Ġeff orts
Ġeff ective
EL F
Ġjud ar
ĠRo z
ĠRo om
Ġgrabb ed
bil j
Ġskydd ade
ĠrÃ¤k nat
Ġopp osed
Ġcry stal
Ġmeddel a
Ġfair ly
Ġconne ctions
Ġident itet
Ġflyg plan
ĠQu in
Ġkontakt en
Ġpublic ity
Er t
ĠTy vÃ¤rr
Ġslog s
Ġtext s
Ġtext en
Fin ally
Ã¥s ar
Ġrequ ired
Ġspeci ella
Ġsurv ival
Sam antha
Ġill usion
add ock
Ġham mer
Ġcoff in
ĠNe ed
ĠNe al
ĠON LY
ĠPol and
bit ar
Ġthreat en
ĠBo om
Pre pare
ĠEli jah
Ġ11 0
ĠJuli us
Tom as
kor ea
ĠST E
Ġdestroy ing
Sm Ã¥
Sm all
Ġban ana
Ġhall en
ĠtrÃ¤n at
Ġloss es
Ġvir al
oph ia
Ġbland ar
Ġbri cka
Ġcross ed
Ġutt rÃ¥k
ĠHE Y
ify ing
Ġsnack ade
ĠMel issa
ĠMel anie
ĠFre ddie
ĠFre derick
Ġors aken
Ġkraft full
Ġesc ort
Pr in
Tro ligen
orr h
ĠvÃ¥g ade
cep resident
vÃ¤ xt
Ġ0 8
Ġsoul s
ĠfrÃ¤m lingar
ĠfrÃ¤m mande
Ġspark ade
Ġarri ves
Ġtrack ing
Ġgrej erna
Ġhom eless
ĠAm anda
ĠrÃ¥ der
Should n
Ġsens ors
ĠfÃ¥ng at
Ġjul en
ĠMay or
Ġutom lands
Ġfool ed
Ġvers us
Ġneigh bour
Ġconcer ns
Ġprep aring
Ġgirlfriend s
Ġansikt en
Ġteach ers
ĠRE AL
ĠRE ALLY
ĠvÃ¤rd ighet
Ġinse kter
ĠEvery body
Ġfatt ig
ĠpÃ¥min de
Tj ej
itu ationen
ĠsÃ¤ll synt
Ġcust omer
Ġanklag ad
Ġanklag elser
alla fall
Ġhonor ed
ĠWin ter
ĠWin ston
Ġfaith ful
Ġsnygg ing
Ġpsyk iat
Ġkyss er
Ġequ al
Ġpray ing
Ġdiscuss ed
Ġappro ved
Ġhind rade
Ġfisk ar
Ġbother ing
ĠmÃ¤nsk lighetens
bel iev
Ġsli pped
Ġsten ar
ĠMars hal
Ġkvinn lig
Ġknock ing
Ġproject s
Ġslags mÃ¥l
Ġfokus erar
Ġgym nast
Ġpal ace
Ġkry pa
Ġinbland ade
Ġdeb ate
ĠfÃ¶rbann elsen
ĠhÃ¤ls ar
ĠfÃ¶rber ett
Ġnecess arily
Ġlikad ana
Ġtor ka
ĠstÃ¶ ta
ĠComm ittee
Ġboll ar
ĠAngel o
Ġintellig ens
ĠhÃ¤st arna
stÃ¤nd ig
Ġprin ci
Ġmisslyck ats
ĠCarol ine
Ins pekt
Ġbast ards
Ġsuck ed
Ġfeed ing
ĠÃ¤ktenskap et
Ġaut ism
Ġcigar etter
giv ning
ĠCra wford
ĠJon as
ĠFan ny
Ġ201 9
Ġskjut it
Ġskoj ade
Fort farande
Ġpin ch
ĠNE VER
Ġsvag het
Ġpig s
Ġovan pÃ¥
ĠDra ke
ĠJer us
Ġers Ã¤tta
ĠtÃ¤v la
Ġnor ra
Ġload ed
ĠgrÃ¤ ver
Ġklipp a
Ġoly cks
Ġest ablish
Ġbrut al
ĠhÃ¶j d
Ġattempt ed
ĠMur phy
ĠslÃ¶s ar
Ġklass en
Ġavslut at
Ġfran ch
Ġknark are
Je an
Ġodd s
ĠskÃ¤m s
ĠskÃ¤m mas
Ġbesv ik
Ġcharm ing
Ġklient er
ĠÃ¶vervak ningsk
Ġactiv ities
Ġhig hest
Ġfars a
Ġinfe ction
Ġinfe kter
Ġattract ed
ĠCom edy
Ġgifter mÃ¥l
ĠSomet imes
hund ra
Ġhed ra
Ġbang ing
Ġtoal ett
Ġjur id
Ġjur yn
chuck ling
ĠtillgÃ¥ng ar
Ġutman ing
Ġimpress ed
Ġprior ity
Fl era
Ġcock tail
Ġenorm ous
ĠNÃ¥g ot
Ġdistri but
Ġplock ar
Ġplock ade
Ken zie
Ġkons ert
ĠAfri can
Ġprins essa
Ġupplev else
Tills ammans
SK AP
ĠfÃ¶rtro ll
ĠGi uli
ĠGi bbs
ĠLin us
Ġconv oy
Ġobject ive
Ġposit iva
Ġinvester are
Ġdisappoint ment
Mat thew
Spe aking
Ġvent il
Ġvent ure
Ġkart an
Ġdemonst r
ĠvÃ¤ls ign
Ali ce
ĠSand ers
Ġfore head
Ġanalys is
ĠHay es
usse in
Ġcho ices
Ġcho klad
ĠEv elyn
loss ning
Ġserv ices
Ġtve kan
Ġsop orna
ĠMitch ell
ĠGabri elle
Ġprivile ge
Ġallerg ic
ĠhÃ¤rom dagen
ĠPe ggy
ĠgrÃ¶ na
Ġscar f
Ġparad ise
Ġengine ering
Ġtemper ature
Kr iminal
Pat ient
mÃ¶ te
Ġeur os
Int ressant
Ġcrit ic
ĠlÃ¶n nm
Ġengag ement
ĠanmÃ¤l an
ene z
ĠBry ce
Ġtraged i
Ġimponer ad
Ġmik rof
Ġrens a
ĠgrÃ¤l ade
ĠmotstÃ¥nd are
Ġstrugg ling
Ġutomjord ingar
Ġscient ist
ĠtÃ¥l amod
Ġau ktor
Ġgy mmet
Ġwhis key
ĠDef ense
Ġconfident ial
ĠStew art
Luc a
Sna bb
Ġautom at
Ġcooper ation
Ġliqu id
Ġfrys er
Ġshr ink
ĠGlen n
Ġchap ter
Ġveter in
Ġveter an
ĠgrÃ¤v de
ĠgevÃ¤r et
Ġadvis e
Ġnegat ivt
ĠÃ¶vertyg ad
Fe els
Ġyog hurt
Ġgjord es
Ġglor ious
ĠstrÃ¥l ande
ATH ER
ĠfÃ¶rbl ir
Ġskratt ade
ĠSwed en
ĠSwed ish
Bel ieve
Hand lar
ĠtÃ¤ck mantel
Ġpant ies
ĠFeder ation
Ġslott et
Ġswallow ed
Ġkomplicer at
Ġambul ans
Ġambul ance
Ġgradu ate
ĠdjÃ¤vul en
Ã¶var en
Ġskv all
Ġskith Ã¶g
ĠDAY S
Ġchalleng ed
Ġprincip al
Ġytt re
Ġinkl ud
Ġreject ed
ĠCy ber
Ġkommissar ie
Ġglob al
Ġursprung liga
ĠsÃ¶der ut
ĠfÃ¶rfatt are
Ġdiamond s
Ġdetalj erna
Job bar
Ã¤ft igt
ĠlÃ¶rd ag
Ġshout ing
emy cket
Ġarrog ant
Ġsigner a
Ġsmy ger
ĠlÃ¤pp stift
Ġsekret erare
Ġsympt om
Ġgemens amt
Ġrehears al
Oper ation
ĠsÃ¤rsk ild
Ġcert ificate
elef on
ĠfÃ¶rsk ott
Ġknip a
ĠDist rict
ĠGab by
ĠPlan et
ĠFamil y
Ġupply s
Ġintim id
rÃ¤der i
Ġeval uation
Ġryggs Ã¤cken
Ġinstinct s
Ġpsychiat ric
Ġdjung eln
Ġbeord rade
ĠCath olic
ĠJoy ce
Andre a
Ġconcent rate
Ġfavour ite
Ġkorrid oren
Ġnark ot
Ġrim ligt
ĠfÃ¶rse g
Ġfrank ly
Ġcanna bis
ĠGib son
Ġouts ider
Ġguid ance
ĠvÃ¤lgÃ¶ren het
Ġmoth ers
Ġspeg eln
Ġembra ce
Ġbarnd om
Ġvulner able
gro ans
hur st
Ġdome stic
ĠBren nan
ĠfÃ¶rstÃ¤rk ning
Ġannounce ment
ĠShir ley
Ġslee ve
ĠvÃ¤t ska
ĠEmp ire
Ã¼h rer
ĠReyn olds
Care ful
Ġwis dom
ĠvÃ¤kt are
ĠEugen e
Ġarriv al
Ġbote medel
Ġconfr ont
ĠIndust ries
Complet ely
insp ektÃ¶r
Ġwrit ers
Ġremarka ble
akespe are
Ġmete or
ĠrÃ¶nt gen
Ġteleph one
Ġexcit ement
Ġdevast ated
tion den
âĦ ¢
Ġfian cÃ©
Ġkys ste
Ġcompl iment
ĠsmÃ¥ning om
" -
6 1
8 6
8 8
9 0
9 9
A A
A F
B art
B ef
B ET
B ern
B ox
B RA
C L
C O
C ou
C oll
C lay
C asey
C ontrol
D og
D ON
D ET
E ight
E ns
E LL
F ill
F ound
F yr
G A
G O
G l
G ER
G rat
G anska
G abri
H en
H Ã¤nd
H AN
I X
I gen
I mm
I mp
I nde
J ose
J ung
J ane
J osh
J udy
J eez
K o
K ay
K ra
K Ã¤nde
K Ã¤nn
K arl
K ev
K allar
L ust
L ess
L ov
L isa
L Ã¥s
M ill
M est
M aking
M eg
M oney
M Ã¶t
M uch
M ENT
M egan
M Ã¥let
N ar
N ate
N ik
N iles
N aturligtvis
O l
O s
O ld
O scar
P a
P ast
P uss
P ete
P apa
P engarna
Q U
R ay
R am
R ent
R em
R ÃĦ
R app
R Ã¤k
R iktigt
R Ã¤dda
S u
S ig
S ad
S un
S ta
S var
T s
T ag
T erry
T RA
T odd
T alar
U K
U PP
V ara
V Ã¥ga
W L
W in
W esley
Y e
Z e
b ak
b one
b ast
b lock
b reak
c ou
c re
c ur
c ard
c era
c ourse
d ig
d is
d id
d am
d ong
d otter
d imension
f Ã¥
f at
f Ã¤ng
f Ã¶d
g od
h s
h u
h ett
h old
i u
i ber
i Ã¶s
i ya
j at
j uta
k at
k ill
k ron
l ap
l ande
l ets
l agen
l ana
l Ã¥da
l Ã¤der
l Ã¥dan
l jus
m Ã¤l
m orden
m endous
n ow
n itt
n ia
n Ã¶j
o in
o ja
p ell
p ard
p lease
p lock
p istol
p arty
r ill
r us
r ite
r ars
r ors
s i
s al
s un
s ens
s ue
s Ã¤tet
t ight
u pt
u tter
u ela
v iv
v ous
v oj
v Ã¤nner
v arez
w y
y ll
z in
z lo
z heim
Â ¡
Î ½
â Ĥ
Ġ Ã¤l
Ġ zy
Ġt ed
Ġt un
Ġt ass
Ġt anks
Ġt orsdag
in ar
in ny
in ema
in formation
Ġs ib
Ġs Ã¤nda
Ġs aga
er ades
Ġa pa
Ġa steroid
Ġd Ã¥r
Ġh jort
Ġh jul
Ã¤ va
ar re
ar te
Ġm ild
Ġm ats
Ġm unt
Ġm amman
et on
an on
an te
an ut
Ġth umb
Ġf ul
Ġf old
Ġf ult
Ġf itta
Ġf rakt
Ġf rog
Ġf eta
Ġf athers
Ġb un
Ġb ind
Ġb ult
Ġb anks
Ġb ota
Ġb inder
Ġb unny
Ġb ikes
on gest
Ġw ander
Ġw agon
Ġw iped
Ã¶ pp
Ã¶ ma
Ã¶ ket
or erna
or ado
om ise
Ġv ed
Ġv ine
Ġv int
Ġv Ã¥ga
Ġv oted
Ġg or
Ġg ul
Ġg iv
Ġg ator
Ġg ira
Ġg ained
Ã¤r n
Ã¤r s
Ã¤r ld
ing le
ag nar
st Ã¤m
st opp
st rÃ¥n
st ugan
Ġp ra
Ġp ung
Ġp als
Ġp ets
Ġp ipe
Ġy ach
Ġy ards
ig ation
ig ence
Ġn un
Ġn jur
Ġl oo
Ġl Ã¶m
Ġl ane
Ġl atin
Ġl akan
Ġl Ãł
Ġk y
Ġk ly
Ġk lick
Ġk lock
Ġk atten
Ġk Ã¤nda
Ġk ista
Ġk irurg
Ġk remer
is et
is erar
is ionen
Ġo x
Ġo oh
Ġo ktober
Ġthe ater
Ġin lag
Ġc ro
Ġc ried
ad ar
ad Ã¥
ad vokat
ĠI V
ĠI ow
ĠI bland
ĠI rak
ĠI zzy
ĠI BM
Ġj ab
Ġj Ã¤gare
ch i
ch or
ch est
ck erna
ill as
es la
Ġatt raher
el ry
ow ning
ot et
ot isk
ot yp
Ġdu mmy
al ized
Ġbe es
Ġbe vitt
Ġen ast
Ġen gÃ¥ng
Ġen heter
Ġr oo
Ġr out
Ġr ink
Ġr amp
Ġr aw
Ġr ider
Ġr ounds
Ġr iva
ĠfÃ¶r nu
am us
am era
am pton
le ys
le ment
Ġjag at
Ġi v
Ġi kapp
Th row
ke ll
Ġst if
Ġst av
Ġst ance
Ġst iga
Ġst alk
Ġst Ã¶t
Ġst rik
Ġsk Ã¶r
Ġsk its
Ġsk atter
Ġsk ilda
Ġsk Ã¶tte
Ġwh ore
ra it
Ã¤n ken
Ġvar um
Ġvar ma
Ġvar nar
Ġvar mare
ĠS et
ĠS or
ĠS ame
ĠS ach
ĠS ac
ĠS AM
ĠS inc
ĠS arge
ĠS ergio
Ġis cens
Ġre ward
Ġre form
im en
im ir
im ore
im mer
im ated
ur f
and ena
and ras
Ġan hÃ¥ll
Ġhe ir
ro ix
Ġli zard
Ġwe e
Ġwe stern
ĠM u
ĠM ing
ĠM ot
ĠM ant
ĠM un
ĠM ic
ĠM ess
ĠM ish
ĠM ira
ĠM ount
ĠM OM
ĠM IL
ĠM addie
Ġde ed
Ġall ians
Ġall iance
Ġmed d
Ġmed s
Ġmed ier
Ġmed arbetare
ent ially
ĠH op
ĠH olm
ĠH utch
ĠH amilton
ce ster
ust y
ak ob
Ġtill ver
Ġtill kÃ¤nn
Ġsh ith
Ġsh ell
Ġkn eel
ĠA C
ĠA D
ĠA I
ĠA p
ĠA sk
ĠA lo
ĠA ldrig
ĠA bb
ĠA very
ĠA ward
ĠA pple
ĠA ROUND
ĠD J
ĠD ur
ĠD od
ĠD um
ĠD ong
ĠD ina
ĠD ags
ĠD rew
ĠD ouble
ĠD AG
ĠD EA
ĠD odge
ĠD awson
ĠD aily
ĠD aphne
Ġ- âĻª
Ġvi ce
Ġvi cepresident
ss Ã¤tt
Ġgo at
Ġom Ã¶jliga
ĠC os
ĠC AR
ĠC oun
ĠC omp
ĠC andy
ĠC OULD
ĠC oca
ĠC ITY
ĠC eleste
ett le
ith a
ight ed
ĠB L
ĠB U
ĠB ri
ĠB ach
ĠB row
ĠB ET
ĠB ella
ĠB ones
ĠB ald
ĠB EL
ĠB ender
ĠB uch
ĠB aton
ĠB ureau
ĠB uffy
ol iv
ol igt
Ġdig ital
ĠsÃ¥ lt
de partementet
sk ed
sk ade
sk va
sk riget
ack e
Ġmin net
kt igt
kt uren
Ġtr Ã¤nger
Ġtr Ã¶jan
Ġden ied
Ġav en
Ġav vik
Ġav lyss
lig gande
ĠT on
ĠT our
ĠT ate
ĠT ree
ĠT io
ĠT iny
ĠT essa
ĠG and
ĠG ame
ĠG ord
ĠG av
ĠG wen
Ġhon our
Ġhon ung
ĠN at
op ed
op ard
ĠL ay
ĠL ab
ĠL eah
ĠL ans
ĠL ip
ĠL illy
ĠL orenzo
Ġwhat soever
li ka
li ament
ĠJ oc
ĠJ eth
ĠJ orden
ĠJ ensen
Ã¤tt erna
ste k
ste kn
Ã¤g er
Ã¤g arna
ĠO W
ĠO x
ic als
ic ians
ull ah
Ġso ber
ĠP C
ĠP E
ĠP ad
ĠP au
ĠP ep
ĠP eck
ĠP ower
ĠP owers
ĠP eyton
ĠP akistan
are v
Ġman ual
Ġman ners
ink el
ĠF un
ĠF lynn
ome z
ry t
em i
Ġsp it
Ġsp ite
Ġup s
He ad
Ġch im
Ġch op
Ġch art
Ġch ess
Ġch aos
Ġch ips
Ġno lla
Ã¥g en
Ã¥g el
our nal
Ġut ifrÃ¥n
Ġut fÃ¤rd
ul ating
ul Ã¤ra
ĠR O
ĠR oo
ĠR est
ĠR io
ĠR ah
ĠR oland
ĠR ouge
And as
ta ble
Ġfin est
Ġher oes
ist ers
ist ret
ess ions
Ġhim la
Ã¤nd en
ĠK E
ĠK w
ĠK as
ĠK ab
ĠK os
ĠK lockan
ĠK ids
ĠK hal
ĠK NE
ĠK orean
ĠK athleen
ĠK arev
Ġpl ed
Ġpl ates
Ġat om
ĠÃ¶ st
ĠÃ¶ ka
ĠE L
ĠE U
ĠE nt
ĠE agle
Ġthink in
ĠV id
ĠV isa
ĠV aler
ĠV erkligen
ud i
ud ia
Han na
Ġbl az
Ġbl essed
Ġbl aming
ab i
ab l
ob ile
fÃ¶r tiden
fÃ¶r giftning
Ġlo tt
Ġhel ig
Ġhel gon
ap o
ap arte
Ġpro vet
Ġpro pose
Ġsu cker
Ġpr Ã¶va
ans ch
os am
Ġupp h
Ġupp vak
Ġupp fÃ¶ra
Ġupp gifterna
ĠdÃ¤r emot
ĠdÃ¤r borta
end ar
Ġtim men
Ġtim eline
Ġtim marna
da fri
Ġbr at
Ġbr ig
Ġbr Ã¤n
Ġbr anden
Ġbr oms
Ġbr innande
Ġar v
ĠW el
ĠW elcome
ĠW aver
Ġal though
Ġex klus
Ġsl ar
Ġsl ay
Ġsl ock
Ġsl agen
Ġsl Ã¤nga
Ġsl aves
fter na
Ġnu fÃ¶rtiden
Ġas pect
Ġas pir
Ġas semb
Ġle kt
Ġle ash
ÃĦ ndÃ¥
la ir
Ġgu vern
att i
ep ar
ass a
ass ador
qu in
qu et
qu el
qu est
ank ar
So f
Ġcon sp
De an
Ġdem ands
ĠDet roit
Ġbo skap
Ġbo stad
ord ning
ens er
ĠÃ¶ver t
ĠÃ¶ver ger
Ġbra ke
Ġgr id
Ġgr ass
Ġgr Ã¤ns
Ġbet ong
oll s
Ġcom ic
ind el
ase ball
het erna
rig erator
ys er
Ja c
Ġint rig
Ġint ryck
Ġhand y
Ġhand ed
Ġhand ful
Ġunder ligt
Ġunder klÃ¤der
Ġsomet hin
Ġun lock
Ġun conscious
Ġser ving
ine y
ous y
Ġcome back
Ġdr um
Ġdr owning
Ġsm ink
ĠY oon
app er
app en
Ġpe arl
ĠvÃ¤n liga
ci us
ĠCh en
ny ck
Ġvis ited
Ġvis iting
Ġhem met
va cu
Ġam igo
ĠHe ctor
Ġsv Ã¥g
Ġsv imm
sp ond
Ġkom prom
ĠÃ¥ k
ĠÃ¥ klag
og na
ĠWe b
Ġdag bok
elf are
ild ing
ont o
ĠU se
ĠU lt
St at
St ig
St opp
ub be
ĠNo tt
Ġhelp less
ĠWh ose
ĠWh ile
ĠWh eel
Ġmor bror
Ġmor gond
Ġmor mors
ĠSt ud
ĠSt illa
ĠSt jÃ¤rn
ĠSt alin
red je
Ġte et
Ġte ater
Ġfl agg
Ġfl irt
Ġfl Ã¤sk
Do c
Ġel aka
ther n
Ġkl agar
Ġkl Ã¤ttra
Ã¤v lingen
Ġstor age
Ġsc ent
Ġsc ares
Ġpart iet
Ġtro ligen
âĢ «
ĠvÃ¤r men
ĠÃ¥r tionden
ons on
Ġdi vers
Ġstr ida
Har old
ĠvÃ¥r an
Ġpol isst
amm it
sl Ã¤
Ġbad kar
ru tt
ru de
ru ff
ĠtrÃ¤ den
iga il
Ġslut s
ĠThe o
Ġper m
sh ed
sh ire
sh uset
sh irt
Ġcl im
Ġro yal
ĠTh ail
vis or
Ġact ed
Ġact ors
ann ade
ann ers
Ġtra k
Ġtra ces
Ġdel eg
Ġbit a
Ġbest Ã¥r
Be g
eng ers
Ġwr ites
ĠTH ANK
Ġverk samhet
Ġph en
ĠDe e
Ġtre as
Ġtre spass
Ġtre mendous
Ġpar ade
Ġann ans
ier ra
yr kan
Ġad vert
Ġty g
Ġty ng
Ġled sna
Ġtri v
Ġtri pp
Ġtri als
Ġtri ple
Ġtog s
Ġsir en
row ing
Ġbes ide
Ġbes Ã¤ttning
Ġsch ack
Ġsch iz
ĠlÃ¤ ke
Ġem oji
vet es
Ġsex ually
Sk Ã¤r
Sk Ã¶nt
Sk itsnack
ĠAll tid
Ġcomp are
Ġcomp elling
Ġcomp assion
Ġdri v
Ġdri ven
Ġdri ves
pen se
ĠHar lem
Ġcour tesy
Ġbre ach
Ġpass era
Ġpass erar
Ġpass engers
Ġhead ache
Ġhead quarters
Ġrep etition
ĠBut ler
ris ka
Ġapp eared
Ġapp eal
Ġapp ropriate
Ġsam las
Ġbil arna
Ġrec ru
isst Ã¤nkt
Ġexp ed
Ġexp ression
ĠSo cial
ĠSo ciety
Ġkall at
gr unts
aw a
led are
Ġsett s
ty d
Tack a
oot s
oot er
Ġremember ing
Ġacc omp
RE S
RE W
Ġfil t
Ġfil er
Ġnice st
ĠlÃ¤g er
ĠhÃ¥ll s
Ġcra ft
Ġgra ce
Ġpres ents
Sh awn
Ġland ets
ĠBr idge
nad er
nad erna
ĠShe pherd
Ch icago
net te
res an
ĠvÃ¤rld ar
Ġev igheter
Ġev aku
ĠMen ar
Ġreg eln
Ġcomm s
Ġcomm un
Ġcomm itting
ĠAl ison
ĠAl most
ator ium
du k
ĠrÃ¶ ven
ĠDo ktorn
ĠkÃ¤r e
ĠCar ly
ĠCar la
ĠCar rington
IS T
ĠlÃ¥ng s
ĠlÃ¥ng sam
Ġbur en
med ic
Ġfy nd
Ġwar rior
Ġmove ment
Ġgenom fÃ¶r
Ġry ss
Ġry ker
Se an
Ġpolis erna
cer ely
Ġbar gain
ĠstÃ¤ll ning
ĠZ ack
ĠZ eal
Ġkr ama
Ġob es
eb ror
Go tta
olog in
olog ists
Ġspr Ã¤nger
stÃ¤ll e
stÃ¤ll da
stÃ¤ll ningar
Ġmus ical
Ġfight s
Ġfight er
ĠLe ia
ĠBe ing
Ġmur en
Ġsw ap
Ġsw orn
Ġinne b
Ġinne bar
ubb ar
ubb lar
Ġbed rÃ¤g
ĠAr g
Ġlyck ligare
ĠÃ¥ter vin
ĠÃ¥ter gÃ¥
ĠhÃ¶g kvarter
Ġmag n
Ġmag asin
ĠÃ¶pp nat
Ġconf essed
Ġbusiness man
Ġfre st
ĠSe oul
ena ste
Fr un
Fr Ã¥gan
ĠSte f
ĠSte vie
Ġinv al
ĠRe ed
ĠRe ich
ĠSp ela
Ġret a
Ġret ired
Ġrel ative
Ġdom stolen
Ġskj orta
Ġbas erat
Re x
ĠMan uel
ugg ling
ĠhÃ¶ gg
Ġprof essorn
Ġinc on
ĠjÃ¤tt emycket
Jo el
Ġlight er
Ġlight ning
cent ret
Ġclear ance
Ġsign alen
Ġlever erar
ĠCan adian
Ġcont amin
erat orn
ĠlÃ¶ senord
erg us
head s
LE ASE
Ġla ven
Ġla wn
Ġsuper hjÃ¤l
br ooke
Ġmass age
Ġtrans mission
Wait ing
bo at
Ġbevis at
atur en
Ġang els
Ġru ins
Ġben eath
hÃ¥ll et
Ġ8 00
Ġkropp arna
Ġpress ing
Ġdep uty
With in
Ġcons ent
Ġcons istent
Ġmod et
Ut mÃ¤rkt
Sp el
Ġcor pse
ĠBar ney
ĠBar bie
ĠBar rett
Ġinst ance
Ġfilm ing
Ġcap acity
OM AN
oun ces
ĠOr der
Br itt
Ġoper ating
Ġoper ations
kn ow
Mar garet
ĠmÃ¤r ken
Ġsj unde
Ġsan ct
Ġdist raher
Ġcell er
Ġlov at
Ġsort ed
Ġspecial ty
Ġpast a
Ġhy per
Ġflo ors
Ġbud skap
Ġdest ination
sm Ã¤kt
Ġlad dar
Ġinvest ed
Ġinvest ors
AD Y
Ã¤d ret
ĠMc Donald
pro fil
gÃ¥r d
gÃ¥r den
Ġarm arna
Ar rest
Ġmord en
Ġten se
ĠÃ¤g de
ĠÃ¤g gen
Ġpur suit
Ġpur sue
Ġbrott et
Ġbank rÃ¥n
Ġgrand ma
Ġhor a
Ġhor ror
ĠEng ine
Ġterri fic
Ġterri fied
Ġterri fying
Ġstat ements
Ġinsp ire
Ġcover t
Ġkap ital
Ġexc uses
Ġbok at
Ġbok ade
Ġbok stÃ¤
Ġbox ing
len e
omp is
Ġcatch ing
ĠCon ne
ĠCon nie
Ġhoney moon
Ġlunch en
Ġant og
Ġant ib
CH UCK
Ġpot atoes
ĠLa f
ĠLa ur
ĠSch w
Gu y
rÃ¥d en
tel n
ĠfÃ¶rtj ust
ĠbÃ¤st is
Ġtem plet
Ġbill igt
Ġbill igare
Ġkopp lar
Ġref rigerator
Ġskydd s
ĠTr ust
Ġassist ance
igg ins
Ġreach ing
Ġmeddel andet
ĠQu ite
Gen e
Ġorgan ic
fr itt
fr Ã¥g
HE Y
rop ol
ĠspÃ¥r ar
ĠspÃ¥r et
Ġgener ations
Ġfat al
Ġfir man
Ġtapp ing
Ġmask s
ĠOn ce
ĠPol is
ĠVill age
Ġkli ver
Ġkli va
Ġgud ar
Ġtank arna
Ġstad ens
Ġ25 0
ĠBo ys
ĠBer mud
Ġpret ent
AK ING
Ġcreat ive
Ġrapp orten
ĠME AN
Jack ie
Ġkor v
Ġkor sa
ĠfÃ¶rtjÃ¤n at
Hel en
Ġsal ad
Ġsal ary
ĠfÃ¶rm Ã¥gan
Ġstri ct
Ġskuld er
Ġrom ance
ĠWE LL
Ġdoub ts
Ġgar an
Ġinom hus
Ġunivers ums
zz i
zz o
Ġcre m
Ġhall Ã¥
Ġhall ick
ĠtrÃ¤n ingen
ĠEll ie
Ġpract icing
Ġvir gin
ĠStar gate
Ġcontin ued
ĠfÃ¤r re
ĠfÃ¤r gen
ĠkÃ¤nd is
ĠSn art
ĠkÃ¤ ft
Pr ins
Pr ince
Ġenjoy ing
ĠfÃ¶rl uster
Ġuts Ã¤tta
Ġuts ikt
Ġaccident ally
jÃ¤v eln
vÃ¤ x
Ġlar ger
ĠkrÃ¤ va
ĠfÃ¶rsvin n
Dan i
ĠCr own
Ġprov oc
Ġbehand ling
Ġgol v
Ġjul kla
ĠMad ison
Ġemp ire
Ġsurpris es
Ġfool s
Ġvers ionen
Ġavsk eds
Ġsjun ker
Ġpsych opath
OL D
Ġsuggest s
Ġblock erar
Ġblind s
Ġtax es
Ġimm une
ĠvÃ¤rd ig
Ant ar
ĠRed o
ĠblÃ¥ sa
cl uding
ĠFlor ence
ĠRay mond
rÃ¤ff ande
ĠtillfÃ¤ll igt
Car la
ĠSÃ¤g er
Ġlos ers
ĠFran co
ĠFran cine
Ġcivil ian
ĠLuc ille
Ġfing ret
ĠRuss ians
Ġdiscuss ing
Ġhind rar
Ġment or
ĠSH H
Ġsyn ner
Ġlaugh s
Ġunders Ã¶kning
Kill arna
Ġtit el
Ġvit amin
Ġpal ats
Ġkry p
ĠCla us
ĠTra vis
ĠsÃ¥r ad
Ġvol ume
lik ely
Ġremind ed
Ġaccep terar
ĠstÃ¶ ld
Ġutveck la
Ġutveck las
Str unta
Beh Ã¶vs
Ġcrack ed
Sy ster
ĠCent er
Ġbeb isar
Ġaut opsy
ĠnÃ¤m ner
giv ande
ĠhÃ¤ng t
ĠknÃ¤pp t
ĠDom in
ĠDom inion
ĠtvÃ¤tt ade
Ġinterv jun
Ġjournal ister
rom agnet
Ġfac ed
rep ren
Ġocc up
Ġmedvet ande
ĠAS A
ĠÃ¶verlev ande
ĠdÃ¶tt rar
Far bror
kont akt
kont roll
ĠLA UGH
Ġbrud g
ARE N
ĠÃ¶r onen
Ġavoid ing
ĠJen kins
ĠBea utiful
Ġload s
ĠlÃ¤gg s
Ġmarket ing
Ġgang ster
Ġbell s
Ġrub ber
Ġgrad uation
Ġmode ller
Ġfrukost en
Mad am
Mad ame
Ġattempt s
ĠfÃ¶rhÃ¥ll andet
Ġrefer ring
ĠMur der
ĠKn ow
ĠVin ny
fÃ¶rs Ã¤lj
lÃ¤gg ning
lÃ¤gg ningen
ĠVal entine
ĠWood s
ĠfÃ¶rsvar et
Bo om
ĠÃ¤m nen
Ġax eln
Ġhamn at
Ġkass askÃ¥pet
Ġpoison ing
Ġdefend ant
Ġsword s
Ġfreak y
Ġcorre spond
Ġinstru ktioner
Tra cy
ĠHaw kins
ĠPal mer
ĠÃ¶vervak ning
Ġtrygg t
Ġretur ns
Ġtradition al
Barn en
ĠkÃ¤ll an
Ġpocket s
Ġkol on
Ġcru el
Ġcru cial
Ġsyst ers
Ġdescri ption
ĠBrit ney
ĠBrad ley
Cle an
ĠÃ¤ck liga
Ġult im
ĠSta cey
Ġdevelop ment
ĠNÃ¥g on
Ġprojekt et
Ġ198 9
Ġbenef its
Ġgrip it
Ġgull ig
Ġnation ell
Ġinde pendent
ĠTer esa
ĠPier re
bol ag
Ġtort yr
Ġrull a
Ġsepar ated
ĠFel icia
ĠgrÃ¤n ser
Ġflu id
Ġbutter fly
Ġdokument Ã¤r
cut or
Ġlink ed
Ġobject s
Spe ciellt
Ġet ik
Ġbond s
Ġlektion er
Ġlektion en
Ġassum ed
ĠtrÃ¤dgÃ¥r den
Bry t
ROU GH
Ġbekv Ã¤mt
Ġstann at
ĠBon aparte
ĠItal ien
ĠDani els
Ġtve ka
Ġhud en
Ġenc ounter
ĠGold en
plats er
Ġdelic ate
ĠLex i
Ġexperien ces
Ġprivile ged
Ġcabin et
Ġarrang ement
ln gen
Ġak ut
Ġhyr an
ĠgrÃ¶ nsaker
Ġassault ed
Ġadult s
RIS ON
Ġmart ini
Ġtow el
ĠGU YS
ĠsmÃ¤ll en
Ġassass ination
Ġmeth ods
Ġengag erad
ĠanmÃ¤l er
Cra zy
Cool t
Ġsum ma
Ġbatter y
Ġglo ve
ĠfÃ¶rd Ã¶m
ĠallmÃ¤n heten
ĠCli ve
ĠCyr il
ĠPa ige
ĠBrook s
Ġmas ker
ĠmÃ¤kt igaste
ĠvÃ¤st ra
Ġkro ck
ĠSim one
ĠFR OM
Ġserver a
ĠChan el
Ġblick en
Ġmusk el
Ġ199 9
End ast
Ġkav aj
ĠMus lim
Ġalcohol ic
Ġsiffror na
Ġindivid uals
Hit ler
Jon athan
Jess ica
Van essa
Ġcooper ate
ĠfÃ¶rol Ã¤mp
ĠHum ph
ĠAg nes
ĠTem ple
ĠEver ett
ĠunderrÃ¤tt elset
Ġreplace ment
Ġincre ased
Ġincre asing
Ġsatis fied
Fil men
agh etti
stud ent
Ġprakt ik
ĠPri ce
Ġcorrupt ion
Ġmotorcy cle
Ġmotorcy kel
Ġmynd igheterna
ĠCamp bell
ĠtrÃ¥d ar
Ġavst Ã¤ngd
Ġhelik op
ĠrÃ¶rel se
ĠrÃ¶rel ser
Ġsatell ite
Bak om
Ġfab ric
Ġbevak ar
Ġshark s
ĠRub y
ĠprÃ¤st en
Ġremote ly
Comm ander
Ġfla vor
Ġknack ade
Ġinkl usive
Ġbegg ing
Ġbegg ed
Ġlick ing
Ġavbry ta
Ġkommissar ien
Ġsignat ure
Ãħt minstone
Ġregard ing
ĠskilsmÃ¤ss a
Ans wer
Dar ling
Ġvans inn
Ġpara ch
ĠrÃ¥tt or
Ġfrig iv
ĠDiv ision
ĠCait lin
Ġark ite
ĠWy att
ĠÃ¶vertal a
Ġsmar test
ĠViv ian
Ġklag om
ĠmissfÃ¶r stÃ¥nd
ĠHAPP EN
FFFF FF
Ġexhib it
Bea utiful
Kvin nor
glas Ã¶gon
Ġkredit kort
ĠSab rina
ĠMU CH
Ġmynt et
Ġavsky dde
ĠNeg ro
Ġtav lan
ĠGeoff rey
force ment
Ã¸ r
Ġfeder ala
Ġgat orna
Ġgrott an
ĠMig uel
ĠPu erto
Ġupd ate
Ġbered da
ĠvÃ¤ster ut
ĠColomb ia
ĠfÃ¶rfly tt
Ġdocument ary
ĠframgÃ¥ngs rik
NÃ¤m nde
Ġsel ect
Ġnjut ning
ĠSlo ane
ĠHEL P
Ġomt Ã¤nk
Ġnoggr ann
Ġpreser ve
Ġdepos it
Ġthorough ly
Gry mt
Nyck eln
fir ma
Ġhes it
Ġhamburg are
ĠpÃ¥h itt
Ġkny ta
ĠAF TER
ĠVoy ager
Ġbran ch
ĠÃ¥stad komma
Ġaccus ations
Ġcommer cial
Ġconscious ness
BerÃ¤tt ade
Ġtempor ary
Tu be
hÃ¤nd else
Ġsou ven
Ġjer ks
ĠSpa in
ĠSnygg t
ĠAmb assador
antast iskt
ĠCiv il
Ġuppri ktig
Ġpharma cy
ĠBeatri ce
Ġconfli ct
Ġsignific ant
SIGH S
flott an
Ġaver age
Ġbatt les
Ġkud de
Ġober oende
ĠIra q
ĠfÃ¶rÃ¶d mjuk
ĠHod gins
Ġvib rator
ĠLed sen
ieg ler
ĠVern on
Ġkompl im
ĠUND ER
Ġroomm ate
ĠShel by
Ãĸnsk ar
ĠÃĦlsk ling
Ġtredj edel
Lau ra
cH FFFFFF
ĠFlet cher
Ġperf ume
Ġbarbe cue
Ġsprung it
ĠPrinc eton
ĠÃ¤god elar
ĠuttrÃ¥k ad
ĠvÃ¤lsign else
Inde ed
âĤ ¬
ĠIow a
Ġenast Ã¥ende
ĠfÃ¶rnu ft
Ġstrik ing
ĠJeth ro
ĠThail and
ĠZeal and
2 4
2 50
5 1
7 3
A le
A del
A CH
A CE
A bby
B i
B an
B on
B al
B eck
B land
B etty
B elle
B atter
B BY
B orgm
C I
C a
C her
C ame
C ER
C IA
C onnie
C opy
D U
D Ã¶
D ig
D iv
D agen
D awn
D avis
D espite
E st
E xt
E ON
F isk
F ace
F orts
F eder
F unny
F esten
F ocus
G h
G n
G am
G ET
G len
G RA
H o
H ill
H Ã¤ng
H Ã¥ller
H OW
H eavy
I Z
I AN
I kvÃ¤ll
I stÃ¤llet
J ud
J unior
J isses
K ling
K urt
K ids
K riget
L in
L ea
L ind
L ju
L Ã¶g
L inda
L arry
L igger
M S
M et
M um
M ah
M AR
M itch
M ama
M Ã¤rk
M onsieur
N ame
N Ã¤stan
N ancy
N ormal
O F
P an
P il
P ack
P RO
P ORT
P rivate
R um
R ym
R onnie
R esten
S I
S at
S Ã¶
S id
S ke
S ens
S pl
S eth
S leep
S ituationen
S enaste
T V
T ook
T est
T ip
T AL
T rÃ¤ff
T esta
T olv
U te
U rsÃ¤kt
V D
V ir
V era
V akt
V Ã¤ck
V ID
W ord
W ash
W ILL
a ft
b ag
b id
b its
b omb
b ution
b ullar
b yrÃ¥
c it
c ow
c ir
c ap
c if
c ure
c ool
c up
c ross
c ony
c ules
d as
d ro
e on
e ating
f am
f Ã¥r
f ack
f ars
f lick
f ader
f rey
f Ã¤lt
f ucker
f Ã¶re
f Ã¶ll
g ot
h um
h ous
h Ã¤ng
h ave
h orn
h als
h wa
i ell
i ard
i ja
i ques
j k
j Ã¤nt
j Ã¤gare
k Ã¶
k ed
k ropp
k yl
k akor
l ett
l ack
l ast
l ane
l agt
l ament
l ampa
l angare
m om
m ot
m ars
m amma
m ont
m outh
m Ã¤t
m Ã¤stare
m Ã¤ster
m jÃ¶l
m iral
m ighty
n b
n ut
n ens
n Ã¶t
o ir
o very
p as
p ay
p ion
p ark
p appa
r ent
r Ã¥l
r ots
s ir
s lig
s Ã¤nd
s ons
s var
s by
s juka
t ons
t rar
u o
u ar
u na
u ate
u ous
v att
v ikt
v ux
w it
w ould
w alk
w ana
w yn
Ġ x
Ġ ere
Ġ ore
Ġ ï»¿
Ġt Ã¤
Ġt ore
Ġt ej
Ġt ide
Ġt ire
Ġt ja
Ġt ies
Ġt we
Ġt yr
Ġt its
Ġt umm
Ġt Ã¤t
Ġt ux
Ġt igger
in ent
in kt
Ġs ore
Ġs ire
Ġs edd
Ġs licka
er ings
Ġa er
Ġa na
Ġa ra
Ġa kter
Ġd il
Ġd ice
Ġd orm
Ġd vÃ¤r
Ġd ates
Ġd read
Ġd awn
Ġd aughters
Ġh Ã¥ng
Ġh int
Ġh Ã¤ck
Ġh Ã¤cken
Ġh obby
Ġh ilar
Ġh unter
en ance
en ko
Ã¤ klare
Ġm m
Ġm ere
Ġm all
Ġm our
Ġm era
Ġm Ã¶d
Ġm uta
Ġm ags
Ġm unk
Ġm onsieur
ou e
Ġth y
Ġth read
Ġth irty
ll et
ll ene
Ġf o
Ġf ist
Ġf ont
Ġf east
Ġf abriken
Ġb ay
Ġb und
Ġb ait
Ġb Ã¥l
Ġb Ã¤nk
Ġb iff
Ġb ills
Ġb Ã¤ltet
on ne
on ge
on der
on ies
Ġw ink
Ġw alt
Ġw idow
at les
at ron
Ã¶ ger
it is
it te
it as
om ing
Ġv om
Ġv as
Ġv ow
Ġv Ã¥t
Ġv Ã¤ck
Ġv ingar
Ġv oid
Ġg our
Ġg ain
Ġg inger
Ġg ata
Ġg ula
Ġg Ã¤llande
ag or
ag el
st age
re z
Ġp ing
Ġp se
Ġp ent
Ġp li
Ġp uck
Ġp ens
Ġp anna
Ġp atch
Ġp ier
Ġp ony
Ġp issa
Ġp alm
Ġp enny
Ġp orr
Ġp opped
Ġp udding
Ġy t
ig i
ig el
Ġn an
Ġn Ã¥l
Ġn eder
Ġn avy
Ġn aughty
Ġl as
Ġl inger
Ġl atte
Ġl Ã¶jlig
Ġl Ã¶jtnant
Ġl ousy
Ġk itt
Ġk ret
Ġk als
Ġk ings
Ġk een
Ġk inder
Ġk risten
is ch
is men
is erat
is cher
Ġo ven
Ġthe e
Ġin att
Ġin come
ed de
Ġc ad
Ġc ater
Ġc lick
Ġc olog
Ġc ows
Ġc af
Ġc avalry
Ġto xic
ad ers
ad ens
ad ows
ĠI g
ĠI da
ĠI ran
Ġj am
Ġj ap
Ġj olly
Ġj ula
ĠÃ¤r lighet
ch ar
ch ing
ch ief
te ous
te mp
as se
Ġu tter
Ġu bÃ¥t
el da
el ix
Ġdet ekt
ot omi
Ġdu g
Ġdu n
al ine
al ia
Ġen het
Ġen vy
Ġen light
Ġr Ã¶rd
Ġr ader
Ġr ational
Ġr agg
Ġr inner
Ġr unda
Ġr aket
Ġr usa
ĠfÃ¶r ned
ĠfÃ¶r rÃ¤deri
am ara
am ine
le mm
Ġjag ade
Ġi con
Ġi Phone
Ġi allafall
Ġit ems
Th ousand
Th irty
Ġst ans
Ġst red
Ġst ash
Ġst ates
Ġst Ã¤mde
Ġst Ã¶tte
Ġst unning
Ġe y
Ġe ager
na way
ut in
Ġsk ry
Ġsk ates
Ġsk inn
Ġsk elett
Ġme mo
Ġha j
Ġha ul
Ġha vs
ra ket
ĠpÃ¥ f
ĠpÃ¥ t
ĠpÃ¥ lit
Ġvar ul
ĠS L
ĠS Y
ĠS ad
ĠS el
ĠS Ã¥n
ĠS Ã¥g
ĠS ave
ĠS oh
ĠS ON
ĠS umm
ĠS outhern
ĠS everide
Ġre el
Ġre de
Ġre ass
Ġre cy
Ġre levant
im it
im bo
ur ger
oo ling
and ed
and ering
Ġan om
Ġan komst
Ġan gav
Ġhe ight
ro ph
Ġli fest
Ġwe igh
Ġwe bs
ĠM G
ĠM i
ĠM ill
ĠM and
ĠM ist
ĠM ast
ĠM int
ĠM oh
ĠM ouse
ĠM upp
ĠM ills
ĠM iy
Ã¥r s
il ien
Ġmed kÃ¤nsla
ent a
ĠH m
ĠH ye
ĠH AR
ĠH ela
ĠH off
ĠH ussein
ir ch
ak o
ak ning
ak terna
Ġtill Ã¥t
Ã¥n ade
Ġsh o
Ġsh ine
Ġsh ave
Ġsh aking
Ġsh ares
Ġkn ives
ĠA P
ĠA pp
ĠA ct
ĠA be
ĠA men
ĠA rab
ĠA IDS
ĠD ig
ĠD ill
ĠD ess
ĠD ud
ĠD est
ĠD eep
ĠD ash
ĠD eras
ĠD unn
ĠD rive
ĠD wight
ĠD allas
ant ine
ĠhÃ¤r ska
ĠhÃ¤r med
Ġom dÃ¶m
ĠC ook
ĠC ob
ĠC ary
ĠC ott
ĠC umm
ĠC oke
ĠC ron
ĠC ount
ĠC orr
ĠC OUR
ĠC lyde
ĠC isco
ĠC ynthia
ett io
ĠB al
ĠB ul
ĠB orde
ĠB ark
ĠB og
ĠB itch
ĠB utt
ĠB IG
ĠB irth
ĠB oe
ĠB urg
Ġse iz
Ġse ated
ri ft
ri cka
ol et
ol or
un ction
un ately
de en
de jt
sk o
sk ull
sk Ã¤mt
sk atta
sk ador
sk Ã¥p
sk rÃ¤m
Ã¤l ten
Ġmin es
kt ar
Ġtr ot
Du ktig
Ġav h
Ġav br
ĠT am
ĠT ard
ĠT imes
ĠT oby
ĠT yson
ĠT iffany
ĠG L
ĠG og
ĠG ret
ĠG ross
ĠG las
ĠG lad
ĠG jorde
ĠG lass
ĠN on
ĠN ell
ĠN umber
ĠN BA
th ere
op ia
us er
us ar
ĠL ara
ĠL ie
ĠL ast
ĠL av
ĠL iver
ĠL amb
ĠL ucky
ĠL ori
ĠL acey
omm en
omm od
li x
li ve
ĠJ A
ĠJ ar
ĠJ ur
ĠJ ace
ĠJ ung
ĠJ enn
ĠJ Ã¶sses
ĠJ Ã¸r
Ã¤tt s
art z
art ac
ara ble
Ã¤g ge
Ã¤g get
Ġab st
Ġab used
ĠO per
ĠO ffic
ĠO VER
ĠO roa
ĠO THER
ic as
ic ity
ic ian
ic ides
Ġso ppa
ĠP J
ĠP ea
ĠP ick
ĠP erson
ĠP oj
ĠP UT
ĠP enn
ĠP lat
ĠP ART
ĠP RISON
are house
Ġman iac
ink les
ff en
ell ey
ĠF y
ĠF le
ĠF ro
ĠF ru
ĠF AM
ĠF IR
ĠF oster
ĠF yra
ĠF OUND
Ġsa ft
Ġsa cred
Ġout come
Ġout rage
ick ey
em e
em Ã¶rdare
ers en
Ġsp ol
Ġsp ies
Ġsp ets
Ġsp oon
Ġsp aghetti
um t
um ed
He ar
Ġch ased
Ġno ses
Ġut st
Ġut lÃ¶s
Ġmen y
Ġmen at
ul et
ul an
ul ans
ul erade
ĠR ab
ĠR iv
ĠR ac
ĠR oth
ĠR ee
ĠR ES
ie u
ne j
ta h
Ġfin are
Ġfin aste
ist iska
ast ade
ĠK j
ĠK o
ĠK er
ĠK et
ĠK ra
ĠK ara
ĠK ris
ĠK ID
ĠK inda
ĠK alla
ĠK IND
ĠK asper
ĠK larar
Ġpl Ã¥ga
Ġthere fore
Ġwor ship
ĠÃ¶ ns
ĠE at
ĠE ight
ĠE lder
ĠE cho
ĠV e
ĠV it
ĠV lad
ĠV IP
ĠV Ã¤rld
ud en
ud den
ĠmÃ¥ lade
Ġbl ad
Ġbl Ã¶t
Ġbl Ã¥s
Ġbl Ã¶der
Ġbl onde
ation erna
ab ol
ab bet
ab led
ab outs
ab ilities
ob o
ob al
ob ias
fÃ¶r b
fÃ¶r m
fÃ¶r are
fÃ¶r klar
Ġbut iken
Ġhel m
ap ore
Ġpro b
Ġsu nd
Ġsu pa
Ġpr ett
Ġupp fattat
ns yl
ns akan
ĠdÃ¤r efter
end i
end es
Ġtim er
Ġus es
he us
ge ons
da h
Ġbr un
Ġbr ush
Ġbr uten
Ġar row
Ġar mor
Ġar slet
Ġshe er
Ġshe ets
if all
ĠW oman
und o
Ġex ter
Ġex cess
Ġex fru
Ġsl ing
Ġer ase
Ġer ror
uck an
iss ors
ĠnÃ¤r varande
Ġtal es
Ġoff rar
der n
der ful
qu it
qu ist
ank ing
Ġcon vert
Ġcon dem
In se
In ne
De ad
gen cies
ens a
ĠÃ¶ver bord
ĠÃ¶ver vÃ¥n
ĠÃ¶ver huvud
ĠÃ¶ver raska
Ġ1 000
Ġgr ind
Ġgr inden
Ġgr Ã¶nt
Ġgr annen
Ġfe e
Ġfe at
Ġfe athers
Ġhur ric
Ġby rÃ¥k
ĠdÃ¶ v
Ġint ended
Ġhand ika
Ġhand skar
Ġunder l
All ison
Ġun p
Ġun re
Ġun ple
Ġun its
Ġun ited
Ġun stable
ik i
ik et
Ġpre y
Ġpre pped
Ġpre station
ĠIt aly
Ġdr Ã¶jde
Ġsm Ã¶g
Ġsm Ã¤ller
be f
be at
Ġkv alitet
ĠY i
ĠY von
ĠY orker
ĠvÃ¤n s
ĠvÃ¤n tan
ĠvÃ¤n stra
arn ie
ci ble
ĠCh i
ĠCh ad
ĠCh ang
SÃ¥ vida
Ã¤ng el
Ã¤ng da
Ġvis ual
Ġover night
Den ise
ĠgÃ¥ van
yck en
get s
ich o
Ġsv or
Ġsv Ã¤ng
Ġsv aren
Ġsv alt
Ġsv ansen
sp en
sp Ã¤r
sp resent
Ġpo em
ia o
og i
Ġdag ger
pa j
ats er
ont als
ĠU K
ĠU s
ĠU nd
ĠU PP
St en
ub li
ub by
Ġber odde
ĠNo a
Ġqu ad
Ġqu id
man cip
Ġgl Ã¶d
Ġgl ider
Ġgl Ã¤der
Ġgl owing
Ġny Ã¥r
ĠDu de
Ġmor sa
ju kt
ĠSt ack
ĠSt ars
Ġte amm
Ġte aring
ĠVi k
Ġfl or
Ġfl ir
ress er
Ġel ef
Ġel ements
ĠhÃ¤nd elser
iz z
Ġtry in
ang ed
ang elo
Ġstor leken
Ġsc ars
Ġsc andal
Ġtro p
Ġtro tto
ock er
ster dam
Ġsn ubben
âĢ ª
ĠvÃ¤r m
ĠvÃ¤r des
Ġperson alen
ons h
Ġdi al
Ġdi ver
Ġstr ongest
ĠvÃ¥r en
ĠdÃ¶d ens
rar i
ater ial
Ġfick a
ef ul
Ġplan era
ru ly
we ight
Ġask a
ath a
Ġfar mer
Ã¤st en
Ġmiss ile
Ġmiss bru
Ġper ception
sh ow
sh em
ĠvÃ¤g nar
Ġner ves
ĠrÃ¤tt fÃ¤rd
ĠrÃ¤tt slÃ¤
Ġfun ktion
ĠTh ough
ĠTh ose
vis ar
Ġact s
Ġdis rupt
Ġnight mar
Ġtra ff
Ġtra ced
Ġtra fiken
var ar
var or
Ġbit s
Ġfa cial
Ġgen e
kl Ã¤dd
Ġcar eless
Ġcar riage
ise x
ian er
ian ne
Ġass igned
ĠTH EN
Ġins ikt
Ã© er
Ã© ment
Ġfly tande
ey e
ey er
ey ed
Ġrem inder
Ġph oned
Ġtre ason
ok are
Ġpar lament
Ġreal m
amp en
amp ed
sten en
ier at
Ġmat ure
Ġbelie f
Ġtri ang
Ġtri vs
OU N
Ġimp rison
Ġimp lying
Ġimp onera
ĠSh ay
ĠSh akespeare
Ġgill at
Ġsch yst
ĠlÃ¤ ker
Ġmight y
Ġfall skÃ¤rm
Ġord in
Ġste er
Ġdri ft
AN CE
ĠHar riet
Ġpass ande
AT S
Ġhouse keep
Ġrep ay
Man ny
Ġsupp er
vin nan
Ġsky l
Ġsky nd
Ġend less
ĠlÃ¥t ar
ĠÃ¤ del
Ġsam band
Ġsam lat
Ġsam lats
rÃ¤ da
Ġrec overy
ĠMar ily
ĠMar quis
ash i
ĠkÃ¶r d
rist s
Ġexp osure
ott e
ott ag
ition en
Ġkall ades
ĠlÃ¤r aren
Ġfull kom
gr Ã¤v
Ã¶rd esk
Ġly ft
Ġly dde
Ġ5 1
Ġ5 5
mm m
Ġacc using
RE AT
ph ine
ib an
Ġsju kv
ask o
ask in
Ġunderstand s
Ġmon keys
Ġfast ighet
Ã¤pp t
Ã¤pp en
Ġhard ware
vÃ¤r j
vÃ¤r da
Sh eldon
Ġbeg un
Ġbeg Ã¥tt
Ġbeg Ã¤rt
min ation
min ute
ĠÃ¤nd am
Ġur ge
ĠBr an
ĠBr id
Att ack
Att ention
ĠShe pard
Ġdead ly
Ġter r
ple x
ler t
Ġsna kes
ĠvÃ¤rld skriget
Ġlag at
Ġfamilj erna
Ġreg ion
Ġreg ards
AR M
Ãĸ gon
Ãĸ vers
ĠAl t
ĠAl one
ĠAl ger
Ġgre ed
du kar
du ction
Ġinter ns
ĠrÃ¶ kte
ĠDo e
Sl ow
ĠsÃ¥n ger
ĠCar men
Ġbak sidan
Ġbur ial
Ġbur rit
lighet er
Ġ4 9
reg istret
itch ed
ĠdÃ¶r rar
Ġdire cted
Ġdum heter
Ġgenom fÃ¶ra
An nie
Allt ing
Allt id
Ġpolis ens
Ġbar bar
vel ous
ĠZ o
ĠZ eel
Ġtest ar
Ġtest ade
ĠJo el
ĠJo anna
Ġarbet at
Ġarbet are
Ġarbet slÃ¶s
ĠEn ligt
Ġval ues
ĠMa ine
ĠMa ja
Ġvin ter
Ġdoll s
Ġspr ida
Ġmus lim
Ġmus cles
TH IS
Ġfight ers
Ġ6 1
ĠLe ft
ĠLe ila
ĠLe vi
Ġbety g
Ġpat ri
Ġpat ron
Ġhistor ie
Ġstud ies
Ġstud erat
Ġinne hÃ¥ller
ĠAn other
ĠAn ita
rev lig
Ġfire fight
Ġbed Ã¶m
ced es
Ġgam ble
iet id
Ġdec lar
Ġdec ides
ĠstÃ¶r t
ĠstÃ¶r ta
ĠÃ¥ter gÃ¤ld
Ġorder ing
God natt
Ġmag isk
Ġmag iker
Ġconf use
Ġbusiness es
ĠJohn nie
ĠBl u
nings rummet
nings mannen
Ã¤k la
Ġart s
Fr Ã¥g
ĠSte p
ĠSte fan
ST AND
Al f
Ġsent en
ĠRe x
ĠSp ider
stÃ¥ tt
Ġret ain
Ġrel ay
ĠfÃ¶re stÃ¤ller
Ġsol ar
utt on
Med ia
Re ad
Re becca
Ġattack erar
ĠTO O
Ġpos itions
Ġmilj ontals
Sen ator
Ġstopp as
ĠMan chester
ĠhÃ¶ ja
Ġrad en
Ġrad ik
Ġrad ius
Ġprof et
ĠjÃ¤tt et
ĠjÃ¤tt el
ĠfÃ¶rut s
ĠSk jut
vÃ¤g s
Ġcool er
Ġsing er
Ex cellent
erat ure
ĠlÃ¶ ste
ĠlÃ¤tt ad
fer ence
Ġfot spÃ¥r
Ġimportant ly
Ġmidd ags
ĠMy ster
sam heten
Ġpub en
br anschen
Ġwish ed
napp ast
Ġang rip
dom en
ĠfÃ¶rv alt
ĠfÃ¶rv Ã¤nta
ĠbehÃ¶v des
Ġ8 28
Ġball er
Ġball et
ĠtjÃ¤n at
Ġarg uing
ĠmÃ¶j ligen
Ġensam stÃ¥ende
AS H
AS S
ield s
ĠslÃ¤pp s
Ġmatch a
rest on
Ġpull s
ĠfÃ¶rr Ã¥d
ĠfÃ¶rÃ¤ld rars
dr Ã¶m
Ġgift s
Ġlaw suit
Ġcor rid
Ġskr id
Dr ink
ĠBar b
Ġ15 00
Ġgrund en
ĠgÃ¤r ning
Ġrol igare
OW S
Ġinst ant
Ġinst ab
ĠfÃ¶rÃ¤nd rat
Ġcomplet ed
ĠfÃ¶rsv unna
IG N
ĠSc arlett
ĠLook ing
Ġlj ust
Ġegen skaper
Ġgamm ald
ĠUn less
Ġpresent er
Br uno
gÃ¥ng sfÃ¶rbud
Ġkon sten
Ġkon cept
Ġkon centrera
Ġuppt Ã¤cka
Ġuppt agna
Ġtelef oner
Ġdist inct
Ġform ula
Ġsmart aste
ĠKan ada
Ġ9 5
Ġ9 8
Ġ9 9
Ġ9 11
ĠGo vernor
ĠEm il
ĠEm peror
lag ning
Ġmist ress
Ġcur ly
Ġdamn ed
ĠmÃ¶ nst
Ġpast orn
unn el
hand eln
Ġflo ating
ĠHer bert
sm Ã¤n
sm ak
Ġinvest era
ald i
tj Ã¤n
yl on
ĠMe h
ĠKe en
IC O
pro grammet
Ġclass ified
Ar t
Ġrecord ed
Ġcent r
Ġcent imeter
Gr Ã¤v
Tr Ã¥kigt
vid ence
Ġsub tle
Ġsub space
ĠÃ¤g na
ĠCl Ã©ment
Ġbrott splats
Under bart
ĠCol by
Ġpack ad
ĠaffÃ¤r erna
Ã¤s ong
Ġtelefon nummer
ipp i
Ġfest a
Ġfest ival
Ġcir kel
Ġbox es
Ġblack out
Bl ue
Le ary
Ġtyp es
atter son
ĠCon f
Ġpapp an
Ġant ag
Ġant ik
ĠGu ess
Ġpen nan
amb i
Ġvak nat
Ġpop corn
Ġcol umn
ĠTe al
bor ah
ran nsakan
Ġfund s
Ġkort et
Ġrob ots
ĠrÃ¥d et
ific ent
Ġexist s
pel are
Ã¥ld ern
Ġbek anta
Ġ200 7
Ġ200 9
Ġpolit iskt
Ġpolit iker
ĠmÃ¶r k
tel sen
ĠfÃ¶rtj Ã¤na
Ġallihop a
riv na
Ġbomb s
Ġcost umes
ĠAb raham
vak ningen
Ġnatur ligt
Ġdeep est
ĠHi ro
Ġlead ership
for mer
ĠTr ue
Ġsituation er
igg s
Fan ns
Ġprodu ce
Ġprodu ction
sch ool
Ġkost y
Ġprogr ams
Ġbru na
Ġkontakt ar
Ġpublic itet
uc ci
Ġpark ed
ĠTy p
Ġorgan ize
Ġorgan ized
Ġtext ed
Ġextra ction
fr am
Ġpris er
Ġgrow s
ĠfÃ¶rstÃ¶r as
Ġgener ationer
Ġdisk ret
Ġdisk uss
ĠhÃ¤ xor
ĠhÃ¤ xan
Ġfail ing
ĠSm art
ĠstÃ¥ nd
ĠNe v
ĠPol isen
US H
Ju lie
Ġgud s
ĠMark et
ĠMark us
con ne
Ġstad s
Ġstad ium
Ġproper ties
bl Ã¥
Ġlur at
ĠChe y
Ġpatient en
ĠJames on
Ġ11 2
Jack son
ĠJuli en
ĠJuli et
Ġstri pp
Ġskuld kÃ¤n
Ġpleas ant
Ġrom er
Ġrom an
ĠST ILL
Ġban ished
Ġrespect s
gre jer
ĠEll iott
ĠAlex a
ĠAlex ander
Ġnyck lar
Ġappreci ated
go ing
Ġkaff et
Ġbesk ed
Ġshort ly
Ġquiet ly
ĠbrÃ¶llop s
Pr ot
ĠvÃ¥g or
ĠBur ger
Ġuts idan
jÃ¤v lar
Ġtick ing
ĠkrÃ¤ kas
Ġarri ving
Ġcamp s
Ġcamp ing
ĠAm sterdam
ĠCr om
ĠlÃ¶g nen
ĠrÃ¥ na
Ġrev ol
Ġspot light
lÃ¤g er
ĠMad am
ĠMad ame
ĠMad rid
Ġsurpris ing
Ġdifficult y
Ġed ition
Ġmis ery
Ġmis erable
Ġfill ing
ĠfÃ¶rklar at
ĠfÃ¶rklar ade
Ġdrunk nade
Ġamb ush
cuss ion
ĠPhil adel
Ġsjun ka
Qu it
Ġgry ningen
Ġrema ined
Ġerbjud andet
VÃ¤l j
Ġansikt s
Gra bben
Ġsuit case
laim ed
Ġimm ort
brott et
ĠbÃ¶ nor
Ġpil ots
Ġok Ã¤nda
Ġcab les
Ġintell ect
ĠMer cedes
.' "
cl usive
Ġbal cony
Ġow l
Ġow es
Ġtotal t
Ġir ony
ĠstÃ¤ng da
ĠstÃ¤ng slet
Ġprofession als
Ġprofession ella
Ġprogram mer
Bes k
Car oline
fl Ã¶d
fil men
ĠSE C
Tj ugo
Tj ejen
ura lly
Ġwood en
Ġot Ã¤ckt
Ġiss ued
Ġcivil ization
Ġrece iving
Ġanklag a
ĠGar field
ĠGar cia
ĠGar vey
ĠfÃ¶delsed ags
Sure ly
vi ction
Ġmid st
Ġdump ade
Ġkyss as
ĠBa xter
ĠTill baka
Ġchick ens
Ġtechn iques
Ġment ally
Ġble ed
itz er
ĠMo skva
ĠÃ¶verrask ningar
fest en
Ġbase boll
Ġko sta
ĠjÃ¤m nt
loy ed
Ġtit an
Ġgym nas
ĠCor re
ĠWal es
Ġterror ism
Ġterror ists
WH Y
ĠsÃ¥r et
ĠsÃ¥r bar
Ġskil jer
irm ary
ĠAny way
Ġextre me
AP D
Ġtor kar
Ġgiss ning
Ġclaim ing
Ġclaim ed
ĠstÃ¶ tta
Ġspar ar
Ġutveck ling
Ġreser vation
ĠkÃ¶tt et
Ġrapporter ar
Ġhook ed
ĠhÃ¤st ar
Ġrain ing
Ġlog ic
cip al
Ġmisslyck ande
Ġinterview s
Ins er
Ġcal cul
Ġtekn iskt
Ġtekn iken
OP LE
Ġaut ograph
Ġcigar ette
Ġmyster ium
ĠGrand ma
Ġstink s
ĠknÃ¤pp a
ĠCra ck
ĠTur ner
ĠTur key
Ġ201 6
Ġskjut sa
kon ferens
Ġsight s
ĠHal ey
Ġspo il
ĠskÃ¶ter ska
Fort y
kont oret
tr ans
ĠjÃ¤k ligt
Ġshock ing
Ġprefer ence
ĠGeorg es
Ġdat um
Ġljud et
Ġstry pt
ĠskÃ¤l et
ĠDra cula
Ġdeliver ing
Ġdesig ning
ĠfÃ¶rvir rande
Ġers Ã¤ttare
ĠCam ille
Ġchair man
Ġfunn it
Ġabs ence
Ġsabb at
Ġbrut it
Ġapolog ies
Ġinspir erade
bry t
fly kt
Ġhug ga
ĠMur ray
ĠKn ox
Ġarr ange
Ġerk Ã¤nt
ĠfÃ¶rsÃ¤k ra
ĠfÃ¶rsÃ¤k rar
Ġcontract s
Po Ã¤ngen
ĠDoug las
ĠfÃ¶rsvar ar
VarsÃ¥god a
Ġfasc in
ĠSil as
ĠMil o
ĠlÃ¤sk iga
Reg ard
Reg ina
Son ny
Ġtok igt
ĠJan et
ĠÃ¶n ska
Ġexem plar
Ġdrott ningen
LO OK
Ġtum or
ĠkÃ¤ll or
Ġolyck liga
Ġhack ed
Ġheaven s
Ġdev ices
ĠDar ren
Ġchock erande
Juli us
hund ar
ĠsÃ¶m nen
Ġhed ers
Ġmut ant
Ġfys ik
Ġfys isk
Ġcru ise
Ġrit ade
ĠMont y
Ġspy ing
Ġperform ing
Ġdescri bed
Ġ194 2
Cle arly
HÃ¤l ften
Ġager ande
Ġboo bs
stal g
Ġpir at
Ġpir ate
Ġpir ates
Ġrab att
Ġstir rar
ĠSta ff
ĠHor se
ĠBla ine
ĠRad io
Ġprim ary
Ġdram at
Ġembarrass ed
Ġdistri kt
Und an
Ġheder lig
Ġnj uter
Ġvetenskap en
Ġindust rial
Ġbrief case
Ġintervju er
Ġfader n
tem ot
Ġstul en
Ġamong st
Ġtillbring ar
Ġdisc reet
Ġaffect s
Ġexplod erade
yp sy
Ã¨ le
ĠÃ¤v enty
Ġyoun gest
ĠSpe cial
ĠPort ug
ĠRiver a
Ġmots atsen
Hund ra
dog s
Ġ% .
ĠfÃ¥g lar
Ġbid rag
Ġdefe ated
BE CAUSE
Î¿ u
Ġbust ed
Ġlung orna
Ġanlit at
Ġskaff at
Ġskaff ade
ĠRu f
ĠEv ans
ĠvÃ¤rde fulla
Pass a
Sch yst
Ġfif ty
ĠvÃ¥n ing
Ġkors ar
Ġinb Ã¶rdesk
ĠKrist us
spro blem
Ġque ens
Ġflykt ing
ĠSpan ien
Ġprivile g
Mor ning
Off ret
Talk ing
Ver onica
Ġreve aled
ĠhÃ¤rom kvÃ¤llen
Ġmotiv ated
Ġsyss els
Ġstrang led
Ġobser ver
Ġengel sk
Ġfruktans vÃ¤rd
Ġdiplom at
Pat rick
fik na
Ġmart yr
Ġmart ial
Ġnin th
ĠSU RE
olo ft
Ġzomb ies
Ġveh icles
Cra ig
Mc C
Ra ise
Ġdish es
Ġmyst iska
ĠDa isy
ĠNaz is
Ġloj al
Ġinsist ed
ATION AL
Ġgodk Ã¤nt
Ġveget ables
Ġvampyr er
Ġsumm oned
Ġachie ved
Ġlav ish
Ġkro ken
Ġrens ar
rym d
ĠRun ning
Ġblank et
Ġunf org
Ġblick ar
Ġmusk ler
ĠstrÃ¶m men
Ġlaunch ed
Ġscient ists
Ġrekommend erar
Tid igare
Tim my
ĠÃ ģngel
ĠsÃ¤m re
Ġgy llene
ĠjÃ¤r net
ĠstÃ¤d ade
Ġreag era
Ġreag erar
Ġreag erade
ĠMus ic
Ġchem ical
ĠÃ¶d mjuk
Ġdeli ber
Ġcounsel ing
Ġcirk us
Ġaggress iv
Ġindivid ual
Amer ican
Luc as
Ġsikt a
Ġvig sel
Ġpure ly
Ġpip es
Ġpaket et
Ġnar row
Ġrutt na
Ġshr imp
ĠLug na
Ġchap el
Ġleks aker
ĠrÃ¶v hÃ¥l
ĠsjÃ¶n k
Typ ical
ĠaffÃ¤rs man
ĠÃ¶vertyg ade
Ell en
Ġyog urt
ĠLyn ch
ĠEM ILY
Ġsnut ar
Ġsusp ended
Ġidentifier at
Ġsandwich es
Ġorigin ally
Ġspecif ikt
ĠCourt ney
ĠbekrÃ¤ft at
ĠÃĸver ste
Ġward robe
Ġna iv
Ġreli ef
ĠEst her
Ġclin ic
Ġdiscipl ine
ĠlÃ¤kar linjen
Ġrykt et
Ġrykt as
Ġkomplicer ad
Grand ma
Ġelectric ity
Wr ite
Ġtugg ummi
Ġbeund rar
Ġbeund rare
Ġmechan ic
Ġliber al
Ġchuck les
Ġutpress a
Ġprose cutor
Ġsmuts iga
ĠsÃ¤s ongen
Ġkrit ik
Ġpatet iska
Ġimmig ration
Lik som
hjÃ¤r tat
Ġtutt arna
Ġkust en
Ġinj ic
Ġclar ify
ĠbevÃ¤p nad
Ġridd are
Ġfris yr
Ġavbry ter
ĠNash ville
ĠFall on
ĠdrÃ¤kt en
Start ing
Ġnewsp apers
Ġassoci ate
ĠÃ¥terh Ã¤mt
ĠÃ¥terh Ã¤mta
Ġtransp orter
ĠPhill ips
Eli zabeth
Rock y
famil j
vide o
Ġprost itu
Ġarrester ade
Ġsmy ga
ĠsmÃ¤l ta
Ġteor in
Ġteor ier
ĠklÃ¤tt rar
Ġcomprom ised
Ġsuspic ious
Ġuttal ande
Ġsympt oms
Ġfej k
Ġlill asyster
Ġmekan iker
ĠSv arta
ĠCab o
ĠOs borne
Ġspott ed
Ġkomment arer
Ġsuff oc
Ġingred ients
Ġfeg is
ĠintrÃ¤ff ade
Ġhanddu k
Ġemb assy
ĠSov iet
ĠkÃ¤rn vapen
Ġacqu ired
Ġkonstap eln
Bek lagar
ĠtÃ¶r stig
Ġfulf ill
Ġbom ber
Ġitalien ska
Ġskate board
ĠMIS S
ĠTok yo
Ġoffent lig
Ġoffent liga
ĠÃ¶verv Ã¤ld
ĠÃ¶vervÃ¤g a
ĠYE ARS
ĠUl rich
Stra x
Ġpassager are
Ġbabys itter
Ġkrimin ella
LAUGH S
Sak nar
pla cer
Ġnurs ing
Ġskak ade
ssystem et
ĠOct ober
Ġconven ient
Ġsvett as
ĠvÃ¤lkom nar
Ġdiarr Ã©
ĠsjukskÃ¶ter ska
Ġteleg ram
Ġrelat ives
ĠBened ict
ĠAbsol utely
Ġstyrel sen
Ġmaxim um
Pam ela
Sla ppna
Tv Ã¤tta
Vap net
ĠÃ¥n ger
Ġbart ender
Ġcand les
Ġvardags rummet
Ġrever se
sem ble
ĠtillÃ¤g ga
ĠDea con
ĠKir by
Ġplat form
ĠorÃ¤tt vist
Ġbefolk ningen
ĠvÃ¤gled ning
Ġbegra va
ĠPatri cia
Ġexecut ed
Jobb a
ĠSus ie
Ġdol ph
Ġfrit id
ĠFern ando
ĠWR ONG
ĠWard en
Ġseri emÃ¶rdare
ĠChamp ion
Ġadminist ration
ĠMicha els
ĠColumb ia
Ġdiskuter ade
ĠfÃ¶rhind ra
System et
ĠofÃ¶rsk Ã¤md
Kontroller a
Ġexhaust ed
lÃ¤ng es
Ġhant verk
Ġjew elry
Ġune x
Ġskelet on
ĠHass an
ĠPrat a
Ġuppfatt ning
Ġunderest imate
Ġmaff ian
result at
Brit ish
Ġtillfreds stÃ¤ll
Ġbeskri va
Ġcelebr ity
Fund era
Ġfare well
Ġbiz arre
Ġpomm es
ĠovÃ¤nt at
Ġrif le
Ġstubb orn
ĠSwe ets
ĠCrow ley
ĠBalt imore
Ġmins ann
ĠTUR N
ĠNich ols
ĠPLA CE
Ġspect ac
Ġplatt form
Ġupphets ad
Ġasyl um
ĠYanke es
Ġkomb ination
believ able
Ġfranch ise
Ġted dy
ĠJoc elyn
ĠPE OPLE
ĠKNE W
dafri ka
ĠWaver ly
Ġsvimm ade
ĠUlt ra
Ġpolisst ationen
Ġinneb Ã¤ra
Ġantib iot
Ġjulkla pp
Ġsynner het
Ġbrudg ummen
Ġklagom Ã¥l
Ġhilar ious
Ġpse ud
Ġlinger ie
Ġjap anska
Ġjula fton
Ġlifest yle
Ġwebs ite
ĠJÃ¸r gen
artac us
ĠÃ¶ns ke
udden ly
nsyl vania
Ġunple asant
ĠMarily n
ĠZeel and
Ġgammald ags
ĠPhiladel ph
" '
' ...
) }
0 4
3 3
3 6
3 8
6 4
8 3
A H
A g
A ck
A PP
B oo
B ri
B ru
B ird
B omb
B uster
B uddy
B ilen
C at
C AN
C oc
C ole
C LE
C ES
C ola
C ontin
C eleste
C roix
D or
D ing
D od
D ong
D EN
D ator
D ream
D ana
D omen
D rive
D iamond
E w
E ld
E na
E va
E ye
E van
E ggs
F L
F T
F er
F ir
F ight
F ars
F lor
F OR
F inn
F avor
G i
G us
G reet
G lass
G loria
H Ã¥r
H eter
H EL
H aj
I vy
J O
J ill
J ÃĦ
J ones
J AG
J amal
K E
K h
K oll
K ny
K aren
K amer
K ungen
K Ã¶p
K ollar
K affe
L en
L es
L iz
L eg
L ika
L igg
L AND
L yst
M i
M ess
M ars
M ath
M oh
M ON
M olly
M AY
M iles
M aten
N orm
N OR
O ll
O ly
O ns
O ICE
P T
P os
P ost
P ark
P sy
P locka
P ARK
P eace
R h
R id
R est
R oll
R ef
R Ã¶d
R aring
R Ã¤d
R aj
R obb
R osa
R Ã¤dd
R udy
R alph
R upert
R afael
S L
S w
S el
S iv
S ER
S ister
S yl
S AM
S aker
S andy
S juk
S yd
S itter
S Ã¤lj
S ELF
T Y
T Ã¤nd
T usentals
T each
U H
V Ã¤g
V EN
V atten
V Ã¤rd
V ince
V ito
W oman
Y ang
Z Y
a e
a fter
a uri
b ent
b od
b ab
b ank
b iska
b ags
b rev
b unden
c ere
c ade
c us
c od
c ans
c ord
c ott
c ream
c ular
c ution
c ulations
d at
e u
e ge
e xt
f ling
f ix
f inger
f ym
f essorn
g il
g ren
g ien
g ilt
g Ã¤rd
g iven
g Ã¥tt
g Ã¶relse
g Ã¥sar
h or
h as
h ound
h og
h Ã¶g
h alt
h jul
h oppningsvis
i our
i ation
i ater
j on
j oo
j ak
j ack
j Ã¶d
j andro
k onst
k iska
k else
k elt
k omp
l f
l oo
l ust
l ake
l atan
m ig
m art
m ake
m ira
m Ã¥ste
m Ã¥nad
m Ã¤staren
m isstÃ¤nkt
m okare
n old
n ets
n else
n ov
n ormal
o ft
o ffic
o fficer
p on
p li
p ens
p ip
p ret
p ants
p add
p ui
p engar
r Ã¤n
r and
r ome
r ud
r ish
r ider
r ama
r Ã¶v
r issy
s id
s ligt
s ik
s co
s full
t it
t ad
t im
t oo
t un
t rÃ¤de
u kt
u ced
u alties
v de
v ande
v ars
v ult
v orna
v Ã¤gg
v ald
v Ã¥rd
w r
w ig
w al
w ait
w ald
w arp
x in
x on
x im
y on
y ren
z i
z ra
z il
z ers
z ens
z ier
z onen
Â ¶
Â Ĳ
Â ĸ
Â Ń
Ġ :
Ġ Ù
Ġ ort
Ġ 00
Ġ elf
Ġ ounce
Ġ âĤ¬
Ġt ou
Ġt amp
Ġt orter
Ġt ender
Ġt akten
Ġt weet
Ġt ipped
in able
in als
in ister
in stein
Ġs ip
Ġs ung
Ġs edu
Ġs Ã¶rja
Ġs Ã¶rj
Ġs Ã¤nka
Ġs allad
Ġs essions
er v
er ner
er ligen
Ġa irl
Ġa ye
Ġa fri
Ġd elf
Ġd jÃ¤r
Ġd ouch
Ġd iving
Ġd ryck
Ġd edu
Ġd oop
Ġd owns
Ġd aily
Ġh j
Ġh ier
Ġh oj
Ġh inder
Ġh unger
Ã¤ sen
Ã¤ ten
ar g
ar skap
ar ms
Ġm g
Ġm am
Ġm ack
Ġm ast
Ġm ac
Ġm aps
Ġm alar
Ġm oln
ou der
et era
et terna
an ia
an vÃ¤nd
Ġth rive
ll ar
Ġf n
Ġf ack
Ġf ark
Ġf ert
Ġf ract
Ġf Ã¤der
Ġf ox
Ġf aked
Ġf eds
Ġf itting
Ġf Ã¤ster
Ġf lip
Ã¥ nd
Ã¥ lig
Ġb Ã¥g
Ġb end
Ġb ip
Ġb alk
Ġb ald
Ġb ending
Ġb apt
Ġb icy
Ġb ounty
Ġw izard
Ġw elfare
Ġw arehouse
at l
at um
at io
Ã¶ te
Ã¶ dde
Ã¶ kta
or an
or ious
it iv
it arian
Ġv d
Ġv ing
Ġv end
Ġv rak
Ġv alley
Ġg a
Ġg ent
Ġg est
Ġg Ã¶d
Ġg yn
Ġg ender
Ã¤r lig
Ã¤r kta
Ã¤r ningsmannen
ing ly
ag m
ag erar
st rar
st ream
st rid
re h
re gon
Ġp Ã¤l
Ġp end
Ġp ank
Ġp ale
Ġp ige
Ġp ardon
Ġp umpa
ig ning
Ġn Ã¤tterna
Ġl ans
Ġl end
Ġl amm
Ġl ac
Ġl ining
Ġl imp
Ġl ampan
Ġl ength
Ġl ouder
Ġk a
Ġk ara
Ġk Ã¥t
Ġk ru
Ġk appa
Ġk upp
Ġk aps
Ġk anten
Ġk akan
Ġk afÃ©
is c
is i
is ker
is eras
is erade
Ġo lig
Ġo bet
Ġo lÃ¤g
Ġthe ft
Ġin ch
Ġin app
Ġin red
ed o
ed agen
Ġc ord
Ġc ling
Ġc aut
Ġc igg
Ġc attle
Ġc udd
Ġc ongress
Ġc opper
Ġc inema
Ġto es
Ġto ps
Ã¶r da
ad on
ĠI ll
ĠI RA
ĠI II
ĠI gor
ĠI lana
Ġj og
Ġj akten
ĠÃ¤r va
ch us
ch arge
te ch
te ga
te xter
ill or
ill ingar
es is
as i
Ġu l
el in
Ġdet ention
ot y
ot er
ot he
ve ster
id o
Ġdu cks
Ġdu nk
al em
al ind
Ġbe v
Ġbe ep
Ġbe ars
Ġbe vara
Ġen vel
Ġen chant
Ġen forcement
Ġr ation
Ġr ice
Ġr ose
Ġr ike
Ġr iff
Ġr ita
Ġr ides
Ġr itu
Ġr umpan
Ġr ibs
ĠfÃ¶r vÃ¤g
ĠfÃ¶r dom
am y
am ling
am rater
le st
le wood
Ġi P
Ġi ak
Ġit em
Th ird
Th omas
ke pp
ke ye
Ġst im
Ġst ank
Ġst amp
Ġst Ã¥l
Ġst air
Ġst ero
Ġst ugan
Ġst Ã¶vlar
Ġe vacu
Ġand en
Ġand el
Ġand ning
ut rustning
Ġsk i
Ġsk id
Ġsk ra
Ġsk olk
Ġsk ating
Ġsk irt
Ġsk ipped
Ġsk Ã¥la
Ġsk ippa
Ġwh ip
Ġwh ores
Ġsom nat
ra z
ra in
ra ine
ra stru
Ã¤n ing
Ã¤n kta
ĠpÃ¥ karna
Ġvar ifrÃ¥n
Ġvar elsen
Ġvar elserna
Ġhar bor
ĠS S
ĠS ent
ĠS itt
ĠS op
ĠS elf
ĠS ER
ĠS IN
ĠS Ãħ
ĠS upp
ĠS edan
ĠS pr
ĠS inger
ĠS tern
ĠS leep
ĠS ophia
Ġis k
Ġre gr
Ġre ader
Ġre vel
Ġre ktor
Ġre ktorn
Ġre cip
Ġre dem
im pa
ur o
Ġfor d
Ġfor men
oo h
oo by
and ant
Ġan te
Ġan ade
Ġan pass
Ġhe pat
Ġhe aling
ro ad
Ġli ons
Ġdo ld
Ġdo pe
ht ag
all s
all ing
all aden
ĠM A
ĠM C
ĠM I
ĠM Ã¥r
ĠM Ã¥n
ĠM ol
ĠM ack
ĠM od
ĠM ister
ĠM ika
ĠM IT
ĠM oon
ĠM Ã¥nga
ĠM ADE
ĠM ountain
il sen
il ary
Ġde er
Ġde kor
Ġall smÃ¤kt
Ġmed ger
Ġmed io
ent o
ent lig
ĠH au
ĠH ep
ĠH ide
ĠH opp
ĠH ild
ĠH Ã¶g
ĠH orn
ĠH istor
ĠH az
ĠH ollow
ĠH ills
ĠH Ã¼
ĠH ÃĦR
ĠH ittade
ĠH OUR
ĠH wang
ĠH iggins
ir i
ust ers
ust av
Ġfr at
Ġfr ies
Ġfr Ã¤ck
Ġfr ites
ak y
ak ot
Ġtill rÃ¤tta
ion jÃ¤r
ter m
ter ia
ter ling
Ġsh ade
Ġsh ook
Ġsh ore
Ġsh irts
Ġsh aft
Ġsh adows
Wh ose
Ġkn Ã¤na
ĠA in
ĠA th
ĠA ff
ĠA way
ĠA ren
ĠA mar
ĠA kta
ĠA WAY
ĠA urora
ĠD y
ĠD er
ĠD it
ĠD one
ĠD ans
ĠD uck
ĠD eck
ĠD AD
ĠD EL
ĠD ONE
ĠD ustin
We st
Ġvi ka
Ġvi ctor
Ġvi bes
Ġgo als
Ġgo sse
ant on
ĠhÃ¤r inne
Ġom sl
Ġom ring
Ġom vÃ¤rlden
Ġom Ã¶jlig
ĠC L
ĠC ow
ĠC old
ĠC Ã©
ĠC els
ĠC OR
ĠC ove
ĠC ora
ĠC ARE
ĠC BS
ĠB an
ĠB ag
ĠB li
ĠB our
ĠB ass
ĠB ret
ĠB oh
ĠB Ã¤sta
ĠB its
ĠB org
ĠB urn
ĠB US
ĠB jar
ĠB LO
ĠB enton
ĠB undy
ĠB auer
ĠB umpy
ĠB usiness
Ġse ctor
Ġse ized
Ġse vere
Ġse Ã±or
ri ker
ri ster
ri ors
ol ik
un ken
de mon
Ġne arest
sk Ã¤l
sk ans
sk Ã¥d
sk uld
sk ola
sk ada
sk ompis
Vi ctor
Ġmin ska
kt is
kt Ã¶r
Ġtr ass
Ġtr ous
Ġtr anqu
Ġav se
Ġav led
Ġav klar
ea ke
ĠT s
ĠT et
ĠT ay
ĠT ea
ĠT op
ĠT ick
ĠT od
ĠT uck
ĠT own
ĠT ool
ĠT rist
ĠT ala
ĠT any
ĠT illy
ĠT rick
ĠT rey
ĠT iger
ĠT itan
ĠT WO
Ġjust ify
Ġhan terar
ĠG h
ĠG as
ĠG Ã¥r
ĠG ara
ĠG ull
ĠG ris
ĠG ala
ĠG ert
ĠG ROU
ĠG onz
ĠG omez
ĠN ia
ĠN ummer
ĠN ear
ĠN ilsen
th ink
th ult
th rough
op ro
us age
ĠL Ã¤r
ĠL ad
ĠL ÃĦ
ĠL ia
ĠL aden
ĠL EA
ĠL inden
ĠL anc
ĠL eaven
ĠL ulu
ĠL IFE
li ps
li kn
ĠJ P
ĠJ i
ĠJ am
ĠJ ap
ĠJ Ã¤v
ĠJ ump
ĠJ ared
ĠJ ules
ĠJ asper
ĠJ edi
Ã¤g aren
Ġab rupt
ĠO M
ĠO S
ĠO j
ĠO ak
ĠO dd
ĠO skar
ĠO tis
ĠO regon
ic us
ic illin
ull er
ull ig
ull igt
Ġso cks
ĠP G
ĠP om
ĠP ry
ĠP la
ĠP est
ĠP ern
ĠP lace
ĠP ARK
ĠP rivate
ĠP inocchio
ĠP LEASE
Ġvill a
Ġman agers
Ġman agement
Ġman eu
ink om
ink ter
ff e
ff el
ell ow
ĠF L
ĠF ur
ĠF ree
ĠF alk
ĠF Ãĸ
ĠF ried
ĠF itch
ĠF uture
Ġout break
ick et
ort ing
em p
em per
em ang
Ġsp ine
Ġsp ots
Ġsp Ã¤nt
od or
od ore
Ġup tight
um i
um o
um ing
He ard
Ġch er
Ġch ow
Ġch atter
Ġch ores
Ġch ili
Ġno on
Ġno stalg
Ġut sp
Ġut vÃ¤g
Ġut Ã¶ver
Ġut slag
Ġut lÃ¤nd
Ġut rot
Ġmen s
ul or
ul ed
ĠR em
ĠR um
ĠR ÃĦ
ĠR ED
ĠR ingo
ĠR afael
ne ver
Ġkomm ande
ist ant
ist ance
ist inct
ood les
ĠK L
ĠK i
ĠK Ã¤r
ĠK ot
ĠK ay
ĠK am
ĠK and
ĠK ob
ĠK ard
ĠK ens
ĠK lar
ĠK ru
ĠK onst
ĠK ira
ĠK IM
ĠK han
Ġpl und
Ġor m
Ġor gas
ĠÃ¶ ken
ĠÃ¶ len
ĠE K
ĠE R
ĠE ag
ĠE ld
ĠE xt
ĠE aster
ĠE ileen
ĠV ed
ĠV itt
ĠV illa
ĠV Ã¤ldigt
ĠV IS
ud ela
ĠmÃ¥ lar
Ġbl o
Ġbl ed
Ġbl end
Ġbl unt
ab or
ab elle
ob i
Ġbut cher
Ġlo gg
Ġlo tter
Ġhel gerna
Ġdin ing
ap it
ap lan
Ġpro c
Ġpro ver
Ġpro be
Ġpro gn
Ġsu gr
ven ile
ans var
os er
os ie
os of
os ystem
Ġupp st
Ġupp man
Ġupp ifrÃ¥n
Ġupp rikt
Ġupp fyll
ĠdÃ¤r pÃ¥
ĠdÃ¤r inne
ĠJag uar
Ġtim mars
Ġus la
ge vÃ¤r
ge fÃ¤r
Ġbr unch
Ġbr Ã¤nt
Ġbr Ã¤nn
Ġbr Ã¤nder
Ġbr anschen
Ã¤m ne
Ġsome what
ĠYou Tube
ĠW r
ĠW an
ĠW ing
ĠW ent
ĠW ake
ĠW alt
ĠW AY
ĠW omen
ĠW orf
ĠW izard
und ers
Ġsl im
Ġsl ant
Ġsl ack
Ġsl ap
Ġsl Ã¤ng
Ġsl agt
Ġsl ampa
Ġer Ã¶v
Ġer upt
ger ald
ard i
ard ner
Ġas hes
Ġle kar
Ġle aking
Ġle ather
Ġle cture
iss ioner
ÃĦ K
la ve
att ing
Ġund e
ep in
iv ande
iv alen
Ġoff ended
Ġoff ensive
der a
Ġthem e
Ġbeh ave
Ġbeh agar
ass ic
qu a
qu al
qu ate
So ver
Ġcon ser
Ġcon spir
Ġcon viction
In g
In cluding
Ġbo ka
Ġbo kar
Ġbo oth
ens haw
ĠÃ¶ver ge
ĠÃ¶ver sv
ĠÃ¶ver natur
Ġbra cel
Ġgr u
Ġgr in
Ġgr us
Ġgr Ã¥t
Ġgr ades
Ġgr Ã¶t
Ġgr Ã¤dd
Ġgr Ã¤nden
Ġbet jÃ¤nt
Ġby tt
Ġby te
Ġby rÃ¥
Ġcom in
Ġcom rade
ĠdÃ¶ pte
per t
av ed
av el
av tal
rig o
rig an
Ġint imate
Ġhand shake
Ġhand skas
lo f
lo ppet
Ġunder t
Ġunder gÃ¥ng
Ġunder world
Ġunder jorden
ire z
FÃ¶r Ã¤ld
FÃ¶r lor
Ġun c
Ġun i
Ġun load
Ġun like
Ġun emp
Ġser vit
ik at
ine e
Ġpre jud
ous in
Ã¥ng at
Ã¥ng ad
Ã¥ng are
ĠfÃ¶rs on
ĠfÃ¶rs um
Ġdr Ã¶jer
Ġdr owned
Ġdr Ã¶nare
Ġdr unken
Ġsm ack
Ġsm ula
Ġsm yg
Ġsm oked
ug ger
ug of
be y
be folk
Ġkv ad
ĠY u
ĠY ay
ĠY osh
app ing
cket s
Ġpe pp
Ġpe ek
Ġhapp iest
Ġtv Ã¤rs
ci er
ci enda
ĠCh es
ĠCh eng
ĠCh annel
Ã¤ng ning
Ġliv ets
opp ers
Ġsen aten
ĠkÃ¤n n
Ġvis as
Ġvis dom
Ġover come
Den nis
ark s
Ġam en
Ġam ate
Ġam ok
Ġam iral
Ġtid ningar
Ġtid ernas
Ġtid punkten
âĻ «
ĠHe ath
ĠHe idi
Ġsv ets
Ġsv agt
sp ol
ĠÃ¥ s
ĠÃ¥ tt
ĠÃ¥ tton
Ġsin s
Ġid ol
og Ã¥rden
Ġdag ars
pt ic
pt ions
ild red
akt iv
ĠU H
ĠU ntil
St y
St ort
St aden
St rÃ¤ck
Ġsak es
ĠhjÃ¤l tar
Hur ra
Ġingen jÃ¶r
ĠNo vak
Ġqu ant
ew are
man i
Ġgl ue
Ġgl uten
ĠfÃ¶ reg
ĠfÃ¶ delse
Ġny e
Ġny m
Ġny pa
Ġny kom
Ġny lon
ĠWh e
ĠWh is
Ġmu ffin
Ġmor far
ju tt
ĠSt iles
ĠSt rip
int y
int als
int enance
Ã¶m men
ĠAnd as
Ġlea p
kar len
ĠÃ¥t ala
Ġfl own
Ġfl ugit
ress en
Ġel va
Ġel eph
Ġel bow
Ġkl or
Ġmo ck
Ġmo ist
Ġmo gen
Ġmo tel
ond ition
irst en
ang s
Ġsc ored
Ġsc otch
ĠbÃ¶r da
Ġtro ligt
Ġtro ph
âĢ ĭ
atch ing
ĠvÃ¤r det
Ġdi et
Ġdi abet
Har per
ĠtvÃ¥ l
My r
ĠOh io
sl Ã¶
sl ow
Ġplan eter
old ater
Ġhit Ã¥t
pl Ã¥t
Ġspe kul
Ã¤st ar
Ġthr ill
Ġthr illed
Ġslut fÃ¶ra
ER EN
Ġper ver
Ġper se
sh istor
Ġner fÃ¶r
Ġcl ams
Ġcl othing
Ġbort glÃ¶m
Ġkid do
vis ions
IN A
IN AL
Ġbarn ets
ever end
Just in
ann o
ann ons
ann ister
Min st
Min us
Ġdis gu
Ġdis order
Ġvid rig
ult ur
ng Ã¶
Ġtra vels
Ġrun nin
Ġdel ay
Ġdel ighted
ĠsjÃ¤lv sÃ¤ker
ĠsjÃ¤lv fÃ¶rsvar
sa ffÃ¤r
Ã¤kt a
Ġbit er
Ġbit rÃ¤dande
Ġfel ony
Ġbu ffer
Ġfa stest
Ġgen gÃ¤ld
Be vis
Be cca
Ġcar ing
Ġcar bon
Ġfram ed
eng t
Ġson en
Ġass ets
Ġins ett
Ġins ight
Ġred og
ĠIn nan
ĠIn Ã©s
Ã© l
Ġrem embers
ĠDe x
ĠDe von
ĠDe xter
ok oll
Ġpar all
Ġpar fym
ins on
Ġtj us
Ġtj allar
sten ar
Ġann ounced
Is rael
ier ar
ier ing
Ġad apt
je ong
Ġled aren
Ġco zy
Ġco con
Ġco tton
Ġvil sel
Ġown ers
ĠsÃ¤ker heten
ĠSh i
ĠSh op
ĠSh ug
ĠSh adow
Ġsch ed
Ġem pt
vet s
Ġsex igt
Ġsex uell
Sk rik
Ġfall it
Ġord nat
ĠlÃ¤m nas
Ġcomp ens
Ġste ak
ope z
Ġsupp orts
ĠsÃ¤tt s
Ġinf rastru
ris en
vin ce
vin nor
vin cible
Ġpa wn
Ġsam s
Ġsam ling
Ġsam lag
Ġsam ura
Ġres on
Ġres ent
Ġres ident
Ġres ign
Ġres igned
rat es
rat ors
rÃ¤ ffa
ĠkÃ¶ pare
Ġrec on
Ġrec ruit
Ġsur g
Ġsur vey
ĠMar ci
ĠMar lon
ĠMar ianne
Ġbro ker
Ġbro sch
Ġkont ot
ĠVar ifrÃ¥n
Ġmar in
Ġmar ion
Ġmar ins
ott i
Ġhopp lÃ¶st
ĠlÃ¥ ser
wh en
ĠFr am
ĠFr Ã¥ga
ĠFr aser
Ġly x
Ġ5 2
Ġ5 3
Ġ5 4
Ġ5 7
Ġ5 000
Ġ5 55
Tack ar
act ing
Ġacc ommod
ph is
Ska ffa
Ġma js
Ġma intenance
ib al
ask ins
Ta x
ork ad
Ġunderstand able
Ġmon ks
Ġnum b
Ġnum era
Ġcra ppy
Vem s
Ġgra in
Ġgra cious
idd y
idd ing
Ġfru ar
Sh ot
Ġbeg ri
ĠÃ¤nd en
Ġland ning
Ġur in
ĠBr ett
del ningar
Ġcr umb
Ġsna cks
Ġpri ces
Ġpri zes
Ġev olved
ĠMen dez
by te
by xor
Ġlag om
Ġfamilj s
Ġfamilj ens
Ġcomm otion
ail ing
ĠAl b
ĠAl varez
Ġmet a
Ġmet od
Ġgre pp
Ġinter course
ĠDo ing
Ġtom ten
ĠkÃ¤r na
ĠsÃ¥n gen
Ġbak ar
Ġbak ed
Ġbak Ã¥t
Ġbak hÃ¥ll
Ġbak sÃ¤tet
Ġbak lÃ¤nges
Ġbur ns
Ġbur nt
Ġwatch es
Ġ4 6
reg ler
Ġmove ments
Ġdum pa
Ġry sk
ĠrÃ¤dd at
LÃ¥t sas
Ġbar f
Ġbar rel
Ġute gÃ¥ngsfÃ¶rbud
Ġpoint less
ĠZ od
ĠZ oloft
ĠZ latan
Ġglad i
Ġtest et
Ġtest at
ĠIs i
upp y
Ġdef ence
Ġdef ensive
Her oin
HÃ¤r ligt
ĠLet ar
ĠJo anie
ĠNew man
co e
ĠEn joy
Ġbry tt
Ġval id
Ġkr Ã¤m
Ġkr ona
ĠMa i
Ġstra p
olog iskt
Ġswe ating
Ġspr att
Ġspr Ã¥ng
Ġspr Ã¤ngde
Ġspr Ã¥ket
Ġstand ards
Ġprom ises
ĠLe ad
ĠLe ary
ĠBe atles
Ġbreak up
Ġpat ience
Ġhistor isk
Ġstud ie
Ġstud ier
Ġsw ollen
ubb la
less ness
Ã¤nk s
ĠAn im
ĠDen ver
Ġac id
iot usen
ĠAr sen
ĠAr bet
Ġfem ton
ĠvÃ¤ sen
ĠstÃ¶r ningar
Ġlig an
ĠÃ¥ter vÃ¤nt
ĠÃ¥ter kommer
Ġorder n
Ġmag iskt
Ġhuvud rollen
som et
Ġinform ant
az a
az e
Ġskad orna
Ġhot a
Ġhot et
Ġleg ally
ĠSe ung
ĠSe arch
nings order
Ġart icles
Fr an
Ġkul an
ain es
Ã¶k at
Ġclo ak
Ġturn Ã©
Ġhigh light
Ġinv Ã¥n
ĠRe be
ĠSp ect
ĠSp ike
Ġret ar
Ġret as
Ġret ard
Ġrel ater
ĠLu o
ĠfÃ¶re bild
Ġdom en
Ġdom stol
Ġskj ort
Ġpolice man
Ġbas is
Sn Ã¶
Sn uten
Med del
Re illy
iff ror
Ġattack erad
Ġcoll apsed
Ġposs essed
Sen are
Ġstopp at
ĠMan agement
Ġthank ing
Ġprof its
ĠjÃ¤tt edu
ĠSk ull
ĠSk ye
ĠSk ott
cent ral
Ġrum or
Ġlever ant
Ġlever erade
ĠDr ink
Ġheart beat
Ġdy ra
Ã¶tt erna
Ġhat red
ĠMy ers
Ġdan ced
Ġpub l
Ġla zy
br ook
br ush
Ġtrans c
Ġtrans cript
unk y
Ġquestion ed
Ġvap or
bo ss
cess en
napp en
Ġap ology
aff rey
Ġ8 8
Ġball oons
ĠAmer ikas
Ġpress konferens
Ġdep th
Ġdep art
Ġdep ressed
ĠmÃ¶rd arna
ĠGr oup
ĠtjÃ¤n ster
Ġfollow s
oss ip
oss ibly
AS ON
ĠslÃ¤pp t
ĠslÃ¤pp as
rest rial
ĠfÃ¶rr Ã¥dde
arch y
ĠBar on
ĠBar th
ĠBar ber
ov an
Ġinst Ã¤ngd
Ġinst inkt
ĠfÃ¶rÃ¤nd ringar
Ġfilm stjÃ¤rna
IG A
inal d
HÃ¶r ru
sÃ¥ klagaren
ign alen
Ġlj usen
Ġlj ugit
Ġshot gun
ĠPh ant
Ġpresent ation
Ġpresent erar
Br and
Ġoper erar
Ġkon centr
Ġkon voj
Mar ion
ĠmÃ¤r ks
Ġbild a
Ġ12 7
ship s
Ġsj Ã¤tte
Ġdist ra
Ġdist ant
Ġform ally
Ġform ellt
ĠAd miral
Ġsecret ly
Ġ9 2
Ġ9 4
let terna
Ġdream ed
Ġspecial ist
ĠhÃ¤l so
Ġsvar at
hand el
hand ling
Ġhy ster
Ġhy dro
Ġbud dies
Ty ler
Ã¤nn iska
Ġlist ade
yl ten
ĠFor bes
Ġkrig are
ĠMc P
ĠMe ga
IC T
pro jekt
ĠrÃ¶r ande
ĠrÃ¶r mokare
Ġweird o
Ar k
Ber ed
Ġadd itional
Ġcent uries
Gr imm
Tr ue
ĠsÃ¤l j
Ġworth less
ĠdrÃ¶m ma
ĠÃ¤g aren
Ġstar ve
Ġeng ra
Ġeng ines
ĠCl ash
Under stood
alm on
ipp ar
Ġche ated
Ġche ering
Ġpersonal ities
Ġhop eful
rav iol
Le x
Ġtop ic
Ġdisapp earing
Ġtyp ical
Ġstraight en
omp etent
Ġlie utenant
Ġband age
Un ivers
Ġpapp or
sky tt
Ġsyster dotter
ĠVem s
Ã¶v ning
Ġcolle agues
Ġhair s
Ġhair cut
Ġpresident ens
Ġcol on
Ġcol ors
rÃ¤ck liga
ĠSch r
Ġallow ance
Ġimag ining
arm ing
Gu ard
ran o
Ġvitt net
uts Ã¤g
ĠEl is
ĠEl ise
off ee
Ġexist ed
Ġexist ens
Ġloc ate
Ġdans en
Ġbek Ã¤mpa
Ġ200 6
ĠIS IS
Ġclos ely
Ġjo ker
Ġtem pel
Ġbill ions
Ġkopp lad
Ġkopp lat
Ġref used
Ġref uge
ĠAb igail
Ġskydd as
kel ey
Ġnatur lig
ĠBra un
ĠBra zil
NÃ¥n stans
ĠTr inity
Ne al
igg as
igg ers
igg les
Ġmeddel ar
Ste w
Ste ven
Ġgri e
Ġgri per
Ġprodu kt
Ġident ified
Ġident ification
ĠQu iet
Ġbag age
Ġ18 0
Ġinvol ve
Ġinvol ves
ĠSl ow
fr isk
Ġpost s
Av stÃ¥nd
Ġdju pet
Ġpan nan
ĠspÃ¥r ade
Ġarrest s
str ong
ĠMon te
ĠMon ika
Ġgener ator
Ġanled ningar
ĠvÃ¤x ter
pris et
Ġakt ier
ĠSm urf
Ġagent er
ĠNe ither
ĠNe ville
ĠPet ra
Ġimor se
ĠhÃ¶ll s
Ġthreat s
ĠlÃ¶s as
ĠInd ians
ĠInd iana
ĠMark s
det ekt
Ġsud da
ĠChe f
ĠChe ers
ĠBo Jack
ĠRich ards
Ġpret ended
Ġcreat es
rakt et
ĠfÃ¶lj are
Ġkor re
ĠAs ian
ĠAs gard
bord et
lÃ¶s het
rÃ¤tt en
Ġsal ongen
Ġself ies
Ġfi end
Ġfi ance
ĠnÃ¶j es
Ġop in
ĠfÃ¶rm Ã¥n
Ġpea ch
ĠST ART
ĠWE EK
Ġsun shine
Ġrespect ful
ĠtrÃ¤n aren
ram ento
ĠMax well
Ġskepp ets
Ġbjud it
iter ally
oph ob
TER N
Ġbri be
Ġcross word
Ġport en
Ġport ion
Ġport rait
Ġbesk river
Ġrent vÃ¥
ĠMel vin
Ġors akar
Ġvisit kort
ĠbrÃ¶llop sdag
Hopp san
fatt are
Ġvoice mail
imm ig
ĠBur ke
ĠBur ton
ĠPer haps
ĠPer fekt
Ġuts atte
Ġansvar et
jÃ¤v el
vÃ¤ skan
Ġ0 2
Ġsqu eeze
ĠkrÃ¤ k
imin ary
Ġinvit ing
Ġprov spel
Ãĸver ste
Ãĸver lÃ¤mna
AG E
Ring de
asc al
ĠrÃ¥ ka
Ġrev ben
Ġbutt ons
Ġsupport ive
Ġsens ation
ĠMad eline
Ġutom hus
ĠWest on
use um
Ġed itor
Ġfool ish
Ġlim o
Ġlim its
Ġsucc Ã©
Ġrecogn ise
Ġrecogn ition
Ġpsych ic
Qu inn
ĠstjÃ¤r nan
ĠstjÃ¤r nor
Ġskyldig e
Ġbegrav nings
ĠCarl ton
Ġsuggest ion
jut et
Ġbi as
Ġbi be
Ġcas ual
Ġren ew
Ġren ov
Ġsty gg
ĠJeff rey
CT OR
back s
Ġpun ished
Ġkyr ka
Ġceleb ration
ĠDO ING
ĠDO ES
ĠbÃ¶ ter
Ġok Ã¤nd
Ġinse kt
Ġstore bror
Ġhemlighet en
Ġteck ning
Ġtrick y
ĠFlor a
ĠsvÃ¥r igheterna
Bes Ã¶k
Ġfatt at
ĠSE X
ĠSw iss
Ġlos es
heart ed
ION S
sv Ã¤ng
ĠNorth ampton
spel et
ĠStan ford
Ġcard iac
ĠDel ta
ĠGar rison
ĠJoh an
ĠJoh ns
ĠWin ters
ĠWin slow
Ġrepresent ant
Ġfrukt an
Ġutred de
ĠVan cou
Ġpsyk opat
Ġequ ally
ĠBa udela
Ġpray ers
Ġexam ens
Ġcomfort ing
Ġtechn ical
Ġtechn ique
Ġpartic ip
Ġappro ve
Ġappro val
vent h
Ġmira cles
ĠSher i
ĠMo ira
Ġtarget s
Ġkapten en
Mich el
mo de
Ġsli ce
Ġsten arna
ĠCH AR
Ġpotent ially
por al
ĠjÃ¤m fÃ¶r
ĠAh mad
Ġtravel ed
Kill ing
Ġmaster piece
Ġkry dd
ĠfÃ¶rh oppningsvis
ĠTra vel
ĠNor way
ĠWal sh
Ġmagic ian
Ġopport unities
Sc rew
boy friend
ĠfÃ¶rber edd
Ġreger ings
Ġknull ad
ĠmÃ¥nad erna
Ġremind s
Ġamerikan erna
Ġamerikan skt
Ġtor ch
Ġtor ra
Ġtor ped
Ġsour ces
Ġvamp ires
Ġgiss at
Ġutveck lings
Ġundv ikit
Ġkidnapp a
Beh ind
Ġreser ved
Ġklo kt
Ġklo ka
Ġklo stret
ĠMat rix
ĠCent auri
Ġminut ers
ĠTw enty
Ġphys ics
Ġfyll d
Ġaddress es
Alex ander
Ins ide
Sv Ã¥rt
Te chn
ĠÃħ R
ĠÃħ k
Ġauthor ities
Ġcal endar
Ġtekn iker
Ġsamarbet e
ĠlÃ¤gen heter
Ġdumma ste
OP E
Ġaut o
Ġaut ografer
Ġfj Ã¤
Ġfj ol
Ġfart en
Ġpul sen
Ġrik et
Ġrik edom
ĠJac qu
Ġimpro ved
THE Y
ĠAnna belle
LA CK
giv na
Ġcy kel
ele ine
ampan j
Ġ201 1
Ġcirc les
Ġjournal ists
kon omi
che z
ĠBoy d
Ġcollect ing
Ben jamin
Far vÃ¤l
bra him
Ġgro v
ordin ate
ĠrÃ¤d slan
ĠGeorg ie
Dom in
Dom aren
ĠÃ¶r at
Ġdubb la
ĠofÃ¶r utsÃ¤g
ĠTim othy
ĠJen nings
Ġdesig ns
Ġdesig ner
Ġdesper ately
IF T
mon in
ĠtÃ¤v ling
ĠlÃ¥n at
Ġrelax ed
ĠGreen e
Ġalter ed
Aw w
Ġyell ed
ĠRod rigo
Ġbrut alt
Ġkontroller ar
ONE Y
Ġinspir era
Ġinspir erad
Ġsats ar
Ġsats at
Ġsats ade
Ġrefer ence
Ġforsk nings
Ġanm Ã¤lt
Ġanm Ã¤lde
Ġutnytt jade
ĠslÃ¶s at
Ġrymd skepp
hy dr
Ġkam rat
Ġcult ural
ĠSol ar
ĠfÃ¶rsvar at
Ġemotion ally
just ice
ĠÃ¤m net
Ġytter sta
Ġobe y
Ġobe hag
Ġodd ly
Ġstil en
Ġstil ig
Ġadop terad
Ġumg icks
Fly g
Par ker
Tar get
Tra vis
bud et
Ġdock or
ĠJan uary
Ġactiv ated
Ġtrapp orna
Ġadm ire
Ġrobot ar
Barn et
Ġlin jen
ĠLy la
Ġchock ad
Ġnote book
ĠRep ort
Ġgran at
Ġskitst Ã¶v
Ġexpert ise
Ġoffici als
Ġemploy ed
Ġsacrif ices
mask inen
Ġhed ge
Ġmut or
atri x
ĠBu y
Ġutman ingen
ĠReg inald
ĠbrÃ¥k ade
Ġquar ters
Ġdiam anter
ĠhjÃ¤rt attack
Ġartik lar
Ġ194 4
Ġ194 5
centr alen
Ġungdom arna
Ġager ar
Ġager ade
Ġboo ze
Ġod Ã¶d
amen te
Ġstir rade
ĠMag ic
ĠRad ar
Ġbrors on
ĠslÃ¤kt ingar
log iskt
Ġdram atisk
ĠÃ¥lder dom
Christ opher
Ġ198 3
Ġgn Ã¤ll
Ġgull et
stit ution
Ġdeter mine
ĠStr ange
Ġdiskut erar
UL T
Ġsne e
Ġyr ke
Ġkons ul
ĠSuper girl
ĠAfri ka
Ġsepar ate
Ġmening slÃ¶st
ĠkÃ¤ns ligt
ĠkÃ¤ns liga
ĠUnder cover
Ġtillbring ade
ĠdÃ¶ds fall
Ġsemester n
bj Ã¶rn
Ã¨ s
Ġtung an
Ġmars ch
ĠSpe c
ĠDub lin
ĠTor o
ĠTor onto
ĠFer ris
ĠFer rari
Ġschem a
Ġinflu ensa
Frank ie
Ġposit iv
Ġinclud ed
Ġhyp oc
Hund en
Hund arna
vat ore
ĠfÃ¥g eln
Ġbid ra
Ġyo ga
Ġkart a
esp ie
ĠTE AM
ĠFort farande
ĠWANT ED
ĠAndrew s
Ġdisp ute
Ġdisp osal
Ġbilj ett
ĠGuard ians
ĠbrÃ¶der na
Ali cia
ĠÃĸ st
ĠBor is
Ġseger n
ĠRu iz
ĠRam ona
ĠRam irez
ĠEX PER
ĠDani elle
Bet ala
Bet alar
Ġnons ens
Ġinb illar
ĠJud ith
ĠJud ge
Ġconstru ct
Ġignor ant
spro gram
Ġparker a
Ġparker ingen
Ġappoint ed
Ġexperien cing
Sweet heart
fet amin
ĠsÃ¤nd are
Ġallerg isk
ĠCle ar
ĠCall ie
ĠPen nsylvania
ĠÃ¥tal et
Ġsitu ations
Ġinvent ory
Ġbillion a
Ġalternat ivet
Ġdiplom atic
KÃ¤r e
Ġpunch es
Ġtow els
ĠrÃ¥k as
ĠSy dafrika
Ġanl Ã¤nde
ĠAL F
ĠAL WAY
Ġ197 6
ĠSky nda
Ġeduc ated
ĠanmÃ¤l a
Bu y
Cla udia
Gre jen
LÃ¤ karen
Ġbatter ies
ĠBry an
Ġtras iga
Ġalkohol ist
Ġinsist erar
ĠFÃ¶rs Ã¶ker
ĠFÃ¶rs vinn
Ġgodk Ã¤nnande
Ġstarka ste
Ġeffekt en
Paul a
Ġess entially
Ġmik ro
Ġdetect ed
ĠskrÃ¤ cks
Ġminister n
ĠGun nar
Ġutre da
ĠÃ¶v ning
ĠWOR LD
Ġcondu it
Ġunf air
Ġbeseg rade
Ġbokstav ligt
Ġscient ific
Ġau ction
Ġkav aller
Ġkampan jen
ĠSav age
ĠMort y
ĠHugh es
ĠDef initely
ĠÃ¶d la
Ġprot ocol
Ġexec ution
Ġgrann arna
Ġexpla ining
Ġlegit imate
Ġkonf ron
Ġcirk eln
Ġstabil ize
Sna cka
Sher iff
Van ligtvis
bour ne
Ġvig il
Ġkock en
Ġcorn ers
Ġuna ble
Ġwheel ch
ĠSA W
ĠSA ID
Ġhandled are
Ġsatis f
ĠfÃ¤st man
Ġple ad
ĠBow l
ĠBow man
Ġtrag ic
ĠChurch ill
ĠbegÃ¤r an
Ġlands by
Ġcorrupt ed
Ġbekym mer
Ġbekym rar
Ġspecif ically
Fel ix
ĠhÃ¤kt et
ĠmardrÃ¶m mar
Ġward en
Ġven geance
Ġje opard
ĠMath ias
ĠFeder ico
ĠÃ¶k nen
ĠunderhÃ¥ll ning
Stan ley
Ġclin ical
Ġpurch ased
Ġbanan as
Ġentertain ing
Ġentertain ment
Ġelectric al
ĠvÃ¤lsig ne
Konst ap
Konst igt
Rick y
TT Y
Wr ong
bu quer
Ġsor gen
ĠhÃ¤n syn
Ġwreck ed
Ġgall ery
Ġdeton ator
Ġrust ning
Ġskv aller
Ġliber ty
ĠHam mer
ĠCard inals
ĠFitz gerald
Ġprovid ing
Ġprovid ed
Ġprovid es
Ġuppre par
Ġupple ver
ĠnÃ¤rm ast
bygg naden
Ġregister ed
Ġpatet isk
Ġkonk urs
Ġvolunte er
Ġvolunte ered
Ġpredict able
Ġtutt ar
Ġgig s
Ġgala x
Ġgala xy
Ġkalk on
Ġcri pp
ĠbegrÃ¤ns ad
ĠbevÃ¤p nade
Ġintegr ity
ĠCub a
Ġavs ikter
Ġatmos fÃ¤ren
Ġatmos phere
ĠbefÃ¤l havare
Ġclimb ing
Ġmonitor ing
ĠfÃ¶rbjud er
ĠfÃ¶rbjud et
Ġradi ation
Marc us
Ġdistur b
Ġdistur bing
ĠfÃ¶rfatt aren
Ġuppfost ra
Job bet
Lyck ligtvis
ĠtÃ¶m mer
Ġvans inne
Ġkyl en
Ġjapan sk
ĠskÃ¥p bil
ĠskÃ¥p bilen
ĠMem phis
ĠCait lyn
ĠBab in
ĠBrig gs
ĠFri ends
Ġdemand ing
Ġsmar ter
Ġsnur rar
Ġbeford ran
Ġcomprom ise
Ġkvarter et
Ġsuspic ion
ĠsmÃ¤rt samt
Ġnegoti ate
Ġabsor ber
ĠsÃ¤rsk ilda
Ġgaz e
Ġkongress en
Ġinject ion
Ġrul ed
Ġreck on
ĠMos cow
ĠHu bert
Ġknuff a
ĠAle c
ĠBert ram
ĠGall o
ĠPRO BLE
ĠFore st
ĠFore ver
ĠRand all
Ġingred iens
ĠintrÃ¤ff at
Ġhanddu kar
Ġcloud s
Ġgenet ic
ĠkÃ¤rn kraft
Ġburg are
Ġryggs Ã¤ck
Ġpossess ions
Ġkapit el
Ġinvolver ad
Ġuppskatt ning
Ġreception ist
Cour t
IEN CE
LÃ¥ng t
job bet
vÃ¤ll en
Ġsar c
Ġder by
Ġpour ing
Ġkond om
Ġinit ial
Ġinher ited
Ġrar ely
ĠpÃ¥b Ã¶rj
Ġrehab il
ĠtrÃ¥k ig
Ġavund sjuk
ĠPRE TTY
ĠRic ardo
Ġcondom s
Ġgren ades
Ġintr Ã¥ng
Ġintent ions
Stra ight
ĠStory brooke
Ġklant ade
Ġmottag ning
Ġinfilt rera
ĠSof ia
ĠjÃ¤tteg ott
Ġcorpor ate
Ġsales man
ĠglasÃ¶gon en
Ġhomosex ual
Ġstyv mor
Ġkyrk ogÃ¥rden
Ġkommunik ation
Ġfrivill ig
Ġtupp lur
Ġfen omen
Ġfarty g
Ġfarty get
Ġnurs es
Ġemail s
Ġanx ious
Ġanx iety
Ġvibr ation
Ġgoss ip
ĠBib eln
Ġtrupp er
ĠPoo le
ĠPic ard
ĠPic ass
ĠkommendÃ¶r kapten
ĠÃ¶verd os
Ġprec inct
Ġsyft et
ERY L
Ġrode o
ĠlÃ¤mp lig
Ġapplic ation
Ġfemin ism
ĠfÃ¤ngsl ande
Ġrefle ction
ĠkÃ¤nslomÃ¤ss igt
ĠkÃ¤nslomÃ¤ss iga
Ġmisunder stood
Ġambition er
Ġwhisper ing
Comp uter
Tot ally
Ġvatt ent
Ġpans ar
Ġnat urally
ĠIm per
Ġster oids
Ġrelie ve
Ġrelie ved
ĠCorn ell
ĠNa omi
ĠPear l
Ġspons or
ĠutvÃ¤rder ing
Ġbrilj ant
Ġconcl usion
Ġdemokrat in
ĠfÃ¶rsÃ¤lj ningen
Ġsymp athy
ĠThunder bird
Ġimpul se
Ġbesl Ã¶t
ĠsÃ¶nd ags
Ġretire ment
Ġinstrum ent
Ġinspel ningen
Ġdjupa ste
Ġlegitim ation
Ses Ã¥
Wil son
mÃ¤ss igt
Ġeter nal
ĠmÃ¤ng der
ĠmÃ¤ster verk
Ġvand rar
ĠonÃ¶d igt
Ġforens ic
ĠMagn us
ĠGill espie
ĠNY PD
ĠLion el
ĠEgy pt
ĠVul can
Ġgrap ef
Ġprescri ption
ĠhjÃ¤rnsk akning
Ġmush rooms
Anton io
Ġobekv Ã¤mt
Ġinternation ella
ĠTRY ING
Ġsympat i
Ġkonkurr ent
Ġribb an
Event ually
Ġmull vad
Ġpi Ã±
ĠByr on
ĠBrist ol
Ġtrump et
ĠJas mine
ĠJos Ã©
ĠFound ation
ĠÃ¥ld ras
ĠbesÃ¤tt ningen
Ġinfl amm
Ġbrocc oli
Ġhumili ated
Ġinvand rare
Steph anie
ĠDisney land
ĠEscob ar
Ġsammant rÃ¤ffande
ĠpremiÃ¤r minister
Bild en
Cam ille
Namn et
fuck ing
Ġlun atic
Ġkejs aren
Ġattity d
ĠCec ilia
ĠTab itha
ĠPH ONE
ĠFly tta
Ġorg ans
Ġuppoff ring
Ġtaj m
Ġelder ly
Ġdict ator
plos ionen
ĠTHOUGH T
Ġrepres ents
Ġskym ningen
Ġsuperher o
ĠQuin cy
Tjej er
Inspekt Ã¶r
Ġolycks hÃ¤ndelse
Ġmikrof onen
Snabb t
Ġnarkot ika
Fyr tio
Jose ph
Lust igt
Ray mond
Ġzy ggie
Ġroo ft
Ġstalk ing
Ġvarum Ã¤rke
ĠSac ramento
ĠSinc lair
ĠHolm es
ĠCoun cil
ĠBU ILD
ĠBET TER
ĠGand alf
ĠGord o
ĠOW N
ĠPau lie
ĠKhal id
ĠValer ie
ĠsvÃ¥g er
ĠWeb ster
ĠNott ingham
âĢ« âĢ«
Ġbadkar et
Ġtriv ts
ĠlÃ¤ke medel
Ġsanct uary
ĠEngine ering
CHUCK LES
ĠBermud a
Ġpalats et
Ġultim ata
Ġvansinn igt
Ġkomplim ang
Forts Ã¤tter
Kling er
MÃ¤rk ligt
UrsÃ¤kt ar
ĠdvÃ¤r g
Ġcolog ne
Thousand s
ĠSumm ers
Ġrecy c
ĠDill on
ĠBoe ing
Ġseiz ure
ĠGret chen
ĠLiver pool
ĠJur assic
ĠFIR ST
Ġoutrage ous
ĠRoth stein
ĠÃ¶vervÃ¥n ingen
ĠÃ¶verhuvud taget
ĠbyrÃ¥k rat
ĠYvon ne
ubli kan
Ġtrotto aren
Ġnightmar es
ĠMyster io
Ġskrid skor
conne cted
ĠChey enne
ĠskuldkÃ¤n slor
Ġunex pect
ĠPhiladelph ia
Fars an
Greet ings
Lyst ring
RÃ¤d slan
Ġbicy cle
Ġenvel ope
Ġstero ider
Ġredem ption
ĠHopp as
ĠBjar ne
ĠTany a
ĠGROU P
ĠLeaven worth
Ġsugr Ã¶r
Ġslagt rÃ¤
ĠÃ¶versv Ã¤m
ĠÃ¥tton de
Ġnykom ling
Ġtroph ies
ĠVancou ver
ĠBaudela ires
ĠALWAY S
buquer que
' "
0 1
0 5
3 5
3 9
6 5
6 00
9 1
9 3
9 6
A B
A c
A x
A y
A ction
A fraid
A ugust
A lert
B R
B T
B at
B ed
B Ã¶r
B ow
B il
B os
B reat
B ott
B ones
B rick
B attle
B rien
B Ã¶rjar
B engt
C D
C ur
C ard
C old
C amp
C orn
C rist
C OM
C ID
C andy
C US
C over
C arry
C USE
C arson
C ameron
C ORD
C lyde
C ertainly
C oulson
D re
D ur
D ink
D ick
D ej
D est
D ark
D ju
D ale
D ela
D awson
D aphne
D wight
E lev
E gent
E than
E laine
E steban
F a
F at
F ig
F al
F ur
F ood
F ab
F Ã¤ng
F ear
F asc
F ECT
F ederal
F antastiskt
G a
G al
G ro
G av
G ee
G rÃ¤
G Ã¶ra
G Ã¤ller
G ED
G oogle
G reta
G Ã¤rna
H S
H Y
H am
H oo
H itt
H us
H end
H att
H ild
H Ã¤nder
H ouston
H Ã¤ftigt
I U
I ER
I ED
I BLE
I OUS
J ur
J ord
J IN
J adÃ¥
J Ã¤kla
J osie
K A
K ir
K ick
K iss
K ass
K av
K opp
K ey
K ung
K Ã¶tt
K yss
K enny
K ines
K ai
K atherine
K risten
K raft
K Ã¤ften
K nappast
L ill
L id
L ay
L Ã¤ng
L og
L ater
L ING
L ane
L ana
L iam
L Ã¤s
L ille
L aser
L incoln
L Ã¶jtnant
L ocal
L orenzo
L Ã¤nge
M Ã¤r
M id
M ir
M Ã¥n
M ack
M ic
M EN
M org
M ET
M ira
M oon
M arty
[...]
