{"!":0,"\"":1,"#":2,"$":3,"%":4,"&":5,"'":6,"(":7,")":8,"*":9,"+":10,",":11,"-":12,".":13,"/":14,"0":15,"1":16,"2":17,"3":18,"4":19,"5":20,"6":21,"7":22,"8":23,"9":24,":":25,";":26,"<":27,"=":28,">":29,"?":30,"@":31,"A":32,"B":33,"C":34,"D":35,"E":36,"F":37,"G":38,"H":39,"I":40,"J":41,"K":42,"L":43,"M":44,"N":45,"O":46,"P":47,"Q":48,"R":49,"S":50,"T":51,"U":52,"V":53,"W":54,"X":55,"Y":56,"Z":57,"[":58,"\\":59,"]":60,"^":61,"_":62,"`":63,"a":64,"b":65,"c":66,"d":67,"e":68,"f":69,"g":70,"h":71,"i":72,"j":73,"k":74,"l":75,"m":76,"n":77,"o":78,"p":79,"q":80,"r":81,"s":82,"t":83,"u":84,"v":85,"w":86,"x":87,"y":88,"z":89,"{":90,"|":91,"}":92,"~":93,"¡":94,"¢":95,"£":96,"¤":97,"¥":98,"¦":99,"§":100,"¨":101,"©":102,"ª":103,"«":104,"¬":105,"®":106,"¯":107,"°":108,"±":109,"²":110,"³":111,"´":112,"µ":113,"¶":114,"·":115,"¸":116,"¹":117,"º":118,"»":119,"¼":120,"½":121,"¾":122,"¿":123,"À":124,"Á":125,"Â":126,"Ã":127,"Ä":128,"Å":129,"Æ":130,"Ç":131,"È":132,"É":133,"Ê":134,"Ë":135,"Ì":136,"Í":137,"Î":138,"Ï":139,"Ð":140,"Ñ":141,"Ò":142,"Ó":143,"Ô":144,"Õ":145,"Ö":146,"×":147,"Ø":148,"Ù":149,"Ú":150,"Û":151,"Ü":152,"Ý":153,"Þ":154,"ß":155,"à":156,"á":157,"â":158,"ã":159,"ä":160,"å":161,"æ":162,"ç":163,"è":164,"é":165,"ê":166,"ë":167,"ì":168,"í":169,"î":170,"ï":171,"ð":172,"ñ":173,"ò":174,"ó":175,"ô":176,"õ":177,"ö":178,"÷":179,"ø":180,"ù":181,"ú":182,"û":183,"ü":184,"ý":185,"þ":186,"ÿ":187,"Ā":188,"ā":189,"Ă":190,"ă":191,"Ą":192,"ą":193,"Ć":194,"ć":195,"Ĉ":196,"ĉ":197,"Ċ":198,"ċ":199,"Č":200,"č":201,"Ď":202,"ď":203,"Đ":204,"đ":205,"Ē":206,"ē":207,"Ĕ":208,"ĕ":209,"Ė":210,"ė":211,"Ę":212,"ę":213,"Ě":214,"ě":215,"Ĝ":216,"ĝ":217,"Ğ":218,"ğ":219,"Ġ":220,"ġ":221,"Ģ":222,"ģ":223,"Ĥ":224,"ĥ":225,"Ħ":226,"ħ":227,"Ĩ":228,"ĩ":229,"Ī":230,"ī":231,"Ĭ":232,"ĭ":233,"Į":234,"į":235,"İ":236,"ı":237,"Ĳ":238,"ĳ":239,"Ĵ":240,"ĵ":241,"Ķ":242,"ķ":243,"ĸ":244,"Ĺ":245,"ĺ":246,"Ļ":247,"ļ":248,"Ľ":249,"ľ":250,"Ŀ":251,"ŀ":252,"Ł":253,"ł":254,"Ń":255,"čĊ":256,"Ġt":257,"in":258,"Ġs":259,"er":260,"Ġa":261,"Ġd":262,"Ġh":263,"en":264,"Ã¤":265,"ar":266,"Ġm":267,"ou":268,"et":269,"an":270,"Ġth":271,"ll":272,"Ġf":273,"Ã¥":274,"Ġb":275,"on":276,"Ġw":277,"at":278,"Ã¶":279,"or":280,"om":281,"it":282,"Ġv":283,"Ġg":284,"Ã¤r":285,"ing":286,"ag":287,"st":288,"re":289,"Ġp":290,"Ġy":291,"ig":292,"Ġn":293,"Ġk":294,"Ġl":295,"Ġyou":296,"is":297,"Ġo":298,"Ġthe":299,"Ġin":300,"..":301,"ed":302,"Ġc":303,"tt":304,"Ġto":305,"Ã¶r":306,"ad":307,"nd":308,"ĠI":309,"Ġj":310,"ĠÃ¤r":311,"ch":312,"te":313,"ck":314,"ill":315,"es":316,"as":317,"'s":318,"Ġu":319,"Ġatt":320,"ow":321,"ot":322,"Ġdet":323,"Jag":324,"el":325,"ve":326,"id":327,"Ġdu":328,"...":329,"al":330,"Ġinte":331,"Ġbe":332,"Ġen":333,"Ġr":334,"ĠfÃ¶r":335,"ay":336,"am":337,"Ġof":338,"le":339,"Ġjag":340,"Ġi":341,"Ġit":342,"Th":343,"ld":344,"ere":345,"'t":346,"ke":347,"Ġst":348,"Ġe":349,"ver":350,"Ġand":351,"ut":352,"Ġthat":353,"na":354,"pp":355,"Ġsom":356,"Ġwh":357,"Det":358,"Ġsk":359,"Ġha":360,"Ġme":361,"Ġon":362,"ra":363,"Ã¤n":364,"ĠpÃ¥":365,"Ġvar":366,"Ġoch":367,"Ġhar":368,"You":369,"Ġis":370,"ĠS":371,"Ġre":372,"im":373,"ade":374,"ur":375,"se":376,"and":377,"od":378,"Ġfor":379,"Ġhe":380,"Ġan":381,"Ġdo":382,"out":383,"Ġli":384,"ht":385,"ĠM":386,"Ġwe":387,"Ġde":388,"Ã¥r":389,"all":390,"ent":391,"il":392,"Ġall":393,"Ġmed":394,"ro":395,"ust":396,"ce":397,"Ġgo":398,"ĠH":399,"ir":400,"Ġfr":401,"Ġtill":402,"ak":403,"ter":404,"ion":405,"Ġmy":406,"Ã¥n":407,"ol":408,"ĠA":409,"Wh":410,"Ġmig":411,"Ġwas":412,"Ġsh":413,"Ġkn":414,"ĠD":415,"Ġ-":416,"We":417,"Ġvi":418,"ss":419,"Ġom":420,"ĠhÃ¤r":421,"ant":422,"Ġthis":423,"itt":424,"ett":425,"'m":426,"Ġyour":427,"ith":428,"ĠC":429,"Ġse":430,"Ġtr":431,"Ġhave":432,"ight":433,"'re":434,"Ġkan":435,"ĠB":436,"Ġdig":437,"un":438,"Ġknow":439,"Ġnot":440,"ould":441,"ĠsÃ¥":442,"ri":443,"sk":444,"ct":445,"Ġwith":446,"Ġne":447,"ly":448,"ack":449,"de":450,"Vi":451,"Ã¤l":452,"kt":453,"Du":454,"Ġmin":455,"The":456,"Ġden":457,"Ġav":458,"Ġcan":459,"op":460,"ok":461,"lig":462,"ĠT":463,"ea":464,"Ġdon":465,"Ġhan":466,"Ġhon":467,"ĠN":468,"ĠG":469,"Ġjust":470,"Ġlo":471,"us":472,"th":473,"ic":474,"ĠJ":475,"omm":476,"ĠL":477,"ick":478,"Ġwhat":479,"ste":480,"Ã¤tt":481,"art":482,"ara":483,"Ġare":484,"ĠO":485,"Ã¤g":486,"Ġab":487,"ta":488,"Ġbl":489,"ull":490,"Ġlike":491,"ie":492,"Ġman":493,"are":494,"ĠP":495,"Ġso":496,"em":497,"Ġett":498,"Ġvill":499,"ome":500,"Ġout":501,"He":502,"It":503,"ry":504,"ff":505,"ning":506,"Ã¥t":507,"Ġsa":508,"ink":509,"Ġsp":510,"ĠF":511,"ul":512,"Ġget":513,"Ġch":514,"Ġska":515,"ers":516,"ake":517,"Ã¥g":518,"um":519,"ĠgÃ¶r":520,"Ġup":521,"ell":522,"Ġut":523,"Ġno":524,"ĠR":525,"Ġhere":526,"What":527,"ka":528,"'ll":529,"ort":530,"one":531,"our":532,"Ġabout":533,"Ġmen":534,"ist":535,"Ġni":536,"ne":537,"And":538,"Ġwant":539,"Ġkomm":540,"ess":541,"Ġhim":542,"Ġfin":543,"Ġher":544,"her":545,"Ġpl":546,"Ġdid":547,"ast":548,"ore":549,"Ã¤nd":550,"ally":551,"Ġat":552,"Ġright":553,"Ġvet":554,"Ġor":555,"Ġthere":556,"Ã¶ver":557,"Han":558,"ĠK":559,"ud":560,"ĠE":561,"Ġwor":562,"ĠmÃ¥":563,"ga":564,"ĠV":565,"Ġthink":566,"ation":567,"ob":568,"Ġbara":569,"Ġbut":570,"That":571,"oug":572,"Ġ\"":573,"Ġpr":574,"eah":575,"Ġone":576,"Ġhel":577,"ab":578,"fÃ¶r":579,"ans":580,"ap":581,"Ġupp":582,"au":583,"Ġdin":584,"'ve":585,"Ġthey":586,"ller":587,"ma":588,"os":589,"Ġgot":590,"ker":591,"Ġsu":592,"Ġif":593,"ven":594,"Ġal":595,"ĠmÃ¥ste":596,"ĠJag":597,"end":598,"Ġany":599,"ĠdÃ¤r":600,"Ġus":601,"ge":602,"ns":603,"Ġpro":604,"Ġsl":605,"hing":606,"Ġbr":607,"he":608,"Ġar":609,"Ġtim":610,"ej":611,"Ġkommer":612,"ĠW":613,"Ã¤ll":614,"Ã¤m":615,"Ġhonom":616,"fter":617,"Ġex":618,"Ġsome":619,"ive":620,"Ġshe":621,"da":622,"Ġvad":623,"Ġskull":624,"Ġing":625,"Ġer":626,"jÃ¤l":627,"Yeah":628,"uck":629,"und":630,"iv":631,"ĠYou":632,"if":633,"ard":634,"onna":635,"ate":636,"ong":637,"Ġever":638,"Ġnu":639,"Ġas":640,"Ġfrom":641,"Ġgonna":642,"Ġnow":643,"Ġskulle":644,"Men":645,"Well":646,"Ġneed":647,"Ġle":648,"Vad":649,"Ġback":650,"Ġwho":651,"ÃĦ":652,"iss":653,"ite":654,"Ġwill":655,"Ġwould":656,"ger":657,"ame":658,"Ġvara":659,"att":660,"Ġsee":661,"ĠnÃ¤r":662,"Och":663,"Ġgu":664,"ner":665,"Ġallt":666,"kay":667,"Ġver":668,"la":669,"est":670,"ep":671,"ound":672,"Ġsay":673,"Ġhis":674,"Ġund":675,"Ġtal":676,"Ġsig":677,"But":678,"Ġbeh":679,"Ġtime":680,"ank":681,"Ġoss":682,"De":683,"gen":684,"qu":685,"Ġoff":686,"Ġhen":687,"So":688,"In":689,"ass":690,"Ġdem":691,"Ġthem":692,"ĠDet":693,".\"":694,"sta":695,"Ġlook":696,"Ġ1":697,"Ġcon":698,"ande":699,"Ġgoing":700,"ĠnÃ¥g":701,"ĠfÃ¥r":702,"Ġwere":703,"Ġcould":704,"ord":705,"own":706,"ause":707,"No":708,"igt":709,"Ġbeen":710,"ble":711,"ĠgÃ¶ra":712,"Ġhad":713,"Ġgr":714,"way":715,"ens":716,"ĠÃ¶ver":717,"Ġthing":718,"Ġbo":719,"der":720,"Ġhade":721,"Ġbra":722,"Oh":723,"ligt":724,"ik":725,"Ġbet":726,"This":727,"ĠdÃ¶":728,"Ġkl":729,"Ġgood":730,"Ġby":731,"ars":732,"orde":733,"Ġhur":734,"ĠfrÃ¥n":735,"oll":736,"ĠsÃ¤g":737,"ind":738,"Ġfe":739,"ft":740,"ure":741,"het":742,"Ġint":743,"Ġcom":744,"Ġour":745,"Var":746,"Ġta":747,"They":748,"Ja":749,"Ġevery":750,"ase":751,"Ġig":752,"00":753,"cause":754,"thing":755,"fe":756,"rig":757,"av":758,"ĠfÃ¥":759,"Ġser":760,"per":761,"ose":762,"Ġwhen":763,"ost":764,"ide":765,"Ġfl":766,"ough":767,"ine":768,"ys":769,"ÃĦr":770,"Ġpre":771,"Ġun":772,"Hon":773,"Ġtell":774,"Ġsomet":775,"'d":776,"ber":777,"ous":778,"FÃ¶r":779,"Ġjob":780,"ĠdÃ¥":781,"Ġunder":782,"All":783,"Ġgj":784,"ire":785,"Ġhand":786,"ice":787,"ip":788,"ood":789,"be":790,"Ġreally":791,"Ġdidn":792,"Ġhenne":793,"Ġhow":794,"Ã¥ng":795,"arna":796,"Ġway":797,"Ġlet":798,"ĠnÃ¥t":799,"Ġsm":800,"other":801,"Ġcome":802,"Ġwork":803,"Ġeller":804,"ĠIt":805,"ĠfÃ¶rs":806,"Ġkill":807,"Ġhas":808,"Ġmake":809,"Ġsomething":810,"Om":811,"Ġdr":812,"app":813,"Ġdown":814,"ock":815,"Ġpe":816,"Ġigen":817,"ĠY":818,"Ġtake":819,"opp":820,"Ġkv":821,"ĠvÃ¤n":822,"Ġtalk":823,"ug":824,"ople":825,"isk":826,"Ġalla":827,"ĠÃ¤n":828,"yck":829,"mer":830,"kej":831,"Ġliv":832,"SÃ¥":833,"En":834,"Ġmore":835,"arn":836,"ies":837,"ĠCh":838,"ark":839,"amma":840,"og":841,"ĠgÃ¥":842,"reat":843,"ace":844,"Ġhapp":845,"ia":846,"Ġvis":847,"Ġsen":848,"Nej":849,"Ġtv":850,"Ġover":851,"Ġcall":852,"She":853,"Ã¤ng":854,"Ġshould":855,"ity":856,"ittle":857,"ĠnÃ¥n":858,"ny":859,"ĠkÃ¤n":860,"âĻ":861,"Ġpo":862,"ja":863,"Ġhem":864,"There":865,"erna":866,"ĠÃ¥":867,"ook":868,"Ġmean":869,"âĻª":870,"ĠÃ¶":871,"Ġthen":872,"ich":873,"Ġsin":874,"Ġnever":875,"va":876,"Ġsv":877,"get":878,"sp":879,"Ġpeople":880,"Ġam":881,"Ġtid":882,"ĠHe":883,"ĠgÃ¥r":884,"Ġtoo":885,"Ġkom":886,"Den":887,"nt":888,"cket":889,"ought":890,"ect":891,"Ġlittle":892,"Ġcl":893,"Ġefter":894,"ldrig":895,"ild":896,"Ġtror":897,"ĠWhat":898,"Ġid":899,"ody":900,"Ġdag":901,"Ġdoes":902,"dd":903,"If":904,"ĠbehÃ¶ver":905,"Ġsaid":906,"ĠWe":907,"sel":908,"wo":909,"ont":910,"Ġday":911,"ish":912,"Ġ2":913,"bb":914,"nan":915,"Ġber":916,"era":917,"Ġprat":918,"ats":919,"ĠtÃ¤n":920,"Ġaldrig":921,"Ġgl":922,"ĠNo":923,"Ġmycket":924,"ĠU":925,"ĠvÃ¤l":926,"pl":927,"Ġfuck":928,"amil":929,"akt":930,"pa":931,"Ġqu":932,"Ġsak":933,"Ġmitt":934,"man":935,"ĠfÃ¶rst":936,"Ġim":937,"ĠhjÃ¤l":938,"pt":939,"ci":940,"ĠDu":941,"Hur":942,"Ġjobb":943,"Ġlite":944,"ree":945,"Ġblir":946,"Ġmor":947,"Ġel":948,"ĠfÃ¶":949,"St":950,"sÃ¥":951,"Why":952,"ach":953,"ĠSt":954,"bl":955,"Ġmu":956,"Ġhitt":957,"aka":958,"Ġingen":959,"Ġhelp":960,"ske":961,"int":962,"ady":963,"ew":964,"ju":965,"Ġonly":966,"ligen":967,"Ġbli":968,"ĠAnd":969,"Ġfinns":970,"age":971,"iz":972,"erson":973,"Ġfamil":974,"lease":975,"ress":976,"orry":977,"red":978,"ĠVi":979,"gain":980,"Ġmer":981,"Ġny":982,"Ã¶m":983,"Ġmot":984,"Ġkanske":985,"Ġwhere":986,"ang":987,"Ġeven":988,"Ġvery":989,"Ġju":990,"ait":991,"Ġtar":992,"Ġverk":993,"Do":994,"nar":995,"Ġfeel":996,"How":997,"Ġfind":998,"ling":999,"Ġte":1000,"Ã¤ck":1001,"irst":1002,"Ġinto":1003,"Ã¤st":1004,"Ġco":1005,"ther":1006,"Ã¥ll":1007,"Ã¤tta":1008,"ĠÃ¥r":1009,"ue":1010,"ĠÃ¥t":1011,"aybe":1012,"Ġagain":1013,"Ġstor":1014,"Ġbecause":1015,"Ġtry":1016,"Ġtwo":1017,"ĠYeah":1018,"ĠhÃ¶r":1019,"Ġsc":1020,"Ġlea":1021,"Ġmat":1022,"Ġmuch":1023,"Ġsn":1024,"Hey":1025,"ond":1026,"ken":1027,"anna":1028,"âĢ":1029,"ĠsjÃ¤l":1030,"Ã¤v":1031,"ĠbÃ¶r":1032,"eep":1033,"sl":1034,"Ġfri":1035,"Ġwhy":1036,"Ġtillb":1037,"Ġmo":1038,"Ġbef":1039,"ĠhÃ¤nd":1040,"Ġye":1041,"self":1042,"ons":1043,"Ġlove":1044,"lar":1045,"Ġpart":1046,"Ġwon":1047,"Ni":1048,"Ġdoing":1049,"Ġstill":1050,"ĠdÃ¶d":1051,"Har":1052,"Ġgjorde":1053,"Ġsy":1054,"Ġstr":1055,"ikt":1056,"Ġfick":1057,"ance":1058,"ĠvÃ¥r":1059,"ving":1060,"rar":1061,"Ġpol":1062,"ĠvÃ¤r":1063,"Ġask":1064,"Ġdi":1065,"amm":1066,"we":1067,"ely":1068,"Ġtillbaka":1069,"Ġlife":1070,"Ġslut":1071,"Ġperson":1072,"ĠtvÃ¥":1073,"ater":1074,"amn":1075,"ĠtrÃ¤":1076,"Ġhit":1077,"Ġokay":1078,"Ġplan":1079,"orm":1080,"kte":1081,"ence":1082,"VarfÃ¶r":1083,"Ġock":1084,"Ġthought":1085,"wn":1086,"Ġhappen":1087,"My":1088,"ĠOh":1089,"Ġfort":1090,"lev":1091,"Ġnog":1092,"Ġother":1093,"gon":1094,"Ġtheir":1095,"Ġfar":1096,"Ġbel":1097,"ĠocksÃ¥":1098,"tta":1099,"ster":1100,"Ã¤lsk":1101,"Ġhans":1102,"ather":1103,"Ġstart":1104,"ment":1105,"NÃ¤r":1106,"Ġspe":1107,"Ġmiss":1108,"iga":1109,"irl":1110,"ĠThat":1111,"ĠfÃ¶rsÃ¶":1112,"Ġfirst":1113,"ac":1114,"ningen":1115,"ix":1116,"Ġthan":1117,"Ġsure":1118,"Ġner":1119,"ĠsÃ¤ger":1120,"rs":1121,"ef":1122,"ute":1123,"ĠrÃ¤tt":1124,"ĠThe":1125,"Ġbad":1126,"sh":1127,"Ġthr":1128,"Ġinget":1129,"eck":1130,"Ġper":1131,"ile":1132,"Ġgive":1133,"Ġfun":1134,"ise":1135,"ru":1136,"Ġanything":1137,"blem":1138,"ath":1139,"ek":1140,"gg":1141,"Ġkund":1142,"ĠÃ¤lsk":1143,"var":1144,"Ġnew":1145,"ER":1146,"Ġro":1147,"Okay":1148,"Ġbarn":1149,"day":1150,"ĠTh":1151,"aking":1152,"olk":1153,"ave":1154,"Ġthese":1155,"Ġville":1156,"old":1157,"Ġkid":1158,"Min":1159,"ring":1160,"Ġact":1161,"ret":1162,"Ġfriend":1163,"Ġbefore":1164,"aren":1165,"Just":1166,"Now":1167,"cc":1168,"IN":1169,"Ġlast":1170,"body":1171,"Ġhome":1172,"Ġtur":1173,"ever":1174,"Ġgen":1175,"Ġlong":1176,"Ġrun":1177,"Ġwell":1178,"ways":1179,"arl":1180,"Ġvid":1181,"vis":1182,"sen":1183,"ĠWh":1184,"ĠmÃ¥n":1185,"ian":1186,"Ġditt":1187,"Ġdel":1188,"ĠvÃ¤g":1189,"Ġtold":1190,"Ġtra":1191,"ĠsÃ¤ga":1192,"Ġkeep":1193,"sa":1194,"Ġput":1195,"Ġkunde":1196,"Ġborde":1197,"ĠVad":1198,"ĠrÃ¤":1199,"Let":1200,"oh":1201,"atch":1202,"ĠsÃ¤":1203,"ouse":1204,"ĠsjÃ¤lv":1205,"Ġnight":1206,"kl":1207,"ng":1208,"ĠÃ¤":1209,"eng":1210,"Ġbu":1211,"Ġthings":1212,"Ġsorry":1213,"ann":1214,"ren":1215,"Ġproblem":1216,"Nu":1217,"Ġ'":1218,"eter":1219,"Ġafter":1220,"Ġgirl":1221,"xt":1222,"Ġcar":1223,"Ġring":1224,"Ġlot":1225,"Ã¶j":1226,"Ġfel":1227,"liga":1228,"ĠlÃ¥":1229,"Ġfly":1230,"Ġbest":1231,"Ġandra":1232,"appa":1233,"Ġvarit":1234,"Okej":1235,"ĠtrÃ¤ff":1236,"ult":1237,"Ġred":1238,"act":1239,"Don":1240,"Ġsec":1241,"Ġwr":1242,"Be":1243,"io":1244,"oth":1245,"Ġreal":1246,"ĠnÃ¥got":1247,"ier":1248,"Ġad":1249,"Ġbor":1250,"Ġbit":1251,"Ġfram":1252,"Ġtre":1253,"nes":1254,"Ġson":1255,"ĠJa":1256,"ska":1257,"Ġaway":1258,"Ġens":1259,"ĠTH":1260,"ary":1261,"Kom":1262,"Ġmina":1263,"Ġshow":1264,"Look":1265,"ee":1266,"Ġalways":1267,"tar":1268,"Ġmust":1269,"cis":1270,"Ġins":1271,"up":1272,"Ġthose":1273,"Ġag":1274,"ors":1275,"oy":1276,"ĠmÃ¤n":1277,"Ġutan":1278,"ĠâĻª":1279,"Ġfan":1280,"Kan":1281,"Ã¤ld":1282,"ike":1283,"Ã©":1284,"Ġtj":1285,"iskt":1286,"ved":1287,"ious":1288,"Ġguys":1289,"Ġbig":1290,"ĠGod":1291,"yr":1292,"Ġass":1293,"Ġbetter":1294,"Ġaround":1295,"Ġhu":1296,"ey":1297,"ually":1298,"Ġguy":1299,"Ġdis":1300,"Ġkind":1301,"Is":1302,"ĠIn":1303,"Ġalltid":1304,"Ġdoesn":1305,"ins":1306,"ĠbÃ¶rj":1307,"rÃ¥n":1308,"Yes":1309,"Ġgreat":1310,"etting":1311,"sten":1312,"Ġbelie":1313,"aug":1314,"Ġty":1315,"ool":1316,"Ġcou":1317,"amp":1318,"Ġrem":1319,"âĢĵ":1320,"Ġhus":1321,"oney":1322,"Ġplay":1323,"Ġpar":1324,"ĠfrÃ¥g":1325,"Ġmade":1326,"Ġwait":1327,"Ġyears":1328,"Ġplace":1329,"Ġled":1330,"Ġhela":1331,"Ġblev":1332,"uff":1333,"Âł":1334,"Ġeverything":1335,"nat":1336,"Ġwanted":1337,"ung":1338,"Ġspel":1339,"ĠsÃ¤ker":1340,"Ġbes":1341,"Ã¤kt":1342,"jÃ¤r":1343,"Ġvil":1344,"Ġph":1345,"je":1346,"Ġgill":1347,"Ġprata":1348,"Ġtog":1349,"ions":1350,"Sk":1351,"ĠDe":1352,"odde":1353,"ĠsÃ¥g":1354,"ades":1355,"Ġthrough":1356,"Ġkomma":1357,"kar":1358,"port":1359,"Ã¶g":1360,"Ġmamma":1361,"ĠMr":1362,"Ġcare":1363,"Ã¤sta":1364,"ĠlÃ¤":1365,"ĠSh":1366,"Ġgjort":1367,"ror":1368,"OU":1369,"Ġsir":1370,"ĠHan":1371,"vet":1372,"bet":1373,"Ġge":1374,"eg":1375,"Ġplease":1376,"rat":1377,"Ġdone":1378,"els":1379,"ents":1380,"Ġfucking":1381,"Ġbeing":1382,"Ġsex":1383,"vÃ¤nd":1384,"ott":1385,"ĠnÃ¥gra":1386,"Ġlit":1387,"Ãħ":1388,"Ġfall":1389,"able":1390,"ĠkÃ¤nner":1391,"Ġdri":1392,"Ġans":1393,"Ã¤lla":1394,"AN":1395,"nen":1396,"Ġnothing":1397,"Not":1398,"Come":1399,"Ġname":1400,"Ġhead":1401,"Ġord":1402,"Ã¶d":1403,"Ġem":1404,"Ġfolk":1405,"ina":1406,"Ġ3":1407,"row":1408,"Ġold":1409,"Som":1410,"Ġcour":1411,"Ġown":1412,"ĠNej":1413,"sid":1414,"DÃ¥":1415,"Ġbelieve":1416,"itta":1417,"Ġapp":1418,"--":1419,"alk":1420,"Ġsam":1421,"pen":1422,"Ġmight":1423,"Ġsist":1424,"ful":1425,"orna":1426,"Ã¥d":1427,"Ġstay":1428,"Ġsomeone":1429,"Ã¶t":1430,"Ġmoney":1431,"iska":1432,"Ġuh":1433,"Ġsit":1434,"Ġpappa":1435,"Ġsch":1436,"very":1437,"orn":1438,"Ġbil":1439,"ĠlÃ¤m":1440,"When":1441,"igh":1442,"Ġleft":1443,"Ġhouse":1444,"als":1445,"Inte":1446,"Man":1447,"Ġgod":1448,"aw":1449,"inn":1450,"Ġmom":1451,"Ġrec":1452,"ember":1453,"Ġsur":1454,"Ġcoming":1455,"ets":1456,"Ġveta":1457,"ated":1458,"Ġpass":1459,"Ġsky":1460,"Ġstop":1461,"ail":1462,"Ġwom":1463,"Ġmind":1464,"ain":1465,"ope":1466,"ĠBut":1467,"ĠnÃ¥gon":1468,"Ġbre":1469,"Ġdina":1470,"ĠsÃ¤tt":1471,"cy":1472,"Hej":1473,"AT":1474,"Ġend":1475,"ash":1476,"Ġhear":1477,"ves":1478,"Ġkont":1479,"isst":1480,"Your":1481,"ye":1482,"Ġpeng":1483,"Ġtrying":1484,"men":1485,"Ġcame":1486,"Ġwanna":1487,"tain":1488,"Ġmon":1489,"gr":1490,"Ġfound":1491,"far":1492,"ph":1493,"rist":1494,"Ġgick":1495,"Ġcomp":1496,"Ġcle":1497,"ĠAll":1498,"Ġbort":1499,"Ġtyck":1500,"Ġleave":1501,"akes":1502,"Ġbab":1503,"Ġhell":1504,"lor":1505,"ĠHar":1506,"Ġtrodde":1507,"Ġfull":1508,"ffer":1509,"ket":1510,"Who":1511,"Ġexp":1512,"ris":1513,"Ġsett":1514,"Ġsupp":1515,"ĠkÃ¶":1516,"Ġelse":1517,"rÃ¤":1518,"Ġgetting":1519,"iver":1520,"Ġinf":1521,"Tack":1522,"Ġih":1523,"stand":1524,"ĠFr":1525,"ĠMar":1526,"ings":1527,"ĠmÃ¥nga":1528,"Are":1529,"Ġverkligen":1530,"illa":1531,"alt":1532,"Did":1533,"Ã¥l":1534,"ĠlÃ¤r":1535,"Ġmil":1536,"Ġwasn":1537,"Ġfamily":1538,"Ġwent":1539,"ĠAl":1540,"Ġbus":1541,"Ã¤ttre":1542,"AR":1543,"ied":1544,"ib":1545,"Ġdes":1546,"Ġworld":1547,"Ġkon":1548,"wh":1549,"ĠvÃ¥":1550,"Ġmeet":1551,"ĠSo":1552,"mar":1553,"ĠYes":1554,"Ġste":1555,"ition":1556,"ĠVar":1557,"ĠgÃ¥ng":1558,"Ġhappened":1559,"Ġminute":1560,"Ġtag":1561,"Ġbro":1562,"Can":1563,"ĠkÃ¶r":1564,"ĠtÃ¤nker":1565,"ork":1566,"ĠÃ¤nd":1567,"ern":1568,"ange":1569,"Ġgra":1570,"Ġokej":1571,"Ġsame":1572,"Ġtro":1573,"ĠlÃ¤g":1574,"Ġisn":1575,"Ġgillar":1576,"oot":1577,"ser":1578,"ĠhÃ¥ll":1579,"inna":1580,"oc":1581,"ĠbÃ¤ttre":1582,"jer":1583,"anks":1584,"Ġmar":1585,"Ska":1586,"Ġkall":1587,"Ġlooking":1588,"Ġhopp":1589,"ĠÃ¤lskar":1590,"Ġanother":1591,"Ġyeah":1592,"ien":1593,"Sh":1594,"pe":1595,"so":1596,"ĠfÃ¶rsta":1597,"aught":1598,"dag":1599,"ĠOkay":1600,"\".":1601,"Ġthree":1602,"lut":1603,"nade":1604,"ub":1605,"Ã¶v":1606,"Ġweek":1607,"ĠOch":1608,"ĠMen":1609,"Ġshit":1610,"Ta":1611,"mm":1612,"Ã¤pp":1613,"Ġhal":1614,"Ġfil":1615,"eras":1616,"Ġmother":1617,"ory":1618,"Ġtalking":1619,"Ġenough":1620,"ON":1621,"ĠjÃ¤v":1622,"Ġhennes":1623,"Ġlik":1624,"ING":1625,"tro":1626,"yss":1627,"Ġsju":1628,"ipp":1629,"Ġbeg":1630,"ĠShe":1631,"EN":1632,"Ġunderstand":1633,"Ġtoday":1634,"ala":1635,"ĠhjÃ¤lpa":1636,"Ġpri":1637,"Ġvem":1638,"etty":1639,"Ġtoget":1640,"del":1641,"ert":1642,"Ġtogether":1643,"den":1644,"Ġacc":1645,"erar":1646,"Ã¥rt":1647,"ĠBr":1648,"ĠlÃ¤ng":1649,"Vem":1650,"Vill":1651,"Ġreg":1652,"Ġdead":1653,"ĠĠ":1654,"ime":1655,"Ġinnan":1656,"Ġtack":1657,"Ġ4":1658,"Ġfru":1659,"Ġmaybe":1660,"Ġremember":1661,"Ġhard":1662,"ah":1663,"ial":1664,"Ġroom":1665,"Ġfast":1666,"Ġ5":1667,"Ġcra":1668,"ask":1669,"ty":1670,"ife":1671,"Ġfather":1672,"Ġtills":1673,"Ġboy":1674,"ole":1675,"ĠgÃ¥n":1676,"Ġvisste":1677,"Ġwrong":1678,"Maybe":1679,"Ġdog":1680,"vÃ¤r":1681,"Ġseen":1682,"Ġfine":1683,"Ġfamilj":1684,"Ġgotta":1685,"Ġgre":1686,"Ġhelt":1687,"Ġnext":1688,"Uh":1689,"ctor":1690,"Att":1691,"Ġter":1692,"Ġsaw":1693,"ĠWell":1694,"Ġur":1695,"Ġnice":1696,"Ġsaker":1697,"Ġcomm":1698,"ower":1699,"Ġrikt":1700,"Ã¥ller":1701,"Ġev":1702,"Ch":1703,"Ġnum":1704,"Then":1705,"Ġcourse":1706,"Ġhos":1707,"ating":1708,"ĠDo":1709,"skap":1710,"Ġdro":1711,"Ġknew":1712,"land":1713,"my":1714,"Ġklar":1715,"Ã¶rd":1716,"Ġmost":1717,"ready":1718,"ason":1719,"ĠkvÃ¤ll":1720,"Ġwhich":1721,"nad":1722,"ĠHow":1723,"ible":1724,"Ġland":1725,"ĠlÃ¤n":1726,"les":1727,"Ġmay":1728,"000":1729,"Ġhour":1730,"Ġyourself":1731,"Ġmany":1732,"ĠvÃ¤rld":1733,"Ġskri":1734,"Ġwhole":1735,"Ġactually":1736,"led":1737,"Where":1738,"Ġ...":1739,"ift":1740,"ĠmÃ¤nn":1741,"Ġmenar":1742,"Ġsna":1743,"ction":1744,"uter":1745,"Ġbaby":1746,"tal":1747,"sy":1748,"ĠdÃ¶da":1749,"aj":1750,"Ġalready":1751,"Ġannan":1752,"farande":1753,"Ġcr":1754,"Ġuse":1755,"its":1756,"Ġwouldn":1757,"Ġmet":1758,"ĠvarfÃ¶r":1759,"Ġbak":1760,"Ã¤ldigt":1761,"Vil":1762,"Ġturn":1763,"jud":1764,"Because":1765,"Ġhitta":1766,"ical":1767,"LL":1768,"ĠhÃ¤nder":1769,"ĠlÃ¤nge":1770,"ĠhjÃ¤lp":1771,"Se":1772,"ĠHey":1773,"Ġchild":1774,"rsÃ¤kt":1775,"Ġsitt":1776,"Ġprecis":1777,"?\"":1778,"ĠsÃ¥n":1779,"OR":1780,"min":1781,"ĠanvÃ¤nd":1782,"ple":1783,"ĠlÃ¥ng":1784,"Ġinter":1785,"Ġres":1786,"lÃ¥t":1787,"net":1788,"tter":1789,"unt":1790,"Mr":1791,"osed":1792,"vin":1793,"air":1794,"Ġdiffer":1795,"Ġschool":1796,"Ġresp":1797,"ĠÃĦr":1798,"Ġton":1799,"Ġlag":1800,"Ġfortfarande":1801,"cial":1802,"unch":1803,"ohn":1804,"ĠberÃ¤tt":1805,"Ã¤nt":1806,"Ġused":1807,"ĠHon":1808,"Ġglad":1809,"Ġtom":1810,"ream":1811,"Ġpu":1812,"Ġheard":1813,"reg":1814,"Ġdum":1815,"Ġkun":1816,"An":1817,"Ġenda":1818,"ĠfÃ¶l":1819,"ler":1820,"ump":1821,"atten":1822,"ĠTHE":1823,"Ġsaying":1824,"Ġpengar":1825,"dda":1826,"Ġkvar":1827,"Ġkoll":1828,"ĠrÃ¤dd":1829,"by":1830,"Ġinv":1831,"leep":1832,"Ġbar":1833,"ations":1834,"son":1835,"Ġpolis":1836,"uth":1837,"ĠberÃ¤tta":1838,"ĠThey":1839,"Ġcalled":1840,"Ġlive":1841,"ĠfÃ¶rstÃ¥r":1842,"Ġguess":1843,"ika":1844,"ird":1845,"Ingen":1846,"Ett":1847,"Every":1848,"ĠhjÃ¤r":1849,"urn":1850,"Ã¶k":1851,"ross":1852,"iness":1853,"Ġdrink":1854,"ĠkÃ¤r":1855,"Ġcheck":1856,"Ġann":1857,"cu":1858,"LÃ¥t":1859,"Ġsamma":1860,"Ġdetta":1861,"Ġwatch":1862,"Ġbring":1863,"Ġidea":1864,"Her":1865,"ĠThis":1866,"Ġ20":1867,"else":1868,"alen":1869,"Ġquest":1870,"ese":1871,"Ġ[":1872,"Ġsecond":1873,"Ġtook":1874,"ĠvÃ¥ra":1875,"For":1876,"dy":1877,"Ġwithout":1878,"Ãĸ":1879,"ĠstÃ¤ll":1880,"ym":1881,"ĠstÃ¥r":1882,"itch":1883,"Ġfew":1884,"Ġwalk":1885,"Ġdra":1886,"ably":1887,"Ġger":1888,"ried":1889,"olog":1890,"ĠlÃ¶":1891,"Ġredan":1892,"par":1893,"Ġmove":1894,"Ġfix":1895,"ifrÃ¥n":1896,"Ġkr":1897,"Ġpretty":1898,"ĠhÃ¥ller":1899,"ĠfÃ¶rsÃ¶ker":1900,"Ġword":1901,"Ġpoint":1902,"ient":1903,"Ġdeal":1904,"Alla":1905,"Ġunt":1906,"Ġheter":1907,"zy":1908,"ĠvÃ¤ldigt":1909,"ax":1910,"ces":1911,"oe":1912,"lighet":1913,"come":1914,"ĠDon":1915,"Din":1916,"Ġute":1917,"med":1918,"ĠZ":1919,"Ġtycker":1920,"ader":1921,"Ġwoman":1922,"HÃ¤r":1923,"iot":1924,"iel":1925,"ĠHur":1926,"ĠlÃ¤ngre":1927,"Ġdad":1928,"Ġob":1929,"Ġrum":1930,"ĠFÃ¶r":1931,"ane":1932,"Ġnamn":1933,"Ġskick":1934,"Get":1935,"kv":1936,"ward":1937,"Ġgenom":1938,"Ġskit":1939,"Ġseem":1940,"vud":1941,"Ġwar":1942,"Ġveck":1943,"Ġperfe":1944,"Ġmag":1945,"Ġmyself":1946,"ness":1947,"Ġswe":1948,"Al":1949,"ida":1950,"Ġtest":1951,"sent":1952,"Ġbry":1953,"met":1954,"ĠdÃ¶r":1955,"ĠLet":1956,"nas":1957,"oo":1958,"Ġdoll":1959,"cept":1960,"ĠtÃ¤nkte":1961,"Ã¤nta":1962,"ĠIs":1963,"ĠlÃ¥ter":1964,"iet":1965,"co":1966,"Ġvikt":1967,"Go":1968,"ote":1969,"ten":1970,"yra":1971,"Ġac":1972,"ĠhÃ¤m":1973,"Ġboth":1974,"ush":1975,"ĠAr":1976,"ende":1977,"Ġopen":1978,"Ġdef":1979,"Ġeveryone":1980,"Ġready":1981,"Allt":1982,"Ġarbet":1983,"Ġmorning":1984,"ĠrÃ¶":1985,"Ġdec":1986,"ĠEn":1987,"Ġkilled":1988,"Ġstud":1989,"Ġalso":1990,"Ġmatter":1991,"Ġval":1992,"Ġanyone":1993,"rew":1994,"Ġfire":1995,"Ġteam":1996,"ĠmÃ¤nnisk":1997,"Ġstuff":1998,"bably":1999,"ying":2000,"ĠSe":2001,"Ġfight":2002,"ale":2003,"vel":2004,"Ġpay":2005,"Ġfriends":2006,"ĠsÃ¶":2007,"Ġhund":2008,"Ġhold":2009,"Ġwhile":2010,"IS":2011,"stÃ¤ll":2012,"Ġhaven":2013,"Ġplats":2014,"Ġago":2015,"Ġtiden":2016,"Ġstand":2017,"Ġuntil":2018,"Ġwants":2019,"Ġprom":2020,"ES":2021,"erade":2022,"Ġcount":2023,"Ġhist":2024,"ĠCome":2025,"Ġdays":2026,"Fr":2027,"pr":2028,"DÃ¤r":2029,"ĠJust":2030,"Ġhum":2031,"som":2032,"ingen":2033,"ĠfÃ¥tt":2034,"Ġphone":2035,"aken":2036,"ĠbÃ¤sta":2037,"Vet":2038,"Ġsent":2039,"uc":2040,"Ġdire":2041,"ĠhÃ¤nde":2042,"Ġdit":2043,"Ġlisten":2044,"ĠBe":2045,"ĠRe":2046,"Ġpat":2047,"Ġimp":2048,"where":2049,"orrow":2050,"ict":2051,"eln":2052,"ĠAn":2053,"Ġlost":2054,"\"?":2055,"jut":2056,"Or":2057,"Ġmus":2058,"ĠkÃ¤nd":2059,"ĠYOU":2060,"Ġcase":2061,"Ġrel":2062,"ningar":2063,"ison":2064,"Ġ19":2065,"Ġkids":2066,"PÃ¥":2067,"Ã¤nk":2068,"ĠNew":2069,"ĠÃ¥ter":2070,"Ġihop":2071,"Ġlug":2072,"ize":2073,"Ġfem":2074,"Ġgav":2075,"Ġstra":2076,"rev":2077,"Ġaff":2078,"ppen":2079,"Ġbed":2080,"TH":2081,"Ġinga":2082,"ĠstÃ¶r":2083,"Ġborta":2084,"Ġmid":2085,"Ġmorgon":2086,"Ge":2087,"aut":2088,"band":2089,"Ġlig":2090,"edan":2091,"Ġbety":2092,"sident":2093,"Ġverkar":2094,"Ġsw":2095,"Ġum":2096,"rum":2097,"ates":2098,"ĠDen":2099,"Ġconf":2100,"Ġworking":2101,"Ġbreak":2102,"ĠBl":2103,"ĠtrÃ¤ffa":2104,"Ġwife":2105,"Ġspr":2106,"Ġhaving":2107,"ĠÃ¶gon":2108,"ena":2109,"ley":2110,"Good":2111,"ames":2112,"oke":2113,"Ġbusiness":2114,"Ã¤k":2115,"Ġmur":2116,"Ġyet":2117,"Ġinne":2118,"Ġhuvud":2119,"ton":2120,"ĠvÃ¤":2121,"ator":2122,"On":2123,"Ġpratar":2124,"Ġsleep":2125,"Ġhurt":2126,"ĠÃ¥ka":2127,"Ġpick":2128,"Ġlyck":2129,"Ġhope":2130,"ĠfÃ¶re":2131,"Ġstopp":2132,"az":2133,"Ġderas":2134,"Ġface":2135,"ĠfÃ¶rlor":2136,"ĠSte":2137,"Ġgone":2138,"Ġsound":2139,"Ġcouldn":2140,"Ġtjej":2141,"ĠbÃ¶rjar":2142,"Ġret":2143,"Ġdifferent":2144,"Ġsina":2145,"Eller":2146,"Ġonce":2147,"Ġnej":2148,"Ġbrother":2149,"Ġclear":2150,"Ġkonst":2151,"ĠhÃ¶g":2152,"bland":2153,"ĠhÃ¥lla":2154,"ĠLe":2155,"Ġsoon":2156,"Ġext":2157,"ĠvÃ¤nner":2158,"omb":2159,"ubb":2160,"Ã¤gg":2161,"Ġleg":2162,"Ġsays":2163,"Ġeach":2164,"Ġflick":2165,"org":2166,"ots":2167,"Ġtonight":2168,"SÃ¤g":2169,"ivit":2170,"Bara":2171,"cka":2172,"br":2173,"ighet":2174,"Ġrest":2175,"iff":2176,"Ġhappy":2177,"Ġsince":2178,"ĠglÃ¶m":2179,"RE":2180,"uk":2181,"Ġblood":2182,"fri":2183,"ĠlÃ¥t":2184,"sam":2185,"oss":2186,"Ġorder":2187,"Ġyear":2188,"Ġpa":2189,"ĠJack":2190,"Ġvan":2191,"God":2192,"Ġap":2193,"Some":2194,"asy":2195,"ĠSp":2196,"actly":2197,"Ġmess":2198,"Ġdie":2199,"Ġfakt":2200,"Ġread":2201,"ov":2202,"Ġrep":2203,"ove":2204,"Please":2205,"To":2206,"Ġtel":2207,"bar":2208,"ĠWhy":2209,"Ã¶s":2210,"agt":2211,"ĠSÃ¥":2212,"attar":2213,"Ġmonth":2214,"stÃ¥":2215,"Ġprote":2216,"Ġadv":2217,"Ġthinking":2218,"Ġsjuk":2219,"Ġkul":2220,"Ġnya":2221,"less":2222,"Ã¶ll":2223,"Ġarm":2224,"ĠJohn":2225,"Ġsign":2226,"Ġfre":2227,"Ġvarje":2228,"Ġemot":2229,"One":2230,"ual":2231,"ced":2232,"anska":2233,"As":2234,"ister":2235,"Ġpoj":2236,"Ġva":2237,"ither":2238,"Like":2239,"Ġmeans":2240,"Ġdoor":2241,"ĠChrist":2242,"Ġhigh":2243,"Ġfig":2244,"Ġhot":2245,"Ġalone":2246,"Ġimport":2247,"eral":2248,"ĠCl":2249,"Med":2250,"Ġmaking":2251,"elt":2252,"Ġtaking":2253,"Ġprobably":2254,"ĠCar":2255,"aughter":2256,"Ġtomorrow":2257,"Ġheart":2258,"Ġstory":2259,"ĠThere":2260,"unk":2261,"Ã¶tt":2262,"ention":2263,"erat":2264,"Ġcoll":2265,"ĠTO":2266,"Ġchar":2267,"ana":2268,"ron":2269,"Ġdess":2270,"cle":2271,"ha":2272,"ilt":2273,"Ġknows":2274,"isten":2275,"ding":2276,"Ġmark":2277,"ĠNot":2278,"ĠbÃ¥":2279,"Ġyes":2280,"Ġsol":2281,"Ġsupposed":2282,"cent":2283,"Ġattack":2284,"Ġkunna":2285,"Sen":2286,"Ġthank":2287,"ĠvÃ¥rt":2288,"Ġinform":2289,"Ġmod":2290,"Ġdom":2291,"Ġminutes":2292,"Thank":2293,"Ġchange":2294,"ign":2295,"ĠDad":2296,"ĠjÃ¤vla":2297,"Ġgave":2298,"erad":2299,"Ġmr":2300,"Any":2301,"upp":2302,"Ġposs":2303,"AS":2304,"Ġside":2305,"Ã¶ra":2306,"Ġannat":2307,"Ġlooks":2308,"Ġcompl":2309,"vÃ¤g":2310,"Ġpower":2311,"Ġskad":2312,"Ġhuh":2313,"Ġsing":2314,"Ġstick":2315,"Ġinside":2316,"Ġmakes":2317,"Ġfav":2318,"nder":2319,"ED":2320,"Ġsnart":2321,"Ġhat":2322,"Ġja":2323,"napp":2324,"Ġcool":2325,"Ġsista":2326,"erest":2327,"ĠsÃ¤kert":2328,"Ġchans":2329,"yl":2330,"imes":2331,"Ġain":2332,"eth":2333,"Ġbeaut":2334,"Ġasked":2335,"ita":2336,"Ġgun":2337,"Ġ10":2338,"ĠÃ¶pp":2339,"Here":2340,"Ġbas":2341,"ared":2342,"Ġskol":2343,"Ġhittade":2344,"Ãħh":2345,"ps":2346,"Ġimportant":2347,"Sn":2348,"ering":2349,"Ġforts":2350,"tid":2351,"Ġset":2352,"Ġwonder":2353,"aring":2354,"Ġworry":2355,"Ġleast":2356,"Ġart":2357,"ĠfrÃ¥ga":2358,"Ġsort":2359,"Ġstarted":2360,"Ġwater":2361,"ney":2362,"Ġidag":2363,"ĠvÃ¤gen":2364,"Ġhands":2365,"ekt":2366,"Ġsuch":2367,"ET":2368,"ĠQ":2369,"ĠjÃ¤tt":2370,"Ġpolice":2371,"ĠfÃ¶rb":2372,"ĠDr":2373,"Ġhours":2374,"Ã¢":2375,"Till":2376,"Ġinc":2377,"head":2378,"ited":2379,"Ġkro":2380,"ĠEl":2381,"Ġfaktiskt":2382,"Ġbur":2383,"ĠÃ¤ndÃ¥":2384,"more":2385,"ĠSk":2386,"ĠGe":2387,"Ġlight":2388,"Ġmurder":2389,"VÃ¤nta":2390,"rsÃ¤kta":2391,"Ġ6":2392,"Ġgott":2393,"ollow":2394,"Ġlivet":2395,"Ġdollar":2396,"ĠmÃ¤nniskor":2397,"Ġsagt":2398,"Ġfant":2399,"Bra":2400,"Re":2401,"ĠfÃ¶rv":2402,"Ġreason":2403,"ouch":2404,"Ġfigure":2405,"gent":2406,"me":2407,"yn":2408,"Ġwin":2409,"lek":2410,"Ġchance":2411,"Ġtrue":2412,"Ġbook":2413,"Ġtitt":2414,"ract":2415,"nings":2416,"iful":2417,"Ġtrans":2418,"issa":2419,"Jo":2420,"Ġgame":2421,"ĠGr":2422,"ĠMy":2423,"ags":2424,"ĠbehÃ¶v":2425,"Ġhemma":2426,"ĠhÃ¶ra":2427,"aste":2428,"llan":2429,"Ġlu":2430,"Ġexactly":2431,"Ġera":2432,"Ġparty":2433,"Ġledsen":2434,"Ġmisst":2435,"ital":2436,"Ġable":2437,"Ser":2438,"Ã¤ller":2439,"Ġtrust":2440,"andra":2441,"ugg":2442,"Ã¤stan":2443,"vie":2444,"Ġdeath":2445,"oice":2446,"lex":2447,"...?":2448,"ĠDan":2449,"ĠkÃ¤nns":2450,"atur":2451,"rade":2452,"most":2453,"ĠCan":2454,"Ġriktigt":2455,"ony":2456,"ĠAmer":2457,"ouble":2458,"Ã¥k":2459,"anske":2460,"ĠvÃ¤rlden":2461,"Ġfact":2462,"yes":2463,"Ġfour":2464,"Ġshot":2465,"Ġaw":2466,"Ġol":2467,"Ġmass":2468,"Ġclose":2469,"Ġidiot":2470,"ween":2471,"FÃ¶rlÃ¥t":2472,"Tror":2473,"wer":2474,"Ġvisa":2475,"sol":2476,"ount":2477,"Ġgam":2478,"Ġtimes":2479,"ĠmÃ¥r":2480,"Ġrunt":2481,"aff":2482,"Ġstan":2483,"ationen":2484,"vete":2485,"ira":2486,"ĠsvÃ¥rt":2487,"Ġthough":2488,"Ġagainst":2489,"GÃ¶r":2490,"Have":2491,"Ġsim":2492,"Ġdan":2493,"Ġliten":2494,"cess":2495,"of":2496,"side":2497,"ĠMan":2498,"Ġsuper":2499,"oner":2500,"Ġlate":2501,"Ġlever":2502,"Ġbody":2503,"Ġlaw":2504,"Ġcont":2505,"OM":2506,"Ã¶n":2507,"Ġquestion":2508,"Ġwish":2509,"ela":2510,"Ġexper":2511,"Ġsluta":2512,"Ġgiv":2513,"Ġlater":2514,"ĠvÃ¤nta":2515,"igare":2516,"Ġluck":2517,"Ġrad":2518,"Ġeat":2519,"ĠGo":2520,"Ġpress":2521,"ĠCharl":2522,"nu":2523,"Ġent":2524,"Ġtelling":2525,"iously":2526,"Ġnumber":2527,"Ġfive":2528,"Ġru":2529,"Ġskr":2530,"ĠgÃ¥ngen":2531,"erg":2532,"Ġinve":2533,"Ġcrazy":2534,"outh":2535,"ften":2536,"Ã¶l":2537,"rag":2538,"ric":2539,"Ġblod":2540,"Ġinst":2541,"Ġmoment":2542,"Ġcop":2543,"Ġligger":2544,"for":2545,"ammans":2546,"Ġfree":2547,"ester":2548,"iven":2549,"Ġmellan":2550,"ject":2551,"ĠfÃ¶rut":2552,"Ġensam":2553,"Ex":2554,"Ġinterest":2555,"Ġfavor":2556,"ĠWill":2557,"hus":2558,"Ġpos":2559,"Ġminuter":2560,"any":2561,"kta":2562,"stem":2563,"ĠSam":2564,"Ġvap":2565,"Ġblivit":2566,"ĠfÃ¶rsv":2567,"luta":2568,"ĠslÃ¤pp":2569,"Ġhistor":2570,"bo":2571,"Ġdam":2572,"Ġcut":2573,"Ã¶st":2574,"Ġroll":2575,"Ġarg":2576,"fer":2577,"Ġsend":2578,"ama":2579,"Ġanymore":2580,"Ã¤mt":2581,"Vilken":2582,"Right":2583,"Ġlika":2584,"ired":2585,"Ġspeak":2586,"Ġear":2587,"iken":2588,"Ġbeautiful":2589,"ĠfÃ¶rsÃ¶kte":2590,"Ġmilj":2591,"jur":2592,"Ġgoes":2593,"oun":2594,"ene":2595,"ĠhÃ¶rde":2596,"Ġ9":2597,"Ġbetween":2598,"ĠÃ¶n":2599,"ĠWho":2600,"ield":2601,"Ġdaughter":2602,"Ġvack":2603,"Ġcomes":2604,"ĠVarfÃ¶r":2605,"regud":2606,"Ġbetyder":2607,"Ġoper":2608,"ica":2609,"Ġpresent":2610,"ĠlÃ¤tt":2611,"Ġbevis":2612,"Ġeyes":2613,"ily":2614,"mor":2615,"ĠhÃ¥r":2616,"elf":2617,"Ġang":2618,"Tell":2619,"ĠAre":2620,"Ġprof":2621,"Ġhoppas":2622,"Ġhaft":2623,"aps":2624,"Ġjobbar":2625,"ically":2626,"ffic":2627,"Ġbehind":2628,"Ġfot":2629,"ĠnÃ¤stan":2630,"ĠfÃ¶rr":2631,"Ġkvinn":2632,"Bl":2633,"Sl":2634,"Ġfollow":2635,"ĠfÃ¶rstÃ¥":2636,"Ġtea":2637,"ĠfÃ¶rÃ¤nd":2638,"ĠhÃ¤rifrÃ¥n":2639,"ĠUn":2640,"ĠtjÃ¤n":2641,"GÃ¥":2642,"ih":2643,"agen":2644,"Ġline":2645,"Ġhittar":2646,"Ġredo":2647,"stans":2648,"ĠÃ¥ker":2649,"iam":2650,"Ġsj":2651,"Ġtruth":2652,"Ġmatch":2653,"ĠbÃ¶rjade":2654,"Ġses":2655,"ĠMich":2656,"Ġdest":2657,"Ġbilen":2658,"Ġ7":2659,"ery":2660,"enn":2661,"Sp":2662,"Ġgets":2663,"Ġsnabb":2664,"ael":2665,"Ġpull":2666,"Ġfront":2667,"skar":2668,"Ġcor":2669,"ĠfÃ¶rÃ¤ld":2670,"Ġoffic":2671,"ĠFrank":2672,"Ġhalf":2673,"Ġ!":2674,"Ġsedan":2675,"ĠGud":2676,"iell":2677,"Ġry":2678,"Ġbuild":2679,"ĠlÃ¤mna":2680,"arch":2681,"ĠnÃ¤sta":2682,"Ġhusband":2683,"gar":2684,"Ġsid":2685,"Ġneeds":2686,"fra":2687,"full":2688,"str":2689,"ĠPh":2690,"Tr":2691,"ex":2692,"hÃ¥ll":2693,"inner":2694,"ĠhÃ¶rt":2695,"Ġ8":2696,"Ġsvar":2697,"Ġkvinna":2698,"Ġsat":2699,"ately":2700,"itet":2701,"ĠgÃ¥nger":2702,"enting":2703,"Ġ15":2704,"Ġigenom":2705,"Ut":2706,"Ġmill":2707,"ĠYork":2708,"Ġsweet":2709,"Ġchang":2710,"ĠkÃ¤nde":2711,"fl":2712,"Ġrol":2713,"Ġcouple":2714,"ined":2715,"Ã¤der":2716,"Ġball":2717,"Ã¤rna":2718,"ĠIf":2719,"Ġforg":2720,"ĠvÃ¤ntar":2721,"Ġstora":2722,"ĠlÃ¥ta":2723,"Ã¤rd":2724,"Wait":2725,"vÃ¥":2726,"orter":2727,"Ġhelst":2728,"Ġsafe":2729,"yssna":2730,"cuse":2731,"ĠWhere":2732,"IT":2733,"Ã¤t":2734,"ĠmÃ¶j":2735,"Ġpriv":2736,"uss":2737,"ones":2738,"Ġdep":2739,"Ã¤mmer":2740,"Ġquite":2741,"Ġvore":2742,"ĠGood":2743,"Ã¤cker":2744,"TÃ¤nk":2745,"ĠslÃ¥":2746,"Efter":2747,"Ġspec":2748,"dom":2749,"ĠmÃ¶rd":2750,"Ġlj":2751,"Ġminns":2752,"Ġshoot":2753,"Ġgrund":2754,"ĠAN":2755,"ĠdÃ¤rfÃ¶r":2756,"upid":2757,"Ġeasy":2758,"Ã¤nn":2759,"Ġfilm":2760,"van":2761,"ĠMiss":2762,"ĠOkej":2763,"ape":2764,"Um":2765,"Ġilla":2766,"Ġdist":2767,"ĠJo":2768,"aptain":2769,"Ġfler":2770,"Ġben":2771,"ĠHej":2772,"Ġklarar":2773,"vers":2774,"Ġlov":2775,"Ġsold":2776,"gest":2777,"aul":2778,"yll":2779,"ĠbÃ¥da":2780,"Ġes":2781,"Ġbild":2782,"Ġyoung":2783,"illy":2784,"ĠOK":2785,"Ġcontro":2786,"rest":2787,"ident":2788,"Ġtried":2789,"sm":2790,"Ġpast":2791,"Ġegen":2792,"Ġbok":2793,"orge":2794,"Ġkrig":2795,"cker":2796,"ĠGet":2797,"Ġklart":2798,"ĠidÃ©":2799,"ST":2800,"komm":2801,"rad":2802,"oj":2803,"ras":2804,"oud":2805,"Ġla":2806,"Ġsmart":2807,"Ġspecial":2808,"Ġgift":2809,"Ġits":2810,"ement":2811,"Ġalmost":2812,"ĠsÃ¥nt":2813,"gÃ¥r":2814,"Ġtillsammans":2815,"fraid":2816,"NÃ¥g":2817,"Sorry":2818,"Ġhate":2819,"Ġbud":2820,"Ġhor":2821,"Ġfa":2822,"Ġwaiting":2823,"Ġcomplet":2824,"FÃ¥r":2825,"Ġtouch":2826,"ĠOr":2827,"Ġind":2828,"cer":2829,"Ġskjut":2830,"Ġmine":2831,"och":2832,"Ġwhatever":2833,"ĠKan":2834,"ĠkÃ¤nna":2835,"Ġair":2836,"ĠÃ¤ta":2837,"Dr":2838,"kan":2839,"Ġgamm":2840,"unn":2841,"Titta":2842,"With":2843,"Ġtown":2844,"ĠgÃ¥tt":2845,"ship":2846,"Ġbitch":2847,"ĠlÃ¥ngt":2848,"At":2849,"lan":2850,"Ġfyra":2851,"ĠdÃ¶dade":2852,"Ġfanns":2853,"Kanske":2854,"gÃ¥ng":2855,"ior":2856,"Hell":2857,"Ġchef":2858,"LE":2859,"rel":2860,"Ġexpect":2861,"ĠtÃ¤nka":2862,"Ġreport":2863,"Ġdream":2864,"Ġdied":2865,"Ah":2866,"Ġform":2867,"Ġlearn":2868,"Ġoffer":2869,"inal":2870,"Ġsix":2871,"Ġpsy":2872,"Ġdamn":2873,"ĠBar":2874,"aster":2875,"Ġvisst":2876,"Ġsister":2877,"HÃ¥ll":2878,"Ġfood":2879,"Ġrid":2880,"Ġsant":2881,"esus":2882,"Mar":2883,"hand":2884,"Ġmonths":2885,"Ġinformation":2886,"Ġbull":2887,"reet":2888,"Ġtimmar":2889,"Ġspelar":2890,"pis":2891,"Ġafraid":2892,"ĠLu":2893,"Ġinvest":2894,"ĠmÃ¤r":2895,"ĠrÃ¤dda":2896,"Ġ30":2897,"Ġtelef":2898,"Ġfantast":2899,"Ġuppt":2900,"Ġoffice":2901,"Ġeverybody":2902,"ĠÃ¤ven":2903,"Ġperfect":2904,"ĠLook":2905,"ĠnÃ¤ra":2906,"ĠbÃ¶rja":2907,"Ġparents":2908,"Ġprotect":2909,"Ġpie":2910,"HÃ¶r":2911,"rick":2912,"kn":2913,"oon":2914,"Ġdotter":2915,"ĠHer":2916,"ĠYour":2917,"let":2918,"init":2919,"agg":2920,"ĠThank":2921,"fall":2922,"Ġclean":2923,"Ġz":2924,"Ġsan":2925,"âĢĲ":2926,"klag":2927,"Ġsecret":2928,"ics":2929,"ĠMin":2930,"ĠEm":2931,"Ġhelvete":2932,"Ġrecord":2933,"Ġfing":2934,"Ġstol":2935,"Ġhandlar":2936,"Ġkille":2937,"OW":2938,"Ġvarandra":2939,"Ġalive":2940,"ĠdrÃ¶m":2941,"stÃ¥nd":2942,"Listen":2943,"ium":2944,"lin":2945,"not":2946,"Ã¤d":2947,"ants":2948,"Ġnorm":2949,"ĠSc":2950,"Ġbror":2951,"Ġwomen":2952,"Ġeng":2953,"Ġavsl":2954,"Of":2955,"tj":2956,"Ġstanna":2957,"heten":2958,"iker":2959,"Ġgrand":2960,"friend":2961,"Hi":2962,"IG":2963,"Ġnews":2964,"eb":2965,"uh":2966,"Ġdagar":2967,"Ġmord":2968,"Ã¤ra":2969,"Ġspela":2970,"Ġsitu":2971,"vid":2972,"Ġadd":2973,"Ġless":2974,"elcome":2975,"rott":2976,"Ġyours":2977,"Ġhuset":2978,"Ġchildren":2979,"Ġpubl":2980,"Visst":2981,"Ġ12":2982,"Ġgirls":2983,"Ġkra":2984,"ards":2985,"ĠgÃ¤rna":2986,"aget":2987,"Ġrisk":2988,"ution":2989,"Ġblack":2990,"pect":2991,"alm":2992,"Ġsomebody":2993,"Ġbuy":2994,"See":2995,"Ġlilla":2996,"Ġhey":2997,"ĠrÃ¶r":2998,"ĠRob":2999,"icture":3000,"Ġstupid":3001,"IC":3002,"Ġjobbet":3003,"Ġaren":3004,"Ġcur":3005,"Ġbrought":3006,"Ġcent":3007,"ĠMc":3008,"Ġmist":3009,"Ġfest":3010,"ĠAd":3011,"ĠInte":3012,"Ġeither":3013,"roll":3014,"ĠOm":3015,"UrsÃ¤kta":3016,"erry":3017,"ĠDav":3018,"ktion":3019,"Ġplanet":3020,"Ġanswer":3021,"Ġpolisen":3022,"ills":3023,"Ġreda":3024,"Ġsave":3025,"ella":3026,"Ġmad":3027,"Ġsub":3028,"zing":3029,"ility":3030,"ĠDid":3031,"OT":3032,"AL":3033,"Take":3034,"ata":3035,"ald":3036,"Ġdirekt":3037,"hÃ¶r":3038,"Ġoutside":3039,"Ġalong":3040,"Pro":3041,"Ġstar":3042,"Ġstad":3043,"Ġant":3044,"ĠMom":3045,"Ġexpl":3046,"ĠskÃ¶":3047,"Ġlist":3048,"OK":3049,"ĠFor":3050,"Ġbryr":3051,"ĠMrs":3052,"Inget":3053,"ines":3054,"Ã¥tt":3055,"ĠifrÃ¥n":3056,"Ġdagen":3057,"ĠhÃ¤nt":3058,"Ġhang":3059,"ized":3060,"orth":3061,"Ġlock":3062,"Ġpresident":3063,"Ġcountry":3064,"mÃ¤r":3065,"utt":3066,"Ġpicture":3067,"ertain":3068,"ider":3069,"Ber":3070,"sky":3071,"Ã¤nner":3072,"room":3073,"Ġmarried":3074,"ĠmÃ¶":3075,"Ġpack":3076,"Ġforget":3077,"Ġbott":3078,"Ġringer":3079,"Ġcontrol":3080,"lade":3081,"irth":3082,"Ġship":3083,"Ġingenting":3084,"Ġrunning":3085,"Ġbakom":3086,"res":3087,"Ġheller":3088,"iting":3089,"Ġsystem":3090,"Ġtitta":3091,"ĠNow":3092,"Ġsick":3093,"Ġcell":3094,"ently":3095,"UT":3096,"Ġhy":3097,"ĠRight":3098,"Ġfelt":3099,"Ġlead":3100,"ĠhÃ¤l":3101,"ĠJim":3102,"Ġdinner":3103,"cl":3104,"sin":3105,"atter":3106,"Ġjo":3107,"ĠOF":3108,"ular":3109,"ĠhjÃ¤lper":3110,"pro":3111,"Ġtala":3112,"kvÃ¤ll":3113,"SnÃ¤lla":3114,"Ġ?":3115,"Ġboys":3116,"kom":3117,"ĠsÃ¤l":3118,"Ġwind":3119,"ode":3120,"Ġasking":3121,"Ġtrev":3122,"irt":3123,"Ġvilja":3124,"vern":3125,"lain":3126,"Ġclass":3127,"Ġsitter":3128,"Ġhuman":3129,"His":3130,"Ġlose":3131,"ĠKe":3132,"Ġringa":3133,"oor":3134,"Ġkap":3135,"Ġsvart":3136,"Ġband":3137,"Ġrelation":3138,"Ġlad":3139,"ĠTack":3140,"ĠNi":3141,"jen":3142,"ĠfÃ¤ng":3143,"Ġcity":3144,"Ġcover":3145,"eren":3146,"ette":3147,"ĠIN":3148,"Ġgammal":3149,"gan":3150,"Ġintress":3151,"ĠÃ¤nnu":3152,"Somet":3153,"ihop":3154,"!\"":3155,"AD":3156,"Ġche":3157,"Ġtelefon":3158,"Sluta":3159,"to":3160,"Ġ$":3161,"Ġgamla":3162,"Âª":3163,"ĠsÃ¤tta":3164,"ense":3165,"ĠPr":3166,"Ġdenna":3167,"Ġsenare":3168,"Ġfeeling":3169,"bor":3170,"Ġbank":3171,"isa":3172,"Ġtop":3173,"Ġhair":3174,"orts":3175,"Ġliving":3176,"VE":3177,"enny":3178,"ĠaffÃ¤r":3179,"ĠÃ¤g":3180,"Ġtio":3181,"Ġlunch":3182,"ÂĻ":3183,"Ġplaying":3184,"Ġseems":3185,"Br":3186,"Ġnatt":3187,"Ġmest":3188,"Ġweird":3189,"Ġfinish":3190,"ingar":3191,"Ġnytt":3192,"Ġbrott":3193,"Ġsyster":3194,"ulle":3195,"Ġhappens":3196,"oul":3197,"ĠAm":3198,"ĠCol":3199,"Ġjobba":3200,"Our":3201,"sc":3202,"ĠSer":3203,"Ġspend":3204,"ĠKom":3205,"Ġbetal":3206,"Ġsmall":3207,"Ġlives":3208,"ĠkÃ¤rlek":3209,"Ġlugnt":3210,"ĠfÃ¶rÃ¤ldrar":3211,"ball":3212,"leas":3213,"ĠJe":3214,"Does":3215,"Ġpap":3216,"ĠfÃ¶rf":3217,"Ġung":3218,"ille":3219,"Ġtrouble":3220,"ĠPar":3221,"Ġ100":3222,"ivers":3223,"Ġskolan":3224,"Ġtaken":3225,"Ġcam":3226,"Ġstat":3227,"Ġleva":3228,"Ġkommit":3229,"ĠVem":3230,"AY":3231,"Ġ.":3232,"Ġsus":3233,"Ġcertain":3234,"skt":3235,"ĠRo":3236,"Ġterri":3237,"bart":3238,"uld":3239,"Ġringde":3240,"Pre":3241,"pital":3242,"idence":3243,"ief":3244,"Ã¤s":3245,"Ġshouldn":3246,"kten":3247,"Ġinsp":3248,"Ġbek":3249,"ĠJul":3250,"Ġ50":3251,"Ar":3252,"ID":3253,"Ġtw":3254,"ince":3255,"Ġahead":3256,"Ġlev":3257,"olly":3258,"Mina":3259,"ummer":3260,"ĠUh":3261,"Ġstrong":3262,"Ġdrive":3263,"Herregud":3264,"Ty":3265,"amer":3266,"Ġhop":3267,"Ġvak":3268,"These":3269,"ryck":3270,"ĠfÃ¶rsÃ¶ka":3271,"Ġfoot":3272,"Ġlady":3273,"rik":3274,"Ġkropp":3275,"Will":3276,"Ġbirth":3277,"Ġvide":3278,"Ġvatten":3279,"olis":3280,"Ġsense":3281,",\"":3282,"rÃ¥d":3283,"ession":3284,"nygg":3285,"Ġfunny":3286,"ĠhÃ¤mta":3287,"lad":3288,"artment":3289,"ĠsnÃ¤ll":3290,"ĠlÃ¥g":3291,"Ġalls":3292,"ĠCon":3293,"Ġprison":3294,"Ġquick":3295,"Ġpromise":3296,"FÃ¶rs":3297,"ĠlÃ¤mnade":3298,"com":3299,"mas":3300,"Ġsell":3301,"Ã¤tter":3302,"ĠEng":3303,"dle":3304,"ĠfÃ¶rl":3305,"ortun":3306,"Ġgalen":3307,"rey":3308,"roy":3309,"ĠberÃ¤ttade":3310,"Ġjord":3311,"ters":3312,"ommy":3313,"Ġmeeting":3314,"BI":3315,"CH":3316,"ues":3317,"Ġcir":3318,"ĠTr":3319,"Ġvapen":3320,"NA":3321,"Un":3322,"Ġdoctor":3323,"Ġdrug":3324,"Ġske":3325,"odu":3326,"ific":3327,"eople":3328,"Ġleaving":3329,"Ġmillion":3330,"Hello":3331,"Cause":3332,"pped":3333,"ĠihÃ¥g":3334,"Ġstraight":3335,"fr":3336,"Ġhoney":3337,"right":3338,"Ġfell":3339,"Ġmem":3340,"SA":3341,"Ġvitt":3342,"ican":3343,"Ġvilket":3344,"Ġtagit":3345,"Ġweeks":3346,"ajor":3347,"Komm":3348,"tat":3349,"Ġkort":3350,"allÃ¥":3351,"Ġteach":3352,"Thanks":3353,"aker":3354,"Ġneeded":3355,"Mamma":3356,"Would":3357,"Ã¥nga":3358,"ĠBen":3359,"ĠGu":3360,"Fuck":3361,"las":3362,"Ġjud":3363,"Ab":3364,"ai":3365,"ager":3366,"ised":3367,"ĠSom":3368,"Ġref":3369,"urity":3370,"Ġsek":3371,"ĠBob":3372,"used":3373,"ockan":3374,"selves":3375,"Ġtyp":3376,"Ġdefinit":3377,"nie":3378,"ĠAb":3379,"under":3380,"ogra":3381,"Give":3382,"Ġdans":3383,"Ġpossible":3384,"pel":3385,"ĠgÃ¶m":3386,"ows":3387,"Ġlie":3388,"bjud":3389,"ev":3390,"Ġ000":3391,"Ġhote":3392,"Ġfara":3393,"Ġcatch":3394,"anden":3395,"Ġert":3396,"Ġbox":3397,"ze":3398,"Ġbomb":3399,"Ġpapp":3400,"Ġmedic":3401,"EL":3402,"Ġklara":3403,"Ġcompany":3404,"Ġextra":3405,"Ġgal":3406,"Ġkiss":3407,"Ġotro":3408,"entle":3409,"Ġboss":3410,"Ġhalv":3411,"Ġbygg":3412,"Ġpersonal":3413,"Ġgrabb":3414,"ational":3415,"ĠstÃ¤llet":3416,"Ġstort":3417,"ĠMart":3418,"go":3419,"set":3420,"Ġpost":3421,"Ġimag":3422,"augh":3423,"Ġpop":3424,"Ġvict":3425,"NÃ¥n":3426,"Ġma":3427,"Ġrock":3428,"ĠBra":3429,"Ġkvinnor":3430,"inc":3431,"ĠbÃ¤st":3432,"Ġganska":3433,"ĠfÃ¶rtj":3434,"Ġantar":3435,"Ġhonest":3436,"ĠPre":3437,"Ġworth":3438,"Ġserious":3439,"Ġsituation":3440,"Ġ(":3441,"ĠmÃ¶r":3442,"Ġgif":3443,"ĠfÃ¶lja":3444,"Ġannars":3445,"Ġmusic":3446,"lo":3447,"Ġshut":3448,"Ġknown":3449,"Ġcannot":3450,"ham":3451,"Ġlab":3452,"urs":3453,"Ġmannen":3454,"inda":3455,"Ġfattar":3456,"Ġweren":3457,"Ġnear":3458,"ĠPro":3459,"Ġcolle":3460,"Gu":3461,"Mitt":3462,"Hans":3463,"ĠlÃ¤ra":3464,"Ġmob":3465,"Ġra":3466,"ral":3467,"ts":3468,"ining":3469,"Ġbecome":3470,"ĠstÃ¥":3471,"heter":3472,"Ġdags":3473,"ĠbehÃ¶vde":3474,"Kl":3475,"Ġtreat":3476,"Ġdress":3477,"ĠIT":3478,"Ġmeant":3479,"Ġpratade":3480,"aged":3481,"owing":3482,"Gr":3483,"ĠTo":3484,"olla":3485,"Ġhittat":3486,"Ġfunger":3487,"arm":3488,"iter":3489,"ĠWH":3490,"Ġflytt":3491,"Ġpengarna":3492,"ĠNu":3493,"Ġloc":3494,"After":3495,"Ġten":3496,"unda":3497,"Ġdessa":3498,"ĠhÃ¶":3499,"ism":3500,"Ġcry":3501,"ldig":3502,"ĠHi":3503,"ĠAng":3504,"lyck":3505,"-[":3506,"Wow":3507,"ided":3508,"Ġfinally":3509,"ĠsmÃ¥":3510,"Ġdisapp":3511,"Ġentire":3512,"Ġcap":3513,"ĠursÃ¤kt":3514,"ander":3515,"Ġprogr":3516,"Ġnerv":3517,"Ġkolla":3518,"Ġhung":3519,"Ġpot":3520,"ids":3521,"Ġbeslut":3522,"ear":3523,"ience":3524,"Ġallvar":3525,"ĠEd":3526,"ĠrÃ¤k":3527,"ĠEx":3528,"Ġexc":3529,"ounds":3530,"Ġworked":3531,"ĠvÃ¤x":3532,"ĠMichael":3533,"oint":3534,"Ġpain":3535,"mazing":3536,"Ġwall":3537,"Ġham":3538,"oup":3539,"Ġopp":3540,"uten":3541,"Ġshall":3542,"iva":3543,"ept":3544,"Er":3545,"igg":3546,"uts":3547,"ĠDÃ¥":3548,"Ġabsol":3549,"Ġseeing":3550,"Ġhospital":3551,"ĠTom":3552,"ender":3553,"Ġflera":3554,"Ġlonger":3555,"Ġdanger":3556,"Under":3557,"ities":3558,"Ġanyway":3559,"haps":3560,"Ġdate":3561,"Which":3562,"bur":3563,"Ġkar":3564,"utom":3565,"Ġinvol":3566,"Ġreturn":3567,"form":3568,"Ġbag":3569,"edding":3570,"tel":3571,"Ġhimself":3572,"ĠmÃ¥nader":3573,"ĠlÃ¤gga":3574,"ĠdÃ¶rren":3575,"Ġviktigt":3576,"Ġlju":3577,"ĠrÃ¥d":3578,"ĠmÃ¥l":3579,"ĠkÃ¶pa":3580,"Ġmiddag":3581,"za":3582,"Ġkompis":3583,"ĠThanks":3584,"ĠsÃ¤kerhet":3585,"off":3586,"arbet":3587,"Ġfund":3588,"nda":3589,"Ã¤nger":3590,"ĠSch":3591,"Ġcalling":3592,"Folk":3593,"ius":3594,"idge":3595,"Ã¤nder":3596,"Ġvidare":3597,"Ã¤nga":3598,"ĠsnÃ¤lla":3599,"des":3600,"Ġill":3601,"ĠÃ¢":3602,"Ġeff":3603,"ĠAlex":3604,"Ġphot":3605,"bil":3606,"drag":3607,"iner":3608,"Ġkast":3609,"Ġran":3610,"Ġkillen":3611,"Even":3612,"Ġkor":3613,"Me":3614,"Ġbeat":3615,"Ġeye":3616,"Ġ18":3617,"Ġserv":3618,"ips":3619,"Ġpatient":3620,"Ġdy":3621,"Ġnatur":3622,"Ġwhite":3623,"urch":3624,"ĠnÃ¥nsin":3625,"ĠMad":3626,"Ġbreat":3627,"Ġenk":3628,"uture":3629,"Ġdej":3630,"Ġanybody":3631,"Ġgener":3632,"Ġskriva":3633,"ox":3634,"sch":3635,"Ġenerg":3636,"Ġrob":3637,"Ġbru":3638,"Ġeftersom":3639,"ĠkÃ¶ra":3640,"Ġoro":3641,"Ġuppe":3642,"ivt":3643,"Ġwords":3644,"Ġgiving":3645,"lag":3646,"Ġsida":3647,"Ġpen":3648,"Ġkick":3649,"arah":3650,"Ġhatar":3651,"Ġvin":3652,"andet":3653,"ĠJames":3654,"elle":3655,"Ġtidigare":3656,"Ġtyst":3657,"Ġsong":3658,"Ġthanks":3659,"cks":3660,"ktor":3661,"nor":3662,"ĠikvÃ¤ll":3663,"Ġsomewhere":3664,"ERE":3665,"By":3666,"Ġones":3667,"ĠSm":3668,"ĠTV":3669,"ĠPaul":3670,"Ġpark":3671,"Ġcol":3672,"okat":3673,"ĠanvÃ¤nda":3674,"Ġsounds":3675,"ĠQu":3676,"Inga":3677,"Ġscared":3678,"Ġpartner":3679,"Ġmeddel":3680,"ĠfÃ¶rstÃ¶r":3681,"Ġchanged":3682,"Per":3683,"Ã¤rsk":3684,"ĠMa":3685,"juk":3686,"ĠCharlie":3687,"\",":3688,"joy":3689,"Ġcreat":3690,"tera":3691,"ety":3692,"Ġfle":3693,"Ġspring":3694,"Ġmoving":3695,"Ġinvestig":3696,"rÃ¤ck":3697,"eder":3698,"Ġident":3699,"Ġquestions":3700,"Ġamazing":3701,"etter":3702,"Ġly":3703,"Ġspace":3704,"ists":3705,"ĠutanfÃ¶r":3706,"Fin":3707,"ran":3708,"ĠhÃ¥rt":3709,"Ġslog":3710,"Ġsidan":3711,"Ġknapp":3712,"Ġletar":3713,"Ġamb":3714,"ĠDavid":3715,"ĠhÃ¶ll":3716,"Ġkopp":3717,"ĠhÃ¤nda":3718,"Ġpolit":3719,"Ġtem":3720,"Ã¥ter":3721,"ĠRich":3722,"que":3723,"Ġlooked":3724,"ective":3725,"Ste":3726,"Ġsmell":3727,"Ġagent":3728,"Ġskydda":3729,"Ġposition":3730,"ĠanvÃ¤nder":3731,"ĠST":3732,"Ġallow":3733,"ĠJoe":3734,"SÃ¤tt":3735,"dde":3736,"ians":3737,"oes":3738,"orgon":3739,"stone":3740,"Ġ11":3741,"ikan":3742,"ĠsÃ¤tter":3743,"Ne":3744,"klar":3745,"Ġweap":3746,"olen":3747,"Ġchoice":3748,"ĠÃ¤lskling":3749,"Ġbuilding":3750,"ux":3751,"atta":3752,"ĠSka":3753,"CK":3754,"ora":3755,"tact":3756,"Ġorgan":3757,"Ġturned":3758,"erk":3759,"rakt":3760,"ured":3761,"klart":3762,"Ġsamtal":3763,"Pl":3764,"gÃ¥":3765,"Ġfuture":3766,"ĠMe":3767,"ĠMm":3768,"Ġallihop":3769,"rop":3770,"Ġherr":3771,"Ġcoff":3772,"Ġflyg":3773,"ĠkÃ¶p":3774,"AM":3775,"Ġtank":3776,"ĠgÃ¤ller":3777,"ages":3778,"urt":3779,"ĠOne":3780,"Ġfint":3781,"ino":3782,"Ġgri":3783,"ĠfÃ¶ljer":3784,"Ġsal":3785,"Ġbord":3786,"Ġeg":3787,"ĠlÃ¤t":3788,"Ġ40":3789,"Ġpiece":3790,"you":3791,"Ġpan":3792,"osh":3793,"Ġvisar":3794,"Ġtittar":3795,"Ġdark":3796,"Ġstri":3797,"ungen":3798,"ĠTa":3799,"thers":3800,"Ġsov":3801,"Hen":3802,"Ġgentle":3803,"ĠIS":3804,"ĠrÃ¤cker":3805,"ĠHere":3806,"ĠAt":3807,"Ġworried":3808,"Ġtapp":3809,"Ġfamiljen":3810,"Ġvictim":3811,"af":3812,"Ġdear":3813,"ument":3814,"Ġconne":3815,"Ġhappening":3816,"Ġmissing":3817,"Nothing":3818,"ĠAND":3819,"Ġesc":3820,"LÃ¤gg":3821,"Ã¥ra":3822,"ĠCo":3823,"riv":3824,"Sir":3825,"mit":3826,"lla":3827,"ĠHel":3828,"Ġundan":3829,"Ġjobbat":3830,"ĠlÃ¤k":3831,"Ġvinna":3832,"Ġinom":3833,"ĠMike":3834,"anta":3835,"Ġskydd":3836,"ms":3837,"Ġtakes":3838,"Ġdisk":3839,"Ġtot":3840,"Ġrym":3841,"Ã¥ga":3842,"Ġbegin":3843,"Ġhuvudet":3844,"Ġpublic":3845,"BerÃ¤tta":3846,"Am":3847,"Ġfail":3848,"Ġloved":3849,"stead":3850,"ĠPlease":3851,"Ġsometimes":3852,"Ġsjukhus":3853,"Ġcompletely":3854,"IM":3855,"nal":3856,"pris":3857,"Ġmask":3858,"reen":3859,"Ġskrev":3860,"ĠMon":3861,"ĠHell":3862,"AND":3863,"Was":3864,"...\"":3865,"ĠVill":3866,"Stop":3867,"Skulle":3868,"Ġexplain":3869,"naden":3870,"TvÃ¥":3871,"bers":3872,"cri":3873,"Ã¶sa":3874,"illar":3875,"ĠivÃ¤g":3876,"Ġdeep":3877,"ĠNe":3878,"ĠLike":3879,"Ġarrest":3880,"ĠWhen":3881,"Ġwrite":3882,"Ġkontakt":3883,"Ã¶llop":3884,"Ġsingle":3885,"Ġljus":3886,"zz":3887,"Ġrapp":3888,"ĠsjÃ¤lva":3889,"ete":3890,"Ġgud":3891,"Ġofta":3892,"Ġsova":3893,"Ġorol":3894,"ĠTHAT":3895,"vak":3896,"Ġrom":3897,"ĠigÃ¥r":3898,"ĠÃ¶nskar":3899,"Ġsanningen":3900,"HE":3901,"ĠBE":3902,"Ġconsid":3903,"Ġsatt":3904,"stÃ¥r":3905,"Ġkost":3906,"ĠOl":3907,"ĠFBI":3908,"Ġimorgon":3909,"Ġstep":3910,"Pappa":3911,"fÃ¤r":3912,"Ã¤ngen":3913,"ules":3914,"blick":3915,"Ã¤cka":3916,"Av":3917,"du":3918,"Ġhid":3919,"Ã¶ren":3920,"Ġusing":3921,"ĠkÃ¤nsl":3922,"Ġ200":3923,"Ã¶ts":3924,"Ã¶lj":3925,"People":3926,"ele":3927,"Ġreach":3928,"andy":3929,"ĠMaybe":3930,"Ġbetala":3931,"Ġrespect":3932,"Upp":3933,"ram":3934,"ĠGra":3935,"Ġcold":3936,"ĠlÃ¤mnar":3937,"Fan":3938,"tan":3939,"Ġhall":3940,"Ġheal":3941,"ola":3942,"the":3943,"Ġworse":3944,"Ġroad":3945,"ĠÃ¶ppna":3946,"aven":3947,"Ġgiven":3948,"Ġkept":3949,"Detta":3950,"Ã¤nker":3951,"ĠJesus":3952,"Ġnobody":3953,"ĠKing":3954,"Ġconc":3955,"Ġworks":3956,"Ġresult":3957,"Ġveckor":3958,"Che":3959,"Pr":3960,"Sam":3961,"gga":3962,"yle":3963,"verk":3964,"Ġdecis":3965,"ĠNÃ¤r":3966,"ĠspÃ¥r":3967,"ives":3968,"Ġperfekt":3969,"Two":3970,"Ġjour":3971,"Ġclos":3972,"Ġmindre":3973,"ĠvÃ¥ld":3974,"ĠfÃ¶rtjÃ¤n":3975,"work":3976,"tes":3977,"Ġfeet":3978,"Ġkontor":3979,"AK":3980,"orl":3981,"ĠOn":3982,"Could":3983,"OL":3984,"Ġpea":3985,"Ġibland":3986,"uta":3987,"Ġdev":3988,"ffa":3989,"Ġglass":3990,"ĠfÃ¶lj":3991,"lt":3992,"Ġnere":3993,"Ġnatten":3994,"Ġothers":3995,"ÃĦven":3996,"aces":3997,"Ġsurv":3998,"Ġevidence":3999,"Ġroligt":4000,"Ġrelationship":4001,"30":4002,"Hel":4003,"sla":4004,"Ġdiv":4005,"klara":4006,"Ġkallar":4007,"HallÃ¥":4008,"VÃ¤l":4009,"kra":4010,"Ġsil":4011,"Ġbill":4012,"ĠinfÃ¶r":4013,"Ġshort":4014,"ctually":4015,"ĠdÃ¶dar":4016,"Everything":4017,"Miss":4018,"Ġdance":4019,"Ġmiljoner":4020,"rit":4021,"rÃ¤tt":4022,"arth":4023,"Ġfair":4024,"ands":4025,"Ġtrick":4026,"staur":4027,"Ġfeels":4028,"Ġsnabbt":4029,"Ġbirthday":4030,"wood":4031,"Ġtable":4032,"ides":4033,"ila":4034,"ĠtrÃ¶tt":4035,"ĠBill":4036,"Ġhandle":4037,"Ġsecurity":4038,"ĠfortsÃ¤tta":4039,"Ġcollege":4040,"Ġrequ":4041,"Ġ25":4042,"ĠMay":4043,"Ġtillf":4044,"Ġbroke":4045,"Ġvecka":4046,"Ġdar":4047,"Ġjul":4048,"ĠLord":4049,"ĠtÃ¤nkt":4050,"Ġtext":4051,"rummet":4052,"Kommer":4053,"Ġned":4054,"ĠTy":4055,"Ã¤mna":4056,"Ġcontact":4057,"ĠÃ¥kte":4058,"Ġdecided":4059,"ĠGeorge":4060,"Ġcoffee":4061,"Ġsad":4062,"Ġcre":4063,"ĠChe":4064,"ĠPat":4065,"orr":4066,"Ġcook":4067,"ury":4068,"Ġtalked":4069,"esterday":4070,"Ġbjud":4071,"Ġpush":4072,"ĠfÃ¶rm":4073,"Ġstod":4074,"ĠMer":4075,"ikte":4076,"Ġcommun":4077,"Ġsqu":4078,"omp":4079,"iller":4080,"ĠAtt":4081,"ĠON":4082,"ĠblÃ¥":4083,"lingen":4084,"line":4085,"ĠHen":4086,"ĠbrÃ¶llop":4087,"ĠfrÃ¥gor":4088,"Le":4089,"gn":4090,"sb":4091,"Ġop":4092,"anda":4093,"skan":4094,"Ġlovar":4095,"ĠLa":4096,"Ã¤nde":4097,"ĠEll":4098,"Ġtyd":4099,"gh":4100,"Ġmention":4101,"reci":4102,"Ġlying":4103,"Ġstation":4104,"ĠÃ¤lskade":4105,"ĠhjÃ¤rta":4106,"Ġfault":4107,"Ġnormal":4108,"bt":4109,"det":4110,"ĠX":4111,"arry":4112,"Ġont":4113,"Ġuppf":4114,"ĠWait":4115,"Ġthrow":4116,"prise":4117,"ray":4118,"Ġmouth":4119,"ĠfÃ¶ret":4120,"ĠMor":4121,"ĠfrÃ¥gade":4122,"SE":4123,"oid":4124,"ĠhÃ¤":4125,"Ġbi":4126,"Ġwedding":4127,"Ġcaught":4128,"owers":4129,"allt":4130,"Ġmedan":4131,"ĠGer":4132,"Ġtalar":4133,"Ġkillar":4134,"ĠChristmas":4135,"Ġakt":4136,"Ġoh":4137,"ĠSim":4138,"Ġcho":4139,"Ġexist":4140,"Ġdeser":4141,"Ġgrej":4142,"Ġwatching":4143,"Ġpsych":4144,"ination":4145,"Ġgar":4146,"cted":4147,"ume":4148,"Ġors":4149,"Ġthinks":4150,"obody":4151,"enda":4152,"view":4153,"Ġolika":4154,"Ġmassa":4155,"Ġearly":4156,"Ġdestroy":4157,"sv":4158,"chn":4159,"Ġris":4160,"abb":4161,"attle":4162,"Ġstannar":4163,"Ġlucky":4164,"bye":4165,"iny":4166,"Ġprov":4167,"Ġadvokat":4168,"Ġsun":4169,"Ġfred":4170,"Ġpleas":4171,"Ġstyr":4172,"Ġresten":4173,"Ġgifta":4174,"ford":4175,"larna":4176,"Ġhom":4177,"Ġbath":4178,"Ã¶va":4179,"ĠalltsÃ¥":4180,"bild":4181,"cing":4182,"lish":4183,"Ġed":4184,"Ġfir":4185,"ative":4186,"Ġgovern":4187,"ddie":4188,"utely":4189,"ĠframfÃ¶r":4190,"ĠstÃ¤lle":4191,"con":4192,"rid":4193,"Ġrestaur":4194,"Ã¤lt":4195,"ĠNick":4196,"orlunda":4197,"bara":4198,"Ġgas":4199,"Ġlyss":4200,"iles":4201,"irs":4202,"ĠLou":4203,"Ġblock":4204,"ĠWal":4205,"Ġmovie":4206,"ĠvÃ¤rre":4207,"Ġcontin":4208,"Ġdefinitely":4209,"giv":4210,"len":4211,"usen":4212,"vÃ¤rr":4213,"ĠstÃ¶rre":4214,"Dad":4215,"tade":4216,"Ġtruck":4217,"Ġvilken":4218,"Ġnummer":4219,"Ġannorlunda":4220,"Ġrather":4221,"ĠSn":4222,"ĠMax":4223,"enty":4224,"ĠAs":4225,"ĠCarl":4226,"ĠklÃ¤der":4227,"Ġsym":4228,"Ġrespons":4229,"wards":4230,"Ġacross":4231,"ĠÃ¶gonblick":4232,"Ġmisstag":4233,"Cl":4234,"ks":4235,"rav":4236,"ĠBo":4237,"ices":4238,"HT":4239,"Lug":4240,"ĠME":4241,"rym":4242,"ĠRay":4243,"Ġkonstigt":4244,"Ġhistoria":4245,"Ad":4246,"Kolla":4247,"Ġvoice":4248,"Ġcard":4249,"Ġrent":4250,"Those":4251,"ĠPeter":4252,"ĠVil":4253,"Ġground":4254,"ures":4255,"ĠberÃ¤ttar":4256,"Ġpaid":4257,"ĠfÃ¶rrÃ¤n":4258,"Ġtotally":4259,"ALL":4260,"atan":4261,"atal":4262,"ada":4263,"aden":4264,"ĠMed":4265,"osa":4266,"Ġbrain":4267,"cious":4268,"ĠfÃ¶rbi":4269,"Ġbrukar":4270,"ĠnÃ¶j":4271,"ĠSu":4272,"Ġpris":4273,"Ġarri":4274,"ĠÃ¤ter":4275,"ĠtjÃ¤nst":4276,"bord":4277,"over":4278,"Ġcost":4279,"ĠInd":4280,"Ġstund":4281,"Ġanled":4282,"ĠOf":4283,"Ġproper":4284,"Ġ14":4285,"Ġdrag":4286,"Ġmistake":4287,"Ġthreat":4288,"Ġburn":4289,"Ġnyck":4290,"Ġvart":4291,"Ġneigh":4292,"oph":4293,"Ġansvar":4294,"Vilket":4295,"Ġhistory":4296,"Ġfinger":4297,"Ġorolig":4298,"Put":4299,"kor":4300,"miss":4301,"Ġmis":4302,"itness":4303,"Ġkung":4304,"Ġlur":4305,"amed":4306,"Ġspark":4307,"Ã¤nda":4308,"ĠThen":4309,"ĠFran":4310,"Ġobv":4311,"Ġhundred":4312,"Ġstoppa":4313,"sas":4314,"ether":4315,"Ġport":4316,"ĠkÃ¤m":4317,"lem":4318,"ĠMark":4319,"ondon":4320,"Ġassist":4321,"Ġaccident":4322,"rian":4323,"essor":4324,"Ġfloor":4325,"Ġbarnen":4326,"Ġappreci":4327,"ĠrÃ¶st":4328,"Ġmessage":4329,"Ġskepp":4330,"bror":4331,"lÃ¶m":4332,"Ġstore":4333,"ĠWas":4334,"ĠtrÃ¤ffas":4335,"Ġmilit":4336,"ting":4337,"Ã¶ss":4338,"aket":4339,"ĠdÃ¥ligt":4340,"ycket":4341,"Ġsenaste":4342,"ĠtrÃ¤ffade":4343,"DÃ¤rfÃ¶r":4344,"Ġterrible":4345,"Dan":4346,"hole":4347,"Ġskall":4348,"Ġvisit":4349,"Ġtrack":4350,"ĠbÃ¶rjan":4351,"Ġbesk":4352,"Ġmiddle":4353,"ĠmÃ¶jligt":4354,"damn":4355,"een":4356,"Ġmach":4357,"Ġenjoy":4358,"Ġforever":4359,"ĠsÃ¥d":4360,"Ġ16":4361,"atsen":4362,"Hopp":4363,"hmm":4364,"lat":4365,"ogen":4366,"rem":4367,"Ġjump":4368,"Ġride":4369,"Ġresa":4370,"Ġsug":4371,"Ġbruk":4372,"Ġundrar":4373,"Ġtyckte":4374,"ĠlÃ¤gger":4375,"Ġprogram":4376,"Sa":4377,"Ġdju":4378,"Ġpist":4379,"Ġdude":4380,"ĠMary":4381,"Ġquiet":4382,"Ġscen":4383,"Ġpersoner":4384,"ĠPhil":4385,"UR":4386,"Ġsitta":4387,"Ġutt":4388,"Ġren":4389,"Ġwear":4390,"ionen":4391,"oper":4392,"Ġutom":4393,"Ġframtid":4394,"ĠlÃ¤sa":4395,"Something":4396,"lit":4397,"innan":4398,"Ġamer":4399,"Ġstreet":4400,"ico":4401,"Ġbland":4402,"Ġproud":4403,"Ġsaken":4404,"Ġslutar":4405,"fuck":4406,"Ġthous":4407,"Ġkaff":4408,"Ġanywhere":4409,"Ġglas":4410,"Ġkidnapp":4411,"ĠBlack":4412,"Ġspeciell":4413,"ĠfÃ¤r":4414,"Ġarea":4415,"jÃ¤lp":4416,"Only":4417,"Ġlawy":4418,"Keep":4419,"Ã¤ker":4420,"Ġve":4421,"Ġgett":4422,"Ġcross":4423,"Ġstack":4424,"Ġstark":4425,"Ġeight":4426,"ĠDO":4427,"Ġsearch":4428,"Ġbusy":4429,"Ġvideo":4430,"John":4431,"iant":4432,"Ġdjur":4433,"Ġfi":4434,"Ġcamp":4435,"ĠfÃ¶rklara":4436,"cially":4437,"ĠBecause":4438,"Ġmobil":4439,"Ġpeace":4440,"Jack":4441,"resent":4442,"imin":4443,"Ġhero":4444,"obb":4445,"Ġdemon":4446,"Ġcons":4447,"ĠfÃ¤ngelse":4448,"brott":4449,"Ġfart":4450,"Ġforward":4451,"Ġtrip":4452,"Ġdrunk":4453,"Ġdricka":4454,"Someone":4455,"Ġcharge":4456,"Rem":4457,"Ġlyssna":4458,"ĠBer":4459,"Ġboard":4460,"ĠfÃ¶rsikt":4461,"Ġsaknar":4462,"Ġgoda":4463,"Ġdrop":4464,"Ġskriv":4465,"minstone":4466,"Ġaccept":4467,"Ġflicka":4468,"kommen":4469,"Ġpur":4470,"Ã¥ngen":4471,"ĠLondon":4472,"udden":4473,"Ġklockan":4474,"Ġsupport":4475,"stÃ¤llet":4476,"umm":4477,"Ã¤mma":4478,"jÃ¤lv":4479,"ĠsÃ¤gs":4480,"Ġdrar":4481,"SlÃ¤pp":4482,"Sm":4483,"kon":4484,"use":4485,"Ġfool":4486,"oman":4487,"key":4488,"Ġanim":4489,"irty":4490,"Ġbehand":4491,"Ġcrime":4492,"Ġvacker":4493,"bok":4494,"gre":4495,"oly":4496,"ĠtrÃ¤n":4497,"ĠEvery":4498,"Ġunge":4499,"ĠsmÃ¤r":4500,"Ġagree":4501,"Ġsuspect":4502,"Actually":4503,"FF":4504,"Gen":4505,"vÃ¤":4506,"ĠÃĦ":4507,"ĠâĢĵ":4508,"cep":4509,"ĠCaptain":4510,"ktorn":4511,"ĠFl":4512,"ĠslÃ¥r":4513,"Ġslipp":4514,"rupt":4515,"Ġflytta":4516,"Ġansikte":4517,"Ġskyldig":4518,"Ġskickade":4519,"ION":4520,"jag":4521,"Ġir":4522,"ĠstÃ¤lla":4523,"rog":4524,"Ġkilling":4525,"Ġrealize":4526,"Ġcourt":4527,"Ġsjun":4528,"Mrs":4529,"pet":4530,"read":4531,"Ġking":4532,"Ġlar":4533,"ĠsÃ¥na":4534,"Ġhasn":4535,"Ġhemskt":4536,"Lyssna":4537,"VÃ¥r":4538,"Ġjack":4539,"Ġprocess":4540,"Ġbelong":4541,"IA":4542,"VER":4543,"ca":4544,"house":4545,"kÃ¤n":4546,"pat":4547,"iment":4548,"terna":4549,"Ġuppdrag":4550,"Gud":4551,"Ġtired":4552,"Ġfur":4553,"Ġfyll":4554,"Ġduring":4555,"Ġgroup":4556,"Ã¶ken":4557,"ĠSorry":4558,"ula":4559,"Ġpret":4560,"ending":4561,"Ġcloth":4562,"Ġkalla":4563,"Ġconsider":4564,"Ġviol":4565,"Ġseven":4566,"okus":4567,"ĠGen":4568,"ogn":4569,"Ġclub":4570,"Ġlita":4571,"ĠAmerican":4572,"Ġbuddy":4573,"Ġtrevligt":4574,"Ġpaper":4575,"ĠSen":4576,"Ġrev":4577,"Ġavsk":4578,"ension":4579,"Ġbrukade":4580,"sar":4581,"Ġstate":4582,"Ġshare":4583,"Ġslow":4584,"Ġerbjud":4585,"Ġelect":4586,"Ġfunkar":4587,"rÃ¤ckligt":4588,"IL":4589,"can":4590,"mÃ¥l":4591,"yan":4592,"Ġsnygg":4593,"itz":4594,"Ġstress":4595,"ĠSarah":4596,"table":4597,"Ġmissed":4598,"Ġdangerous":4599,"Ibland":4600,"Vart":4601,"Ġmun":4602,"Ġloss":4603,"Ġuppsk":4604,"ĠfrÃ¥gar":4605,"Ġveckan":4606,"Ã¤rskilt":4607,"Got":4608,"kring":4609,"Ġsoul":4610,"Ġkey":4611,"Ġice":4612,"Ġchamp":4613,"Ġtving":4614,"Ġeld":4615,"ĠIngen":4616,"elser":4617,"ILL":4618,"Ġ0":4619,"Ġban":4620,"ago":4621,"edd":4622,"iden":4623,"Ġblow":4624,"ĠFre":4625,"Ġ17":4626,"ĠstÃ¶rsta":4627,"Ġwelcome":4628,"cover":4629,"ĠhÃ¤mtar":4630,"Ġpaint":4631,"inen":4632,"Ġdou":4633,"Ġpract":4634,"Ġyesterday":4635,"ĠStop":4636,"ĠberÃ¤ttat":4637,"MÃ¥":4638,"RA":4639,"ec":4640,"mare":4641,"atte":4642,"igar":4643,"tting":4644,"Ġskj":4645,"Ġknock":4646,"ĠBur":4647,"Ġbrand":4648,"stairs":4649,"Ġmonster":4650,"Ġsitting":4651,"Ãĸver":4652,"ĠsÃ¤lja":4653,"Ġegna":4654,"but":4655,"ura":4656,"itive":4657,"Ġlim":4658,"Ġhemlighet":4659,"athan":4660,"Ġdrog":4661,"El":4662,"eel":4663,"Ãĥ":4664,"Ġtick":4665,"Ġskuld":4666,"Ġstopped":4667,"50":4668,"Sure":4669,"UN":4670,"Ġinstead":4671,"lace":4672,"gency":4673,"ĠfÃ¶d":4674,"Ġappro":4675,"Ġarbete":4676,"Ġsatte":4677,"hood":4678,"Ġtuff":4679,"Ġrules":4680,"Ġwearing":4681,"ries":4682,"Ġcarry":4683,"cuss":4684,"Ring":4685,"Ġself":4686,"Ġiss":4687,"ĠSir":4688,"ĠGO":4689,"Ġvilka":4690,"Ġsteal":4691,"Fl":4692,"TER":4693,"yd":4694,"Ġfill":4695,"ĠbÃ¥t":4696,"ona":4697,"Ġwake":4698,"itu":4699,"ĠHA":4700,"ĠAnt":4701,"ops":4702,"ĠEtt":4703,"Ġboat":4704,"Ġ24":4705,"Ġapolog":4706,"ĠfortsÃ¤tter":4707,"Ġsuggest":4708,"Ġsens":4709,"ĠkÃ¤":4710,"cher":4711,"ĠMal":4712,"ĠWE":4713,"ĠdÃ¥lig":4714,"Ġdiffic":4715,"Ġsurpris":4716,"gentligen":4717,"Ġinvolved":4718,"Ġdifficult":4719,"aten":4720,"ĠSl":4721,"ĠSan":4722,"ĠHE":4723,"Ġpassar":4724,"ĠkvÃ¤llen":4725,"Precis":4726,"Ha":4727,"Ġfoc":4728,"Ġworst":4729,"ĠigÃ¥ng":4730,"Ġunivers":4731,"Ġplane":4732,"Should":4733,"uthor":4734,"ĠbÃ¤r":4735,"Ġbri":4736,"onen":4737,"Ġkil":4738,"Ġcat":4739,"ĠstjÃ¤r":4740,"Ġrece":4741,"Ġgol":4742,"ĠRuss":4743,"Ġfinnas":4744,"ĠnÃ¥gons":4745,"Ã©n":4746,"Ġskriver":4747,"Everyone":4748,"Ġappreciate":4749,"bÃ¤r":4750,"ias":4751,"Ġtough":4752,"Ġsand":4753,"anke":4754,"Ġble":4755,"ĠfÃ¶rra":4756,"Ġhonor":4757,"Ġaccount":4758,"Ġriktig":4759,"Ġevent":4760,"First":4761,"Tja":4762,"well":4763,"Ġ..":4764,"ĠfÃ¤rd":4765,"Ġgay":4766,"add":4767,"ĠHave":4768,"ĠCal":4769,"Ġsucc":4770,"Ġtax":4771,"Ġfixar":4772,"Ġkraft":4773,"Ġvir":4774,"Ġkyr":4775,"Ġevening":4776,"Ġsynd":4777,"Ġborn":4778,"Ġwalking":4779,"Ġrummet":4780,"Ġskicka":4781,"Ġofficer":4782,"Ġgovernment":4783,"Ġclothes":4784,"pade":4785,"eless":4786,"Ġenter":4787,"Ġstuck":4788,"ppar":4789,"ĠSw":4790,"Ġgold":4791,"Ġlog":4792,"Ġtvungen":4793,"ĠUSA":4794,"Ġscrew":4795,"omas":4796,"ĠstÃ¤mmer":4797,"imm":4798,"tern":4799,"ĠEarth":4800,"ĠWil":4801,"ĠbehÃ¶va":4802,"Ġkiller":4803,"Ġfucked":4804,"ĠHello":4805,"CE":4806,"samma":4807,"ÃŃ":4808,"Ġattention":4809,"Ġneg":4810,"ningarna":4811,"Ġspir":4812,"ĠÃ¶verallt":4813,"ĠkrÃ¤v":4814,"ĠÃ¥tervÃ¤nd":4815,"Excuse":4816,"vÃ¤n":4817,"ĠhÃ¤st":4818,"Ã¤ss":4819,"asc":4820,"Ġeget":4821,"Ġskill":4822,"ĠDin":4823,"Ġ--":4824,"Ġspent":4825,"Ġviktiga":4826,"igheter":4827,"Ġsimple":4828,"ebra":4829,"ini":4830,"Ġcalm":4831,"ĠrÃ¥":4832,"Ġeas":4833,"ĠMex":4834,"lingar":4835,"Ġmission":4836,"Minns":4837,"Ġlikes":4838,"samhet":4839,"Ġdecision":4840,"Back":4841,"IK":4842,"night":4843,"rask":4844,"stru":4845,"iday":4846,"shit":4847,"Ġkidding":4848,"Ġskada":4849,"Ġjoin":4850,"Ġimagine":4851,"sikt":4852,"ero":4853,"Ġage":4854,"ĠCr":4855,"ivet":4856,"Ġfear":4857,"Ã¤ckte":4858,"Ġsyn":4859,"etch":4860,"ances":4861,"itor":4862,"Ġpiss":4863,"Ġya":4864,"Ġcas":4865,"Ġtoppen":4866,"akta":4867,"Ġblind":4868,"ationer":4869,"abri":4870,"Ġmoved":4871,"ĠvÃ¤rd":4872,"Ġfixa":4873,"ĠsÃ¶ker":4874,"Ġbetalar":4875,"Ġenkelt":4876,"Ditt":4877,"Ġhers":4878,"ĠlÃ¶g":4879,"Ġcust":4880,"Ġround":4881,"iminal":4882,"ĠPol":4883,"Ġtimme":4884,"Ġgirlfriend":4885,"Ġhuge":4886,"Ġansikt":4887,"Ġsnack":4888,"Ġskickar":4889,"Ġswear":4890,"ĠfÃ¥ng":4891,"Ã¥ta":4892,"atis":4893,"Ã¶ka":4894,"Ġprodu":4895,"rÃ¥det":4896,"Ġfungerar":4897,"AG":4898,"Nice":4899,"Ġvers":4900,"agn":4901,"Ġocc":4902,"Ġrema":4903,"ils":4904,"aked":4905,"Ġtryck":4906,"Ġlos":4907,"Ġtechn":4908,"Ġcops":4909,"ĠJeff":4910,"olisen":4911,"kel":4912,"Ġmain":4913,"Ġwitness":4914,"ston":4915,"asÃ¥":4916,"Ġsten":4917,"Ġrese":4918,"uset":4919,"ĠgrÃ¤n":4920,"Ġpoor":4921,"Ġpratat":4922,"Ã¤ster":4923,"ĠglÃ¶mde":4924,"Ġpojke":4925,"ĠAdam":4926,"Ġconcern":4927,"Ph":4928,"ifter":4929,"ĠvÃ¥g":4930,"Ġnone":4931,"Ġinn":4932,"Ġciv":4933,"ĠCla":4934,"ĠTony":4935,"elly":4936,"Whatever":4937,"Ġsuit":4938,"ified":4939,"oster":4940,"ĠÃ¥tminstone":4941,"Ġpartic":4942,"Ġfallet":4943,"ĠPresident":4944,"Qu":4945,"bs":4946,"boll":4947,"ĠsÃ¤ll":4948,"Ġhost":4949,"ĠkrÃ¤":4950,"Ġcute":4951,"ĠDNA":4952,"ĠCity":4953,"Ġchick":4954,"geant":4955,"Ã¤mta":4956,"arsh":4957,".'":4958,"Sc":4959,"Ġbase":4960,"Ġvatt":4961,"Ġopt":4962,"oder":4963,"ĠtillrÃ¤ckligt":4964,"ĠDel":4965,"ĠBro":4966,"ĠLuc":4967,"Ġlived":4968,"ĠtrÃ¤ffat":4969,"Ġbroken":4970,"talet":4971,"Mom":4972,"eal":4973,"gift":4974,"kade":4975,"ĠsÃ¥r":4976,"Ġsci":4977,"ĠsÃ¶t":4978,"Ġfield":4979,"ature":4980,"ĠrÃ¶ra":4981,"nack":4982,"ĠAh":4983,"ĠTake":4984,"ĠPer":4985,"ify":4986,"FÃ¶rst":4987,"Ġcalls":4988,"ĠÃ¥tta":4989,"ĠtrÃ¤d":4990,"Ġstarting":4991,"ĠParis":4992,"ĠkÃ¶pte":4993,"Ġkaffe":4994,"Make":4995,"gÃ¶r":4996,"time":4997,"Ġsudden":4998,"Ġhide":4999,"Ġbought":5000,"Ġpun":5001,"ige":5002,"Ġcash":5003,"Ġenem":5004,"ends":5005,"ĠWAS":5006,"Ġscene":5007,"Ã¶jligt":5008,"ĠmisstÃ¤n":5009,"OME":5010,"ges":5011,"Ġhej":5012,"olf":5013,"une":5014,"Ġprove":5015,"Ġunders":5016,"Ġwonderful":5017,"CT":5018,"back":5019,"ned":5020,"Ġbast":5021,"Ġbother":5022,"Ġlay":5023,"Ġok":5024,"usan":5025,"icka":5026,"ĠFuck":5027,"ĠRE":5028,"ĠVet":5029,"bby":5030,"Ġkapten":5031,"ĠfÃ¶rtjÃ¤nar":5032,"kort":5033,"Ġbuck":5034,"roller":5035,"ĠFOR":5036,"ateg":5037,"ÃĦl":5038,"Ġcond":5039,"ĠnÃ¥nstans":5040,"Ġterror":5041,"ĠhjÃ¤lpte":5042,"Ġpossib":5043,"Really":5044,"FrÃ¥n":5045,"lu":5046,"Ġide":5047,"Ġmajor":5048,"Ġpil":5049,"Ġlaugh":5050,"Ġot":5051,"Ġow":5052,"ĠfÃ¶rklar":5053,"ĠstÃ¤ng":5054,"eave":5055,"jekt":5056,"Ġkontroll":5057,"Ġmiles":5058,"Ġstanding":5059,"Ġdirect":5060,"Con":5061,"bol":5062,"Ġcla":5063,"Ġintell":5064,"ĠskÃ¶t":5065,"ĠHall":5066,"Ġslags":5067,"Ġintr":5068,"Stay":5069,"Ġskjuta":5070,"ĠlÃ¤kare":5071,"ĠtillfÃ¤ll":5072,"Ã¶sses":5073,"pare":5074,"rarna":5075,"val":5076,"ĠbÃ¶":5077,"ĠrÃ¤tta":5078,"Ġegentligen":5079,"ĠtillhÃ¶r":5080,"ĠGar":5081,"iced":5082,"Ġexakt":5083,"Ġseconds":5084,"Ġstudent":5085,"Ġmusik":5086,"Finns":5087,"Ant":5088,"fil":5089,"nars":5090,"vo":5091,"Ġmakt":5092,"Ġjail":5093,"Ġvarm":5094,"uren":5095,"oduc":5096,"ĠHa":5097,"Ġsaved":5098,"udd":5099,"ived":5100,"ires":5101,"Ġproblems":5102,"Ġdiscuss":5103,"Ġdriver":5104,"ENT":5105,"Ġforgot":5106,"IGHT":5107,"jÃ¤v":5108,"Ġlow":5109,"cell":5110,"ĠRed":5111,"ĠEr":5112,"Ġboyfriend":5113,"ĠmÃ¤nniska":5114,"Ġmagic":5115,"ortsÃ¤tt":5116,"Remember":5117,"Say":5118,"field":5119,"uel":5120,"Ġreser":5121,"oden":5122,"Ġspot":5123,"achel":5124,"Ġgillade":5125,"Ġinterested":5126,"Ġopportun":5127,"Ġanledning":5128,"Lu":5129,"Mich":5130,"Tom":5131,"how":5132,"ĠSa":5133,"ĠComm":5134,"ĠJan":5135,"Ġmenade":5136,"Ġ21":5137,"Ġkeeping":5138,"Ġfrukt":5139,"Ġlandet":5140,"Ġrepresent":5141,"Ġpsyk":5142,"Hennes":5143,"Nobody":5144,"Oj":5145,"ging":5146,"host":5147,"veck":5148,"ĠTed":5149,"ĠÃ¶verle":5150,"ished":5151,"Ġputting":5152,"Ġstolt":5153,"Ġwindow":5154,"ĠMartin":5155,"ĠAngel":5156,"Ġlawyer":5157,"ged":5158,"ients":5159,"Ã¶der":5160,"stad":5161,"riage":5162,"Ġupset":5163,"Ġfinal":5164,"Ġgrow":5165,"ploy":5166,"ĠStar":5167,"redit":5168,"ments":5169,"ĠÃ¤lska":5170,"Ġbutt":5171,"Ġkallas":5172,"Ġlugn":5173,"Ġinteresting":5174,"Ġknappt":5175,"UST":5176,"iat":5177,"por":5178,"omer":5179,"Ġvol":5180,"Ġcigar":5181,"ĠMac":5182,"Ġ13":5183,"ĠÃ¶verrask":5184,"Ġmorse":5185,"Ġtravel":5186,"Ġagre":5187,"ĠfÃ¶rlora":5188,"Ġexperience":5189,"Ġflesta":5190,"bis":5191,"mon":5192,"Ġfish":5193,"rote":5194,"ĠAmerica":5195,"Ġprofession":5196,"ĠRobert":5197,"ĠHenry":5198,"20":5199,"Mm":5200,"Ġfit":5201,"Ġutred":5202,"Ġslag":5203,"spel":5204,"From":5205,"Ġfigured":5206,"Ġdrugs":5207,"Ġservice":5208,"Ã¶tsligt":5209,"FÃ¥":5210,"May":5211,"bit":5212,"bel":5213,"Ġfatt":5214,"Ġkross":5215,"Ġegg":5216,"ĠfrÃ¤m":5217,"Ġsuffer":5218,"iley":5219,"Ġrecogn":5220,"Ġimpress":5221,"ĠslÃ¤ppa":5222,"Ġorsak":5223,"ĠnÃ¥gonsin":5224,"Very":5225,"Ġfal":5226,"stÃ¤nd":5227,"cken":5228,"ĠSher":5229,"ĠMel":5230,"ĠJoh":5231,"Ġpray":5232,"efore":5233,"rÃ¤ff":5234,"ĠglÃ¶mma":5235,"Hold":5236,"Never":5237,"dare":5238,"jÃ¶r":5239,"Ġca":5240,"tem":5241,"aly":5242,"Ġequ":5243,"Ġjobbade":5244,"Ġsuppose":5245,"ĠReally":5246,"Ġradio":5247,"NÃ¥gon":5248,"Car":5249,"ĠÃ¶r":5250,"Ġfisk":5251,"Ġkry":5252,"Ġforce":5253,"Ġomkring":5254,"Ġsover":5255,"Ġtalat":5256,"ĠkÃ¤nt":5257,"ĠmÃ¥nad":5258,"rench":5259,"elsed":5260,"Ġlitet":5261,"Ġprivate":5262,"Ġgentlemen":5263,"cel":5264,"Ġment":5265,"ppna":5266,"ellt":5267,"apan":5268,"ended":5269,"Ġguld":5270,"ĠlÃ¤gen":5271,"Ġfighting":5272,"ĠlÃ¥tsas":5273,"Anyway":5274,"Gra":5275,"IR":5276,"sett":5277,"aga":5278,"Ġpiz":5279,"ĠAny":5280,"ĠBea":5281,"ĠTe":5282,"Ġfeed":5283,"Ġleta":5284,"Ġtrain":5285,"year":5286,"Ġhotel":5287,"Ġotroligt":5288,"ĠRichard":5289,"came":5290,"mÃ¤n":5291,"vi":5292,"Ġmira":5293,"ĠBilly":5294,"ĠJu":5295,"ording":5296,"Jaha":5297,"Ġwriting":5298,"Ġsurprise":5299,"Ġholding":5300,"ĠnÃ¶d":5301,"ĠistÃ¤llet":5302,"ĠSee":5303,"ĠGÃ¶r":5304,"Ġalter":5305,"bert":5306,"Looks":5307,"Ġdifference":5308,"ĠfÃ¶rlorade":5309,"ĠScott":5310,"Call":5311,"OD":5312,"Ġvit":5313,"ĠpÃ¥gÃ¥r":5314,"ĠTra":5315,"essa":5316,"Ġtekn":5317,"Ġbigger":5318,"Ġkallade":5319,"Ġgives":5320,"Jesus":5321,"KÃ¤nner":5322,"bed":5323,"Ġmrs":5324,"Ġovan":5325,"Ġcause":5326,"elsen":5327,"Ġskin":5328,"ĠskÃ¤r":5329,"ĠCor":5330,"Ġexam":5331,"Ġexcuse":5332,"issar":5333,"Varje":5334,"Charl":5335,"Ġhealth":5336,"'.":5337,"jÃ¶d":5338,"tryck":5339,"Ã¶ja":5340,"Ġest":5341,"ĠSE":5342,"Ġprop":5343,"arden":5344,"Ġwhoa":5345,"appy":5346,"Ġasshole":5347,"ĠHarry":5348,"Ġfavorite":5349,"Ġjorden":5350,"Damn":5351,"GlÃ¶m":5352,"uch":5353,"Ġhamn":5354,"Ã¤dd":5355,"Ġvinner":5356,"ishing":5357,"Ġrich":5358,"andon":5359,"ĠJon":5360,"ĠVal":5361,"Ġtarget":5362,"Ġslutet":5363,"ĠkÃ¶rde":5364,"Ġmarry":5365,"Ġdraw":5366,"ĠSteve":5367,"Ġapartment":5368,"ĠWilliam":5369,"Ġdoubt":5370,"bry":5371,"mÃ¤st":5372,"Ġvux":5373,"Ġowe":5374,"aby":5375,"Ġwilling":5376,"ensive":5377,"ĠvÃ¤nster":5378,"Ġmater":5379,"ĠmÃ¤nsk":5380,"Ġliked":5381,"ĠÃ¶gonen":5382,"Ġhotell":5383,"Ġrisker":5384,"ban":5385,"mid":5386,"ĠSÃ¤g":5387,"terar":5388,"ktig":5389,"ĠRick":5390,"ĠEur":5391,"Ġhadn":5392,"ĠsvÃ¥r":5393,"Stanna":5394,"Ġremind":5395,"ubben":5396,"Ġfantastisk":5397,"klagar":5398,"Great":5399,"Try":5400,"Ġhunt":5401,"Ġbunch":5402,"test":5403,"ĠskÃ¤mt":5404,"roa":5405,"istan":5406,"ĠWar":5407,"ĠWith":5408,"Ġexcept":5409,"ĠfÃ¶n":5410,"Ġgoddamn":5411,"Ġhoping":5412,"US":5413,"vent":5414,"Ġtred":5415,"alla":5416,"Ġkvinnan":5417,"ĠWest":5418,"Ġbarnet":5419,"ĠmÃ¶te":5420,"Ġbathroom":5421,"Bes":5422,"Dina":5423,"lÃ¶s":5424,"san":5425,"ĠtÃ¤v":5426,"Ġaning":5427,"ĠChris":5428,"ĠvÃ¤lja":5429,"Ã¤ckt":5430,"ĠhÃ¤nderna":5431,"Ġlycklig":5432,"Dra":5433,"Lite":5434,"sn":5435,"Ġwood":5436,"alf":5437,"ĠLÃ¥t":5438,"ulous":5439,"ĠÃ¥ret":5440,"ĠlÃ¤rde":5441,"medi":5442,"ĠCarol":5443,"ĠJimmy":5444,"jÃ¤lvklart":5445,"LD":5446,"Led":5447,"Sv":5448,"Ġfokus":5449,"Ġjoke":5450,"Ġsty":5451,"ĠHÃ¤r":5452,"Ġmyster":5453,"ĠAT":5454,"Ġtrots":5455,"Ġconvers":5456,"Ġbuilt":5457,"Ġgrab":5458,"Ġtjejer":5459,"ĠQue":5460,"Ġangry":5461,"Ġallowed":5462,"Ġsjukhuset":5463,"lÃ¤g":5464,"Ġaud":5465,"ened":5466,"Ġbal":5467,"stret":5468,"Ġinbland":5469,"Ġcab":5470,"aks":5471,"olm":5472,"itted":5473,"ĠPÃ¥":5474,"Ġdisc":5475,"Everybody":5476,"Ġskiten":5477,"Ġfresh":5478,"Ġfavorit":5479,"Ã¤nnande":5480,"Ġmachine":5481,"Ġresearch":5482,"PP":5483,"Tj":5484,"omen":5485,"illen":5486,"Ġbecame":5487,"Ġneck":5488,"ĠNor":5489,"Ġorig":5490,"Ġguest":5491,"Ġgran":5492,"ĠnÃ¥nting":5493,"Ġfuckin":5494,"slag":5495,"Ġstrange":5496,"iana":5497,"Ġaccess":5498,"ology":5499,"ĠlÃ¶sa":5500,"Ġvackra":5501,"Ġlovely":5502,"Ġabsolutely":5503,"gin":5504,"rass":5505,"Ġdick":5506,"Ã¶nt":5507,"Ġvac":5508,"Ġcy":5509,"ilj":5510,"Ġseat":5511,"ĠEller":5512,"Ġcareful":5513,"ratul":5514,"Ġoperation":5515,"Utan":5516,"ĠKevin":5517,"ĠEnglish":5518,"Ġstal":5519,"ĠMo":5520,"ĠCam":5521,"ĠTommy":5522,"ĠPe":5523,"ival":5524,"avy":5525,"ĠStreet":5526,"Isn":5527,"fortable":5528,"fully":5529,"ĠmÃ¶jlighet":5530,"ĠslÃ¥ss":5531,"Ġaddress":5532,"rats":5533,"Ġhole":5534,"Ġmamm":5535,"eta":5536,"Ġcrew":5537,"ĠTell":5538,"arty":5539,"ĠPark":5540,"ĠÃ¤nt":5541,"ĠWhite":5542,"ĠinsÃ¥g":5543,"ĠAllt":5544,"Didn":5545,"Ġbegrav":5546,"unnit":5547,"Ġchoose":5548,"Kn":5549,"Welcome":5550,"Ġwrote":5551,"Ġcode":5552,"Ġvare":5553,"Ġgrupp":5554,"Ġimm":5555,"ints":5556,"Ġpassed":5557,"Ġneighbor":5558,"ners":5559,"ĠsÃ¤ng":5560,"Ã¥ende":5561,"igger":5562,"ota":5563,"ĠskÃ¤l":5564,"ĠTim":5565,"Ġsoci":5566,"Ġuppr":5567,"Ġklass":5568,"Ġimmedi":5569,"Ġslutade":5570,"ĠCharles":5571,"Ġhorse":5572,"Ġlearned":5573,"ĠkÃ¤nslor":5574,"Ġdeserve":5575,"ĠfÃ¶delsed":5576,"ya":5577,"Ġdat":5578,"Ġthird":5579,"Ġsake":5580,"Ġletter":5581,"plan":5582,"Ġhelping":5583,"Ġhelped":5584,"Ġmisslyck":5585,"ohol":5586,"Ġfullt":5587,"ĠDoctor":5588,"ĠlÃ¶s":5589,"revligt":5590,"Ġexcited":5591,"Ġtor":5592,"ĠnÃ¤m":5593,"Ġrakt":5594,"ĠfÃ¶rber":5595,"ĠHouse":5596,"Ġchurch":5597,"Innan":5598,"ligtvis":5599,"Ġdelar":5600,"Ġdriving":5601,"Ġaccep":5602,"Ġcivil":5603,"fatt":5604,"ĠÃ¶l":5605,"ĠUm":5606,"Ġgeneral":5607,"Ġlitar":5608,"Vilka":5609,"Ġinterview":5610,"Ġsignal":5611,"NÃ¥gra":5612,"ĠEngland":5613,"Ġcirc":5614,"Ġfocus":5615,"ĠÃ¤ntligen":5616,"TÃ¤nker":5617,"han":5618,"usk":5619,"Ġyell":5620,"Ġnamed":5621,"Ġkyss":5622,"chen":5623,"Ġrain":5624,"Ġoften":5625,"rol":5626,"Ġknull":5627,"ĠBig":5628,"Ġloves":5629,"Ġstaying":5630,"Ġsorts":5631,"Ġkroppen":5632,"Ġpressure":5633,"Ġobviously":5634,"Ġsuccess":5635,"ITH":5636,"Mer":5637,"Ã¤na":5638,"Ġbird":5639,"atic":5640,"Ġcow":5641,"Think":5642,"Ġemer":5643,"Ġisland":5644,"ĠSure":5645,"oday":5646,"Ġsocial":5647,"berg":5648,"ocka":5649,"itchen":5650,"Em":5651,"RO":5652,"Ġtight":5653,"Ġsle":5654,"Ġdying":5655,"Ġhind":5656,"Ġfac":5657,"stit":5658,"Ġeating":5659,"allen":5660,"ĠCent":5661,"ĠBara":5662,"icated":5663,"ĠFlor":5664,"Ġproject":5665,"Ã¤mde":5666,"Ġcrap":5667,"Ġtjejen":5668,"samt":5669,"Ġbullshit":5670,"Ġfinished":5671,"Ġenergy":5672,"Fast":5673,"do":5674,"iar":5675,"noon":5676,"ule":5677,"Ġmate":5678,"ĠmÃ¶t":5679,"Ġvissa":5680,"ĠGive":5681,"ĠStan":5682,"ĠÃ¤ld":5683,"Ġfolks":5684,"Ġbrev":5685,"Ġsteg":5686,"Ġvalde":5687,"ĠSec":5688,"Ġprivat":5689,"Ġcertainly":5690,"Ġpotent":5691,"Jim":5692,"Va":5693,"fast":5694,"rÃ¥":5695,"Ã¡":5696,"Ġwild":5697,"Ġinse":5698,"Ġras":5699,"amin":5700,"arac":5701,"Ã¥god":5702,"ĠVÃ¤nta":5703,"Ġbrut":5704,"heart":5705,"Ġtidigt":5706,"Ġnyheter":5707,"Ġleder":5708,"Ġkollar":5709,"Ġstaden":5710,"ograph":5711,"Ġamerikan":5712,"Ġherself":5713,"AU":5714,"YOU":5715,"don":5716,"Ġvel":5717,"Ġlust":5718,"Ġosky":5719,"Ġshop":5720,"Ġblame":5721,"ĠRon":5722,"Ġguard":5723,"lax":5724,"Ġconvin":5725,"Enligt":5726,"Sky":5727,"Ġdrinking":5728,"centr":5729,"Ġluft":5730,"Sometimes":5731,"Ġsekunder":5732,"Ġljuger":5733,"Ġweapon":5734,"Ġjournal":5735,"Ġthousand":5736,"Ġopportunity":5737,"NOW":5738,"vÃ¤l":5739,"Ġtree":5740,"Ġauthor":5741,"Ġbow":5742,"orld":5743,"Ġobe":5744,"eds":5745,"Ġdetail":5746,"irm":5747,"itten":5748,"ĠGreat":5749,"ĠLee":5750,"ĠFin":5751,"ĠFather":5752,"avsett":5753,"Ġseriously":5754,"Ġways":5755,"ĠÃ¥ld":5756,"Ġquit":5757,"Ġdesper":5758,"ĠfÃ¶rsvann":5759,"Ġcamera":5760,"Ġoroa":5761,"MÃ¥ste":5762,"Ġou":5763,"ĠSome":5764,"Ġwithin":5765,"Ġusually":5766,"Ġlevel":5767,"Ġsvara":5768,"ength":5769,"ĠTHIS":5770,"Ġfired":5771,"Once":5772,"Ġsleeping":5773,"ĠJackson":5774,"Spe":5775,"vÃ¤nt":5776,"onel":5777,"ĠfÃ¶rh":5778,"Ġstil":5779,"Ġsepar":5780,"ĠNorth":5781,"Ġpregn":5782,"Ġsmak":5783,"Ġsamman":5784,"Ġmotherfuck":5785,"Ġlikad":5786,"Ġrespekt":5787,"ĠrÃ¤ddade":5788,"ĠbehÃ¶vs":5789,"Ġpregnant":5790,"FortsÃ¤tt":5791,"Hade":5792,"pÃ¥":5793,"ubl":5794,"Ã¥da":5795,"Ġpal":5796,"Ġkamer":5797,"ased":5798,"ĠVisst":5799,"ĠbehÃ¥ll":5800,"Ġwondering":5801,"KÃ¶r":5802,"gas":5803,"kost":5804,"press":5805,"wise":5806,"Ġtanke":5807,"inne":5808,"icide":5809,"Ġkommun":5810,"ĠEddie":5811,"Ġspelade":5812,"Ġgrav":5813,"Ġdollars":5814,"Ġapart":5815,"ĠNothing":5816,"Ġladies":5817,"elebr":5818,"Dom":5819,"NÃ¥t":5820,"boy":5821,"Ġdry":5822,"enskap":5823,"Ġgang":5824,"Ġpers":5825,"ĠMs":5826,"Ġtrad":5827,"ĠKim":5828,"ipe":5829,"Ġscream":5830,"Ġmarriage":5831,"Ġpromised":5832,"ĠGrand":5833,"FÃ¶rsÃ¶k":5834,"Ġgrabben":5835,"Perhaps":5836,"Ġsurprised":5837,"ĠÃħ":5838,"Ġfat":5839,"Ġbear":5840,"Ġrace":5841,"ĠMur":5842,"ĠfÃ¶rlorar":5843,"Ġsticker":5844,"Ġ60":5845,"Ġintressant":5846,"Ġlosing":5847,"Ġinnoc":5848,"Far":5849,"gÃ¶ra":5850,"xy":5851,"Ġbred":5852,"ĠstjÃ¤l":5853,"Ġearl":5854,"iling":5855,"ĠHold":5856,"ĠFrench":5857,"ista":5858,"Ġhurry":5859,"weet":5860,"Whoa":5861,"Ġdecide":5862,"ossible":5863,"Ġcollect":5864,"Ġintellig":5865,"awn":5866,"here":5867,"ĠÃ¥ng":5868,"Ġletting":5869,"ĠfÃ¶rlÃ¥t":5870,"Ġstole":5871,"Ġminut":5872,"icago":5873,"ĠJord":5874,"ĠRoy":5875,"Ġunless":5876,"Ġvisade":5877,"ĠvÃ¤rsta":5878,"Ġspeaking":5879,"ĠfÃ¶rsÃ¶kt":5880,"Ġafternoon":5881,"Beh":5882,"Ġbringing":5883,"ĠBobby":5884,"Ġhiding":5885,"Ġfurther":5886,"Ġvattnet":5887,"Yo":5888,"yg":5889,"ĠsÃ¤rskilt":5890,"ano":5891,"Ġfile":5892,"Ã¤ren":5893,"sters":5894,"Ġjur":5895,"ligare":5896,"ĠNE":5897,"ĠJud":5898,"Ġsaf":5899,"Ġundv":5900,"Ġklient":5901,"Ġunf":5902,"ĠÃ¤kta":5903,"Ġ500":5904,"Ġcrack":5905,"kvÃ¤n":5906,"Ġcomplete":5907,"ĠfÃ¶retag":5908,"Hoppas":5909,"Hela":5910,"HjÃ¤lp":5911,"Tre":5912,"bell":5913,"ech":5914,"esome":5915,"vey":5916,"alys":5917,"ĠSal":5918,"Ġmedvet":5919,"ĠfÃ¶dd":5920,"Str":5921,"Ġfilmen":5922,"ĠjÃ¤vel":5923,"ĠhÃ¤lsa":5924,"Ġromant":5925,"-...":5926,"Ma":5927,"MÃ¥nga":5928,"Oroa":5929,"iens":5930,"Ġgym":5931,"Ġnine":5932,"Ġcup":5933,"ĠSon":5934,"Ġherrar":5935,"Ġbrud":5936,"nytt":5937,"Ġstorm":5938,"Ġtype":5939,"ĠsÃ¤ttet":5940,"ĠAnna":5941,"Ġlukt":5942,"Ġfaith":5943,"utenant":5944,"Ġinvestigation":5945,"Ġescape":5946,"Last":5947,"Ġmeter":5948,"anger":5949,"Ã¶ker":5950,"Ġpath":5951,"Ġcock":5952,"ĠjÃ¤m":5953,"Ġbeer":5954,"Ġrik":5955,"ĠDay":5956,"Ġsem":5957,"oking":5958,"usion":5959,"ully":5960,"ĠpoÃ¤ng":5961,"spl":5962,"ĠThomas":5963,"Ġliter":5964,"Ġriktiga":5965,"ĠkÃ¤ra":5966,"Ġligga":5967,"ĠfÃ¶rbann":5968,"Ġlovade":5969,"ĠGerman":5970,"EA":5971,"WH":5972,"Ġvamp":5973,"Ġnames":5974,"Ġljud":5975,"....":5976,"...!":5977,"ĠskÃ¤m":5978,"ĠDÃ¤r":5979,"ĠTill":5980,"ĠJane":5981,"ĠRos":5982,"fÃ¶ra":5983,"Ġclient":5984,"Ġplayed":5985,"ĠÃ¤ndra":5986,"Ġdump":5987,"ĠbÃ¥de":5988,"Ġincred":5989,"mÃ¤rk":5990,"Ġmemory":5991,"Ġmedicin":5992,"Ġmeddelande":5993,"Ġbeginning":5994,"Ġtour":5995,"inder":5996,"Ġsour":5997,"Ġsummer":5998,"Ġhook":5999,"inger":6000,"iger":6001,"ĠnÃ¥":6002,"ads":6003,"Ġstage":6004,"Ġwhether":6005,"ĠTur":6006,"Ġskapa":6007,"ĠWow":6008,"ucky":6009,"gery":6010,"ycker":6011,"ĠtrÃ¤ffar":6012,"Ġshowed":6013,"ĠkÃ¶per":6014,"ĠvÃ¤rldens":6015,"Annars":6016,"Ġearth":6017,"Ġvelat":6018,"-\"":6019,"Sy":6020,"Since":6021,"ĠstÃ¶d":6022,"stemet":6023,"ĠPl":6024,"Ġplans":6025,"ĠEric":6026,"Ġarmy":6027,"Ġpres":6028,"pty":6029,"ĠjÃ¤ttebra":6030,"Ġexplos":6031,"Ġlocked":6032,"Ġquickly":6033,"Ġnervous":6034,"Ġlyssnar":6035,"Ġtunn":6036,"ĠgÃ¤ng":6037,"Ġcit":6038,"olution":6039,"Ġourselves":6040,"Ġkompl":6041,"âĢĶ":6042,"Ġkontroller":6043,"ĠfÃ¶rlorat":6044,"ĠljÃ¶g":6045,"ĠhÃ¶ger":6046,"gel":6047,"kes":6048,"ply":6049,"Ġdouble":6050,"Ġcelebr":6051,"Ġdubb":6052,"itting":6053,"Ġplaces":6054,"fÃ¶rs":6055,"Ġsuck":6056,"hington":6057,"ĠWay":6058,"Ġexem":6059,"Ġunga":6060,"Ġperhaps":6061,"ĠFÃ¶rlÃ¥t":6062,"Ġviktig":6063,"ĠsÃ¶nder":6064,"ĠflickvÃ¤n":6065,"ĠDaddy":6066,"Ġchefen":6067,"ktenskap":6068,"Ġearlier":6069,"10":6070,"Alex":6071,"Fly":6072,"Ooh":6073,"Prat":6074,"Ġ]":6075,"Ġwaste":6076,"oms":6077,"Ġgrym":6078,"Ġkitchen":6079,"Ġskoj":6080,"ĠMatt":6081,"ilty":6082,"icle":6083,"Ġblue":6084,"ĠFÃ¥r":6085,"ansen":6086,"ifer":6087,"Ġfeelings":6088,"Ġacting":6089,"Ġorders":6090,"Ġdesign":6091,"Ġweekend":6092,"Ġevil":6093,"Ġwarm":6094,"Ġfantastiskt":6095,"ograf":6096,"Ġdarling":6097,"Ġpleasure":6098,"RI":6099,"Tur":6100,"eys":6101,"pic":6102,"Ġhol":6103,"ari":6104,"Ã¤rt":6105,"Ġstink":6106,"sey":6107,"ĠHis":6108,"Ġspar":6109,"Ġcharac":6110,"onting":6111,"Ġplanning":6112,"Ġcompet":6113,"ĠkÃ¶tt":6114,"Ġstrax":6115,"ĠDanny":6116,"Ġclaim":6117,"Ġtredje":6118,"Before":6119,"mord":6120,"tr":6121,"ÂĢ":6122,"Ġhi":6123,"ague":6124,"Ġkus":6125,"Ġodd":6126,"Ġbecom":6127,"ĠfÃ¶rhÃ¥ll":6128,"ĠSpe":6129,"Ġlift":6130,"Ġspoke":6131,"Ġutveck":6132,"Ġthemselves":6133,"Ġclosed":6134,"Ġ23":6135,"Still":6136,"ĠfÃ¶rsÃ¶k":6137,"Ġgravid":6138,"ĠpojkvÃ¤n":6139,"Ġbreath":6140,"Fem":6141,"jorde":6142,"no":6143,"Ã¶da":6144,"itter":6145,"edom":6146,"Ġrelax":6147,"ĠomrÃ¥det":6148,"ĠCall":6149,"Ġnecess":6150,"umb":6151,"Ġnio":6152,"Ġboll":6153,"Ġfarm":6154,"ĠhÃ¶gt":6155,"Ġgotten":6156,"mission":6157,"ĠHAVE":6158,"ĠkÃ¤ften":6159,"Time":6160,"Ġgro":6161,"agne":6162,"Ġolyck":6163,"Ġtotal":6164,"Three":6165,"ĠHigh":6166,"ĠDra":6167,"unior":6168,"Ġskaffa":6169,"Ġuts":6170,"ĠÃ¶verens":6171,"Ġmotor":6172,"visa":6173,"Ġhello":6174,"Ġinterv":6175,"Ġdumma":6176,"Ġpicked":6177,"aggie":6178,"Ġpictures":6179,"Ġskjuter":6180,"Tro":6181,"gu":6182,"hel":6183,"hip":6184,"zen":6185,"Ġ#":6186,"che":6187,"Ġmemor":6188,"Ġ-[":6189,"ĠJones":6190,"abeth":6191,"ongratul":6192,"ĠÃ¶verty":6193,"Ġeverywhere":6194,"ĠvÃ¤ntade":6195,"ĠsvÃ¤r":6196,"spe":6197,"akten":6198,"Ġadmit":6199,"Ġinsist":6200,"Ġcareer":6201,"otten":6202,"THE":6203,"Ġmurdered":6204,"Ġtittade":6205,"Ġtwice":6206,"Ġlevande":6207,"Ġjudge":6208,"AP":6209,"nam":6210,"Ġers":6211,"ĠhÃ¶j":6212,"Ġmum":6213,"ĠkÃ¤ll":6214,"Ġinde":6215,"Ġcast":6216,"Ġcaptain":6217,"Ġweak":6218,"Ġshock":6219,"Ġshoes":6220,"Ġnotice":6221,"rie":6222,"ĠJac":6223,"Ġplant":6224,"Ġprepar":6225,"ajest":6226,"airs":6227,"Ġextrem":6228,"Ġflickan":6229,"Ġreading":6230,"Ġrygg":6231,"Ġweapons":6232,"More":6233,"hem":6234,"jord":6235,"rust":6236,"Ġwine":6237,"stra":6238,"rect":6239,"amt":6240,"ĠanstÃ¤ll":6241,"Ġaction":6242,"Ġgilla":6243,"Ġappl":6244,"ĠlÃ¤rt":6245,"ipped":6246,"Ġprior":6247,"Ġgreen":6248,"Ġarbetar":6249,"Ġarms":6250,"Ġcharm":6251,"Ġmarket":6252,"About":6253,"Ġrequest":6254,"Ġconversation":6255,"Ins":6256,"ĠhÃ¤ng":6257,"ito":6258,"Ġvita":6259,"Ġstre":6260,"Ġrelig":6261,"ĠplÃ¶tsligt":6262,"ĠvÃ¤ntat":6263,"Ġphys":6264,"elset":6265,"ANT":6266,"Ġordna":6267,"Ġsamarbet":6268,"Ġcomputer":6269,"Ġtacka":6270,"ĠanvÃ¤nde":6271,"ĠhjÃ¤rtat":6272,"organ":6273,"Ġupptagen":6274,"ĠaffÃ¤rer":6275,"Ġhungry":6276,"Ġhungrig":6277,"Ġpizza":6278,"Ġimmediately":6279,"Leave":6280,"barn":6281,"iers":6282,"erm":6283,"ĠhÃ¥l":6284,"aron":6285,"itar":6286,"Ġenorm":6287,"Ġrap":6288,"Ġstab":6289,"pping":6290,"ĠCra":6291,"ĠRam":6292,"Ġspeed":6293,"ÃĸR":6294,"Ġpulled":6295,"Ġinspir":6296,"Ġarrived":6297,"Ġpistol":6298,"\"...":6299,"Jul":6300,"fest":6301,"light":6302,"lock":6303,"Ġ,":6304,"Ġmaster":6305,"ori":6306,"Ġcous":6307,"rof":6308,"ĠHmm":6309,"etten":6310,"Ġsea":6311,"ĠJose":6312,"arta":6313,"ĠbrÃ¶st":6314,"arsÃ¥god":6315,"ĠfÃ¶rsvar":6316,"Ġdela":6317,"Ġbiggest":6318,"ĠbÃ¶rjat":6319,"velop":6320,"Ġrapporter":6321,"ĠkrÃ¤vs":6322,"ND":6323,"Ġharm":6324,"Ġreger":6325,"ilar":6326,"ĠHit":6327,"ĠtillstÃ¥nd":6328,"ĠknÃ¤pp":6329,"ĠDom":6330,"ĠCH":6331,"icy":6332,"ĠFar":6333,"Ġquar":6334,"ĠfÃ¶rstÃ¶ra":6335,"Stick":6336,"others":6337,"Ġbesv":6338,"Ãĸppna":6339,"Ġlegs":6340,"Ġcontinue":6341,"Ben":6342,"LY":6343,"book":6344,"lly":6345,"Ġfj":6346,"Ġvann":6347,"resten":6348,"Ġcream":6349,"ĠID":6350,"aylor":6351,"odd":6352,"ĠMY":6353,"Ġtru":6354,"Ġknowing":6355,"Dude":6356,"thur":6357,"Ġupstairs":6358,"Ġfina":6359,"ĠVa":6360,"Ġbygga":6361,"Ġflight":6362,"ycka":6363,"Ġbloody":6364,"Ġcolor":6365,"15":6366,"Fine":6367,"Vid":6368,"vad":6369,"Ġdata":6370,"Ġfake":6371,"Ã¶rja":6372,"Ġug":6373,"opt":6374,"ĠTer":6375,"istr":6376,"mail":6377,"ĠWin":6378,"law":6379,"ĠdÃ¶tt":6380,"Ġnyss":6381,"ĠvÃ¤rt":6382,"Ġringt":6383,"Ġshows":6384,"Ġcoun":6385,"Ġansw":6386,"Ġhoppa":6387,"dags":6388,"vinner":6389,"Ġchansen":6390,"Ġ80":6391,"Ġkriget":6392,"ĠQueen":6393,"Ġinnocent":6394,"11":6395,"RÃ¶r":6396,"mark":6397,"Ġaut":6398,"Ġcake":6399,"aller":6400,"Ġnoticed":6401,"skling":6402,"empt":6403,"ĠFred":6404,"ĠWITH":6405,"ĠdÃ¶l":6406,"Ġklipp":6407,"ugga":6408,"ĠMarc":6409,"Herr":6410,"Ġbevisa":6411,"ĠUncle":6412,"komna":6413,"Ġtrevlig":6414,"ĠbekrÃ¤":6415,"Absol":6416,"ĠWHAT":6417,"Ġpurp":6418,"Ġbastard":6419,"hÃ¤ll":6420,"lerna":6421,"wen":6422,"ĠsÃ¤ngen":6423,"Ġdirty":6424,"Ġbattle":6425,"ites":6426,"tee":6427,"ĠHaw":6428,"essed":6429,"ĠKate":6430,"ĠVan":6431,"Ġpool":6432,"dagen":6433,"Ġinvited":6434,"ĠglÃ¶mt":6435,"board":6436,"ĠavslÃ¶j":6437,"Vissa":6438,"fte":6439,"kont":6440,"vinn":6441,"Ġsight":6442,"anter":6443,"Ġpig":6444,"Ġraring":6445,"ays":6446,"ĠstÃ¤ller":6447,"ĠHolly":6448,"ioner":6449,"Ġuppen":6450,"attis":6451,"Ġtaste":6452,"ĠÃ¤ktenskap":6453,"Ġproblemet":6454,"ĠfrÃ¥gan":6455,"Ġemploy":6456,"ĠAlla":6457,"ibility":6458,"Ġdumb":6459,"Frank":6460,"Ġlistening":6461,"ĠsÃ¤ljer":6462,"Ġdansa":6463,"NÃ¤sta":6464,"fessor":6465,"jÃ¶l":6466,"liv":6467,"nande":6468,"ville":6469,"Ġmix":6470,"Ġghost":6471,"ĠjÃ¤k":6472,"Ġforsk":6473,"ssy":6474,"Ã¤lj":6475,"Ġprocent":6476,"Ġguilty":6477,"Ġtells":6478,"ĠUS":6479,"cca":6480,"Ġdiscover":6481,"Ġsurgery":6482,"ĠBrad":6483,"Ġfaster":6484,"barrass":6485,"ĠmÃ¤rk":6486,"ĠskÃ¶ter":6487,"Ġspirit":6488,"Ġalternat":6489,"Aw":6490,"FÃ¶lj":6491,"Rob":6492,"SÃ¥g":6493,"mond":6494,"sfÃ¶r":6495,"ancy":6496,"Ã¥p":6497,"Ġbebis":6498,"uring":6499,"odies":6500,"itty":6501,"ĠBrian":6502,"ĠTwo":6503,"nson":6504,"ĠsÃ¤kra":6505,"Ġappar":6506,"what":6507,"ocol":6508,"Ġgrejer":6509,"Ġdamer":6510,"Ġsurvive":6511,"ĠWashington":6512,"ĠGeneral":6513,"Ġmaterial":6514,"bra":6515,"rÃ¶m":6516,"Ġkinda":6517,"Ġlang":6518,"ĠjÃ¤mt":6519,"Ġbeklagar":6520,"ĠSH":6521,"imate":6522,"ĠMag":6523,"ĠAv":6524,"Ġview":6525,"icate":6526,"Ġupon":6527,"ĠKat":6528,"abel":6529,"ordin":6530,"ĠChicago":6531,"Ġmatters":6532,"Ġlyckades":6533,"Ġbooks":6534,"Ledsen":6535,"rant":6536,"Ġtort":6537,"iten":6538,"Ġgull":6539,"Ġkamp":6540,"amb":6541,"Ġskott":6542,"Ġsever":6543,"ĠJess":6544,"ĠPet":6545,"ĠKNOW":6546,"Ġtalas":6547,"izabeth":6548,"Ġstarts":6549,"ĠÃ¤t":6550,"Ġrealized":6551,"Ġsurr":6552,"Ġhellre":6553,"vÃ¤rd":6554,"ĠDoes":6555,"Ġwalked":6556,"Ġstudy":6557,"Ġsvarta":6558,"Ġopin":6559,"Ġenemy":6560,"NÃ¥":6561,"WE":6562,"down":6563,"ique":6564,"jan":6565,"nÃ¤r":6566,"Ġgatan":6567,"edy":6568,"ĠDoug":6569,"oken":6570,"ĠListen":6571,"icks":6572,"Ġabs":6573,"Ġutman":6574,"ĠEast":6575,"abe":6576,"ĠChuck":6577,"egan":6578,"Ġdumt":6579,"ĠhjÃ¤rt":6580,"Ġimpro":6581,"Ġclearly":6582,"Ġsvarar":6583,"ĠupprÃ¶rd":6584,"Hmm":6585,"JÃ¶sses":6586,"ĠlÃ¤st":6587,"aska":6588,"vert":6589,"rap":6590,"Ã¤ns":6591,"Ġmedical":6592,"ĠGreg":6593,"Ġutnytt":6594,"Ġhanden":6595,"ĠdÃ¶dat":6596,"Ġadm":6597,"ĠbesÃ¶k":6598,"Ġcommit":6599,"Ġbreakfast":6600,"Anything":6601,"Ġawful":6602,"ĠmÃ¶rdare":6603,"Bob":6604,"Has":6605,"SjÃ¤lvklart":6606,"fly":6607,"Ġsorg":6608,"Ġdyr":6609,"Ġfam":6610,"Ã¶rel":6611,"ĠstÃ¶":6612,"ĠSluta":6613,"ĠMat":6614,"ĠHill":6615,"olan":6616,"Ġtrial":6617,"ĠtrÃ¥k":6618,"ĠBoy":6619,"Ġcancer":6620,"ĠNOT":6621,"apt":6622,"ĠnÃ¥gonting":6623,"Ġpred":6624,"ĠdÃ¥liga":6625,"Ġnyhet":6626,"ĠdÃ¶den":6627,"Ġturns":6628,"Ġkunnat":6629,"ĠglÃ¶mmer":6630,"Ġaware":6631,"Ġhamnar":6632,"Ġbredvid":6633,"Im":6634,"OP":6635,"eared":6636,"kter":6637,"rom":6638,"arp":6639,"lden":6640,"Ġeh":6641,"ĠNO":6642,"ĠGot":6643,"ĠJer":6644,"ĠRa":6645,"ĠRyan":6646,"Ġheld":6647,"Ġarr":6648,"Ġgrad":6649,"ĠÃ¶verlev":6650,"Ġcoach":6651,"Ġstories":6652,"Ġkeeps":6653,"Ġembarrass":6654,"Ġimpossible":6655,"ĠYOUR":6656,"Ġbasket":6657,"ĠslÃ¤pper":6658,"Ġbottom":6659,"Ġsekund":6660,"burg":6661,"Lugn":6662,"ĠFrancis":6663,"Ġansiktet":6664,"Ġparticular":6665,"ĠfÃ¶delsedag":6666,"ongratulations":6667,"bes":6668,"dan":6669,"ggen":6670,"Ġtusen":6671,"Ġhinner":6672,"itions":6673,"Ġviss":6674,"rek":6675,"ĠSouth":6676,"andid":6677,"Ġkniv":6678,"ĠCIA":6679,"rikt":6680,"orten":6681,"Ġalright":6682,"Ġerk":6683,"attan":6684,"Ġsmoke":6685,"Ġtraining":6686,"Ġvanligt":6687,"VÃ¤lkommen":6688,"Mad":6689,"ĠhÃ¤nger":6690,"agon":6691,"rep":6692,"Ġoly":6693,"nde":6694,"Ġduty":6695,"ĠrÃ¥n":6696,"Ġitself":6697,"Ġstry":6698,"Ġanm":6699,"Ġdoc":6700,"Ġload":6701,"ĠJake":6702,"Ġmanager":6703,"Ġspell":6704,"Ġspread":6705,"ĠdÃ¤rifrÃ¥n":6706,"bba":6707,"Ġdricker":6708,"Ġempty":6709,"Ġprice":6710,"ligheten":6711,"Ġadvice":6712,"Ġpowerful":6713,"Ġlights":6714,"Ġstolen":6715,"Ġengine":6716,"Ġavslut":6717,"Ġintresserad":6718,"Ġteacher":6719,"Next":6720,"ĠfÃ¶rsiktig":6721,"Dav":6722,"JÃ¤v":6723,"faren":6724,"just":6725,"ĠtÃ¥r":6726,"ĠtÃ¥g":6727,"Ġvote":6728,"Ġgum":6729,"stant":6730,"Ġnon":6731,"Ġonline":6732,"Ġreact":6733,"imp":6734,"that":6735,"ĠJapan":6736,"ĠLo":6737,"apten":6738,"ĠuppmÃ¤rk":6739,"iform":6740,"Ġbyta":6741,"Ġlivs":6742,"ilda":6743,"aughing":6744,"Shit":6745,"Ġstraff":6746,"Ġpojken":6747,"Ġguns":6748,"ĠDaniel":6749,"Ġcheese":6750,"Ġljuga":6751,"Ġdiskut":6752,"Ġemergency":6753,"ÂĢÂ":6754,"LÃ¤mna":6755,"Mor":6756,"Tra":6757,"Today":6758,"iod":6759,"jar":6760,"kins":6761,"ĠbÃ¤ra":6762,"stÃ¶v":6763,"Ġkam":6764,"Ġtok":6765,"ales":6766,"Ġram":6767,"Ġandas":6768,"entligt":6769,"ĠHÃ¥ll":6770,"ĠGÃ¥":6771,"ieve":6772,"uls":6773,"eller":6774,"ĠtvÃ¤tt":6775,"Ġtviv":6776,"Ġstrateg":6777,"Ġspeech":6778,"Ġshower":6779,"otter":6780,"Ġcommand":6781,"Ġdroger":6782,"ĠfÃ¶rÃ¤ndras":6783,"NÃ¥got":6784,"ĠLuke":6785,"ĠmÃ¶rk":6786,"Ġeasier":6787,"Michael":6788,"Vis":6789,"yond":6790,"Ġbodde":6791,"stÃ¤lla":6792,"Ġnorth":6793,"ĠlÃ¥n":6794,"Ġinfe":6795,"Ġcal":6796,"Ġskil":6797,"sec":6798,"Ġanklag":6799,"ĠBa":6800,"riÃ¤r":6801,"ĠJam":6802,"ĠWould":6803,"ĠdÃ¶ds":6804,"Ġinser":6805,"deles":6806,"fficer":6807,"Check":6808,"IKE":6809,"ĠbehÃ¥lla":6810,"iti":6811,"Ġdetal":6812,"Ġhack":6813,"ĠAB":6814,"Ġknife":6815,"ski":6816,"ĠNik":6817,"ĠGET":6818,"ĠLarry":6819,"umber":6820,"arder":6821,"ords":6822,"ĠbestÃ¤mmer":6823,"ĠlÃ¤sk":6824,"Ġordnar":6825,"Ġlyckas":6826,"Ġfreak":6827,"Ġsticka":6828,"Ġcontract":6829,"Eftersom":6830,"Ġbilder":6831,"ortunately":6832,"Guys":6833,"Ġraise":6834,"ĠnervÃ¶s":6835,"Ġuppskattar":6836,"II":6837,"JasÃ¥":6838,"Most":6839,"ibb":6840,"erap":6841,"Ġos":6842,"Ġriver":6843,"Ġvarann":6844,"urg":6845,"Ġdock":6846,"Ġdeb":6847,"ĠAfri":6848,"Ġshirt":6849,"iculous":6850,"ĠJen":6851,"ĠJUST":6852,"Ġabove":6853,"Ġplac":6854,"ĠKen":6855,"ĠfÃ¶rstod":6856,"Ġdescri":6857,"Shut":6858,"syn":6859,"ĠfÃ¶rvÃ¥n":6860,"ĠÃ¤ger":6861,"ĠlÃ¶gn":6862,"Ġliterally":6863,"fta":6864,"vor":6865,"Ġfars":6866,"itation":6867,"Ġpants":6868,"Ġcredit":6869,"Ġrull":6870,"Ġdevelop":6871,"Ġwash":6872,"ĠBu":6873,"ctions":6874,"ĠNice":6875,"uckles":6876,"Ġmoon":6877,"Ġdeliver":6878,"ĠlÃ¤ste":6879,"Ġended":6880,"Ġlaga":6881,"Ġafford":6882,"ĠJohnny":6883,"ĠUnited":6884,"Ġbottle":6885,"ĠGrace":6886,"Ġresponsible":6887,"Ke":6888,"Pat":6889,"ĠÃħh":6890,"Ġtaught":6891,"Ġsats":6892,"ompl":6893,"illing":6894,"Ġattempt":6895,"Ġbeach":6896,"Ġdoktorn":6897,"Ġlista":6898,"ĠHal":6899,"ĠHuh":6900,"ĠAust":6901,"ĠDar":6902,"ĠBye":6903,"rip":6904,"ĠTex":6905,"using":6906,"iforn":6907,"Ġasleep":6908,"ĠrÃ¤d":6909,"ĠInter":6910,"ĠtyvÃ¤rr":6911,"Ġhearing":6912,"Ġfrukost":6913,"Ġarbeta":6914,"tidigt":6915,"Ġshooting":6916,"Ġphoto":6917,"Mycket":6918,"RY":6919,"ki":6920,"ening":6921,"ores":6922,"ĠgÃ¤st":6923,"Ġpin":6924,"ĠnÃ¤t":6925,"Ġtoal":6926,"Ġrecept":6927,"ĠBel":6928,"ĠGl":6929,"ems":6930,"Ġnote":6931,"vens":6932,"oppa":6933,"ĠUrsÃ¤kta":6934,"Ġdrott":6935,"Ġnamnet":6936,"Ġhorri":6937,"Ġkostar":6938,"ĠVilken":6939,"ĠÃ¤ldre":6940,"Visa":6941,"xa":6942,"Ġet":6943,"Ġfatta":6944,"Ġvind":6945,"Ġgames":6946,"reak":6947,"Ġlin":6948,"Ġcru":6949,"Ġcult":6950,"ili":6951,"Ġblomm":6952,"ĠRachel":6953,"Ġleka":6954,"ĠfÃ¶rsvinner":6955,"Ã¤ngd":6956,"ample":6957,"Ġsched":6958,"alty":6959,"Ġcommon":6960,"Ġplatsen":6961,"Ġincl":6962,"Ġexpert":6963,"Ġcurr":6964,"Ġlocal":6965,"Ġcrying":6966,"Ġdivor":6967,"Captain":6968,"Sna":6969,"Te":6970,"Ġagg":6971,"Ġbid":6972,"Ã¶p":6973,"igen":6974,"Ġkat":6975,"ams":6976,"ĠAS":6977,"ĠTror":6978,"istor":6979,"ĠklÃ¤n":6980,"Ġprefer":6981,"ĠChief":6982,"Ġ45":6983,"Ġdropped":6984,"Ġobject":6985,"ĠinnebÃ¤r":6986,"Ġmarken":6987,"ĠfÃ¶rvir":6988,"Ġvackert":6989,"Ġcorner":6990,"Ġdejt":6991,"Ġcloser":6992,"Red":6993,"jÃ¶":6994,"inct":6995,"ares":6996,"Ġmult":6997,"Ġmoun":6998,"anc":6999,"Ġbodies":7000,"Ġtol":7001,"asons":7002,"ional":7003,"Ġknark":7004,"ĠCast":7005,"opa":7006,"though":7007,"ieutenant":7008,"Ġsoft":7009,"arnas":7010,"Ġ22":7011,"ĠVictor":7012,"egas":7013,"ONE":7014,"Ġdogs":7015,"Ġklarade":7016,"Ġskadad":7017,"Ġrule":7018,"iellt":7019,"Ġkrafter":7020,"Ġcenter":7021,"incip":7022,"Ġflyttade":7023,"Ġilleg":7024,"Ġbordet":7025,"Ġanimal":7026,"Ġsjunga":7027,"Ġskillnad":7028,"Ġcousin":7029,"Ġpurpose":7030,"'?":7031,"Honey":7032,"Watch":7033,"mo":7034,"xor":7035,"Ġfed":7036,"Ġbust":7037,"ndag":7038,"Ġstann":7039,"Ġskogen":7040,"Ġhavet":7041,"Ġmeat":7042,"Ġrefer":7043,"ĠBon":7044,"lyn":7045,"ĠLO":7046,"ĠLisa":7047,"ulation":7048,"Ġcomfortable":7049,"Ġstrid":7050,"Ġfarligt":7051,"Ġflyga":7052,"rator":7053,"Ġmilk":7054,"ĠAlice":7055,"Ġintern":7056,"Ġchecked":7057,"Ġrecords":7058,"Helt":7059,"Je":7060,"Su":7061,"aos":7062,"Ġhette":7063,"Ã¥s":7064,"Ġbeyond":7065,"ĠSO":7066,"ĠSil":7067,"ĠSanta":7068,"iest":7069,"ĠPete":7070,"Ġchair":7071,"Ġcomb":7072,"oppen":7073,"Ġpoison":7074,"spr":7075,"Ġamount":7076,"ĠtÃ¤nk":7077,"StÃ¤ll":7078,"atherine":7079,"ĠInget":7080,"Ġinstru":7081,"ĠSmith":7082,"Ġambul":7083,"ĠSuper":7084,"Ġpossibly":7085,"Ġideas":7086,"ĠlÃ¤genhet":7087,"Ang":7088,"Lo":7089,"zo":7090,"ences":7091,"Ġgem":7092,"Ġpock":7093,"Ġod":7094,"edel":7095,"ĠofÃ¶r":7096,"Ġanfall":7097,"ĠARE":7098,"ĠBru":7099,"ĠTw":7100,"ĠLi":7101,"Ġsacri":7102,"Ġnose":7103,"ĠKn":7104,"ĠnÃ¤rheten":7105,"FÃ¶rsta":7106,"ĠfÃ¶rsÃ¤k":7107,"Ġgenast":7108,"Ġbuss":7109,"Ġinsane":7110,"iverse":7111,"pecially":7112,"ĠBrit":7113,"Ġpaying":7114,"ESS":7115,"ĠSpan":7116,"Ġsimply":7117,"19":7118,"mande":7119,"Ġtit":7120,"Ġdare":7121,"anie":7122,"ĠfjÃ¤r":7123,"Ġlok":7124,"adies":7125,"ppa":7126,"Ġskor":7127,"ĠALL":7128,"ĠspÃ¤nnande":7129,"ĠKl":7130,"ĠVer":7131,"Menar":7132,"Ġleader":7133,"ĠhjÃ¤lte":7134,"Ġtecken":7135,"Ġstrength":7136,"ĠlÃ¤ser":7137,"ĠlÃ¤gg":7138,"Ġseemed":7139,"ĠkÃ¤ndes":7140,"Ġlugna":7141,"Ġ90":7142,"Ġdreams":7143,"Ġbullet":7144,"ĠEmma":7145,"Ġhyp":7146,"Ġtydligen":7147,"Ġcondition":7148,"Ġtruly":7149,"Bo":7150,"Fort":7151,"PS":7152,"mi":7153,"oci":7154,"Ã³":7155,"Ġmut":7156,"Ġkons":7157,"ising":7158,"Ġlied":7159,"ĠHans":7160,"opter":7161,"ĠGold":7162,"ĠJason":7163,"ĠbrÃ¶t":7164,"oston":7165,"Ġsvag":7166,"ĠAndy":7167,"izing":7168,"ression":7169,"Ġverkade":7170,"ammet":7171,"Ġfarbror":7172,"sidan":7173,"ARE":7174,"ĠlÃ¤get":7175,"Ġaffect":7176,"ĠfÃ¶resl":7177,"Ġartist":7178,"ounce":7179,"Ġconnection":7180,"ĠJohnson":7181,"EM":7182,"HÃ¤mta":7183,"vy":7184,"Ã±":7185,"Ġtum":7186,"Ġho":7187,"Ġfy":7188,"ĠfÃ¥g":7189,"Ġkeys":7190,"Ġonto":7191,"ĠSund":7192,"urse":7193,"Ġheavy":7194,"ĠMont":7195,"irk":7196,"okes":7197,"ĠGreen":7198,"ĠLiz":7199,"ĠRod":7200,"Ġproduc":7201,"ĠbrÃ¥k":7202,"Ġnowhere":7203,"ĠÃ¶vervak":7204,"ĠvÃ¤ljer":7205,"ĠfÃ¶ll":7206,"Ġborrow":7207,"Ġregler":7208,"Ġridiculous":7209,"Ġdisappoint":7210,"ĠungefÃ¤r":7211,"Ġchicken":7212,"Ġexempel":7213,"ACK":7214,"ba":7215,"karna":7216,"ni":7217,"Ġdator":7218,"Ġwitch":7219,"Ġko":7220,"ality":7221,"Ġheaven":7222,"ĠHam":7223,"unny":7224,"Ġminst":7225,"Ġavoid":7226,"ĠPal":7227,"Ġchock":7228,"ĠVin":7229,"Ġprins":7230,"enden":7231,"Ġerfaren":7232,"Ġbehav":7233,"OUT":7234,"Ġ300":7235,"ashed":7236,"phy":7237,"medel":7238,"ĠfÃ¶rvÃ¤nt":7239,"Ġespecially":7240,"Ġcovered":7241,"Ġconcerned":7242,"ĠsÃ¤llskap":7243,"ÃĦlskling":7244,"Move":7245,"New":7246,"Par":7247,"cil":7248,"ios":7249,"ĠÃ¤gg":7250,"Ġax":7251,"Ġcars":7252,"Ġcards":7253,"chef":7254,"Ġrena":7255,"pper":7256,"ĠpÃ¥ver":7257,"ĠTaylor":7258,"ĠOUT":7259,"ĠPut":7260,"ĠFR":7261,"uma":7262,"ĠRock":7263,"ĠbrÃ¥":7264,"ĠWood":7265,"Ġbetray":7266,"ntil":7267,"bling":7268,"Ġheads":7269,"ĠsamhÃ¤ll":7270,"ground":7271,"rÃ¤d":7272,"ĠClark":7273,"Ġforgive":7274,"Ġeffect":7275,"Ġrobot":7276,"Ġrestaurant":7277,"Ġpractice":7278,"Ġapproach":7279,"Ġprofessional":7280,"Ġsacrif":7281,"Ms":7282,"ees":7283,"mans":7284,"pass":7285,"Ġvakt":7286,"Ġlord":7287,"Ġosk":7288,"Ġmedia":7289,"ceed":7290,"ĠCAN":7291,"Ġprim":7292,"ĠslÃ¤kt":7293,"Ġsomehow":7294,"VadÃ¥":7295,"ikanska":7296,"Ġignor":7297,"Ġdiam":7298,"Ġplaner":7299,"Ġvila":7300,"Ġordet":7301,"ernas":7302,"Ġregret":7303,"Ġbarely":7304,"Ġbasically":7305,"Ġfollowing":7306,"ĠEmily":7307,"Ġmordet":7308,"gÃ¥s":7309,"ĠOliver":7310,"Ġmilitary":7311,"Ġsuddenly":7312,"ĠÃ¥lder":7313,"Ġluktar":7314,"Ġcharacter":7315,"Gillar":7316,"Tar":7317,"Too":7318,"gÃ¥ngen":7319,"ho":7320,"Ġenc":7321,"Ġenligt":7322,"ĠMother":7323,"ĠfrÃ¶ken":7324,"Ġminnas":7325,"Ġhantera":7326,"ĠJosh":7327,"ĠReg":7328,"Ġplus":7329,"atest":7330,"Ġgratis":7331,"Ġpersonen":7332,"Ġlots":7333,"Ġflying":7334,"Ġrecently":7335,"Ġpassion":7336,"Ġnumbers":7337,"ledge":7338,"Ġpoints":7339,"Ġawesome":7340,"Ġboken":7341,"ĠskÃ¶ta":7342,"Ġbrotts":7343,"Ġlocation":7344,"Ġdjupt":7345,"Ġpretend":7346,"Ġkyrkan":7347,"Ġpotential":7348,"Ġopinion":7349,"ben":7350,"Ã¼":7351,"Ã¶re":7352,"Ġnation":7353,"Ġcrow":7354,"ador":7355,"Ġdue":7356,"ppet":7357,"ĠHug":7358,"ĠtillgÃ¥ng":7359,"anten":7360,"ĠColl":7361,"Ġspy":7362,"Ġgru":7363,"Ġbete":7364,"ĠStates":7365,"ization":7366,"annah":7367,"Ġpercent":7368,"ĠlÃ¥na":7369,"Ġends":7370,"asha":7371,"Ġsettle":7372,"Ġinflu":7373,"Ġtroll":7374,"Ġlagt":7375,"AnvÃ¤nd":7376,"Ġryggen":7377,"Ġindust":7378,"Ġsubject":7379,"Ġframtiden":7380,"Ġapologize":7381,"Ġagreed":7382,"Charlie":7383,"ĠfÃ¶ddes":7384,"Ġkusin":7385,"Cle":7386,"Ju":7387,"cue":7388,"ears":7389,"ierna":7390,"loe":7391,"mod":7392,"ĠsÃ¶m":7393,"Ġgn":7394,"Ġpill":7395,"Ġloud":7396,"Ġtoil":7397,"ĠIsl":7398,"esh":7399,"eline":7400,"Ġrub":7401,"cean":7402,"ĠAgent":7403,"ctors":7404,"ĠJerry":7405,"ĠLy":7406,"Ã¤llde":7407,"unden":7408,"Ġours":7409,"Ġuniform":7410,"mannen":7411,"Ġfinding":7412,"amme":7413,"ĠtjÃ¤na":7414,"ĠHonor":7415,"Alright":7416,"Somebody":7417,"Ġballs":7418,"gÃ¥rd":7419,"ĠskÃ¶nt":7420,"ĠJulia":7421,"Ġpappas":7422,"Ġabsolut":7423,"Ġidentif":7424,"ĠSnÃ¤lla":7425,"ealous":7426,"ĠÃ¶verleva":7427,"Ġmammas":7428,"Ġincredible":7429,"Fick":7430,"HÃ¤l":7431,"Polisen":7432,"ĠÃ¤ck":7433,"Ġager":7434,"Ġdating":7435,"Ġbon":7436,"Ġbatter":7437,"Ġkok":7438,"cha":7439,"ĠfÃ¶rbl":7440,"lde":7441,"raft":7442,"ĠSy":7443,"Ġlic":7444,"roat":7445,"ĠBell":7446,"ĠBern":7447,"ĠGre":7448,"tains":7449,"kast":7450,"onest":7451,"apa":7452,"osen":7453,"Ġsuger":7454,"ĠnÃ¤rmare":7455,"ĠDetective":7456,"opping":7457,"ĠChin":7458,"ĠÃ¶ga":7459,"ĠUP":7460,"ĠfÃ¶red":7461,"Ġolder":7462,"ĠHarris":7463,"ĠÃ¤nda":7464,"ĠBrown":7465,"ĠhjÃ¤rna":7466,"huset":7467,"Ġrolig":7468,"Ġexplod":7469,"TyvÃ¤rr":7470,"Ġlarge":7471,"Ġchampagne":7472,"Ġoriginal":7473,"40":7474,"Dags":7475,"IF":7476,"fan":7477,"gru":7478,"jor":7479,"kin":7480,"Ġtherap":7481,"Ġwound":7482,"atet":7483,"omi":7484,"Ġgather":7485,"Ġpowers":7486,"ĠIm":7487,"asure":7488,"Ġdusch":7489,"Ġvarenda":7490,"sex":7491,"ĠMick":7492,"Ã¥rd":7493,"ĠAri":7494,"ĠDor":7495,"ssk":7496,"ĠJew":7497,"ĠspÃ¶":7498,"Ġexec":7499,"ĠÃ¶verl":7500,"Ġbetalt":7501,"Ġamong":7502,"plant":7503,"Ã¤cken":7504,"Ġfunn":7505,"annen":7506,"Ġbelieved":7507,"OULD":7508,"Ġsexual":7509,"Ġbilj":7510,"Ġcriminal":7511,"ĠlÃ¶ser":7512,"Ġsolen":7513,"ĠhÃ¤ft":7514,"ĠLouis":7515,"ĠWalter":7516,"Ġpilot":7517,"Ġinblandad":7518,"Ġtradition":7519,"ĠTexas":7520,"Kon":7521,"LO":7522,"ially":7523,"pun":7524,"ĠhÃ¤nga":7525,"Ġnet":7526,"Ġost":7527,"ches":7528,"Ġrepe":7529,"ĠDE":7530,"ĠDave":7531,"ĠomÃ¶jligt":7532,"ĠTor":7533,"usive":7534,"Ġsaving":7535,"ĠFer":7536,"ĠRose":7537,"Ġplenty":7538,"Ġbridge":7539,"Ġtalade":7540,"Ġtalent":7541,"Ġgoodbye":7542,"Ġhemsk":7543,"Ġleaves":7544,"Ġmaten":7545,"Ġdelen":7546,"Ġdaddy":7547,"EST":7548,"ĠÃ¶ppnar":7549,"Probably":7550,"Ġgalna":7551,"Help":7552,"Ġslept":7553,"Ġolycka":7554,"uvud":7555,"Ġsne":7556,"Ġond":7557,"Ġdok":7558,"ĠMil":7559,"ĠAsh":7560,"ushing":7561,"Ġsplit":7562,"ĠFan":7563,"ĠWall":7564,"ĠWorld":7565,"ÃĦn":7566,"Ġflu":7567,"ogan":7568,"Ġingenstans":7569,"Ġteeth":7570,"Ġadress":7571,"rated":7572,"Ġsurf":7573,"Ġtaget":7574,"Ġskola":7575,"Ġcorrect":7576,"Ġdepartment":7577,"Doesn":7578,"ĠkarriÃ¤r":7579,"Ġnatural":7580,"ĠkrÃ¤ver":7581,"Ġbucks":7582,"David":7583,"Dess":7584,"Kul":7585,"bru":7586,"kr":7587,"ĠÃ¤m":7588,"Ġhig":7589,"anne":7590,"Ġwarn":7591,"orney":7592,"Ġlung":7593,"Ġjealous":7594,"asion":7595,"ĠstÃ¶tt":7596,"Ġmej":7597,"Ġweight":7598,"Ġalldeles":7599,"oln":7600,"oker":7601,"Ġbrors":7602,"iving":7603,"Ġallting":7604,"Ġsmile":7605,"ĠÃ¥tal":7606,"INK":7607,"ĠbesvÃ¤r":7608,"Ġgrew":7609,"ĠWhoa":7610,"Ġcapt":7611,"ĠsmÃ¤rta":7612,"Ġversion":7613,"Ġnecessary":7614,"huh":7615,"jÃ¤n":7616,"natt":7617,"sjuk":7618,"tag":7619,"uella":7620,"Ġtung":7621,"aran":7622,"Ġthrew":7623,"Ġfasc":7624,"aser":7625,"Ġrough":7626,"Ġrac":7627,"eap":7628,"stein":7629,"ĠVir":7630,"Ġbrothers":7631,"ĠÃ¶ppen":7632,"Ġqueen":7633,"ĠÃ¥ren":7634,"Ġplanen":7635,"Ġleda":7636,"ĠjÃ¤veln":7637,"Ġgreatest":7638,"Ġobser":7639,"Ġlegend":7640,"Ġsweetheart":7641,"Ġfesten":7642,"ĠfÃ¶rflut":7643,"Fucking":7644,"ĠExcuse":7645,"Ġbjuda":7646,"kÃ¤nna":7647,"cellent":7648,"fiken":7649,"gress":7650,"gifter":7651,"lare":7652,"oved":7653,"Ġsalt":7654,"Ġak":7655,"ato":7656,"Ġpet":7657,"Ġnor":7658,"illiant":7659,"asing":7660,"Ġanl":7661,"unter":7662,"icans":7663,"ĠKomm":7664,"oby":7665,"ipl":7666,"Ġvision":7667,"Ġtrail":7668,"Ġliksom":7669,"Christ":7670,"IST":7671,"Ġsprang":7672,"Ġhurts":7673,"ĠSteph":7674,"Ġhanging":7675,"ĠfÃ¤ngelset":7676,"Ġpapper":7677,"Ġcreate":7678,"ĠfÃ¤rg":7679,"Ġissue":7680,"Ġoutta":7681,"Were":7682,"bon":7683,"borg":7684,"vies":7685,"vakt":7686,"Ġtab":7687,"Ġbang":7688,"Ġbond":7689,"Ġpump":7690,"Ġyo":7691,"Ġkass":7692,"Ġiron":7693,"Ġshift":7694,"Ġseason":7695,"ication":7696,"Ġsport":7697,"ourt":7698,"ĠKeep":7699,"ĠKyle":7700,"uding":7701,"ongen":7702,"Ġwhose":7703,"ĠgrÃ¤":7704,"Ġgrowing":7705,"Ġfaller":7706,"Ġdesk":7707,"Also":7708,"Ġsigned":7709,"Ġcopy":7710,"Ġhistorien":7711,"Ġavsluta":7712,"ĠRoger":7713,"aughs":7714,"Ġflyttar":7715,"Ġtappade":7716,"Ġkontoret":7717,"Ġspeciellt":7718,"ĠClaire":7719,"Ġscience":7720,"Ġmotherfucker":7721,"Ġfamous":7722,"Ġdokument":7723,"Bar":7724,"Nick":7725,"Out":7726,"ÃĤ":7727,"Ġtask":7728,"Ġsize":7729,"Ã¶kt":7730,"Ġyng":7731,"adow":7732,"ĠIr":7733,"ĠCass":7734,"ĠBoston":7735,"rike":7736,"ĠLau":7737,"ĠPa":7738,"hets":7739,"ĠsvÃ¤rd":7740,"Ġstrun":7741,"ammy":7742,"Ġledare":7743,"Ġlaget":7744,"Ġ199":7745,"Ġfreedom":7746,"Ġmassor":7747,"ĠGuds":7748,"Ġfootball":7749,"ĠSomet":7750,"erkligen":7751,"Ġcommunity":7752,"Ġanimals":7753,"ĠWilson":7754,"ĠMexico":7755,"Ġsnackar":7756,"Big":7757,"Five":7758,"incess":7759,"erande":7760,"Ġhired":7761,"Ġgiss":7762,"Ã¤rk":7763,"ĠnÃ¥d":7764,"Ġnail":7765,"eding":7766,"Ġult":7767,"amen":7768,"Ġharder":7769,"ĠDa":7770,"Ġvild":7771,"sson":7772,"ĠBy":7773,"ulen":7774,"ĠRom":7775,"ĠVery":7776,"fect":7777,"Ġunderbar":7778,"ĠStr":7779,"ĠAndrew":7780,"Ġtrygg":7781,"Ġsyss":7782,"ĠWhich":7783,"ĠvÃ¤grar":7784,"vÃ¤rt":7785,"Ġ198":7786,"ylan":7787,"ĠGeorg":7788,"Ġchanges":7789,"Ġpapers":7790,"Ġdressed":7791,"Ġspringa":7792,"Ġbjuder":7793,"Ġdestroyed":7794,"Ġresponsibility":7795,"ĠsÃ¥dan":7796,"Ġbrief":7797,"Skynda":7798,"Bring":7799,"Max":7800,"Son":7801,"VarsÃ¥god":7802,"inet":7803,"Ġast":7804,"Ġyr":7805,"Ġkatt":7806,"Ġtowards":7807,"ĠÃ¤rlig":7808,"idan":7809,"Ġstyck":7810,"Ġanalys":7811,"Ġsher":7812,"Ġombord":7813,"Ã¤get":7814,"Ġvetenskap":7815,"Ġprot":7816,"Ġslav":7817,"âĻªâĻª":7818,"Ġwritten":7819,"Ġappear":7820,"Ġtransfer":7821,"ĠskrÃ¤m":7822,"ĠfÃ¶rutom":7823,"ĠfÃ¶rstÃ¥s":7824,"Ġmatchen":7825,"Ġengel":7826,"mÃ¤rkt":7827,"Ġnearly":7828,"telse":7829,"Ġtemper":7830,"Ġskyddar":7831,"ĠfÃ¶ljde":7832,"Ġhamnade":7833,"ĠstjÃ¤la":7834,"Ġugly":7835,"ĠuppmÃ¤rksamhet":7836,"Trevligt":7837,"VÃ¥ra":7838,"ĠtÃ¤nd":7839,"Ġmax":7840,"ĠmjÃ¶l":7841,"Ġful":7842,"Ġpunch":7843,"ĠnÃ¤s":7844,"isar":7845,"eda":7846,"Ġcere":7847,"eland":7848,"ĠskÃ¥d":7849,"rak":7850,"ĠpÃ¥min":7851,"ĠSol":7852,"ĠMaggie":7853,"ĠCole":7854,"Ġneither":7855,"ĠLIKE":7856,"Ġchem":7857,"ĠKar":7858,"Ġbrave":7859,"ERS":7860,"Ġcares":7861,"otte":7862,"Ġheaded":7863,"ĠlÃ¤mnat":7864,"ĠMaria":7865,"ARD":7866,"Ġselling":7867,"Unless":7868,"Ġhonestly":7869,"Ġarrested":7870,"Ġcreep":7871,"Ġkilom":7872,"ÂĢÂ¦":7873,"Ġhorrible":7874,".,":7875,"IE":7876,"Mark":7877,"Ob":7878,"Pol":7879,"Sim":7880,"VÃ¤r":7881,"namn":7882,"rande":7883,"su":7884,"Ġfader":7885,"Ġfira":7886,"ĠvÃ¥n":7887,"stal":7888,"stood":7889,"ises":7890,"Ġjury":7891,"illed":7892,"Ġforced":7893,"Ġheat":7894,"ĠDep":7895,"Ġminne":7896,"Ġchief":7897,"Ġmening":7898,"eph":7899,"iko":7900,"Ġuniverse":7901,"Ġelev":7902,"Ġfamilies":7903,"Ġmovies":7904,"ringar":7905,"ĠsjÃ¤lvmord":7906,"Ġflyger":7907,"ĠkÃ¶ket":7908,"ART":7909,"Ġreglerna":7910,"ĠdÃ¶rr":7911,"Ġmiljon":7912,"ĠfÃ¶rÃ¤ndrats":7913,"ĠtjÃ¤nar":7914,"Ġpieces":7915,"Ġstarka":7916,"Ġgalet":7917,"Ġallvarligt":7918,"Ġorganis":7919,"Ġtankar":7920,"Ġfailed":7921,"Lugna":7922,"Ġintrodu":7923,"Ġneighborhood":7924,"Ġsafety":7925,"Ġseveral":7926,"12":7927,"Barn":7928,"Ed":7929,"Sedan":7930,"iper":7931,"look":7932,"mos":7933,"sig":7934,"vir":7935,"Ġ%":7936,"Ġsons":7937,"Ġvul":7938,"Ġnar":7939,"Ġkal":7940,"Ġrat":7941,"Ġrit":7942,"Ġfore":7943,"ĠMmm":7944,"ĠMajest":7945,"ĠPop":7946,"ĠPier":7947,"Ã¤mp":7948,"Ġclim":7949,"Ġplayer":7950,"Ġheading":7951,"Ġsamtidigt":7952,"ĠskitstÃ¶v":7953,"Ġopened":7954,"Ġdefend":7955,"ĠLeo":7956,"Ġlegal":7957,"Ġattacked":7958,"Ġluften":7959,"aturday":7960,"ĠHerregud":7961,"Ġkasta":7962,"Ġbreathe":7963,"Ġvictims":7964,"Ġsheriff":7965,"Find":7966,"NING":7967,"Sch":7968,"Snygg":7969,"bro":7970,"ko":7971,"yst":7972,"Ġtiny":7973,"oren":7974,"Ġpund":7975,"Ġytter":7976,"Ġkors":7977,"aler":7978,"ĠSOME":7979,"sell":7980,"alley":7981,"ĠGary":7982,"Ġloose":7983,"Ġabandon":7984,"Ġnyligen":7985,"athy":7986,"Ġactiv":7987,"Ġassume":7988,"Ġgodk":7989,"ĠnÃ¥gonstans":7990,"Ġexpensive":7991,"ĠsprÃ¤ng":7992,"ĠElizabeth":7993,"Ġruin":7994,"Except":7995,"Ġdamage":7996,"Ġlaunch":7997,"ĠvÃ¤xte":7998,"Ġrymd":7999,"Ġsilver":8000,"ĠnÃ¶jd":8001,"Ġoskyldig":8002,"Ġsemester":8003,"OH":8004,"RAT":8005,"bu":8006,"wich":8007,"Ġsum":8008,"Ġmama":8009,"ĠfÃ¥n":8010,"Ġbett":8011,"oming":8012,"Ġnature":8013,"Ġkol":8014,"ĠfÃ¶rtro":8015,"ĠstÃ¤nga":8016,"Ġrelease":8017,"Ġfrun":8018,"thew":8019,"Ġspl":8020,"ĠRu":8021,"ĠRoss":8022,"Ġgrown":8023,"Ġuncle":8024,"ĠÃ¥kt":8025,"Ġmeaning":8026,"Ġmissade":8027,"Ã¶jt":8028,"ĠframÃ¥t":8029,"Ġdisp":8030,"Skit":8031,"ĠShut":8032,"vetet":8033,"ighs":8034,"Ġbreaking":8035,"ashion":8036,"Ġvanlig":8037,"ĠBarry":8038,"ĠLucy":8039,"Ġmember":8040,"Ġdisappear":8041,"Ġproperty":8042,"ophie":8043,"itude":8044,"ĠgrÃ¤nsen":8045,"Ġrecognize":8046,"Besides":8047,"allenge":8048,"Aren":8049,"GÃ¥r":8050,"Peter":8051,"Res":8052,"Tycker":8053,"UL":8054,"Want":8055,"fort":8056,"hav":8057,"ĠbjÃ¶d":8058,"Ġpir":8059,"Ġyoun":8060,"ado":8061,"cho":8062,"asen":8063,"Ġbev":8064,"erek":8065,"Ġearn":8066,"ĠSta":8067,"olt":8068,"ĠDam":8069,"Ġseg":8070,"ĠBull":8071,"Ġavtal":8072,"Ġhimlen":8073,"Ġplast":8074,"ĠUnder":8075,"slÃ¶s":8076,"Ġperform":8077,"Ġhoppades":8078,"Another":8079,"ĠlÃ¶n":8080,"pril":8081,"ĠhÃ¶gre":8082,"Snart":8083,"Ġsending":8084,"Ã¤nnisk":8085,"Ġzomb":8086,"Ġsecrets":8087,"ĠMcC":8088,"Ġhalvt":8089,"load":8090,"ĠfÃ¶rstÃ¶rde":8091,"Ã¤ltet":8092,"ALLY":8093,"BehÃ¶ver":8094,"Ġanswers":8095,"',":8096,"Bet":8097,"Kapten":8098,"Mary":8099,"Ro":8100,"Reg":8101,"gy":8102,"Ġtall":8103,"Ġhed":8104,"ormer":8105,"Ġpitch":8106,"alar":8107,"aled":8108,"Ġstock":8109,"Ġisol":8110,"Ġreleas":8111,"Ġformer":8112,"ilen":8113,"Ġshame":8114,"ĠDoc":8115,"Ġvia":8116,"ĠBeck":8117,"ĠLittle":8118,"ĠRep":8119,"ĠKelly":8120,"Ġsuicide":8121,"Ġalk":8122,"ongress":8123,"ordon":8124,"ĠdÃ¶k":8125,"Ġeftermid":8126,"ewis":8127,"Ġpartners":8128,"varande":8129,"Ġturning":8130,"Ġappoint":8131,"Ġstayed":8132,"pekt":8133,"Ġ197":8134,"ĠSky":8135,"ĠfÃ¶rvand":8136,"Ġexperien":8137,"ktioner":8138,"Ġungdom":8139,"Ġgrip":8140,"Ġintervju":8141,"UM":8142,"dr":8143,"hes":8144,"mber":8145,"vist":8146,"atin":8147,"igga":8148,"teck":8149,"Ġuns":8150,"Ġduktig":8151,"akan":8152,"ittar":8153,"ĠBry":8154,"ĠNÃ¥g":8155,"Ġutbild":8156,"asting":8157,"ĠgrÃ¥ta":8158,"Ġhemska":8159,"Ġmormor":8160,"Ġmoves":8161,"Ġgenius":8162,"ĠframgÃ¥ng":8163,"Ġparker":8164,"ĠFriday":8165,"ĠSean":8166,"Ġvanliga":8167,"ĠarmÃ©":8168,"Tills":8169,"Ġruined":8170,"Ġpresentera":8171,"Ġexpected":8172,"Ġperfectly":8173,"utting":8174,"Ġtelefonen":8175,"ĠSergeant":8176,"Ġterrif":8177,"Ġdefinitivt":8178,"Ġdisappeared":8179,"Ġoroar":8180,"Ġspringer":8181,"Plus":8182,"Ġstyrka":8183,"Samma":8184,"ln":8185,"lÃ¶st":8186,"oende":8187,"Ġnjut":8188,"ĠIns":8189,"teen":8190,"vek":8191,"Ġstom":8192,"Ġvarken":8193,"ĠMajor":8194,"ilities":8195,"ĠHÃ¶r":8196,"ĠHERE":8197,"ĠLA":8198,"ĠLos":8199,"Ġchose":8200,"ĠEth":8201,"ĠVegas":8202,"ĠbrÃ¶der":8203,"ardon":8204,"ĠkÃ¤nsla":8205,"ĠUpp":8206,"ples":8207,"ption":8208,"Ġjobbigt":8209,"Ġdisg":8210,"Ġordning":8211,"Ġlikely":8212,"stÃ¤llning":8213,"Ġfollowed":8214,"Ġnormalt":8215,"Ġstrike":8216,"Ġeggs":8217,"ĠHitler":8218,"Ġdiskutera":8219,"Mmm":8220,"bud":8221,"uce":8222,"Ġtand":8223,"Ġhug":8224,"aning":8225,"Ã¶kte":8226,"Ġgarden":8227,"Ġkur":8228,"Ġlately":8229,"ldiga":8230,"Ġej":8231,"ĠMamma":8232,"iled":8233,"ĠCap":8234,"Ġsees":8235,"Ġtrade":8236,"skor":8237,"ĠTime":8238,"Ġloy":8239,"uses":8240,"ĠLily":8241,"ĠPL":8242,"emon":8243,"ĠFel":8244,"Ã¥gan":8245,"ĠRIGHT":8246,"ĠKal":8247,"Ġprogress":8248,"Ġparts":8249,"Ġperiod":8250,"Ġroof":8251,"ĠAlan":8252,"Ġopening":8253,"Ġswitch":8254,"Ġflickor":8255,"ĠJackie":8256,"Ġpojkar":8257,"Ġfotboll":8258,"Ġsoldat":8259,"ĠsnÃ¤llt":8260,"ĠgÃ¶mma":8261,"Ġdyker":8262,"ĠAtl":8263,"Ġjourney":8264,"ĠAnton":8265,"ĠJordan":8266,"ĠfÃ¶rflutna":8267,"La":8268,"Ok":8269,"TA":8270,"fru":8271,"zer":8272,"Ġtie":8273,"Ġhust":8274,"Ġmood":8275,"Ġnational":8276,"Ġkop":8277,"Ġstir":8278,"Ġreasons":8279,"ĠAmy":8280,"cture":8281,"ĠNathan":8282,"ĠGabri":8283,"ĠJay":8284,"ĠLady":8285,"Ġvillage":8286,"Ġskapade":8287,"Ġbrilliant":8288,"Ġoffret":8289,"Ġungar":8290,"Ġmotiv":8291,"ĠtrÃ¤ffades":8292,"Ġdesig":8293,"ipping":8294,"George":8295,"Ġbenef":8296,"ĠJean":8297,"Ġresults":8298,"Ġmentioned":8299,"Ġjacket":8300,"Ġreceived":8301,"Ġcaused":8302,"ĠEurope":8303,"ĠFlorida":8304,"ĠjÃ¤kla":8305,"Borde":8306,"Deras":8307,"GH":8308,"Little":8309,"father":8310,"fÃ¤rd":8311,"hÃ¥l":8312,"nis":8313,"ĠÃĸ":8314,"Ġtun":8315,"Ġtip":8316,"ĠtÃ¥l":8317,"ĠsÃ¤nd":8318,"Ġsouth":8319,"Ġhors":8320,"aging":8321,"iser":8322,"Ġattract":8323,"ĠfÃ¶rhand":8324,"imme":8325,"Ġdoors":8326,"ĠHay":8327,"Ġchest":8328,"asty":8329,"fÃ¶rande":8330,"Ġflowers":8331,"becca":8332,"Ġletters":8333,"ddy":8334,"ĠrÃ¤tten":8335,"Always":8336,"FrÃ¥ga":8337,"Ġposit":8338,"Ġprofessor":8339,"ennifer":8340,"Ġsanning":8341,"ĠmÃ¶ta":8342,"Ġcameras":8343,"Ġenergi":8344,"ĠSimon":8345,"Ġsparken":8346,"Ġveh":8347,"Ġgolvet":8348,"Ġsource":8349,"Ġcompetition":8350,"Ġarrang":8351,"Agent":8352,"Over":8353,"VÃ¤ldigt":8354,"hund":8355,"mat":8356,"Ġbite":8357,"styr":8358,"Ġkuk":8359,"Ġlink":8360,"ision":8361,"Ġog":8362,"Ġtopp":8363,"ĠfÃ¶rhÃ¶r":8364,"Ġekon":8365,"ĠDON":8366,"ĠBeth":8367,"rib":8368,"river":8369,"Their":8370,"Ġchallenge":8371,"oses":8372,"Ġflat":8373,"ugust":8374,"ĠberÃ¶m":8375,"ĠUt":8376,"Ġthoughts":8377,"ATION":8378,"Ġrespek":8379,"Ġlagen":8380,"Ġbedroom":8381,"Ġpaus":8382,"Ġfantas":8383,"Ġsweetie":8384,"ĠmÃ¶rdaren":8385,"Ġfellow":8386,"Ġpistolen":8387,"Ġskrivit":8388,"ĠbÃ¥ten":8389,"ĠfÃ¶rhÃ¥llande":8390,"Ġmemories":8391,"specially":8392,"Ġdiscovered":8393,"Ġlangu":8394,"ĠÃ¤tit":8395,"Ġstomach":8396,"Boy":8397,"JÃ¤tt":8398,"Ladies":8399,"ault":8400,"jort":8401,"lÃ¶sa":8402,"Ġtju":8403,"Ġkem":8404,"Ġtow":8405,"Ġstaff":8406,"Ġwheel":8407,"ĠMet":8408,"ĠMarsh":8409,"ria":8410,"ĠGirl":8411,"Ġnoise":8412,"ĠKanske":8413,"ĠbrÃ¤n":8414,"ardrÃ¶m":8415,"ĠklÃ¤tt":8416,"Ġserver":8417,"Ġ27":8418,"ĠglÃ¤d":8419,"platsen":8420,"Ġmots":8421,"IND":8422,"ĠArthur":8423,"ĠBlue":8424,"Ġcomplicated":8425,"Ġexperiment":8426,"Ġdamen":8427,"ĠlÃ¤ttare":8428,"Ġprivile":8429,"Ġfingers":8430,"ĠhÃ¤ls":8431,"Ġcreated":8432,"Ġskeppet":8433,"Ġtaxi":8434,"rÃ¥de":8435,"ĠWayne":8436,"Open":8437,"folk":8438,"iera":8439,"like":8440,"trÃ¥d":8441,"vap":8442,"Ġdies":8443,"Ġnuts":8444,"Ġnorr":8445,"Ġlys":8446,"Ġmanip":8447,"Ġupplev":8448,"nsel":8449,"Ġslapp":8450,"ĠvadÃ¥":8451,"Ġunderbart":8452,"ĠsvÃ¥ra":8453,"cient":8454,"Ġfamiliar":8455,"ĠmotstÃ¥nd":8456,"Ġpermission":8457,"iano":8458,"ĠlÃ¤rare":8459,"Ġstudents":8460,"Ġhumans":8461,"Ġdancing":8462,"Ġpositive":8463,"ĠfÃ¶rsvinna":8464,"fullt":8465,"ĠColonel":8466,"ĠPatrick":8467,"ĠkÃ¤mpa":8468,"Ġpissed":8469,"16":8470,"Bye":8471,"Four":8472,"Paul":8473,"Rich":8474,"Tw":8475,"Turn":8476,"bot":8477,"djur":8478,"ials":8479,"laughs":8480,"Ġtap":8481,"Ġtape":8482,"ĠfÃ¥nga":8483,"ĠrÃ¶d":8484,"Ġstars":8485,"ĠSaturday":8486,"Ġlies":8487,"ĠMid":8488,"ĠCle":8489,"ĠEN":8490,"Ġprincip":8491,"Ġhelgen":8492,"ĠerkÃ¤nna":8493,"Ġserve":8494,"ĠÃ¶de":8495,"bben":8496,"ĠState":8497,"ĠrÃ¤tteg":8498,"Ġfuneral":8499,"Ġterms":8500,"lands":8501,"Ġkollade":8502,"Ġmorgonen":8503,"Ġconfirm":8504,"igheterna":8505,"Ġtransport":8506,"ĠJoey":8507,"Ġexpecting":8508,"Ġlevde":8509,"Ġgifte":8510,"Ġraised":8511,"Ġphotos":8512,"ĠmÃ¶tet":8513,"Ġlikadant":8514,"Ġprepared":8515,"Del":8516,"Love":8517,"Tog":8518,"VÃ¥rt":8519,"gat":8520,"hin":8521,"hÃ¥ller":8522,"jo":8523,"rot":8524,"ued":8525,"ĠsÃ¤m":8526,"Ġhyr":8527,"Ġfys":8528,"ators":8529,"resp":8530,"Ġnaked":8531,"esse":8532,"alitet":8533,"Ã¤ntar":8534,"Ġdoktor":8535,"Ġshots":8536,"ĠCount":8537,"ĠLaw":8538,"ums":8539,"stav":8540,"FÃ¶rutom":8541,"Ġreality":8542,"Ġbabe":8543,"Ġdrinks":8544,"THING":8545,"ĠLex":8546,"Ġsjukdom":8547,"ĠslÃ¤ppte":8548,"Ġsoldier":8549,"Ġsoldiers":8550,"scar":8551,"Ġeffekt":8552,"Ġsymbol":8553,"ĠfÃ¤rdig":8554,"Ġcases":8555,"ĠÃ¶verraskning":8556,"ĠJacob":8557,"ĠHollywood":8558,"Col":8559,"Hand":8560,"Ġhud":8561,"ĠvÃ¤nda":8562,"Ġkyck":8563,"Ġlack":8564,"Ġlaughing":8565,"ĠfÃ¶rresten":8566,"ampa":8567,"leken":8568,"Ġhav":8569,"Ġvars":8570,"ĠSara":8571,"Ġfrisk":8572,"ĠCher":8573,"ĠClar":8574,"Ã¤gare":8575,"ĠPri":8576,"Ġprojekt":8577,"ikter":8578,"Ġflo":8579,"Ġdram":8580,"spro":8581,"bled":8582,"Ġfrihet":8583,"Ġstranden":8584,"acon":8585,"Ġadult":8586,"Ġpassa":8587,"skapet":8588,"Ġsnacka":8589,"Sex":8590,"Ġpoliser":8591,"ĠAnne":8592,"Ġstatement":8593,"Ġhemligheter":8594,"Ġremain":8595,"Ġundvika":8596,"ĠJoseph":8597,"ĠbekrÃ¤ft":8598,"Ġschedule":8599,"Ġgemens":8600,"Ġtoilet":8601,"Acc":8602,"BE":8603,"Sounds":8604,"zie":8605,"ĠsÃ¥ng":8606,"Ġau":8607,"Ġthroat":8608,"onder":8609,"Ã¶gon":8610,"Ġpair":8611,"Ġdetect":8612,"Ġskur":8613,"ĠskÃ¶n":8614,"ĠSay":8615,"urr":8616,"ĠMolly":8617,"allar":8618,"ĠHallÃ¥":8619,"ols":8620,"ĠDick":8621,"ĠBack":8622,"acken":8623,"ĠGOT":8624,"Ġjustice":8625,"ĠLÃ¤gg":8626,"ĠFort":8627,"ellan":8628,"Ġexact":8629,"ucker":8630,"Ġsms":8631,"Ġsmugg":8632,"Ġmuse":8633,"SkÃ¥l":8634,"ĠDev":8635,"Ġsexy":8636,"Ġkontrakt":8637,"Ġhardly":8638,"Sec":8639,"Ġmodern":8640,"iami":8641,"ĠAbout":8642,"Ġassistent":8643,"Ġscrewed":8644,"Ġwoods":8645,"Ġstreets":8646,"Amer":8647,"fen":8648,"king":8649,"Ġsed":8650,"Ġsilly":8651,"Ġmap":8652,"ĠmÃ¶tt":8653,"stig":8654,"Ġpage":8655,"isen":8656,"ĠIng":8657,"chan":8658,"chuckles":8659,"elax":8660,"Ġrot":8661,"Ġears":8662,"usting":8663,"uns":8664,"Ġneur":8665,"Ġminnen":8666,"oklad":8667,"ĠLove":8668,"ĠRad":8669,"ĠmÃ¥let":8670,"ardo":8671,"atty":8672,"Ġklubb":8673,"avtryck":8674,"Ġglob":8675,"ĠvÃ¥rd":8676,"Ġborg":8677,"Ġparad":8678,"ratta":8679,"Ġfalling":8680,"itsnack":8681,"Ġhundra":8682,"Ġpatients":8683,"ĠumgÃ¥s":8684,"ĠClay":8685,"Ġcapable":8686,"Ġexciting":8687,"Ġdevil":8688,"giving":8689,"Ġslipper":8690,"Ġmunnen":8691,"Ġvuxen":8692,"fattat":8693,"bing":8694,"bre":8695,"dÃ¥":8696,"ega":8697,"mÃ¶rd":8698,"pher":8699,"worth":8700,"Ġess":8701,"Ġfab":8702,"Ġlines":8703,"Ġoil":8704,"ĠÃ¤ra":8705,"ĠMum":8706,"ĠHannah":8707,"Ġloj":8708,"ĠOur":8709,"Ġbless":8710,"Ġmanaged":8711,"ĠFine":8712,"FÃ¶rstÃ¥r":8713,"ĠItal":8714,"ĠvÃ¤rde":8715,"Ġfarlig":8716,"Ġbabies":8717,"Ġliknar":8718,"delningen":8719,"Ġcrash":8720,"Ġbryter":8721,"Ġbryta":8722,"ĠSpring":8723,"Ġchanging":8724,"ktionen":8725,"ĠgÃ¶mmer":8726,"Grattis":8727,"ĠvÃ¤xer":8728,"Ġkastar":8729,"Phil":8730,"ĠfÃ¶nstret":8731,"Ġnyheterna":8732,"ĠSunday":8733,"nos":8734,"Ã¤ste":8735,"Ġmas":8736,"Ġbug":8737,"ored":8738,"Ġvag":8739,"Ġocean":8740,"Ġjerk":8741,"espel":8742,"Ġena":8743,"Ġallerg":8744,"uster":8745,"akter":8746,"ĠDis":8747,"ĠBud":8748,"ĠGil":8749,"tha":8750,"arts":8751,"ĠPort":8752,"Ġmeningen":8753,"Ġvetat":8754,"endet":8755,"ĠbrÃ¶d":8756,"ĠÃ¶v":8757,"Ġmoral":8758,"ĠAndre":8759,"ĠvÃ¤ggen":8760,"Ġkonstig":8761,"Ġmodel":8762,"Ġinvester":8763,"Ġvapnet":8764,"ĠÃ¶nsk":8765,"Ġengag":8766,"Ġbetalade":8767,"Ġvakna":8768,"bilen":8769,"AKE":8770,"Ġproduct":8771,"Ġscient":8772,"Ġkomplic":8773,"Ġkontrollera":8774,"ĠanmÃ¤l":8775,"ĠABOUT":8776,"ĠChinese":8777,"Dessutom":8778,"Hitta":8779,"Huh":8780,"Talk":8781,"Until":8782,"cohol":8783,"pack":8784,"ratch":8785,"Î¿":8786,"Ġhals":8787,"Ġmic":8788,"ĠmardrÃ¶m":8789,"ani":8790,"Ġfro":8791,"oni":8792,"Ġlower":8793,"tell":8794,"uti":8795,"Ġskum":8796,"ĠSand":8797,"Ġresid":8798,"Ġdoin":8799,"ĠLight":8800,"Ã¤ger":8801,"ĠPeople":8802,"Ġskaff":8803,"ĠRem":8804,"Ġfinan":8805,"Ġrights":8806,"Ġprova":8807,"unde":8808,"ĠgrÃ¶":8809,"ogs":8810,"ĠgÃ¥va":8811,"Ã¤stare":8812,"Ġsnow":8813,"Ġshowing":8814,"Ġfancy":8815,"Ġgods":8816,"Ġlagar":8817,"Ġlyckliga":8818,"Ġdomare":8819,"Ġsuspic":8820,"Ġmembers":8821,"Guess":8822,"Ġfirm":8823,"Ġnyckeln":8824,"Ã¤kert":8825,"ĠEverything":8826,"Ġissues":8827,"Ġvarmt":8828,"Prata":8829,"Bel":8830,"Gjorde":8831,"Und":8832,"sna":8833,"win":8834,"Â´":8835,"Ġdish":8836,"Ġmail":8837,"Ġfann":8838,"Ġvent":8839,"Ġgifter":8840,"Ġoavsett":8841,"Ġdetective":8842,"ament":8843,"ĠstÃ¤m":8844,"Ġdoctors":8845,"ĠMars":8846,"iring":8847,"etti":8848,"Ġavl":8849,"ĠTar":8850,"Ġproof":8851,"ateful":8852,"anken":8853,"Def":8854,"Ġconv":8855,"Ġperman":8856,"iane":8857,"Ġkallt":8858,"Ġangel":8859,"Ġspecif":8860,"ĠidÃ©er":8861,"Ġprotecting":8862,"Ġlistan":8863,"Ġpresidenten":8864,"ĠrÃ¤kna":8865,"Ġslippa":8866,"ĠÃ¥tervÃ¤nda":8867,"ĠfÃ¶rklarar":8868,"Ġillegal":8869,"Ġstannade":8870,"ĠBritish":8871,"17":8872,"Aldrig":8873,"Co":8874,"Ol":8875,"RÃ¤tt":8876,"Sweet":8877,"bly":8878,"bour":8879,"case":8880,"hy":8881,"jung":8882,"mother":8883,"Ġhous":8884,"Ġlon":8885,"alth":8886,"Ġbekv":8887,"andal":8888,"ĠMir":8889,"ĠMama":8890,"ros":8891,"ĠAir":8892,"ĠknÃ¤":8893,"Ġtras":8894,"ĠLewis":8895,"Ġmans":8896,"ĠPR":8897,"Ġgrann":8898,"fekt":8899,"osex":8900,"Ġclock":8901,"ĠbestÃ¤mt":8902,"Ġassum":8903,"Ġassign":8904,"Ġinvite":8905,"ĠhjÃ¤rn":8906,"Ġtesta":8907,"AlltsÃ¥":8908,"Ġfemale":8909,"azz":8910,"Ġordered":8911,"ĠChristian":8912,"ĠCarter":8913,"Ġsnabbare":8914,"garet":8915,"Ġforgotten":8916,"ITT":8917,"ĠmÃ¶rdade":8918,"President":8919,"Ġtanken":8920,"Ġreached":8921,"Ġobvious":8922,"Ġpainting":8923,"ĠRussian":8924,"jÃ¶rn":8925,"Ġdetails":8926,"Ġcelebrate":8927,"Ġintroduce":8928,"Honest":8929,"Idag":8930,"SO":8931,"uellt":8932,"Ġtong":8933,"Ġsite":8934,"Ġsiff":8935,"onym":8936,"Ġpul":8937,"Ġnurse":8938,"Ġjaga":8939,"Ġwhis":8940,"ĠSÃ¤tt":8941,"Ġreve":8942,"ima":8943,"urance":8944,"akor":8945,"ĠAg":8946,"antast":8947,"Ġavail":8948,"ĠTitta":8949,"Ã¤ttning":8950,"ĠOR":8951,"aper":8952,"ĠgrÃ¤s":8953,"aving":8954,"bles":8955,"Ġstrugg":8956,"ĠThree":8957,"Ġbuying":8958,"ĠkÃ¶rt":8959,"Ġglada":8960,"Ġinvent":8961,"Ġbased":8962,"morgon":8963,"Ġbilden":8964,"Ġcampa":8965,"Ġpanik":8966,"ĠCooper":8967,"Ġlurade":8968,"Ġrevolution":8969,"Ġgolf":8970,"Ġdirectly":8971,"Ġhotellet":8972,".]":8973,"Bry":8974,"Cool":8975,"Joe":8976,"None":8977,"fik":8978,"sman":8979,"till":8980,"ĠÃ¤v":8981,"Ġdim":8982,"Ġmir":8983,"anny":8984,"Ġbat":8985,"Ġwow":8986,"Ġwoke":8987,"strar":8988,"Ġlid":8989,"Ġtheory":8990,"Ġinl":8991,"tto":8992,"Ã¶rj":8993,"Ġbell":8994,"Ġbeund":8995,"Ġrabb":8996,"amas":8997,"Ġjagar":8998,"Ġstationen":8999,"oda":9000,"ĠMitch":9001,"entals":9002,"Ġmedlem":9003,"ĠsÃ¥lde":9004,"ĠavgÃ¶r":9005,"Ġspoken":9006,"ĠFirst":9007,"Ġskapar":9008,"ĠutfÃ¶r":9009,"aph":9010,"Ġalien":9011,"Ġcontain":9012,"Ġjobs":9013,"opper":9014,"Ġtrapp":9015,"ĠbestÃ¤mma":9016,"Ġschem":9017,"ĠihjÃ¤l":9018,"Ġpriest":9019,"delse":9020,"Ġplatser":9021,"Ġsword":9022,"Ġcharges":9023,"Ġincident":9024,"Ġsoldater":9025,"Ġoffered":9026,"Ġcurious":9027,"Ġphotograph":9028,"Ġkicked":9029,"Ġassistant":9030,"Ġcounter":9031,"JÃ¤vla":9032,"Visste":9033,"Ġcrowd":9034,"ĠKommer":9035,"Ġstruntar":9036,"Ġreleased":9037,"lass":9038,"place":9039,"yo":9040,"Ġate":9041,"Ġdise":9042,"Ġfu":9043,"agligt":9044,"tten":9045,"Ġreag":9046,"ĠHank":9047,"ĠAbby":9048,"ĠDi":9049,"ĠDes":9050,"ĠDID":9051,"ĠNic":9052,"ĠNever":9053,"Ġnoga":9054,"Ġalert":9055,"Ġalcohol":9056,"Ġbrings":9057,"Ġbyg":9058,"Ġunit":9059,"Ġscare":9060,"ĠstrÃ¥l":9061,"Ġrole":9062,"Ġruns":9063,"Skicka":9064,"ĠhÃ¥llit":9065,"Ġfilmer":9066,"Ġprick":9067,"Ġterrit":9068,"ĠHoward":9069,"minist":9070,"Ġ194":9071,"ĠhÃ¥rd":9072,"Ġladd":9073,"Tyst":9074,"rikes":9075,"Ġelectric":9076,"Ġfilled":9077,"pparently":9078,"ĠnÃ¶dvÃ¤nd":9079,"ĠfÃ¶redrar":9080,"DR":9081,"Ġmik":9082,"Ġgall":9083,"agan":9084,"stjÃ¤r":9085,"ĠnÃ¥r":9086,"Ġkult":9087,"isy":9088,"Ġrou":9089,"ando":9090,"Ġgosh":9091,"ittade":9092,"ĠTvÃ¥":9093,"ĠLieutenant":9094,"ĠOb":9095,"ĠRen":9096,"ĠEle":9097,"ĠprÃ¤st":9098,"Ġusual":9099,"Ġexch":9100,"lair":9101,"ugan":9102,"play":9103,"mann":9104,"Ġfamiljer":9105,"Ġteen":9106,"rary":9107,"wear":9108,"ringen":9109,"vision":9110,"Ġordentligt":9111,"Show":9112,"Ġfiles":9113,"Ġbegan":9114,"Ġdrack":9115,"Ġskiter":9116,"Ġperfekta":9117,"Ġswim":9118,"Ġsinging":9119,"Ġofficial":9120,"Ġsatell":9121,"Ġindiv":9122,"Ġscenen":9123,"Genom":9124,"Ġticket":9125,"Ġsandwich":9126,"Ġkameran":9127,"Especially":9128,"Famil":9129,"Ny":9130,"OS":9131,"San":9132,"bum":9133,"fs":9134,"fet":9135,"ooth":9136,"ube":9137,"»¿":9138,"ï»¿":9139,"Ġought":9140,"Ġmale":9141,"Ġgig":9142,"Ġgate":9143,"isera":9144,"Ġinjur":9145,"Ġrika":9146,"utor":9147,"Ġweather":9148,"ĠAL":9149,"ĠBart":9150,"ĠOoh":9151,"uman":9152,"astrof":9153,"ĠVart":9154,"osing":9155,"hetic":9156,"Ġsvin":9157,"Ġ28":9158,"Ġscar":9159,"Ġcommitted":9160,"Ġrespond":9161,"ĠtonÃ¥r":9162,"ĠstÃ¤llde":9163,"Ġdealing":9164,"ĠLeon":9165,"Seriously":9166,"ĠfÃ¶rÃ¤ndra":9167,"Ġskjuten":9168,"Ġmedicine":9169,"ĠProfessor":9170,"Ġpenis":9171,"ĠHelen":9172,"vÃ¤p":9173,"ĠstjÃ¤rn":9174,"Ġvirus":9175,"ĠmisstÃ¤nkt":9176,"ĠSheriff":9177,"mÃ¤stare":9178,"ĠCentral":9179,"ĠÃ¶vertyg":9180,"Ġbesviken":9181,"Ġgumman":9182,"Ġpocket":9183,"Ġlanguage":9184,"Ġmanipul":9185,"EP":9186,"Hit":9187,"LÃ¥ter":9188,"rades":9189,"ua":9190,"zzy":9191,"ĠÂ":9192,"Ġheder":9193,"Ġfif":9194,"Ġbags":9195,"agligen":9196,"Ġkm":9197,"ĠrÃ¶v":9198,"ĠstÃ¤nger":9199,"Ã¤nkte":9200,"ĠSP":9201,"ĠSv":9202,"outs":9203,"oles":9204,"While":9205,"ĠDR":9206,"opy":9207,"ĠGrey":9208,"ĠLinda":9209,"iego":9210,"ĠPen":9211,"Ġspin":9212,"ĠspÃ¥ra":9213,"Ġutl":9214,"Ġutrust":9215,"ĠRh":9216,"istent":9217,"ĠEven":9218,"Ġtail":9219,"Ġletade":9220,"Ġsmuts":9221,"pton":9222,"narare":9223,"Ġfarfar":9224,"rating":9225,"Ġevigt":9226,"Ġobs":9227,"Ġdefense":9228,"azine":9229,"ĠSteven":9230,"Ġlegit":9231,"Ġofficers":9232,"ICE":9233,"Ġbyggnaden":9234,"Ġambass":9235,"Ġthousands":9236,"ĠBrook":9237,"ĠÃ¶verlever":9238,"ĠtrÃ¥kigt":9239,"500":9240,"BÃ¤st":9241,"MÃ¥r":9242,"Pass":9243,"Ray":9244,"UCK":9245,"jobb":9246,"lie":9247,"nold":9248,"sdag":9249,"tv":9250,"vation":9251,"ydd":9252,"Ġ*":9253,"etag":9254,"Ġinbjud":9255,"Ġje":9256,"chie":9257,"oti":9258,"oted":9259,"Things":9260,"sek":9261,"Ġtrag":9262,"Ġtraged":9263,"ĠTre":9264,"icious":9265,"eman":9266,"Ġbright":9267,"Ġwhoever":9268,"ÃĦR":9269,"ĠgrÃ¤l":9270,"Ġklag":9271,"Ġflag":9272,"Ġkillarna":9273,"Ġhemliga":9274,"Stand":9275,"ĠViet":9276,"Ġjuice":9277,"Ġdeli":9278,"Ġspelet":9279,"elson":9280,"Ġsisters":9281,"Ġbilar":9282,"ĠFrom":9283,"ĠbegÃ¤r":9284,"Ġregistr":9285,"Ġcrit":9286,"icted":9287,"Ġskadade":9288,"Ġartik":9289,"Ġburied":9290,"Ġinstit":9291,"Ġargument":9292,"Ġreports":9293,"ĠdrÃ¶mmar":9294,"ropri":9295,"Ġborder":9296,"Ġconnected":9297,"ĠvÃ¥ldt":9298,"ĠfÃ¶rmod":9299,"ĠfÃ¶retaget":9300,"Ġburned":9301,"Ġcarrying":9302,"ĠAngeles":9303,"Ġfokusera":9304,"Ġhindra":9305,"EAH":9306,"Ġholiday":9307,"Ġquarter":9308,"Absolut":9309,"Kevin":9310,"Ġavailable":9311,"Bu":9312,"Fred":9313,"IP":9314,"IV":9315,"IVE":9316,"Luc":9317,"Off":9318,"Other":9319,"SK":9320,"gÃ¤ng":9321,"hÃ¤r":9322,"tande":9323,"town":9324,"ĠtÃ¤ck":9325,"ĠdjÃ¤v":9326,"Ġhated":9327,"Ġrare":9328,"ĠanvÃ¤nt":9329,"ĠMiami":9330,"Ġframme":9331,"Ġshape":9332,"Ġ-...":9333,"ĠBarn":9334,"ĠTal":9335,"usentals":9336,"Ġnoll":9337,"ĠKaren":9338,"ĠEv":9339,"Ġguaran":9340,"Ġ26":9341,"bbar":9342,"Ġelekt":9343,"ĠstrÃ¶m":9344,"igaste":9345,"Ġtrap":9346,"Ġtraffic":9347,"Ġputs":9348,"ĠTHINK":9349,"Ãħk":9350,"ANK":9351,"Ġskynda":9352,"Ġbread":9353,"Ġinformer":9354,"Ġsteps":9355,"Ġinterrupt":9356,"Ġwarrant":9357,"Although":9358,"ĠrÃ¶da":9359,"ĠmÃ¤nniskorna":9360,"THAT":9361,"ivitet":9362,"Ġpulling":9363,"Ġstatus":9364,"Ġenkel":9365,"Ġescap":9366,"Ġviktigaste":9367,"splatsen":9368,"Ġbecoming":9369,"Ġapparently":9370,"25":9371,"Bad":9372,"Bro":9373,"Better":9374,"Comm":9375,"GE":9376,"Hem":9377,"Must":9378,"Sarah":9379,"UD":9380,"fin":9381,"fit":9382,"jus":9383,"uing":9384,"Ġtips":9385,"ĠfÃ¤st":9386,"orse":9387,"stid":9388,"Ġprakt":9389,"ĠfÃ¶rd":9390,"Ġeur":9391,"Ġskratta":9392,"ĠSant":9393,"ĠSav":9394,"ĠSyd":9395,"ĠMiller":9396,"akna":9397,"ĠhÃ¤rom":9398,"Ġtrash":9399,"unte":9400,"Ġcancel":9401,"ĠNancy":9402,"ĠLind":9403,"ĠPappa":9404,"Ġvillkor":9405,"ffs":9406,"Ġchoklad":9407,"Ġsugar":9408,"Ã¤mpa":9409,"ivia":9410,"Ġbackup":9411,"attack":9412,"ensen":9413,"ĠYep":9414,"Ġassault":9415,"Ġbeseg":9416,"ĠShit":9417,"Ãħt":9418,"gram":9419,"Ġdesert":9420,"Ġkonk":9421,"Ġregular":9422,"Ġmagi":9423,"Ġdirection":9424,"Ġconfident":9425,"ĠhÃ¥ret":9426,"Ġdesto":9427,"Ġ70":9428,"Ġdistra":9429,"Ġbenen":9430,"Without":9431,"Ġgeneration":9432,"Ġgentleman":9433,"ĠsÃ¥dant":9434,"Ġeventually":9435,"Ã¶relse":9436,"ĠJamie":9437,"Ġbehavior":9438,"Ġengelska":9439,"Ġalkohol":9440,"Bor":9441,"DÃ¶d":9442,"Killen":9443,"cons":9444,"lim":9445,"pan":9446,"ĠtÃ¤nder":9447,"angen":9448,"Ã¥telse":9449,"Ġvaken":9450,"ingo":9451,"Ġpure":9452,"Ġpounds":9453,"Ġkork":9454,"cke":9455,"Ġuna":9456,"elia":9457,"alter":9458,"Ġstyle":9459,"ĠpÃ¥m":9460,"Ġreven":9461,"Ġforest":9462,"ĠMove":9463,"alle":9464,"ĠCould":9465,"rier":9466,"ĠTIM":9467,"ĠLes":9468,"ements":9469,"Ġchat":9470,"ĠRes":9471,"ĠRub":9472,"Ġfinans":9473,"ĠKor":9474,"Ġalarm":9475,"endent":9476,"Ġundrade":9477,"ĠflÃ¶g":9478,"Ġhemligt":9479,"Ġberedd":9480,"Ġsaknas":9481,"StÃ¤ng":9482,"Ġtillbring":9483,"Ġpolicy":9484,"Ġplanned":9485,"Ġboring":9486,"ĠDean":9487,"elserna":9488,"Ġappears":9489,"ĠÃ¤ndrar":9490,"Ġstudio":9491,"Ġimpon":9492,"Ġsooner":9493,"Ġbeauty":9494,"Ġentr":9495,"ĠMichelle":9496,"Spring":9497,"Ġotrolig":9498,"Ġpolitical":9499,"ĠHelp":9500,"ĠbrÃ¶llopet":9501,"Ġfruktans":9502,"Ġvacation":9503,"Ġdubbel":9504,"ĠdÃ¶lja":9505,"Ġgradu":9506,"Ġdrottning":9507,"Ġaggress":9508,"ĠSomething":9509,"Ġyounger":9510,"80":9511,"BER":9512,"Sit":9513,"TO":9514,"Work":9515,"bie":9516,"bass":9517,"oom":9518,"uv":9519,"Ġsade":9520,"Ġmart":9521,"ĠmÃ¤kt":9522,"Ġbike":9523,"onment":9524,"Ã¶ter":9525,"Ġkod":9526,"Ġlamp":9527,"owns":9528,"eremy":9529,"rapp":9530,"ĠMake":9531,"oli":9532,"Ġomedel":9533,"ĠomrÃ¥de":9534,"ĠCa":9535,"unger":9536,"thony":9537,"steg":9538,"ĠOver":9539,"ĠOfficer":9540,"ullen":9541,"ĠRiver":9542,"ĠKr":9543,"ĠKay":9544,"ĠKent":9545,"Ġexample":9546,"esten":9547,"Ġsigns":9548,"Ġbytt":9549,"ĠChurch":9550,"ĠÃ¶k":9551,"Ġfinds":9552,"Ġrecover":9553,"ONG":9554,"Forget":9555,"ologi":9556,"Ġhunden":9557,"Ġpromen":9558,"ĠÃ¶ppet":9559,"ĠfÃ¶rsvun":9560,"box":9561,"Blir":9562,"fulla":9563,"Ġtouched":9564,"HÃ¶rde":9565,"Ġbekym":9566,"Ġvaknar":9567,"Klockan":9568,"Ġhidden":9569,"ĠOnly":9570,"Ġpushed":9571,"Ġeduc":9572,"Ġhundreds":9573,"Ġtvingade":9574,"ĠvÃ¥gar":9575,"Ġhunting":9576,"ĠnÃ¤mnde":9577,"Ġcircum":9578,"ĠSecret":9579,"ĠIsland":9580,"HÃ¤lsa":9581,"ĠVirgin":9582,"AB":9583,"Nah":9584,"cul":9585,"lik":9586,"mask":9587,"rater":9588,"vik":9589,"Ġtorn":9590,"Ġgain":9591,"star":9592,"Ġpins":9593,"Ġpills":9594,"igan":9595,"ĠfÃ¶rdel":9596,"sem":9597,"etta":9598,"opher":9599,"rymm":9600,"istic":9601,"Andra":9602,"Ġtalang":9603,"Ingent":9604,"ĠgrÃ¥ter":9605,"arson":9606,"Ġsenast":9607,"plats":9608,"Ġnytta":9609,"Ġscary":9610,"Ġsnut":9611,"ĠbefÃ¤l":9612,"ggy":9613,"Ġbutter":9614,"ratals":9615,"ĠjÃ¤vligt":9616,"END":9617,"unts":9618,"Ġbarns":9619,"ĠkonstnÃ¤r":9620,"ĠEli":9621,"Ġskratt":9622,"smÃ¤ss":9623,"Ġfungera":9624,"Ġhamna":9625,"ĠCarlos":9626,"boken":9627,"General":9628,"Ġfederal":9629,"Ġerfarenhet":9630,"Ã¶jtn":9631,"Ġtongue":9632,"Ingenting":9633,"Ask":9634,"Cla":9635,"ELL":9636,"Fre":9637,"Fyra":9638,"Ner":9639,"Rep":9640,"Ton":9641,"bÃ¥t":9642,"hib":9643,"kry":9644,"mel":9645,"rare":9646,"ration":9647,"Ã¨":9648,"inary":9649,"Ġdirt":9650,"oned":9651,"atÃ¶r":9652,"Ġvett":9653,"stol":9654,"Ġnons":9655,"ĠlÃ¶r":9656,"ttit":9657,"oween":9658,"eld":9659,"ĠrÃ¥k":9660,"ĠSab":9661,"ĠMus":9662,"ĠMommy":9663,"Ġdefe":9664,"iral":9665,"Ġmyst":9666,"ĠAss":9667,"Ġknowledge":9668,"rich":9669,"ĠNight":9670,"ĠGON":9671,"ĠJunior":9672,"icken":9673,"ĠOut":9674,"ieur":9675,"ĠFace":9676,"Ġplate":9677,"Ġprint":9678,"Ġhelik":9679,"Ġhelvetet":9680,"anschen":9681,"api":9682,"Ġsuttit":9683,"ĠWANT":9684,"ysst":9685,"Ġhandling":9686,"ogue":9687,"Ġberor":9688,"ĠfÃ¶tter":9689,"ĠStay":9690,"Ġscreen":9691,"Ġpersonligt":9692,"Ġplanerat":9693,"Ġperfor":9694,"varo":9695,"Ġfriendly":9696,"Ġadopt":9697,"ĠTHERE":9698,"eez":9699,"Ġassoci":9700,"ĠledtrÃ¥d":9701,"Ġfolket":9702,"ĠkÃ¶pt":9703,"ibi":9704,"iende":9705,"Ġhalsen":9706,"Ġgrejen":9707,"Ġinternet":9708,"Ġchecking":9709,"Ġfixed":9710,"Ġskickat":9711,"Ġhumor":9712,"ĠÃ¶ppnade":9713,"Ġzero":9714,"Ġplaneten":9715,"Henry":9716,"Ġveget":9717,"Ġavsked":9718,"ĠSlÃ¤pp":9719,"Ġmental":9720,"Jimmy":9721,"Ġconvince":9722,"Ġuppenbar":9723,"Ġalternativ":9724,"Best":9725,"Baby":9726,"Carl":9727,"Full":9728,"Jud":9729,"KÃ¤ra":9730,"Mart":9731,"Poj":9732,"SP":9733,"bast":9734,"gment":9735,"uell":9736,"vÃ¥n":9737,"Ġtaket":9738,"Ġfra":9739,"Ġbitt":9740,"ĠvÃ¤st":9741,"Ã¤rn":9742,"Ġped":9743,"ading":9744,"Ġattorney":9745,"Ġdeter":9746,"pple":9747,"Ġsker":9748,"ĠSusan":9749,"ĠallmÃ¤n":9750,"Ġgoin":9751,"ĠAven":9752,"Ġshopping":9753,"ĠDerek":9754,"ĠBay":9755,"acka":9756,"omma":9757,"ningsk":9758,"Ġchap":9759,"Ġcheap":9760,"ablish":9761,"ques":9762,"order":9763,"Ġklubben":9764,"Ġhandlade":9765,"Ġdownstairs":9766,"ĠWhatever":9767,"Ġmusk":9768,"iktigt":9769,"levant":9770,"stern":9771,"Ġthrowing":9772,"Ġrecomm":9773,"Ġliknande":9774,"Ġaccording":9775,"Ġannanstans":9776,"Ġresist":9777,"ĠhumÃ¶r":9778,"Ġlycka":9779,"Ġsolution":9780,"vÃ¤gen":9781,"Ġskrattar":9782,"SlÃ¥":9783,"pector":9784,"Problem":9785,"Ġbyggde":9786,"Klart":9787,"Ġkastade":9788,"Adam":9789,"Ġmobilen":9790,"film":9791,"Ġutredningen":9792,"Ġguests":9793,"ocolate":9794,"ĠrÃ¤dsla":9795,"ĠInternet":9796,"Ġsacrifice":9797,"Honestly":9798,"ĠGONNA":9799,"13":9800,"22":9801,"Ell":9802,"Ele":9803,"Mother":9804,"NO":9805,"fortunately":9806,"lÃ¤gg":9807,"rin":9808,"xter":9809,"yp":9810,"arma":9811,"ĠbÃ¶g":9812,"Ġvalt":9813,"Ġgiant":9814,"Ġpor":9815,"Ġlade":9816,"isher":9817,"ched":9818,"asch":9819,"Ġdust":9820,"Ġstone":9821,"ĠstÃ¤d":9822,"Ġskrek":9823,"ĠSqu":9824,"ural":9825,"ĠMason":9826,"akar":9827,"olo":9828,"ĠAf":9829,"ĠBor":9830,"ĠBUT":9831,"skri":9832,"ĠGun":9833,"ussell":9834,"ĠPo":9835,"ĠRome":9836,"ĠKenny":9837,"Ġproced":9838,"Ġexcellent":9839,"Ġguards":9840,"avin":9841,"Ġsakna":9842,"ĠfÃ¶tt":9843,"Ġnyfiken":9844,"Ġpersonally":9845,"ĠsÃ¤s":9846,"Ġledde":9847,"grÃ¤ns":9848,"Ġtycka":9849,"ĠFrance":9850,"Ġhoppar":9851,"Ġmeth":9852,"ĠarmÃ©n":9853,"tiden":9854,"Ġhandsome":9855,"Ġwinning":9856,"iella":9857,"ĠAbsol":9858,"Ġmiddagen":9859,"Ġknappast":9860,"Ġbelongs":9861,"Ġviolence":9862,"Ġchampion":9863,"ĠbÃ¶cker":9864,"Ġsociety":9865,"Ġexplosion":9866,"Ġcitiz":9867,"Ġextremely":9868,"ĠnÃ¤tet":9869,"ĠSpanish":9870,"Ġhigher":9871,"Ġhorses":9872,"\"!":9873,"Jon":9874,"Six":9875,"baka":9876,"ders":9877,"hab":9878,"po":9879,"Ġting":9880,"Ġsop":9881,"Ġsetting":9882,"Ġms":9883,"Ġfet":9884,"onica":9885,"Ġwet":9886,"reme":9887,"Ġpension":9888,"edde":9889,"Ã¶rren":9890,"Ġrate":9891,"Ġrip":9892,"odes":9893,"odka":9894,"Ġtrigger":9895,"ĠBow":9896,"ĠBuck":9897,"icia":9898,"icked":9899,"iece":9900,"ĠFall":9901,"Ġchain":9902,"Ġuppgift":9903,"ĠnÃ¤rma":9904,"Int":9905,"ĠÃ¶vert":9906,"Ġhandled":9907,"ntligen":9908,"Ġberg":9909,"Ġscore":9910,"ĠvÃ¤rdel":9911,"Ġstarta":9912,"Ġactual":9913,"Ġflykt":9914,"ĠbestÃ¤mde":9915,"Ġsecure":9916,"Ġaccompl":9917,"Ġ400":9918,"Ġkungen":9919,"ological":9920,"ĠArt":9921,"ĠÃ¥terupp":9922,"Ġconfused":9923,"SÃ¤ger":9924,"Ġprotection":9925,"Ġburning":9926,"Ready":9927,"Ġwinner":9928,"Trust":9929,"Trodde":9930,"Ġsvaret":9931,"Ġsvarade":9932,"Ġairport":9933,"VÃ¤lkomna":9934,"Ġbillion":9935,"Ġtickets":9936,"Ġcustom":9937,"ĠWilliams":9938,"Ġmystery":9939,"Ġsurround":9940,"ĠfÃ¶rvÃ¥nad":9941,"Ġdivorce":9942,"Ġmountain":9943,"ĠBruce":9944,"Ġlicense":9945,"ĠpÃ¥minner":9946,"100":9947,"Apparently":9948,"Girl":9949,"Mat":9950,"Mike":9951,"Ugh":9952,"gor":9953,"gree":9954,"hold":9955,"ĠâĢĲ":9956,"Ġtied":9957,"Ġsink":9958,"Ġsikt":9959,"Ġfans":9960,"Ġbio":9961,"oret":9962,"Ġvunnit":9963,"Ã¤rer":9964,"Ġpub":9965,"Ġinj":9966,"Ġcro":9967,"Ġjoy":9968,"ĠÃ¤rligt":9969,"ami":9970,"ĠskÃ¥p":9971,"ĠSHE":9972,"andom":9973,"Ġliber":9974,"ĠMort":9975,"Ġfria":9976,"ĠBO":9977,"ĠTÃ¤nk":9978,"ĠLang":9979,"Ġspion":9980,"Ġkommissar":9981,"asted":9982,"ĠbrÃ¥tt":9983,"Ġlek":9984,"Ġbyter":9985,"Ġunderstood":9986,"ugo":9987,"Ã¤ngde":9988,"Ġsaknade":9989,"lings":9990,"ĠÃ¥rs":9991,"onsieur":9992,"klare":9993,"Ġinsurance":9994,"ĠInga":9995,"ibly":9996,"Ġhalva":9997,"Ġtacksam":9998,"Ġrooms":9999,"Chris":10000,"Ġannoy":10001,"Ġtests":10002,"ĠEnter":10003,"ĠsÃ¶kte":10004,"ĠRebecca":10005,"Ġstoppar":10006,"Ġreporter":10007,"Ġwinter":10008,"Ġlura":10009,"ĠskrÃ¤mmer":10010,"Ġinstall":10011,"gÃ¥rden":10012,"ĠupptÃ¤ckte":10013,"ĠHerr":10014,"ICK":10015,"ĠPrince":10016,"ĠServ":10017,"Ġtreated":10018,"Ġconnect":10019,"ĠWalker":10020,"Ġpriset":10021,"Ġstarkare":10022,"Ġfylla":10023,"Ġuniversum":10024,"ĠÃ¥tervÃ¤nder":10025,"Ġowner":10026,"Ġvolunte":10027,"Ġjournalist":10028,"Ġphysical":10029,"ĠMarcus":10030,"ĠFrancisco":10031,"Ġfyller":10032,"Ġsneak":10033,"Ġyngre":10034,"Ġstycken":10035,"Bill":10036,"rough":10037,"ĠÃ":10038,"arge":10039,"Ġpaj":10040,"Ġkart":10041,"tton":10042,"alet":10043,"Ġrush":10044,"Ġskills":10045,"Ġrepa":10046,"ĠMorgan":10047,"ĠCom":10048,"Ġseger":10049,"skarna":10050,"Ġminim":10051,"ĠNaz":10052,"ĠGU":10053,"ĠJos":10054,"ĠJav":10055,"Ġmanage":10056,"Ġorkar":10057,"Hang":10058,"osition":10059,"Ġarch":10060,"ively":10061,"Ġgrateful":10062,"Ġflask":10063,"ĠChloe":10064,"onday":10065,"ggie":10066,"Ġnights":10067,"ĠbegÃ¥":10068,"Ġmayor":10069,"otel":10070,"ĠrÃ¶rel":10071,"Ġdirector":10072,"ĠAnnie":10073,"Ġpicking":10074,"ĠClub":10075,"Ġsolve":10076,"ektÃ¶r":10077,"Ġfantastiska":10078,"clock":10079,"Ġstronger":10080,"ĠrÃ¤knar":10081,"ĠTyler":10082,"ĠkÃ¤mpar":10083,"Ġfiender":10084,"Ġskulden":10085,"Ġkilo":10086,"Ġblew":10087,"Ġremains":10088,"Ġoption":10089,"ĠtillfÃ¤lle":10090,"ĠTeam":10091,"Ġhealthy":10092,"Ġnetwork":10093,"Ġkilometer":10094,"Ġlonely":10095,"ĠbrÃ¥ttom":10096,"18":10097,"Kill":10098,"Ra":10099,"Verkligen":10100,"cast":10101,"dra":10102,"kul":10103,"viously":10104,"ware":10105,"Ġautom":10106,"anor":10107,"anch":10108,"Ġfought":10109,"Ġfaces":10110,"Ġbones":10111,"atorn":10112,"Ġgala":10113,"reck":10114,"Ġnut":10115,"Ġkines":10116,"Ġcure":10117,"alph":10118,"Ġenvir":10119,"ĠfÃ¶rol":10120,"utch":10121,"ĠSun":10122,"Ġforces":10123,"Ġlib":10124,"Ġfright":10125,"ĠAR":10126,"Ġshr":10127,"ĠCourt":10128,"skÃ¤r":10129,"dem":10130,"Ġminsta":10131,"ĠNational":10132,"ĠNobody":10133,"thet":10134,"ĠJenny":10135,"ĠPac":10136,"Ġherre":10137,"Ġslip":10138,"Ġprepare":10139,"ĠkÃ¤ns":10140,"ĠÃ¶d":10141,"reek":10142,"ĠÃ¥ratal":10143,"Ġsyns":10144,"Ġstru":10145,"iote":10146,"Ġparan":10147,"Ġanser":10148,"Ġsamt":10149,"Ġ48":10150,"Ġmostly":10151,"ORE":10152,"Ġkron":10153,"Ġwarning":10154,"ĠArm":10155,"Fram":10156,"THER":10157,"Ġconfir":10158,"Ã¤klar":10159,"AST":10160,"Ġmurderer":10161,"ĠAmerika":10162,"Ġspecific":10163,"Ġlaid":10164,"ĠmÃ¶ter":10165,"Ġspending":10166,"Ġtreatment":10167,"Ġtappat":10168,"Ġansvarig":10169,"ÃŃa":10170,"Antingen":10171,"Ġcigarette":10172,"Ġmiracle":10173,"Ġmirakel":10174,"mÃ¤staren":10175,"snitt":10176,"Ġscreaming":10177,"Ġintelligence":10178,"ĠmÃ¶rkret":10179,"Ġincluding":10180,"Ġrepeat":10181,"ĠskÃ¥despel":10182,"ĠÃ¤vent":10183,"Kont":10184,"Lycka":10185,"MA":10186,"Mot":10187,"Medan":10188,"SÃ¥n":10189,"hal":10190,"pire":10191,"Ġdipl":10192,"Ã¤da":10193,"anen":10194,"Ġbail":10195,"Ġtoler":10196,"elar":10197,"Ġstood":10198,"nast":10199,"Ġskar":10200,"ĠSophie":10201,"urser":10202,"ĠMAN":10203,"irurg":10204,"antage":10205,"ĠCamp":10206,"ĠBat":10207,"ĠLake":10208,"ĠFour":10209,"ĠFord":10210,"Ã¤md":10211,"ĠdÃ¶m":10212,"Ġtalks":10213,"isky":10214,"bler":10215,"efully":10216,"Ġgenet":10217,"visst":10218,"ĠWhit":10219,"Ġ35":10220,"Ġcompla":10221,"Ġtycks":10222,"Ġgrave":10223,"ĠhÃ¥llet":10224,"Shall":10225,"Ġcrush":10226,"Ġmetal":10227,"Ġhurting":10228,"Ġreplace":10229,"Ġsolid":10230,"ĠAmericans":10231,"Black":10232,"Trots":10233,"Ġfantastic":10234,"ĠsÃ¤kerhets":10235,"Ġdecisions":10236,"ĠEllen":10237,"Ġterrorist":10238,"ĠTeddy":10239,"Ġvuxna":10240,"Ġyellow":10241,"Ġtoaletten":10242,"Ġkatastrof":10243,"Ã³n":10244,"ĠsÃ¶mn":10245,"bruk":10246,"Ġcampaign":10247,"Ġdisease":10248,"Ġindivid":10249,"Ġbitti":10250,"MÃ¤nnisk":10251,"Yep":10252,"cise":10253,"iste":10254,"mÃ¶":10255,"tare":10256,"Ġtatt":10257,"Ġhates":10258,"Ġmaj":10259,"rester":10260,"Ġnaken":10261,"Ġnigga":10262,"ĠlÃ¥nga":10263,"ĠIF":10264,"esar":10265,"Ġrop":10266,"ĠrÃ¶k":10267,"ĠfÃ¶ra":10268,"aming":10269,"Ġeast":10270,"uty":10271,"imeter":10272,"ĠHoly":10273,"ĠAunt":10274,"Ġknuff":10275,"ĠCir":10276,"Ġtriv":10277,"oked":10278,"ĠTri":10279,"ĠTina":10280,"icking":10281,"Ġspo":10282,"ĠRing":10283,"ĠnivÃ¥":10284,"asta":10285,"ĠEX":10286,"ivan":10287,"laus":10288,"ĠvÃ¤nskap":10289,"nygga":10290,"ishop":10291,"Ġhitting":10292,"juka":10293,"ĠfarvÃ¤l":10294,"athers":10295,"engar":10296,"Ġfully":10297,"ARRAT":10298,"Ġresan":10299,"Ġrescue":10300,"Ġkvarter":10301,"ĠhjÃ¤rnan":10302,"Ġstandard":10303,"ĠGrant":10304,"ĠfÃ¶rsvara":10305,"ĠavslÃ¶ja":10306,"Ġmistakes":10307,"ĠhÃ¤lften":10308,"Ġvaknade":10309,"Ġvittnes":10310,"incoln":10311,"Ġherrn":10312,"Ġljuset":10313,"Ġgarage":10314,"Daniel":10315,"Ġamerikanska":10316,"Ġknocked":10317,"Ġtufft":10318,"ĠPolice":10319,"Ġsuffering":10320,"Ġaudience":10321,"Ġcabin":10322,"ĠlÃ¶sning":10323,"Ġvampyr":10324,"Ġblommor":10325,"Ġtolv":10326,"ĠLaura":10327,"According":10328,"Ġpermanent":10329,"Ġbygger":10330,"Ġperforman":10331,"Both":10332,"Era":10333,"Jake":10334,"Kr":10335,"Tid":10336,"colm":10337,"Ġhet":10338,"arr":10339,"Ġmort":10340,"Ġbom":10341,"Ġbot":10342,"atu":10343,"ories":10344,"ĠvÃ¤nder":10345,"Ġpara":10346,"Ġnic":10347,"ĠnÃ¥tt":10348,"Ġkna":10349,"Ġinuti":10350,"esa":10351,"Ġwhom":10352,"ĠSU":10353,"ĠSally":10354,"ĠMaster":10355,"Ã¥rig":10356,"allow":10357,"usten":10358,"Ġgoal":10359,"ĠHard":10360,"ĠAw":10361,"ĠDale":10362,"ĠComp":10363,"Ġtri":10364,"lym":10365,"ĠavstÃ¥nd":10366,"Ġavbry":10367,"ĠNina":10368,"ĠGordon":10369,"ickan":10370,"ĠOscar":10371,"ĠFe":10372,"Ã¥gas":10373,"ĠEver":10374,"Ġupps":10375,"ĠklÃ¤":10376,"Ġwhenever":10377,"Ġsometime":10378,"Ġclients":10379,"Ġimage":10380,"Hurry":10381,"ache":10382,"Ġhittades":10383,"ressed":10384,"angers":10385,"Ġtear":10386,"Ġmissar":10387,"Ġbadly":10388,"Ġminds":10389,"ĠIsn":10390,"Ġviktigare":10391,"Ã¤kare":10392,"ĠvÃ¤skan":10393,"igheten":10394,"Ġtele":10395,"ĠGray":10396,"Ġgamle":10397,"ĠDavis":10398,"Ġanti":10399,"Ġcheer":10400,"ĠGuard":10401,"Ġpopul":10402,"Ġreturned":10403,"Ġbreathing":10404,"Ġsamtalet":10405,"Ġtydligt":10406,"ĠVilka":10407,"Ġbleeding":10408,"ĠfÃ¥ngar":10409,"Ġtechnology":10410,"ĠLucas":10411,"Ġpunish":10412,"ĠundersÃ¶ka":10413,"Tomorrow":10414,"Ġromantic":10415,"Ġbecomes":10416,"Ġbollen":10417,"ĠMatthew":10418,"Ġcurrent":10419,"ĠskitstÃ¶vel":10420,"Ġmirror":10421,"ARRATOR":10422,"14":10423,"Dis":10424,"Id":10425,"Oavsett":10426,"Ver":10427,"gÃ¤r":10428,"jul":10429,"vill":10430,"wa":10431,"Ġtend":10432,"Ġsor":10433,"Ġdamm":10434,"Ġfate":10435,"Ġfiende":10436,"Ġbound":10437,"Ġlau":10438,"ashing":10439,"Ġdetsamma":10440,"Ġintegr":10441,"Ġsomm":10442,"ĠskÃ¤ra":10443,"Ġrepl":10444,"Ġfrig":10445,"Ġfrust":10446,"Ġfriv":10447,"aku":10448,"terade":10449,"ĠDamn":10450,"ĠCO":10451,"rive":10452,"ĠGal":10453,"ĠLiam":10454,"ĠLogan":10455,"Ġupd":10456,"ĠRoman":10457,"Ġwanting":10458,"ĠKrist":10459,"ĠErs":10460,"Ġbrown":10461,"Ġsignat":10462,"Ġconstru":10463,"Ġgrant":10464,"ĠÃ¥klag":10465,"Ġsvett":10466,"Ġclown":10467,"Ġmitten":10468,"annel":10469,"ups":10470,"Ġplays":10471,"grund":10472,"pha":10473,"Ġfulla":10474,"Ġterm":10475,"bygg":10476,"Ġwatched":10477,"Ġkram":10478,"ĠhÃ¤mnd":10479,"Ġvalet":10480,"Ġadvent":10481,"Ġcoolt":10482,"Ġawake":10483,"Ġradi":10484,"Ġblodet":10485,"ĠsjÃ¶":10486,"Ġroliga":10487,"ĠmÃ¤rkte":10488,"Ġcleaning":10489,"Ġstarkt":10490,"Ġsystems":10491,"ĠKeith":10492,"coming":10493,"ĠmÃ¶rkt":10494,"ĠThanksgiving":10495,"Ġparking":10496,"Ġfailure":10497,"Ġcooking":10498,"ĠBerlin":10499,"Ġovanligt":10500,"ĠfÃ¶nster":10501,"WHAT":10502,"Ġeftermiddag":10503,"Ġvehicle":10504,"45":10505,"Hal":10506,"KÃ¤r":10507,"Mc":10508,"Ter":10509,"cia":10510,"har":10511,"person":10512,"Ġfyr":10513,"Ã¥pet":10514,"Ġbaren":10515,"onse":10516,"aters":10517,"itan":10518,"Ġvans":10519,"Ġpunk":10520,"Ġlill":10521,"eday":10522,"esb":10523,"aya":10524,"ĠSid":10525,"Ġyourselves":10526,"ĠJennifer":10527,"ĠLong":10528,"ĠFÃĸR":10529,"Ġchocolate":10530,"udrey":10531,"Ġsucks":10532,"hew":10533,"Ġcomfort":10534,"ĠunderhÃ¥ll":10535,"Ġpee":10536,"ĠpoÃ¤ngen":10537,"However":10538,"Ġscratch":10539,"Ġtrapped":10540,"ĠbesÃ¶ka":10541,"Skriv":10542,"ĠShow":10543,"ĠShould":10544,"Ġsamla":10545,"Ġremembered":10546,"Ġtermin":10547,"Ġskrika":10548,"Ġkollat":10549,"ologist":10550,"ĠBeat":10551,"ĠsprÃ¥k":10552,"Ġretur":10553,"Ġmessed":10554,"Ġincre":10555,"ĠangÃ¥ende":10556,"ĠvÃ¤xa":10557,"ĠfÃ¶rstÃ¶rt":10558,"kraft":10559,"Ġuppfost":10560,"Ġnyckel":10561,"Ġfingeravtryck":10562,"Ġskrivbord":10563,"Ġsjunger":10564,"Ġnegoti":10565,"Ġpresence":10566,"Ġtunnel":10567,"ifornia":10568,"Ġsysslar":10569,"ĠDepartment":10570,"Ġekonom":10571,"Ġexchange":10572,"Ġomedelbart":10573,"Gre":10574,"car":10575,"kward":10576,"Ġtak":10577,"eringen":10578,"ĠhÃ¤v":10579,"Ã¤x":10580,"atar":10581,"Ġgross":10582,"Ġkrist":10583,"Ġcos":10584,"Ġcorn":10585,"asm":10586,"Ġrubb":10587,"Ġstairs":10588,"ppy":10589,"ĠskrÃ¤":10590,"Ġliar":10591,"ĠAp":10592,"ĠDef":10593,"ĠNad":10594,"ĠNate":10595,"istisk":10596,"Ġplock":10597,"ĠEve":10598,"Ġtiming":10599,"Ġaside":10600,"ĠnÃ¤rmar":10601,"Ġbehov":10602,"Ġgoodness":10603,"aves":10604,"ÃĦrligt":10605,"Ġgjord":10606,"Ġdrama":10607,"ĠkÃ¤nnas":10608,"Ġhemlig":10609,"Ġdelicious":10610,"Ġtracks":10611,"Ġledigt":10612,"Ġfallen":10613,"Ġkontakta":10614,"ĠjÃ¤vlar":10615,"Ġregard":10616,"Anna":10617,"Herre":10618,"Ġvalue":10619,"Ġhundratals":10620,"Ġ196":10621,"ĠfÃ¶rstÃ¥tt":10622,"ĠAngela":10623,"Ġwalls":10624,"ĠSchool":10625,"ĠnÃ¶je":10626,"Ġskallen":10627,"Ġdemonstr":10628,"Ġbanan":10629,"ĠrÃ¥kar":10630,"Ġdesperate":10631,"Ġregeringen":10632,"ĠmjÃ¶lk":10633,"Ã¶jtnant":10634,"Ġdiplom":10635,"Bek":10636,"Happy":10637,"NE":10638,"Plan":10639,"Same":10640,"ains":10641,"fisk":10642,"foot":10643,"vard":10644,"stances":10645,"Ġnav":10646,"iding":10647,"Ġrim":10648,"Ġil":10649,"Ġicke":10650,"Thought":10651,"Ġstyra":10652,"Ġskatt":10653,"rael":10654,"Ġreview":10655,"Ġanx":10656,"Ġanger":10657,"ĠMore":10658,"Ġmedel":10659,"ĠHER":10660,"Ġfrys":10661,"ĠDylan":10662,"ights":10663,"ĠJasÃ¥":10664,"Ġuppre":10665,"geon":10666,"ĠWOR":10667,"Ġexha":10668,"Ġgrade":10669,"Ġbeter":10670,"Ġflash":10671,"ĠsmÃ¤l":10672,"Ġsenior":10673,"Stack":10674,"bliote":10675,"Ġverkliga":10676,"Ġotherwise":10677,"varligt":10678,"Ġbarnbarn":10679,"ierade":10680,"Ġgodis":10681,"Ġclever":10682,"ĠHarvey":10683,"while":10684,"Ġfruit":10685,"Ġevents":10686,"ĠstÃ¤llen":10687,"ĠAnn":10688,"stÃ¥ende":10689,"Ġprotest":10690,"Ġbasement":10691,"ĠfÃ¶rbjud":10692,"Ġtrusted":10693,"onerande":10694,"force":10695,"Ġsides":10696,"ĠRobin":10697,"komst":10698,"Ġbekant":10699,"Ġrobber":10700,"Ġmaskin":10701,"ĠONE":10702,"ghan":10703,"ĠBerÃ¤tta":10704,"Ġerbjuder":10705,"Ġenemies":10706,"ĠBeach":10707,"Ġestablish":10708,"Ġconvinced":10709,"Ġindeed":10710,"Super":10711,"Ġbussen":10712,"Ġtherapy":10713,"punkt":10714,"Ġabandoned":10715,"Ġkyckling":10716,"Ġhouses":10717,"ĠVietnam":10718,"Ġenvironment":10719,"Ġperformance":10720,"''":10721,"Congratulations":10722,"Des":10723,"DÃ¶da":10724,"Ever":10725,"Father":10726,"FÃ¶re":10727,"Rick":10728,"Tim":10729,"iance":10730,"jamin":10731,"nummer":10732,"Ġtve":10733,"Ġtent":10734,"Ġsann":10735,"Ġmage":10736,"omy":10737,"Ġvink":10738,"Ġvodka":10739,"agram":10740,"Ġnag":10741,"Ġinner":10742,"Ġcart":10743,"Ġtoast":10744,"veill":10745,"Ġrope":10746,"amman":10747,"Ġrehe":10748,"ĠMarl":10749,"ĠAc":10750,"Ġshel":10751,"ĠDire":10752,"ĠDark":10753,"ĠJesse":10754,"Ġblink":10755,"Ġblank":10756,"endy":10757,"riget":10758,"ĠÃ¥sikt":10759,"Ġtidningen":10760,"ilde":10761,"Ġelement":10762,"reds":10763,"Ġcoat":10764,"Ġslutat":10765,"ĠmissfÃ¶r":10766,"ĠThese":10767,"Ġremove":10768,"Ġ32":10769,"Ġsistone":10770,"ĠfullstÃ¤nd":10771,"rÃ¤k":10772,"Ġhoppade":10773,"Ġsjuka":10774,"ippa":10775,"Ġdrove":10776,"ĠsÃ¶ta":10777,"Ġmessages":10778,"Ġfactory":10779,"Ġrykte":10780,"Ġdistur":10781,"ĠBarbara":10782,"Ġsituationen":10783,"Ġlesson":10784,"Ġgrabbar":10785,"Ġpopular":10786,"Ġentirely":10787,"ĠEdward":10788,"Ġthreatened":10789,"Ġheroin":10790,"tember":10791,"Ġriskerar":10792,"ĠÃ¥ngra":10793,"ĠtÃ¥get":10794,"ĠBailey":10795,"ĠskrÃ¤mmande":10796,"Snyggt":10797,"ĠEthan":10798,"Ġroute":10799,"ropriate":10800,".?":10801,"Cor":10802,"Hund":10803,"Mel":10804,"Run":10805,"Us":10806,"Van":10807,"bjÃ¶d":10808,"ky":10809,"mÃ¥n":10810,"ped":10811,"riter":10812,"wan":10813,"stat":10814,"still":10815,"Ġpaket":10816,"Ġku":10817,"ttag":10818,"owder":10819,"aman":10820,"Ġstul":10821,"rab":10822,"ĠMitt":10823,"Ġdebt":10824,"enter":10825,"Ġshake":10826,"ĠDun":10827,"ĠDiego":10828,"Ġtrou":10829,"Ġavund":10830,"ĠNÃ¥n":10831,"ĠLand":10832,"ĠOwen":10833,"Ġbluff":10834,"Ġsports":10835,"Ġutre":10836,"Ġprosec":10837,"ĠslÃ¤":10838,"Ġarmed":10839,"ĠWatch":10840,"Ġlear":10841,"Ġconstant":10842,"Ġbrains":10843,"Ġtider":10844,"Ġclue":10845,"Ġsakerna":10846,"Start":10847,"naren":10848,"Ġhits":10849,"Ġmissa":10850,"shot":10851,"Ġtrauma":10852,"ĠsjÃ¤lvklart":10853,"Ã¶jd":10854,"ĠmÃ¤nnen":10855,"Ġphones":10856,"Skjut":10857,"OUND":10858,"Ġendast":10859,"standing":10860,"Ġregister":10861,"ĠsÃ¶ka":10862,"ĠvÃ¤ska":10863,"ĠStew":10864,"Ġfavour":10865,"ĠfortsÃ¤tt":10866,"Ġfourth":10867,"Ġfoto":10868,"Ġdistance":10869,"known":10870,"ĠJulie":10871,"Ġbyggnad":10872,"Ġfredag":10873,"givare":10874,"Ġuppdraget":10875,"Ġconsidered":10876,"Ġviolent":10877,"Ġslowly":10878,"Ġbaseball":10879,"Ġsuccessful":10880,"Ġauthority":10881,"Ġskojar":10882,"ĠklÃ¤nning":10883,"ĠVincent":10884,"Ġguarantee":10885,"veillance":10886,"BLE":10887,"Jess":10888,"Lou":10889,"MÃ¤n":10890,"Ten":10891,"Ted":10892,"aver":10893,"dar":10894,"sor":10895,"vatten":10896,"Ġpoker":10897,"Ġink":10898,"Ġcris":10899,"Ġbegg":10900,"ĠbevÃ¤p":10901,"Ġrow":10902,"Ġrange":10903,"Ġskv":10904,"Ġskru":10905,"rack":10906,"Ġrekl":10907,"imer":10908,"see":10909,"ods":10910,"ĠMina":10911,"ĠDown":10912,"ĠCy":10913,"ĠCas":10914,"uno":10915,"lyss":10916,"dest":10917,"Ġloving":10918,"ĠLas":10919,"Ġability":10920,"ĠFrÃ¥n":10921,"ĠplÃ¥n":10922,"Ġplikt":10923,"Ġatmos":10924,"Ġveter":10925,"uckit":10926,"ĠÃ¶verd":10927,"Ġserved":10928,"berry":10929,"ĠvÃ¤nnen":10930,"StÃ¥":10931,"Ġteck":10932,"Ġparties":10933,"ĠThink":10934,"inson":10935,"Ġmoments":10936,"Ġpassing":10937,"ĠlÃ¤ngs":10938,"Ġbrydde":10939,"ĠhÃ¤mnas":10940,"Ġskadar":10941,"ĠfÃ¶rbÃ¤tt":10942,"ynam":10943,"Ġawkward":10944,"Ġbudget":10945,"Ġzone":10946,"Ġbotten":10947,"Ġbandet":10948,"Unfortunately":10949,"ification":10950,"Ġjudgment":10951,"Ġkissed":10952,"ĠPrecis":10953,"Steve":10954,"Ġsmells":10955,"urtis":10956,"Ġsquad":10957,"Ġedge":10958,"Ġlyssnade":10959,"Ġutomjord":10960,"Ġavskyr":10961,"Ġcustody":10962,"ĠtrÃ¤dgÃ¥rd":10963,"Ġslagit":10964,"ĠValent":10965,"Svara":10966,"Ġdetalj":10967,"ĠbrÃ¥ka":10968,"Ġfunnits":10969,"ĠgrÃ¤va":10970,"ĠPierce":10971,"Ġappointment":10972,"Ġdisgusting":10973,"BUT":10974,"End":10975,"Fel":10976,"Fakt":10977,"LÃ¤get":10978,"Sol":10979,"Tala":10980,"bage":10981,"fore":10982,"iro":10983,"nity":10984,"rett":10985,"rina":10986,"Ġsale":10987,"Ġda":10988,"ĠbÃ¶n":10989,"ĠgÃ¤ster":10990,"stud":10991,"rell":10992,"Ġpj":10993,"Ġpy":10994,"Ġkring":10995,"Ġlake":10996,"isf":10997,"Ġiniti":10998,"elect":10999,"Ġbeating":11000,"ĠrÃ¥tt":11001,"ĠfÃ¶rne":11002,"Ġstall":11003,"Ġstake":11004,"Ġmechan":11005,"Ġonda":11006,"urer":11007,"Ġmedborg":11008,"ĠCool":11009,"ĠCOM":11010,"Ġsection":11011,"ĠTem":11012,"ĠGri":11013,"ĠLug":11014,"ĠOw":11015,"tail":11016,"ffin":11017,"Ã¥gor":11018,"Ġutby":11019,"ĠutmÃ¤rkt":11020,"Ġnotes":11021,"Ġorange":11022,"Ġalbum":11023,"Ġslump":11024,"Ġbroder":11025,"laine":11026,"ikes":11027,"Ġfloden":11028,"Ġhandla":11029,"ipment":11030,"ogg":11031,"Ġpoet":11032,"Ġtids":11033,"Ġdagarna":11034,"ĠStone":11035,"Ġstilla":11036,"Harry":11037,"ĠlÃ¥st":11038,"ĠShh":11039,"ĠShel":11040,"pencer":11041,"Ġending":11042,"Ġregn":11043,"Ġskriker":11044,"Ġpuss":11045,"ĠTHEY":11046,"ĠFÃ¶rs":11047,"ĠAnthony":11048,"Ġswing":11049,"Ġtjejerna":11050,"Ġpojk":11051,"ynn":11052,"Ġmillions":11053,"kommend":11054,"agged":11055,"fallet":11056,"Ġfootage":11057,"ĠWHO":11058,"Ġrymden":11059,"ĠNeil":11060,"ĠOlivia":11061,"Ġarrive":11062,"ĠEuropa":11063,"ĠStanley":11064,"ĠkÃ¤llaren":11065,"ĠmÃ¤rkligt":11066,"ĠAustral":11067,"ĠfÃ¶rvirrad":11068,"Ġgruppen":11069,"ĠhÃ¤ftigt":11070,"Konst":11071,"ĠMajesty":11072,"ĠInspector":11073,"Ġrevenge":11074,"ĠVirginia":11075,"AC":11076,"Either":11077,"Fix":11078,"Mind":11079,"MAN":11080,"Sw":11081,"eels":11082,"oa":11083,"pite":11084,"power":11085,"vat":11086,"Ġtusan":11087,"Ġsly":11088,"ĠhÃ¤n":11089,"Ġhire":11090,"Ġmel":11091,"Ã¥st":11092,"Ġbens":11093,"Ġwing":11094,"Ġwide":11095,"Ã¶var":11096,"Ġjokes":11097,"Ġune":11098,"ĠursÃ¤kta":11099,"Ġduger":11100,"Ġrack":11101,"ĠfÃ¶rÃ¤lsk":11102,"amber":11103,"utan":11104,"ĠrejÃ¤l":11105,"Ġancient":11106,"ĠMonday":11107,"Ġdeck":11108,"ĠHart":11109,"Ġfrid":11110,"ĠDem":11111,"ĠBaby":11112,"rict":11113,"acker":11114,"ĠLiv":11115,"ĠLock":11116,"tav":11117,"ĠPan":11118,"ĠRog":11119,"Ġkomment":11120,"ĠKenn":11121,"Dear":11122,"Ġserie":11123,"ipa":11124,"ĠfÃ¶rslag":11125,"iac":11126,"Ġque":11127,"ĠhÃ¶rnet":11128,"Ġdiagn":11129,"ĠtrÃ¤na":11130,"Ġfarliga":11131,"Ġfunka":11132,"Ġwriter":11133,"Ġtrees":11134,"oyd":11135,"Ġassass":11136,"Ġkinds":11137,"Ġvilse":11138,"ĠMargaret":11139,"Ġcrimes":11140,"minister":11141,"Ġkrit":11142,"Ġhundar":11143,"ĠstÃ¶ra":11144,"Ġconfer":11145,"Ġemotional":11146,"Ġhighly":11147,"ĠjÃ¤ttef":11148,"ĠhÃ¥rda":11149,"Marc":11150,"resse":11151,"Ġleading":11152,"ĠParker":11153,"Ġkarakt":11154,"Ġcloset":11155,"ĠElliot":11156,"Ġrestaurang":11157,"ĠklÃ¤derna":11158,"Ġbeskydd":11159,"imming":11160,"Backa":11161,"Ġutredning":11162,"Ġexamen":11163,"Ġmisslyckas":11164,"stitute":11165,"ĠÃ¶verlevde":11166,"Ġsiffror":11167,"ĠÃ¤ventyr":11168,"Ġsommaren":11169,"Ain":11170,"Billy":11171,"Cal":11172,"Kalla":11173,"Mag":11174,"Up":11175,"bid":11176,"cles":11177,"mun":11178,"oop":11179,"rÃ¥k":11180,"sighs":11181,"anj":11182,"ansk":11183,"Ġfence":11184,"Ġbaj":11185,"Ã¶ser":11186,"Ġinb":11187,"Ġinit":11188,"Ġinbrott":11189,"Ġcutting":11190,"otch":11191,"otion":11192,"otic":11193,"ĠfÃ¶rsk":11194,"Ġep":11195,"uther":11196,"Ġmeal":11197,"Ã¤nkt":11198,"Ġreakt":11199,"Ġrepar":11200,"Ġanlit":11201,"ĠHoll":11202,"ĠBall":11203,"ĠBetty":11204,"ript":11205,"Dum":11206,"Ġavs":11207,"Ġhann":11208,"icing":11209,"Ġspott":11210,"ĠEM":11211,"Ġuppgifter":11212,"endÃ¶r":11213,"Ġprovid":11214,"Ġarmar":11215,"Ġoffering":11216,"ĠgrÃ¤v":11217,"asey":11218,"Ġflaska":11219,"ĠtvÃ¤tta":11220,"Ġglor":11221,"ĠDuke":11222,"Ġsystemet":11223,"Ġstretch":11224,"Ġbelow":11225,"INE":11226,"ĠmÃ¥nen":11227,"ĠmÃ¥naden":11228,"Ġnightmare":11229,"Being":11230,"Ġensamma":11231,"uffy":11232,"ANG":11233,"Ġcomplain":11234,"ORT":11235,"Ġkunskap":11236,"ĠArmy":11237,"ĠhÃ¶gsta":11238,"Ġadvantage":11239,"Ġbenet":11240,"Ġreported":11241,"initely":11242,"Ġexplan":11243,"ĠRoad":11244,"ĠMarty":11245,"ĠhÃ¶ga":11246,"Ġkompisar":11247,"Ġrapport":11248,"Danny":11249,"ĠCalifornia":11250,"Ġeasily":11251,"Ġequipment":11252,"Jeff":11253,"Ġdiamond":11254,"Ġastron":11255,"ĠGabriel":11256,"ĠlÃ¶rdag":11257,"23":11258,"Down":11259,"Had":11260,"Nor":11261,"TE":11262,"five":11263,"kla":11264,"nel":11265,"zed":11266,"Ġfashion":11267,"Ġven":11268,"agine":11269,"ĠnÃ¤":11270,"Ġknack":11271,"Ġlille":11272,"ĠlÃ¶jligt":11273,"Ġjet":11274,"Ġrise":11275,"Ġrandom":11276,"ĠfÃ¶rrÃ¤":11277,"Ġmesta":11278,"Ġanonym":11279,"ĠMO":11280,"riva":11281,"skomm":11282,"Ġchip":11283,"Ġutpress":11284,"ĠKarl":11285,"ĠVÃ¤l":11286,"ablo":11287,"osite":11288,"Ġalibi":11289,"Ġleks":11290,"ÃĦntligen":11291,"Ġbye":11292,"Ġprevent":11293,"ĠsmÃ¶r":11294,"ĠYo":11295,"acey":11296,"Ġhelps":11297,"Ġscan":11298,"slagen":11299,"Ġroy":11300,"Ġtrained":11301,"ĠVadÃ¥":11302,"annon":11303,"Ġbitter":11304,"Ġtjock":11305,"OUR":11306,"Ġcompan":11307,"Ġexpla":11308,"Ġbroad":11309,"Ġregel":11310,"unting":11311,"Ġkriminal":11312,"Ġoblig":11313,"Ġacqu":11314,"ĠrÃ¶ka":11315,"Ġaffair":11316,"Ġbetyda":11317,"Goodbye":11318,"Ġdomin":11319,"ĠFrankie":11320,"Ġbilderna":11321,"Ġbokstav":11322,"orgeous":11323,"Ġgrandmother":11324,"Ġcentury":11325,"Ġleads":11326,"Typ":11327,"Ġprogrammet":11328,"Ġdevice":11329,"Ġpretending":11330,"Ġtvinga":11331,"ĠtillfÃ¤llet":11332,"ĠsvÃ¥rare":11333,"Ġkyssa":11334,"Ġknulla":11335,"Ġstryk":11336,"Ġdetaljer":11337,"ibbs":11338,"Ġbeteende":11339,"ÃĦnnu":11340,"\"-":11341,"90":11342,"Ken":11343,"LES":11344,"Mil":11345,"Tommy":11346,"fish":11347,"fred":11348,"huvud":11349,"rence":11350,"rÃ¥gas":11351,"uin":11352,"vere":11353,"Ã¸":11354,"erare":11355,"Ġbump":11356,"Ġwire":11357,"Ġpushing":11358,"Ġnat":11359,"Ġlej":11360,"Ġcand":11361,"Ġjakt":11362,"Ġjung":11363,"Ġrak":11364,"verna":11365,"Ġskam":11366,"Ġrekommend":11367,"urd":11368,"Ġdott":11369,"ĠMill":11370,"Ġdece":11371,"antha":11372,"ĠTerry":11373,"Ġloser":11374,"ĠLane":11375,"ĠOld":11376,"Ã¤gen":11377,"ĠPenny":11378,"ĠFinn":11379,"ober":11380,"Ġexer":11381,"Ġasham":11382,"ÃĦN":11383,"Ġdemand":11384,"ĠÃ¶vervÃ¤g":11385,"Ġseri":11386,"Ġkills":11387,"ockey":11388,"ugs":11389,"ĠhemifrÃ¥n":11390,"ontin":11391,"ĠvÃ¤lsig":11392,"Ġimpa":11393,"Ġelever":11394,"Ġelden":11395,"Ġwherever":11396,"Ġcooper":11397,"eks":11398,"Ġgeni":11399,"saac":11400,"Ġcounsel":11401,"Ġspelare":11402,"Ġbesatt":11403,"Ġstays":11404,"ĠMarie":11405,"Ġunderstanding":11406,"Ġresour":11407,"Ġmagnet":11408,"Ġmusiken":11409,"Ġlegat":11410,"Ġreput":11411,"Ġmodig":11412,"ĠSkulle":11413,"Ġidioter":11414,"Ġsimilar":11415,"Ġrutt":11416,"ĠUnivers":11417,"Ġsatisf":11418,"ĠmÃ¶rdad":11419,"ĠANY":11420,"Ġriding":11421,"Ġleaders":11422,"Ġjoint":11423,"ameron":11424,"ĠlÃ¥gt":11425,"Ġrefle":11426,"arbete":11427,"Ġfundera":11428,"Ġconsidering":11429,"Ġresultat":11430,"Ġuppfatt":11431,"Ġprovide":11432,"Daddy":11433,"ĠmilitÃ¤r":11434,"Ġuniversitet":11435,"ĠÃ¶ron":11436,"Ġimmun":11437,"Ġacceptera":11438,"ĠfÃ¶rhind":11439,"ĠskÃ¤mtar":11440,"Ġstabil":11441,"Ġutnyttj":11442,"Ġtokig":11443,"ĠCastle":11444,"ĠnÃ¤san":11445,"Ġforeign":11446,"Ġmuseum":11447,"mÃ¶rdare":11448,"ĠfÃ¶rmodligen":11449,"ĠAfghan":11450,"Ġfrivill":11451,"Ġashamed":11452,"200":11453,"BÃ¥da":11454,"Jan":11455,"Sitt":11456,"Toppen":11457,"bal":11458,"gl":11459,"iction":11460,"jun":11461,"lats":11462,"rigt":11463,"una":11464,"woman":11465,"Ġsumm":11466,"Ġmars":11467,"Ġfas":11468,"Ġfella":11469,"Ġfakta":11470,"Ġna":11471,"Ġnom":11472,"Ġnick":11473,"Ġnasty":11474,"Ġkla":11475,"Ġkyl":11476,"Ġinled":11477,"ĠÃ¤ran":11478,"Ġreck":11479,"odge":11480,"Ġdozen":11481,"ĠHome":11482,"Ġknee":11483,"ĠDonna":11484,"ĠBert":11485,"ctic":11486,"Ġavst":11487,"ĠTR":11488,"ĠGus":11489,"icles":11490,"ĠLincoln":11491,"Ġspare":11492,"ĠFolk":11493,"uled":11494,"ĠRey":11495,"Ġhelg":11496,"ability":11497,"Ġifred":11498,"Ġark":11499,"ĠerbjÃ¶d":11500,"ission":11501,"Ġcondu":11502,"Ġtav":11503,"slet":11504,"slut":11505,"Ġfarmor":11506,"Ġmissat":11507,"Ġassure":11508,"ĠfrÃ¥gat":11509,"Ġgear":11510,"Ġcourage":11511,"Ġsurveillance":11512,"ARK":11513,"ARS":11514,"Seems":11515,"Ã¶kning":11516,"Ġmagn":11517,"Ġsweat":11518,"ĠsÃ¶ndag":11519,"ĠBeh":11520,"ĠBlake":11521,"Anyone":11522,"Ġhatade":11523,"ĠCharlotte":11524,"ĠmÃ¤rker":11525,"Ġmadam":11526,"prov":11527,"Ġlevt":11528,"Ġkroppar":11529,"Ġsales":11530,"Ġdarkness":11531,"stitution":11532,"Synd":11533,"ĠPlay":11534,"ĠdÃ¶ljer":11535,"Ġdescribe":11536,"ĠfjÃ¤rde":11537,"ĠfÃ¶reslÃ¥r":11538,"Ġexecut":11539,"Ġtelevision":11540,"BÃ¶rja":11541,"Calm":11542,"Liz":11543,"Mon":11544,"Major":11545,"Po":11546,"VÃ¤n":11547,"bow":11548,"hjÃ¤l":11549,"hattan":11550,"pot":11551,"sd":11552,"vida":11553,"with":11554,"xorna":11555,"inic":11556,"arly":11557,"aries":11558,"Ġfishing":11559,"Ġbone":11560,"Ġbrick":11561,"Ġwave":11562,"atiskt":11563,"Ã¶gen":11564,"Ġvo":11565,"Ġvess":11566,"Ġpiano":11567,"Ġlap":11568,"Ġlider":11569,"Ġinkl":11570,"Ġcel":11571,"vember":11572,"Ġdun":11573,"alien":11574,"Ġrust":11575,"Ġrens":11576,"ĠfÃ¶rvar":11577,"Ġitu":11578,"Ã¤nka":11579,"ĠMig":11580,"ĠMass":11581,"Ã¥ren":11582,"ĠHIM":11583,"Ġmynd":11584,"Ġshark":11585,"antic":11586,"ĠtrÃ¶":11587,"Ġminor":11588,"Ġminister":11589,"ĠTan":11590,"ĠRand":11591,"ĠKolla":11592,"ĠEarl":11593,"gav":11594,"ĠValley":11595,"abet":11596,"kerna":11597,"ĠWy":11598,"Ġnucle":11599,"Ġalltihop":11600,"Ġconcl":11601,"ava":11602,"pert":11603,"Ġsmooth":11604,"Ġdruckit":11605,"ocks":11606,"opped":11607,"Ġshoulder":11608,"ĠhÃ¶rs":11609,"Ġbefinner":11610,"Ġpolare":11611,"Ġnewsp":11612,"Ġinsult":11613,"Ã©s":11614,"aily":11615,"ĠHarold":11616,"Ġkonf":11617,"troligt":11618,"Ġuseful":11619,"Ġannounce":11620,"Ġwarri":11621,"Ġmagen":11622,"Ġsentence":11623,"Ġconfidence":11624,"Ġfreaking":11625,"Ġoperationen":11626,"ĠsjÃ¶n":11627,"ĠmÃ¤rke":11628,"ĠfÃ¶rfatt":11629,"Ġsympt":11630,"Ġerbjudande":11631,"Ġelection":11632,"ĠstjÃ¤rna":11633,"ĠSwed":11634,"ĠlÃ¶gner":11635,"Ġpossibility":11636,"Ġagreement":11637,"ĠRicky":11638,"Tjej":11639,"Ġdesigned":11640,"helst":11641,"Ġreligion":11642,"Ġvinden":11643,"ĠvÃ¥ningen":11644,"ĠRepubl":11645,"ĠbrÃ¤nna":11646,"vapen":11647,"ĠCounty":11648,"60":11649,"App":11650,"Dar":11651,"Fint":11652,"Lord":11653,"Sher":11654,"SÃ¤rskilt":11655,"Tio":11656,"Won":11657,"bi":11658,"ij":11659,"she":11660,"{\\":11661,"ĠtÃ¶m":11662,"ency":11663,"Ã¤sk":11664,"ĠmÃ¶n":11665,"eton":11666,"ĠfÃ¤lla":11667,"Ġgissa":11668,"agh":11669,"Ġnj":11670,"Ġlt":11671,"Ġcave":11672,"chester":11673,"Ġduss":11674,"ali":11675,"Ġbeast":11676,"ĠstÃ¤da":11677,"ĠpÃ¥verk":11678,"Ġanteck":11679,"Ġliqu":11680,"ĠHappy":11681,"Ġfris":11682,"Ġshout":11683,"ĠNOW":11684,"Ġsail":11685,"Ġspons":11686,"Ġchips":11687,"Ġskap":11688,"ĠRussell":11689,"istry":11690,"Ġfinner":11691,"Ġherregud":11692,"ĠKon":11693,"ĠEfter":11694,"abor":11695,"osc":11696,"Ġarrog":11697,"Ġingred":11698,"onger":11699,"Ġcontest":11700,"ikation":11701,"ureau":11702,"Ġprecious":11703,"ĠChina":11704,"spir":11705,"ĠefterÃ¥t":11706,"Ġelimin":11707,"ĠVic":11708,"Ġmotion":11709,"ammed":11710,"Ġwaited":11711,"ÃħN":11712,"awson":11713,"Ġrecall":11714,"ipper":11715,"Ġaccent":11716,"Ġpussy":11717,"Ġdealer":11718,"Almost":11719,"ĠSeattle":11720,"Ġmidnight":11721,"Ġmurders":11722,"Ġhearts":11723,"Ġdessert":11724,"Ġmodell":11725,"ĠbehÃ¶vt":11726,"Ġrude":11727,"ĠFrankrike":11728,"Ġantagligen":11729,"Ġjoined":11730,"Ġinspel":11731,"ĠGuy":11732,"bury":11733,"Ġpatienter":11734,"Pretty":11735,"ĠfÃ¶rmÃ¥ga":11736,"Ġnegat":11737,"Ġoccur":11738,"Ġmaintain":11739,"Ġoptions":11740,"Ġriskera":11741,"Ã¡n":11742,"Ġsmakar":11743,"Ġcollection":11744,"Bobby":11745,"Ġdocument":11746,"ĠskilsmÃ¤ss":11747,"ĠfÃ¥gel":11748,"Ġdisappointed":11749,"Ġmaxim":11750,"Ġhalvtimme":11751,"Ġtjuv":11752,"Richard":11753,"Ġfinancial":11754,"bastian":11755,"ĠnÃ¤rmaste":11756,"Ġconference":11757,"Akta":11758,"Holy":11759,"Ron":11760,"bul":11761,"born":11762,"yard":11763,"zon":11764,"ĠÃĸver":11765,"Ã¤dda":11766,"Ġmelt":11767,"Ġbly":11768,"Ġvig":11769,"agna":11770,"agent":11771,"stolen":11772,"Ġpurs":11773,"Ġnin":11774,"Ġlapp":11775,"Ġinre":11776,"Ġcandid":11777,"Ġskitsnack":11778,"sequ":11779,"alleng":11780,"ĠHor":11781,"ĠHomer":11782,"Ġfranska":11783,"ĠomstÃ¤nd":11784,"ĠBab":11785,"ĠBook":11786,"skr":11787,"ĠGene":11788,"ĠLena":11789,"Ġsoff":11790,"Ġsabb":11791,"Ġchill":11792,"uments":11793,"ĠklÃ¤d":11794,"Ġbyn":11795,"Ġuncom":11796,"Ġunderwear":11797,"iple":11798,"Ġsmoking":11799,"Ġhappiness":11800,"Ġcloud":11801,"Ġhelpful":11802,"Doctor":11803,"Ġsystrar":11804,"Ġplanerar":11805,"Ġmisshand":11806,"ĠrÃ¤ttvisa":11807,"klubb":11808,"Ġcarried":11809,"ĠlÃ¥da":11810,"Ġremoved":11811,"ottan":11812,"ATE":11813,"Ġsupply":11814,"Ġsjukt":11815,"Ġprize":11816,"Ġcraw":11817,"Chuck":11818,"Ġswimming":11819,"ĠDennis":11820,"ĠfÃ¶restÃ¤lla":11821,"Ġfortsatte":11822,"Bli":11823,"ennis":11824,"Ġsidor":11825,"LEY":11826,"ĠMinister":11827,"ĠrÃ¶rde":11828,"Ġships":11829,"FÃ¶rsÃ¶ker":11830,"Ġcircle":11831,"ĠmÃ¶rda":11832,"Ġparken":11833,"ĠMorris":11834,"Ġhomosex":11835,"ĠPhilip":11836,"Ġsearching":11837,"ĠsmÃ¤rt":11838,"ĠÃĦR":11839,"Ġirrit":11840,"Ġreceive":11841,"ÃĦlskar":11842,"ĠHalloween":11843,"Ġkrossa":11844,"Ġorigin":11845,"ĠMurphy":11846,"ĠLOOK":11847,"ĠpÃ¥verkar":11848,"looking":11849,"Ġnjuta":11850,"ĠnÃ¶dvÃ¤ndigt":11851,"Ġcircumstances":11852,"ĠAvenue":11853,"Ġexplanation":11854,"Dessa":11855,"Fri":11856,"GHT":11857,"James":11858,"Kat":11859,"Kim":11860,"Klar":11861,"Kvinn":11862,"LA":11863,"Mo":11864,"Mur":11865,"Matt":11866,"PR":11867,"Pe":11868,"craft":11869,"glar":11870,"jack":11871,"ls":11872,"lies":11873,"uga":11874,"Ġtutt":11875,"Ġaunt":11876,"Ġded":11877,"Ġfej":11878,"Ġfla":11879,"Ġbol":11880,"aterna":11881,"atory":11882,"Ġgry":11883,"Ġpant":11884,"Ġosyn":11885,"Ġcandy":11886,"ases":11887,"oto":11888,"oten":11889,"Ġros":11890,"Ġego":11891,"ĠpÃ¥stÃ¥r":11892,"Ġrein":11893,"Ġlifet":11894,"Ġwest":11895,"olas":11896,"ĠDal":11897,"ĠDur":11898,"ĠBACK":11899,"cting":11900,"Ã¤ls":11901,"okrat":11902,"ĠTen":11903,"east":11904,"ĠNap":11905,"Ġlova":11906,"ications":11907,"ĠJune":11908,"ĠLE":11909,"ĠOpen":11910,"Ġblown":11911,"Ġoutfit":11912,"ĠFire":11913,"Ġchances":11914,"ĠgÃ¶ras":11915,"ĠRalph":11916,"ourse":11917,"Ġprincess":11918,"ables":11919,"Ġuppd":11920,"Ġuppn":11921,"Ġupple":11922,"ĠWant":11923,"ordet":11924,"ollar":11925,"Ġunh":11926,"Ġungen":11927,"ĠChan":11928,"ĠUr":11929,"Ġsaknat":11930,"Ġelak":11931,"ached":11932,"ĠStanna":11933,"angel":11934,"ĠrÃ¤ttigheter":11935,"Ġactive":11936,"visor":11937,"oyle":11938,"Ã©e":11939,"Ġcouch":11940,"Ġplayers":11941,"ĠShaw":11942,"Ġfalla":11943,"Ġmonitor":11944,"loria":11945,"rÃ¤dd":11946,"delning":11947,"Ġcommer":11948,"Ġkollega":11949,"ĠlÃ¶st":11950,"Ġmagazine":11951,"Ġteamet":11952,"Ġlyckats":11953,"Ġretire":11954,"Ġhata":11955,"Ġolagligt":11956,"Ġpressen":11957,"Ġdistract":11958,"ikerna":11959,"Ġpacked":11960,"ĠhÃ¤lsar":11961,"ĠColin":11962,"Ġlevels":11963,"Ġcapital":11964,"Play":11965,"Ġsovit":11966,"ĠCoach":11967,"Helvete":11968,"Ġbibliote":11969,"osaur":11970,"Ġwitnesses":11971,"Scott":11972,"Ġestate":11973,"Ġintelligent":11974,"splats":11975,"Flytta":11976,"Ġsparka":11977,"Absolutely":11978,"Ġdyrt":11979,"ĠJapanese":11980,"Ġlokal":11981,"ĠFROM":11982,"Ġindustry":11983,"Ġzombie":11984,"ĠglÃ¤dje":11985,"ĠTIME":11986,"Martin":11987,"Ġdetermin":11988,"70":11989,"Ans":11990,"Kate":11991,"Mal":11992,"Mac":11993,"Such":11994,"Ur":11995,"Use":11996,"cut":11997,"cred":11998,"fire":11999,"fia":12000,"karl":12001,"lÃ¤nd":12002,"poj":12003,"ĠÃ¥n":12004,"Ġhill":12005,"Ġhorn":12006,"Ġfuel":12007,"Ġwolf":12008,"Ã¶tter":12009,"Ġgorgeous":12010,"Ġkurs":12011,"Ġoxy":12012,"ednes":12013,"Ġjew":12014,"illo":12015,"Ġattend":12016,"Detective":12017,"ĠSA":12018,"ĠSix":12019,"Ġrebell":12020,"Ġanar":12021,"ĠDana":12022,"Ġtrubb":12023,"Ġtrunk":12024,"ĠBR":12025,"ĠavgÃ¶ra":12026,"ĠNev":12027,"Ġloan":12028,"ĠLeave":12029,"ĠOff":12030,"ĠFox":12031,"Ġutrymm":12032,"ĠKid":12033,"ĠKai":12034,"osal":12035,"Ġsup":12036,"Ġbackground":12037,"ĠgrÃ¤t":12038,"Ġmercy":12039,"slan":12040,"ĠdÃ¶dad":12041,"Ġpersonliga":12042,"Ġkunder":12043,"rets":12044,"Ġfriendship":12045,"ĠvÃ¤gg":12046,"klass":12047,"klÃ¤der":12048,"Ã¶jer":12049,"ĠbestÃ¤ll":12050,"Ãħter":12051,"Ġexpress":12052,"ĠMartha":12053,"Ġbegins":12054,"Ġtackar":12055,"Ġmeters":12056,"ĠrÃ¤ddar":12057,"Ġdecor":12058,"Ġdecent":12059,"Ġrepet":12060,"Ġmarks":12061,"Ġmarknad":12062,"ĠjÃ¤tte":12063,"Tillbaka":12064,"Sergeant":12065,"ĠskrÃ¤mma":12066,"Ã¶ljer":12067,"ĠPhill":12068,"agging":12069,"Ġengaged":12070,"ĠDidn":12071,"Ġpackage":12072,"problem":12073,"ĠConnor":12074,"ĠfÃ¶rlov":12075,"Ġvittne":12076,"Ġvictory":12077,"ĠrÃ¤knas":12078,"Ġwallet":12079,"Ġopposite":12080,"Ġfunderat":12081,"Ġsurvived":12082,"Ġfiring":12083,"ĠIndian":12084,"Ġstealing":12085,"ĠCommander":12086,"Ġvacc":12087,"Ġbetrayed":12088,"ĠMickey":12089,"ĠStephen":12090,"Ġhustru":12091,"ministern":12092,"Ġnonsense":12093,"Ġparanoid":12094,"Ġconfirmed":12095,"Ġtattoo":12096,"ednesday":12097,"Eddie":12098,"Fil":12099,"Gick":12100,"Ly":12101,"Life":12102,"Lita":12103,"Mannen":12104,"Part":12105,"Walter":12106,"belt":12107,"lers":12108,"made":12109,"mjuk":12110,"rer":12111,"vÃ¤ll":12112,"water":12113,"Ġtusentals":12114,"Ġtatu":12115,"inter":12116,"Ġdiss":12117,"Ġbart":12118,"Ġwreck":12119,"oring":12120,"Ġgat":12121,"Ġpink":12122,"Ġyard":12123,"Ġkaos":12124,"Ġduck":12125,"Ġbeord":12126,"Ġstro":12127,"Ġstabb":12128,"Ġsommar":12129,"ĠSC":12130,"Ġdegree":12131,"ĠHoney":12132,"ĠBas":12133,"rial":12134,"sken":12135,"ĠTj":12136,"ĠTry":12137,"ĠToo":12138,"ĠTodd":12139,"ĠPapa":12140,"Ġsocker":12141,"ĠRud":12142,"auff":12143,"Ġuseless":12144,"Ġbride":12145,"Ġleker":12146,"Javisst":12147,"Ġpremi":12148,"ĠunderrÃ¤tt":12149,"splan":12150,"isha":12151,"Ġberoende":12152,"ĠNoah":12153,"Ġcoinc":12154,"slaget":12155,"Ġmole":12156,"leveland":12157,"othy":12158,"Ġtreasure":12159,"Ġcarefully":12160,"Ġsexig":12161,"Ġorden":12162,"innie":12163,"ATH":12164,"Ã¥let":12165,"ĠAlbert":12166,"vÃ¤rder":12167,"Ġlanded":12168,"Ġtomt":12169,"Ġkrimin":12170,"ISS":12171,"stÃ¤llningen":12172,"Ã¤karen":12173,"ĠfÃ¶rvÃ¤ntar":12174,"Ġeaten":12175,"Ġinstrum":12176,"Exactly":12177,"Ġrisken":12178,"Ġwindows":12179,"FÃ¶rsvinn":12180,"ĠfÃ¶rlÃ¥ta":12181,"Ġvittnen":12182,"Ġdansar":12183,"Grand":12184,"ĠAlexander":12185,"ĠlÃ¤karen":12186,"Ġglasses":12187,"Ġdeserves":12188,"Ġgarbage":12189,"ĠLouise":12190,"ĠSnow":12191,"Ġkingdom":12192,"Ġerbjuda":12193,"ĠFreddy":12194,"urally":12195,"Ġkyrk":12196,"Ġgolden":12197,"Ġaudition":12198,"ĠGermany":12199,"ĠhÃ¶jd":12200,"Robert":12201,"Ġtorture":12202,"Ġbasketball":12203,"ĠrÃ¤ttegÃ¥ng":12204,"Tonight":12205,"ĠUniversity":12206,"ĠAfghanistan":12207,"Fru":12208,"Ind":12209,"Long":12210,"Poor":12211,"Ryan":12212,"Sju":12213,"TT":12214,"famil":12215,"girl":12216,"gÃ¶ren":12217,"hm":12218,"holm":12219,"marna":12220,"now":12221,"oen":12222,"polisen":12223,"tur":12224,"vil":12225,"Ġthick":12226,"Ã¥ld":12227,"Ġbars":12228,"ington":12229,"Ġpry":12230,"Ġkarl":12231,"edi":12232,"Ġbevak":12233,"ĠfÃ¶rk":12234,"Ġhast":12235,"ĠSpencer":12236,"outher":12237,"usted":12238,"ĠHade":12239,"ĠHIS":12240,"Ġshitty":12241,"ĠTurn":12242,"ĠTrev":12243,"ĠKong":12244,"ÃĦt":12245,"Ġverka":12246,"quar":12247,"Ġgrader":12248,"indy":12249,"fton":12250,"Ġintens":12251,"Ġign":12252,"ideon":12253,"Ġdagens":12254,"bbie":12255,"Ġeleg":12256,"Ġstrand":12257,"Ġstranger":12258,"Ġremote":12259,"Ġspelat":12260,"Ġdriva":12261,"alking":12262,"Whoever":12263,"ĠÃ¤ndrade":12264,"Ġbegra":12265,"Ġklarat":12266,"Ġchildhood":12267,"ĠlÃ¥ngsamt":12268,"iety":12269,"Ġpathetic":12270,"ĠlÃ¥tit":12271,"ASA":12272,"Ġbury":12273,"Ġfacts":12274,"Ġlatest":12275,"ĠskrÃ¤mde":12276,"Ġvapnen":12277,"Ġmiljarder":12278,"Ġprofile":12279,"Ġcorrupt":12280,"Ġrykt":12281,"Ġbanken":12282,"ĠaffÃ¤ren":12283,"Ġtwist":12284,"Wouldn":12285,"Meet":12286,"Ġkostym":12287,"Ġrequire":12288,"ĠhÃ¤x":12289,"atalie":12290,"ĠsmÃ¤rtan":12291,"ĠMexiko":12292,"ĠsÃ¶tnos":12293,"Ġbutton":12294,"Ġimpressive":12295,"ĠSEE":12296,"ĠJonathan":12297,"Ġbalance":12298,"Ġdiscip":12299,"Ġlustigt":12300,"ĠerkÃ¤nner":12301,"Ġambulance":12302,"Ġinfluence":12303,"Ġsurface":12304,"ĠMarshall":12305,"Ġescaped":12306,"Ġinjured":12307,"Ġlibrary":12308,"Ġrehears":12309,"Ġlifetime":12310,"Ash":12311,"Bru":12312,"Brian":12313,"Gl":12314,"KÃ¤n":12315,"Might":12316,"NÃ¤m":12317,"Polis":12318,"VEN":12319,"aint":12320,"pol":12321,"post":12322,"point":12323,"sf":12324,"ses":12325,"uf":12326,"Ġagency":12327,"arens":12328,"Ġmak":12329,"Ġthief":12330,"Ġwra":12331,"Ġpit":12332,"Ġpoll":12333,"Ġkredit":12334,"Ġtoss":12335,"aded":12336,"Ġjunk":12337,"ĠfÃ¶rÃ¶d":12338,"ĠstÃ¤mma":12339,"Ġsomeday":12340,"imately":12341,"ademy":12342,"Ġforth":12343,"allas":12344,"ĠAfter":12345,"ĠAugust":12346,"ĠDiane":12347,"ĠCyr":12348,"unning":12349,"rix":12350,"open":12351,"opat":12352,"ĠNÃ¥t":12353,"ĠGPS":12354,"ĠLor":12355,"ĠOlym":12356,"Ġchalleng":12357,"essan":12358,"obs":12359,"ĠuppfÃ¶r":12360,"auer":12361,"Ġsuits":12362,"Ġbron":12363,"Ġexcl":12364,"isses":12365,"Ġintresse":12366,"Ġseries":12367,"Allvarligt":12368,"Ġletat":12369,"Ġsmy":12370,"iah":12371,"ĠgÃ¥rden":12372,"cience":12373,"acher":12374,"blod":12375,"Ġbubb":12376,"xton":12377,"Ġcared":12378,"ĠInst":12379,"jÃ¤rn":12380,"ĠgevÃ¤r":12381,"ottet":12382,"ĠordfÃ¶rande":12383,"Many":12384,"Ġsettled":12385,"Ġkoncentr":12386,"ĠSov":12387,"Ġbarnd":12388,"Ġteams":12389,"Ġconfession":12390,"Ġemotion":12391,"ĠChristopher":12392,"ĠClint":12393,"ektiv":12394,"ĠManhattan":12395,"Ġhistorier":12396,"Ġfotograf":12397,"kommer":12398,"Ġrecording":12399,"ĠAmanda":12400,"Ġungarna":12401,"Ġranch":12402,"Ġcreature":12403,"Ġcreatures":12404,"Steph":12405,"Ġflygplatsen":12406,"afÃ©":12407,"Ġhalluc":12408,"Ġproperly":12409,"Ġuttal":12410,"ĠmisstÃ¤nkta":12411,"Ġsuffered":12412,"ĠlÃ¤genheten":12413,"Ġbegravning":12414,"Ġamerikansk":12415,"Ġoskyldiga":12416,"Speaking":12417,"ĠfÃ¶rbannad":12418,"Ġcastle":12419,"ĠHawai":12420,"ĠJessica":12421,"sprung":12422,"Ġytterligare":12423,"gypt":12424,"Ġglobal":12425,"Ġuppenbarligen":12426,"Ġnuclear":12427,"Bas":12428,"Bort":12429,"Blev":12430,"ECT":12431,"Fattar":12432,"Jam":12433,"Relax":12434,"Tony":12435,"bin":12436,"bas":12437,"hers":12438,"hour":12439,"lon":12440,"part":12441,"ui":12442,"ĠtÃ¶r":12443,"inte":12444,"Ġsoup":12445,"Ġsvek":12446,"Ġaim":12447,"ario":12448,"Ġbacon":12449,"ĠvÃ¤cka":12450,"Ġpip":12451,"Ġporn":12452,"Ġlesb":12453,"edda":12454,"Ġcert":12455,"ĠjÃ¤rn":12456,"Ġdeton":12457,"keep":12458,"Ġanstr":12459,"Ġlikt":12460,"Ġlips":12461,"ĠMust":12462,"ĠHjÃ¤lp":12463,"Ġsharp":12464,"Ġknees":12465,"ĠCoun":12466,"skland":12467,"Ġavf":12468,"ĠTro":12469,"ĠGlÃ¶m":12470,"Ġvillig":12471,"Ġskapat":12472,"ĠRO":12473,"isterna":12474,"neath":12475,"Ġproceed":12476,"Ġbrinner":12477,"Ġarv":12478,"ĠWes":12479,"ĠdÃ¶ende":12480,"riga":12481,"Ġhowever":12482,"ĠÃ¤ngel":12483,"Ġvisat":12484,"ĠÃ¶gat":12485,"seln":12486,"ĠvÃ¤lkomna":12487,"Ġqual":12488,"Stra":12489,"slin":12490,"Ġstartade":12491,"ĠlÃ¥sa":12492,"Ġframt":12493,"ĠJaha":12494,"Ġdisaster":12495,"Ã¤kten":12496,"Shh":12497,"Ġfilma":12498,"ĠlÃ¤ngst":12499,"Ġnumret":12500,"Ġlands":12501,"Ġmetall":12502,"Ġconfr":12503,"ĠfÃ¶remÃ¥l":12504,"Bravo":12505,"ĠÃ¶nskan":12506,"ĠfÃ¶rrÃ¥d":12507,"Ġcorpor":12508,"ĠupptÃ¤ckt":12509,"Ġgrandfather":12510,"ĠForce":12511,"Ġcells":12512,"Ġprisoners":12513,"uesday":12514,"Ġfunderar":12515,"Ġsongs":12516,"Ġflygplan":12517,"Ġgripa":12518,"Ġpanic":12519,"Ġsilent":12520,"Ġtricks":12521,"Ġsquare":12522,"Ġhomes":12523,"Ġnycklarna":12524,"ĠfÃ¶rsiktigt":12525,"FFFF":12526,"ĠMalcolm":12527,"Ġoptim":12528,"ĠmisstÃ¤nkte":12529,"ĠAnything":12530,"Ġdatab":12531,"ĠÃ¥ngrar":12532,"ĠNEED":12533,"ĠosÃ¤ker":12534,"Ġculture":12535,"Ġgisslan":12536,"Ġactivity":12537,"Ġdelivery":12538,"Ġinstitution":12539,"Ġentrance":12540,"Ġrecommend":12541,"Ġreputation":12542,"Ġuncomfortable":12543,"Ass":12544,"Dam":12545,"Doug":12546,"Easy":12547,"Fantast":12548,"Hope":12549,"Lady":12550,"Pull":12551,"Person":12552,"gers":12553,"iy":12554,"oves":12555,"rull":12556,"say":12557,"ĠtÃ¶nt":12558,"Ġsamm":12559,"Ġhipp":12560,"Ġmal":12561,"Ġwise":12562,"orta":12563,"ingarna":12564,"stic":12565,"Ġinvis":12566,"esk":12567,"asper":12568,"leg":12569,"Ġepis":12570,"seende":12571,"roe":12572,"ĠHem":12573,"ĠHend":12574,"ĠHotel":12575,"ĠCON":12576,"Ġdigging":12577,"Ġnep":12578,"ĠTILL":12579,"ĠTuesday":12580,"ĠNora":12581,"ĠGi":12582,"ĠGard":12583,"rycket":12584,"ĠFair":12585,"Ġchasing":12586,"elling":12587,"orean":12588,"Ġprints":12589,"ĠslÃ¶s":12590,"Ġbritt":12591,"Ġguilt":12592,"Soon":12593,"Ġconsequ":12594,"Ġgrind":12595,"ĠÃ¶verste":12596,"Ġflower":12597,"irekt":12598,"iped":12599,"ĠsmÃ¤ll":12600,"Ġsmaka":12601,"Ġkvitt":12602,"Ġkvart":12603,"izes":12604,"ĠsnÃ¶":12605,"Ġsyfte":12606,"ammare":12607,"Ġnerve":12608,"Ġthrown":12609,"ERY":12610,"Ġtrafik":12611,"Ġgreater":12612,"Ġtysta":12613,"Ġtyder":12614,"Ġparent":12615,"ANS":12616,"phone":12617,"Ġresponse":12618,"Forg":12619,"oebe":12620,"ĠsÃ¶der":12621,"ISH":12622,"ĠJustin":12623,"Ġhumili":12624,"Ġmidnatt":12625,"ĠCarrie":12626,"Ġarticle":12627,"aturligtvis":12628,"hÃ¥lla":12629,"ortera":12630,"Ġtouching":12631,"Ġgammalt":12632,"ĠLuci":12633,"Ġcleaned":12634,"Ġgrandma":12635,"mÃ¤rken":12636,"Ġfellas":12637,"ursday":12638,"ĠExactly":12639,"Ġeffort":12640,"Ġkorrid":12641,"Perfekt":12642,"Ġrelationships":12643,"Ġsilence":12644,"ĠEllie":12645,"Ġpsychiat":12646,"ĠVilket":12647,"Ġmisunder":12648,"Ġuttryck":12649,"Ġstackars":12650,"ĠGOING":12651,"Ġnegative":12652,"Ġtechnically":12653,"Ġfalsk":12654,"Ġkryp":12655,"ĠCaroline":12656,"Ġloaded":12657,"ĠAfrica":12658,"ifornien":12659,"Ġearned":12660,"Ġutbildning":12661,"Ġloyal":12662,"ĠItalian":12663,"Ġreveal":12664,"Ġpinsamt":12665,"ĠrÃ¥kade":12666,"SÃ¥nt":12667,"%.":12668,"):":12669,"DE":12670,"Ger":12671,"Job":12672,"NÃ¤stan":12673,"Pick":12674,"Roy":12675,"cake":12676,"duk":12677,"face":12678,"iju":12679,"kass":12680,"oi":12681,"prat":12682,"uge":12683,"Â©":12684,"Ġtakt":12685,"Ġach":12686,"eters":12687,"Ġthor":12688,"Ġwasting":12689,"orer":12690,"ĠvÃ¤nde":12691,"Ġgy":12692,"Ġytt":12693,"Ġkej":12694,"Ġlida":12695,"ĠfÃ¶rt":12696,"ĠfÃ¶rde":12697,"Ġandras":12698,"ĠskÃ¥l":12699,"ĠSi":12700,"ĠSing":12701,"ĠSpa":12702,"Ġreb":12703,"Ġanaly":12704,"ĠMem":12705,"ĠMiles":12706,"Ġweed":12707,"ĠHunter":12708,"Ġfrus":12709,"ĠAna":12710,"Ġomt":12711,"rice":12712,"Ġneut":12713,"oka":12714,"ĠGall":12715,"usa":12716,"icera":12717,"ĠLin":12718,"ĠLil":12719,"ĠLite":12720,"ĠOs":12721,"ĠPRO":12722,"ema":12723,"ĠRuth":12724,"ĠEgypt":12725,"ĠVen":12726,"obby":12727,"osis":12728,"Ġslight":12729,"ĠbrÃ¥d":12730,"hest":12731,"Ġarrester":12732,"Ġguide":12733,"Ġboo":12734,"Ġintim":12735,"Stan":12736,"Stoppa":12737,"ĠViv":12738,"Ġmath":12739,"ĠdÃ¶dades":12740,"shirt":12741,"Ġflydde":12742,"Looking":12743,"Ã¶dra":12744,"Ġbakgrund":12745,"ĠTHEM":12746,"Ġarbets":12747,"ĠrÃ¶tt":12748,"aleb":12749,"somhelst":12750,"aze":12751,"Ġsounded":12752,"Ġcharity":12753,"Ġskador":12754,"ĠskrÃ¤ck":12755,"Ġinstinct":12756,"Ġkvinnorna":12757,"iteten":12758,"Ġ150":12759,"Ġdepends":12760,"Ġdepression":12761,"ĠmÃ¤rkt":12762,"Ġcurse":12763,"ALK":12764,"BerÃ¤tt":12765,"ĠQuinn":12766,"Ġegend":12767,"Ġdeeply":12768,"ĠCheck":12769,"ĠLaur":12770,"Ġpleased":12771,"Ġjumped":12772,"ĠRussia":12773,"Ġorsakade":12774,"Ġmedveten":12775,"ĠSpecial":12776,"ĠanstÃ¤llda":12777,"arderob":12778,"Ġreception":12779,"Ġcurrently":12780,"ĠpÃ¥verka":12781,"grupp":12782,"Simon":12783,"Ġslappna":12784,"Ġmicro":12785,"ĠFacebook":12786,"Ġnephew":12787,"BO":12788,"Jason":12789,"Kind":12790,"Tot":12791,"Test":12792,"hi":12793,"matt":12794,"pool":12795,"sign":12796,"tle":12797,"vag":12798,"via":12799,"wing":12800,"Ġtas":12801,"Ġsanna":12802,"Ġsnarare":12803,"Ġsnygga":12804,"Ġhood":12805,"arily":12806,"ĠmÃ¤stare":12807,"Ġfoster":12808,"Ã¥na":12809,"Ã¥la":12810,"Ġple":12811,"ĠlÃ¶j":12812,"Ġov":12813,"Ġtox":12814,"adda":12815,"check":12816,"Ġrund":12817,"ĠSus":12818,"ĠSide":12819,"ĠMIN":12820,"ĠMeg":12821,"ĠtillÃ¥ter":12822,"olet":12823,"ĠAM":12824,"ĠAaron":12825,"ĠCatherine":12826,"ĠBenn":12827,"skade":12828,"ĠNy":12829,"ĠGR":12830,"ĠJoy":12831,"ĠJeremy":12832,"Ġblast":12833,"ĠFly":12834,"ulu":12835,"ells":12836,"new":12837,"ĠorÃ¤tt":12838,"ĠEVER":12839,"ivor":12840,"Ġgrat":12841,"Ġgris":12842,"Ġklo":12843,"Ġtaj":12844,"Ġworkers":12845,"Enough":12846,"ĠChamp":12847,"jah":12848,"vacy":12849,"ĠsvÃ¤l":12850,"spÃ¥r":12851,"ĠStill":12852,"ĠStick":12853,"narrator":12854,"Ġbelt":12855,"Ġfunction":12856,"Ġinsats":12857,"ĠsÃ¥gs":12858,"ĠSha":12859,"Ġrecent":12860,"Ġskytt":12861,"Ġmonsters":12862,"ĠHarper":12863,"ĠlÃ¤ger":12864,"Ġprivacy":12865,"ĠkÃ¤rn":12866,"Ġannivers":12867,"FrÃ¶ken":12868,"Ġlistened":12869,"bandet":12870,"Ġsprit":12871,"ĠSpace":12872,"Ġfaktum":12873,"Ġtelep":12874,"erald":12875,"Ġmarknaden":12876,"Ġtransplant":12877,"ĠDani":12878,"Ġ75":12879,"Ġforgiven":12880,"IGH":12881,"Ġsmaller":12882,"ĠgÃ¶mde":12883,"entlemen":12884,"Ġrocks":12885,"Ġlabbet":12886,"Ġflyttat":12887,"Ġallihopa":12888,"Hoppa":12889,"Ġlawyers":12890,"Ġsuspects":12891,"Ġtrycka":12892,"ĠSaint":12893,"Ġdrawing":12894,"ĠtÃ¤vlingen":12895,"ĠFinns":12896,"Ġsamarbeta":12897,"Ġuppenbart":12898,"ĠJersey":12899,"Ġembarrassing":12900,"Ġreaction":12901,"ĠNikki":12902,"ĠklÃ¤nningen":12903,"Ġoskuld":12904,"Ġagera":12905,"Ġbiljetter":12906,"ĠAshley":12907,"Ġprotocol":12908,"Ġbenefit":12909,"Ġrespekterar":12910,"ĠsÃ¤mre":12911,"Ġkomplicerat":12912,"Ġutrustning":12913,"ĠpÃ¥minna":12914,"Ġbytte":12915,"Problemet":12916,"ĠfÃ¶tterna":12917,"Ġannoying":12918,"ĠvittnesmÃ¥l":12919,"Ġshelter":12920,"Ġlearning":12921,"Ġresources":12922,"**":12923,"Bak":12924,"Cut":12925,"Care":12926,"Gee":12927,"Greg":12928,"KÃ¶p":12929,"Kunde":12930,"Otroligt":12931,"Sla":12932,"Sign":12933,"Tiden":12934,"Ung":12935,"Val":12936,"Wr":12937,"iable":12938,"kÃ¤nn":12939,"pse":12940,"pson":12941,"Ġtub":12942,"erades":12943,"ĠhÃ¤kt":12944,"Ġheta":12945,"Ġmister":12946,"Ġthin":12947,"Ã¥ste":12948,"Ġbum":12949,"Ġwins":12950,"itable":12951,"Ġvinn":12952,"Ġpod":12953,"Ġnap":12954,"Ġkock":12955,"Ġkalk":12956,"Ġkris":12957,"ĠIan":12958,"tele":12959,"Ġbelly":12960,"Ġrout":12961,"Ġrail":12962,"verket":12963,"Ġwhisky":12964,"Ġskal":12965,"Ġmeas":12966,"iler":12967,"ĠHo":12968,"ĠApril":12969,"Ġshoe":12970,"ĠDiana":12971,"Ġtrib":12972,"ĠsÃ¥hÃ¤r":12973,"rif":12974,"skal":12975,"Ġminnes":12976,"okater":12977,"ĠNah":12978,"ĠFive":12979,"Ġupph":12980,"ĠifrÃ¥gas":12981,"Ġproffs":12982,"Ġarmen":12983,"ĠWednesday":12984,"ĠalltfÃ¶r":12985,"Ġbehalf":12986,"Ġoffense":12987,"Ġconcentr":12988,"ĠklÃ¤r":12989,"Ġintention":12990,"Ġflesh":12991,"Ġprev":12992,"Ġunus":12993,"Ġunits":12994,"FÃ¶rra":12995,"ugit":12996,"uggen":12997,"ĠvÃ¤lgÃ¶ren":12998,"Ġmorg":12999,"izz":13000,"Ġteater":13001,"Ġcoast":13002,"Ġdial":13003,"ggan":13004,"Ġroller":13005,"Ġlastbil":13006,"Ġtrace":13007,"ĠtrÃ¤ffats":13008,"Ġbesides":13009,"Ã¥dan":13010,"Ġcomplex":13011,"skapen":13012,"Ġmoster":13013,"Seven":13014,"Ġfixade":13015,"Ġarbetet":13016,"Ġstands":13017,"prints":13018,"Ġ195":13019,"Ġmoder":13020,"Ġsingel":13021,"ugged":13022,"Ġradar":13023,"Ġargue":13024,"Ġcontroll":13025,"komma":13026,"âĢĲâĢĲ":13027,"Ġhopes":13028,"Ġdyg":13029,"Ġinvestigating":13030,"Ġkoppling":13031,"Ġtempor":13032,"ĠRaymond":13033,"Ġbehandlar":13034,"Ġlimit":13035,"Ã¤ssigt":13036,"Ġoccup":13037,"Ġfalse":13038,"Ġgranne":13039,"AUSE":13040,"Ġbowling":13041,"ĠhÃ¤ngde":13042,"Julia":13043,"Ġforskning":13044,"Ġembarrassed":13045,"Ġkamera":13046,"Ġtvivlar":13047,"ĠVeronica":13048,"ĠfÃ¶rvÃ¤ntade":13049,"chefen":13050,"Ġcreepy":13051,"Ġfantasi":13052,"Ġprocedure":13053,"ĠEnterprise":13054,"Stackars":13055,"ĠKennedy":13056,"Ġexercise":13057,"Ġceleb":13058,"DA":13059,"Each":13060,"HjÃ¤l":13061,"Jord":13062,"Livet":13063,"TS":13064,"bors":13065,"efter":13066,"lopp":13067,"mus":13068,"pir":13069,"tio":13070,"yer":13071,"Ġhiss":13072,"Ġmjuk":13073,"aton":13074,"agues":13075,"Ġpour":13076,"Ġyog":13077,"Ġce":13078,"Ġcred":13079,"Ġtoa":13080,"ndry":13081,"Ġrut":13082,"Ġitalien":13083,"verse":13084,"Ġwhore":13085,"Ġskip":13086,"Ġliver":13087,"Ġfritt":13088,"ĠAC":13089,"ĠAV":13090,"Ġshared":13091,"ĠDee":13092,"ĠCru":13093,"Ġavsikt":13094,"ĠGina":13095,"ĠParty":13096,"Ġspill":13097,"Ġutk":13098,"ĠKÃ¶r":13099,"ĠdÃ¤rute":13100,"ĠWelcome":13101,"Ã¤mtar":13102,"Ġexit":13103,"ifest":13104,"Sov":13105,"Ġconcept":13106,"ĠÃ¶verv":13107,"Ġboot":13108,"Ġfeg":13109,"ftet":13110,"Ġflock":13111,"Ġsmar":13112,"Ġdrill":13113,"Ġammun":13114,"Ġ29":13115,"ĠfÃ¶rstÃ¤rk":13116,"Ġimpl":13117,"ĠStu":13118,"Ġasks":13119,"Ġpersonligen":13120,"ianc":13121,"ĠvÃ¤grade":13122,"Ġringen":13123,"action":13124,"Ġdismiss":13125,"Ġtypen":13126,"egor":13127,"Ġfalls":13128,"Ġbrevet":13129,"yeong":13130,"ĠHarvard":13131,"Ġinfly":13132,"ĠMarco":13133,"Ġstepped":13134,"Ġtrott":13135,"ubbe":13136,"ĠWells":13137,"ĠbakÃ¥t":13138,"umpan":13139,"Ġdrabb":13140,"Ġmagical":13141,"ĠhÃ¤mtade":13142,"Ġpattern":13143,"Ġswallow":13144,"Ġflickorna":13145,"Ġfrequ":13146,"Ġinformationen":13147,"Ġ600":13148,"Ġquestioning":13149,"Ġfoton":13150,"ĠfÃ¶rÃ¤ndring":13151,"strÃ¶m":13152,"Trans":13153,"Ġhora":13154,"Ġskjuts":13155,"OWN":13156,"ĠsÃ¤lj":13157,"Ġkapit":13158,"Ġsvartsjuk":13159,"scri":13160,"Ġsusp":13161,"Ġinspect":13162,"IDE":13163,"Ġvittna":13164,"Ġteaching":13165,"Ġrefuse":13166,"Ġbyggt":13167,"Ġfungerade":13168,"Ġdyka":13169,"Ġlyder":13170,"Ġpolitics":13171,"ĠMonica":13172,"Wasn":13173,"Ġclosing":13174,"ĠSimpson":13175,"Ġaccepted":13176,"ĠtrÃ¤ning":13177,"Ġkontrollen":13178,"ĠmÃ¤nsklig":13179,"AUGH":13180,"ĠRoyal":13181,"ĠJudy":13182,"ĠjÃ¤mfÃ¶r":13183,"Ġdumped":13184,"ĠavslÃ¶jar":13185,"ĠLois":13186,"Ġsatsa":13187,"ĠBonnie":13188,"VÃ¤rlden":13189,"Ġplastic":13190,"Ġexperienced":13191,"lnte":13192,"ĠKalifornien":13193,"Ġgemensamt":13194,"Believe":13195,"ĠLeslie":13196,"Ġeducation":13197,"Ġcrisis":13198,"Cra":13199,"DER":13200,"Ers":13201,"JÃ¤klar":13202,"Kid":13203,"PD":13204,"Sil":13205,"Sub":13206,"Wanna":13207,"YS":13208,"fig":13209,"mony":13210,"pos":13211,"tog":13212,"uz":13213,"your":13214,"Ġtors":13215,"Ġtennis":13216,"Ġsession":13217,"ĠsÃ¤rsk":13218,"enskomm":13219,"Ġmile":13220,"eten":13221,"onde":13222,"stÃ¤ller":13223,"resa":13224,"asin":13225,"elett":13226,"alu":13227,"Ġende":13228,"ĠrÃ¤cka":13229,"utiful":13230,"Ġskate":13231,"ĠSit":13232,"ĠSyl":13233,"Ġreject":13234,"ĠHAD":13235,"Ġfrag":13236,"ĠAG":13237,"Ġshield":13238,"ĠtrÃ¶st":13239,"ĠBren":13240,"ĠBishop":13241,"unker":13242,"ĠGro":13243,"ĠJin":13244,"ĠJun":13245,"ĠblÃ¶d":13246,"ĠRandy":13247,"ĠRosa":13248,"udia":13249,"ĠEasy":13250,"ĠmÃ¥tt":13251,"Ġbutik":13252,"Ġupply":13253,"Ġsuc":13254,"ĠWater":13255,"ĠWalt":13256,"ĠWILL":13257,"ÃĦnd":13258,"Ġbyxor":13259,"Ġsergeant":13260,"Ġmakeup":13261,"ĠHeather":13262,"Denna":13263,"ĠUN":13264,"Ġstrunt":13265,"Ġfortune":13266,"Ġfunkade":13267,"vised":13268,"ĠlÃ¥dan":13269,"Ġparas":13270,"Ġledig":13271,"rows":13272,"Ġapply":13273,"Ġpassport":13274,"ĠMarch":13275,"ĠMario":13276,"Ville":13277,"Ġursprung":13278,"Ġcomment":13279,"ĠhjÃ¤rtan":13280,"ĠZoe":13281,"Ġvalu":13282,"ĠSex":13283,"Ġbreaks":13284,"Ġstoppade":13285,"Ġkonstiga":13286,"Ġadvance":13287,"ĠfÃ¶ruts":13288,"Ġangle":13289,"ĠfÃ¶rÃ¤ndrar":13290,"Ġdestiny":13291,"Ġaddition":13292,"ĠskÃ¶ld":13293,"Ġterribly":13294,"Ġhoped":13295,"ĠTrump":13296,"Ġsekret":13297,"Ġbomben":13298,"ĠmÃ¶rka":13299,"Ġbeaten":13300,"Ġdejta":13301,"lagar":13302,"Ġsovrum":13303,"Ġkidnapped":13304,"Ġconsult":13305,"ĠEveryone":13306,"Ġsensitive":13307,"Ġoccasion":13308,"ĠfÃ¶rklaring":13309,"Ġmakten":13310,"ĠJuan":13311,"Ġteknik":13312,"Charles":13313,"ĠmÃ¤nskliga":13314,"Ġaccepterar":13315,"Ġcowboy":13316,"Ġbesvik":13317,"ĠDoesn":13318,"Ġlinjen":13319,"Redo":13320,"ĠWallace":13321,"Twenty":13322,"ĠskÃ¶nhet":13323,"Ġsuspicious":13324,"ĠbekvÃ¤m":13325,"Ġterritory":13326,"Ġfifth":13327,"Ġobsessed":13328,"ĠfÃ¶rsvunnen":13329,"Ġimpact":13330,"Ġsoffan":13331,"Ġoxygen":13332,"Ġcoincidence":13333,"Ġinvisible":13334,"AH":13335,"Bea":13336,"Dem":13337,"Eh":13338,"Jane":13339,"LÃ¤r":13340,"MY":13341,"Mus":13342,"Nic":13343,"Rad":13344,"SH":13345,"bird":13346,"fir":13347,"fÃ¶lj":13348,"holes":13349,"niv":13350,"pin":13351,"rate":13352,"tra":13353,"inating":13354,"ĠdÃ¤ck":13355,"Ġhyra":13356,"Ġward":13357,"storm":13358,"stationen":13359,"Ġpurch":13360,"Ġtheater":13361,"Ġcm":13362,"Ġjoking":13363,"eler":13364,"Ġrif":13365,"ĠfÃ¶ren":13366,"amod":13367,"lee":13368,"Ġstaring":13369,"rah":13370,"urf":13371,"uri":13372,"Ã¥ring":13373,"enton":13374,"Ġkny":13375,"Ġvice":13376,"ĠhÃ¤rligt":13377,"ĠCat":13378,"ĠCleveland":13379,"ĠBond":13380,"risten":13381,"Ġavsnitt":13382,"ĠNar":13383,"ĠPope":13384,"ĠPlan":13385,"Ġspan":13386,"ĠspÃ¤n":13387,"ĠFil":13388,"Ã¥gar":13389,"ĠRoll":13390,"ĠKÃ¤nner":13391,"ĠKlaus":13392,"ĠEnd":13393,"ĠEva":13394,"Ġheliga":13395,"Ã¤mnar":13396,"ĠYoung":13397,"Ġconsp":13398,"Ġgren":13399,"ĠdÃ¶ma":13400,"peration":13401,"bered":13402,"Ġunderbara":13403,"appar":13404,"ĠChar":13405,"ookie":13406,"ĠÃ¶kar":13407,"Ġtech":13408,"Ġscript":13409,"ĠThor":13410,"ĠThursday":13411,"Ġactions":13412,"Ġhomework":13413,"Ġbored":13414,"Ġbelieves":13415,"Ġsamvete":13416,"Ġgode":13417,"Ġcomprom":13418,"ĠAllen":13419,"Ġbegick":13420,"ĠbegÃ¥tt":13421,"vÃ¤rlden":13422,"Ġbaksidan":13423,"Ord":13424,"Ġbetydelse":13425,"Ġdifferently":13426,"bridge":13427,"ronic":13428,"Ġattacks":13429,"Ġreasonable":13430,"ningsvis":13431,"apeut":13432,"ĠupptrÃ¤":13433,"Ġstolta":13434,"Ġpublik":13435,"skytt":13436,"Ġbrottsplatsen":13437,"Ġvideon":13438,"Ġotrogen":13439,"Ġallvarlig":13440,"Ġvinst":13441,"ĠMaur":13442,"Ġkoppla":13443,"Ġstrip":13444,"Ġcosts":13445,"ĠIndia":13446,"ĠEverybody":13447,"Ġfocused":13448,"Ġentertain":13449,"Ġimpression":13450,"ĠWarren":13451,"Ġyelling":13452,"Ġbirds":13453,"Ġdesperat":13454,"Ġstinker":13455,"Ġodds":13456,"ĠÃ¶vertyga":13457,"Ġpriority":13458,"Ġsurrender":13459,"Imagine":13460,"ĠAustin":13461,"Ġtitle":13462,"ĠsamhÃ¤llet":13463,"Obviously":13464,"ĠLawrence":13465,"pherd":13466,"Ġrabbit":13467,"Otherwise":13468,"Claire":13469,"Ġconstruction":13470,"Ġadventure":13471,"Ġbensin":13472,"Ġtrubbel":13473,"outhern":13474,"Ġconfront":13475,"Ġanniversary":13476,"Com":13477,"Haven":13478,"Liv":13479,"PER":13480,"Rock":13481,"Send":13482,"Slut":13483,"gs":13484,"gud":13485,"given":13486,"jet":13487,"kopp":13488,"loss":13489,"lÃ¤kare":13490,"ming":13491,"risk":13492,"ĠtÃ¥rt":13493,"ered":13494,"erable":13495,"Ġmes":13496,"ouston":13497,"ĠfÃ¤ll":13498,"Ġfond":13499,"onerna":13500,"Ġvand":13501,"stick":13502,"Ġpages":13503,"igo":13504,"Ġkandid":13505,"Ġler":13506,"ĠlÃ¤tta":13507,"Ġcage":13508,"ĠInt":13509,"Ġeva":13510,"Ġskak":13511,"Ġskith":13512,"Ġmex":13513,"Ġharass":13514,"ĠSK":13515,"ĠSounds":13516,"Ġank":13517,"ĠMoon":13518,"allad":13519,"ĠHum":13520,"ĠHope":13521,"ĠAudrey":13522,"ĠDitt":13523,"ĠCur":13524,"ĠCard":13525,"ĠBad":13526,"ĠBrig":13527,"rika":13528,"ktyg":13529,"opath":13530,"ĠNY":13531,"ĠNASA":13532,"this":13533,"ĠLion":13534,"ĠOp":13535,"iev":13536,"ĠPea":13537,"ĠPic":13538,"emang":13539,"Ġsav":13540,"Ġsauce":13541,"Ġsabot":13542,"ĠFE":13543,"ĠRiley":13544,"ĠVita":13545,"abl":13546,"gerna":13547,"Ġguvern":13548,"Ġoffent":13549,"iki":13550,"ikal":13551,"Ġflood":13552,"Ġunique":13553,"Ġunderneath":13554,"oody":13555,"Ã¥ngt":13556,"Ġdrown":13557,"ĠfÃ¶da":13558,"Star":13559,"sluta":13560,"Ġmottag":13561,"Ġsyr":13562,"Ġbadrummet":13563,"varter":13564,"engarna":13565,"ĠShawn":13566,"Ġdriv":13567,"Ġordinary":13568,"Ġstops":13569,"Hejsan":13570,"rÃ¤de":13571,"Ġkonsek":13572,"Ġmarker":13573,"ippi":13574,"Ġaccused":13575,"Ġ42":13576,"Ġcrimin":13577,"ĠberÃ¤ttelse":13578,"ĠlÃ¶fte":13579,"covery":13580,"Ġdefin":13581,"Ġbetydde":13582,"ĠStella":13583,"Ġkula":13584,"Ġsolved":13585,"Ġbasic":13586,"ĠjÃ¤ttes":13587,"Ġidiots":13588,"ĠfÃ¶rsvunnit":13589,"ferens":13590,"Ġspecies":13591,"Ġsecretary":13592,"ĠdrÃ¶mt":13593,"Ġbetalat":13594,"ĠinspektÃ¶r":13595,"Ġgalning":13596,"Ġkissing":13597,"formation":13598,"Ġlyfta":13599,"Ġorganization":13600,"ĠMaya":13601,"ompson":13602,"Ġtydlig":13603,"ĠGermans":13604,"ĠBooth":13605,"Ġcampus":13606,"ĠFlash":13607,"Ġuniversity":13608,"Ġskillnaden":13609,"Ġbastards":13610,"ĠstÃ¤ngde":13611,"Ġintroduc":13612,"Ġimpressed":13613,"Ġcoward":13614,"Ġinspiration":13615,"Ġrapportera":13616,"ĠlÃ¤skigt":13617,"Ġdivorced":13618,"Ġambulans":13619,"Ġencour":13620,"ĠspÃ¶ke":13621,"Ġwarned":13622,"Ġbesegra":13623,"ĠKorea":13624,"Ġfraud":13625,"Ġsurrounded":13626,"riterande":13627,"ĠkaraktÃ¤r":13628,"Ġcompanies":13629,"Ġutrymme":13630,"ĠSpain":13631,"DO":13632,"Dep":13633,"Gissa":13634,"NARRATOR":13635,"Sal":13636,"burn":13637,"dog":13638,"mes":13639,"munt":13640,"put":13641,"uary":13642,"vatt":13643,"Ġholy":13644,"Ġbul":13645,"omise":13646,"itors":13647,"stod":13648,"Ġkav":13649,"Ġlarm":13650,"adel":13651,"oting":13652,"Ġrode":13653,"leet":13654,"Ġecon":13655,"Ġskugg":13656,"Ġlip":13657,"Ġdegre":13658,"entin":13659,"ental":13660,"rock":13661,"ĠHas":13662,"ĠHos":13663,"ĠHopp":13664,"ĠHamm":13665,"ĠAk":13666,"Ġshown":13667,"ĠDiv":13668,"ĠCameron":13669,"ĠNob":13670,"ĠGillar":13671,"ĠGibbs":13672,"Ġlover":13673,"Ġlocker":13674,"ĠLed":13675,"ickar":13676,"ĠOk":13677,"ĠOAK":13678,"Ġabort":13679,"ĠFÃ¥":13680,"Ġchosen":13681,"ĠKurt":13682,"ĠKnight":13683,"uded":13684,"ĠmÃ¥ndag":13685,"Ġprost":13686,"ĠingÃ¥r":13687,"undy":13688,"ifier":13689,"gener":13690,"Ġgrill":13691,"Ġsmek":13692,"Ġdras":13693,"ĠvÃ¤nlig":13694,"ĠUp":13695,"ĠVick":13696,"angle":13697,"Ġverklighet":13698,"Ġtears":13699,"slÃ¶st":13700,"Ġbefri":13701,"ormal":13702,"ĠThose":13703,"Ġtraum":13704,"eeze":13705,"Ġinsidan":13706,"Ġagents":13707,"Ġtyska":13708,"Ġexposed":13709,"Ġinfilt":13710,"ĠDoktor":13711,"Ã¶rdu":13712,"Ġcrown":13713,"ĠkÃ¤rleken":13714,"Ġmovement":13715,"Ġtested":13716,"Ġarbetade":13717,"prim":13718,"Ġimponerande":13719,"Ġcleared":13720,"ĠChristine":13721,"Ġhotade":13722,"ĠWillie":13723,"Ġdestru":13724,"ĠFranklin":13725,"Ġbitches":13726,"Arthur":13727,"Ġprisoner":13728,"ĠgÃ¶mt":13729,"Ġboxes":13730,"ĠhalvÃ¥r":13731,"Ġlabor":13732,"Ġservices":13733,"Ġinvestigate":13734,"AME":13735,"Ġtappar":13736,"Uppfattat":13737,"ĠTyskland":13738,"Ġcookies":13739,"Ġexisterar":13740,"ĠÃ¶gonblicket":13741,"Ġlurar":13742,"ĠsÃ¥dana":13743,"Ġbehandla":13744,"kÃ¤nsla":13745,"Ġpaperwork":13746,"Ġowns":13747,"Ġfalska":13748,"rÃ¤ffar":13749,"midt":13750,"Ġjurid":13751,"Ġvampire":13752,"ĠDomin":13753,"Ġtvivel":13754,"Ġmountains":13755,"ĠSilver":13756,"ĠRodney":13757,"Ġidentifiera":13758,"Ġfrozen":13759,"Ġtrappan":13760,"ĠfruktansvÃ¤rt":13761,"Ġpromenad":13762,"ĠsÃ¤song":13763,"Ġunusual":13764,"Ġammunition":13765,"ACE":13766,"Glad":13767,"Lyck":13768,"VÃ¤nd":13769,"dad":13770,"fa":13771,"lur":13772,"master":13773,"rÃ¤ger":13774,"vitt":13775,"wal":13776,"Â¤":13777,"ĠâĢ":13778,"Ġtorr":13779,"Ġsack":13780,"Ġdikt":13781,"arian":13782,"Ġbatt":13783,"atisk":13784,"omet":13785,"ĠvÃ¤nd":13786,"ĠgÃ¤r":13787,"Ġgarderob":13788,"ingu":13789,"agi":13790,"agers":13791,"agement":13792,"isc":13793,"Ġtooth":13794,"adows":13795,"ĠIris":13796,"ĠIsaac":13797,"ching":13798,"vest":13799,"ĠbegrÃ¤ns":13800,"Ġryss":13801,"Ġek":13802,"utred":13803,"Ġhabit":13804,"Ġmekan":13805,"Ã¤nge":13806,"ĠSjÃ¤lvklart":13807,"Ġrelevant":13808,"imony":13809,"Ġfordon":13810,"Ġdoft":13811,"ĠMu":13812,"ĠMah":13813,"Ġmedal":13814,"ĠHÃ¶g":13815,"aki":13816,"iona":13817,"Ġshy":13818,"Ġkniven":13819,"ĠDU":13820,"etts":13821,"ĠCos":13822,"Ġseats":13823,"ĠtrÃ¶ja":13824,"ĠBank":13825,"rien":13826,"riet":13827,"skont":13828,"ĠNord":13829,"ĠNich":13830,"ĠNelson":13831,"ĠJill":13832,"ĠFem":13833,"ĠFore":13834,"Ġpride":13835,"Ġaliens":13836,"ĠbrÃ¤nner":13837,"quila":13838,"Ġfever":13839,"Ġserial":13840,"peror":13841,"Ġflod":13842,"Ġunion":13843,"Ġsmink":13844,"Ġpekar":13845,"SÃ¥na":13846,"ontrol":13847,"Ġglory":13848,"ĠhjÃ¤lpt":13849,"ĠStand":13850,"ĠStock":13851,"Ġfamilje":13852,"Ġteori":13853,"Ġstruck":13854,"mentet":13855,"Ġsurely":13856,"Ġ36":13857,"Ġrecru":13858,"Ġmonkey":13859,"Ġbortom":13860,"Ġinfo":13861,"iban":13862,"ĠÃ¤ndrat":13863,"Ġlanding":13864,"Ġsnake":13865,"Ġinterrog":13866,"Going":13867,"Ġfemte":13868,"Ġconfess":13869,"ĠinnehÃ¥ller":13870,"ĠSkit":13871,"Ġtransl":13872,"Ġtransp":13873,"Ġmassive":13874,"Ġfotot":13875,"Ġofficially":13876,"strid":13877,"Professor":13878,"uttle":13879,"Ġjoining":13880,"ĠOFF":13881,"ADE":13882,"Ġinspired":13883,"Ġtwins":13884,"ĠBenjamin":13885,"Ġrefused":13886,"eddington":13887,"zzle":13888,"OLD":13889,"AdjÃ¶":13890,"Ġconscious":13891,"grej":13892,"ĠGOOD":13893,"abriken":13894,"Ġpunkt":13895,"ĠREALLY":13896,"Ġfacility":13897,"ĠSecurity":13898,"Ġbrutal":13899,"Ġbowl":13900,"Ġseparate":13901,"Ġklienter":13902,"ĠapplÃ¥d":13903,"Ġsamarbetar":13904,"Ġklippa":13905,"Ġmixed":13906,"ĠÃ¤ckligt":13907,"Ġbonus":13908,"ĠJewish":13909,"Ġvulner":13910,"Ġclimb":13911,"Ġsplitt":13912,"Roger":13913,"Ġinjury":13914,"Ġreklam":13915,"Ã¶seri":13916,"Ġvessel":13917,"ĠInstagram":13918,"Ġsucceed":13919,"Ġdegrees":13920,"ĠOAKLEY":13921,"35":13922,"Coming":13923,"Dave":13924,"IgÃ¥r":13925,"Mig":13926,"Nope":13927,"Ry":13928,"Rachel":13929,"Tor":13930,"WAY":13931,"YEAH":13932,"dligen":13933,"got":13934,"gun":13935,"kat":13936,"kind":13937,"list":13938,"mak":13939,"ping":13940,"rÃ¤tta":13941,"war":13942,"xen":13943,"Â¶":13944,"Ġ)":13945,"Ġtis":13946,"Ġhatt":13947,"Ġhmm":13948,"Ã¶ket":13949,"Ġvirt":13950,"Ġgissar":13951,"stan":13952,"Ġpatch":13953,"Ġlemon":13954,"iske":13955,"ĠIce":13956,"esen":13957,"alo":13958,"Ġrar":13959,"Though":13960,"ĠSea":13961,"ĠSep":13962,"ĠSeth":13963,"ĠSandy":13964,"imi":13965,"Ġantal":13966,"ĠMycket":13967,"Ã¥riga":13968,"rost":13969,"ĠHy":13970,"Ġfrank":13971,"ĠActually":13972,"ĠCorn":13973,"Ġtries":13974,"ĠBet":13975,"cts":13976,"Ġminus":13977,"oped":13978,"ĠTalk":13979,"ĠLeg":13980,"Ã¤ttningen":13981,"Ġabdu":13982,"Ġmanifest":13983,"ĠPOL":13984,"ĠPablo":13985,"Ġnoble":13986,"Ġnovel":13987,"ĠRic":13988,"astes":13989,"ĠKa":13990,"ĠKh":13991,"Ġhelic":13992,"Ġslit":13993,"ĠWild":13994,"ĠnÃ¤rvaro":13995,"Instead":13996,"Ġconcer":13997,"Ġgrass":13998,"indel":13999,"Ġintent":14000,"Ġunknown":14001,"Ġsmiling":14002,"Ġkval":14003,"ogle":14004,"Ġtvingar":14005,"ĠHead":14006,"aktig":14007,"Ġsakta":14008,"blad":14009,"Ġverksamhet":14010,"Doktor":14011,"Ġsnur":14012,"Ġfortare":14013,"ĠbelÃ¶":14014,"ĠrÃ¤ttvist":14015,"Ġbadge":14016,"rene":14017,"ĠbestÃ¤lla":14018,"Ġbreast":14019,"ĠAlright":14020,"Ġtroops":14021,"ĠlÃ¤ge":14022,"Ġregion":14023,"Ġtesting":14024,"Gotta":14025,"ĠRec":14026,"Ġrelat":14027,"Ġstraw":14028,"ĠvÃ¤d":14029,"Ġmessing":14030,"Ġadvokater":14031,"Ġkulor":14032,"Ġrolling":14033,"ountain":14034,"Ġbevisar":14035,"ĠmÃ¶jliga":14036,"Ġpastor":14037,"Ġkrigare":14038,"raska":14039,"Ġpubliken":14040,"Ġkrav":14041,"skydd":14042,"Ġpacka":14043,"William":14044,"Ġpersonality":14045,"Ġimagination":14046,"arbetare":14047,"Ġidentity":14048,"Ġtappa":14049,"Ġescort":14050,"ĠBEEN":14051,"Ġcommunication":14052,"Ġchoices":14053,"Ġuttry":14054,"ĠfÃ¶rsiktiga":14055,"Ġpurse":14056,"Ġtrycker":14057,"ĠgrÃ¤ns":14058,"Ġideal":14059,"Ġrepresenterar":14060,"Ġprayer":14061,"ĠATT":14062,"ĠmÃ¶jligheter":14063,"ĠfÃ¶rbereda":14064,"Ġamerikaner":14065,"Pratar":14066,"ĠbrÃ¶stet":14067,"Ġgulligt":14068,"Ġimprove":14069,"Ġparticularly":14070,"ĠlÃ¶gnare":14071,"Ġinternational":14072,"ĠfÃ¶rsÃ¤kring":14073,"ĠCollins":14074,"ĠBernard":14075,"Ġelevator":14076,"Ġskumt":14077,"Ġassignment":14078,"Ġambassad":14079,"Ġcritical":14080,"Ġcustomers":14081,"Ġlaundry":14082,"Ġilska":14083,"Ġrobbery":14084,"Ġutreder":14085,"Ġmedborgare":14086,"Ġvoices":14087,"oenix":14088,"ĠHawaii":14089,"ijuana":14090,",...":14091,"21":14092,"Again":14093,"Amy":14094,"Cr":14095,"Cass":14096,"Cons":14097,"Eric":14098,"Lucky":14099,"Mum":14100,"Mama":14101,"Press":14102,"Way":14103,"geln":14104,"iber":14105,"sed":14106,"inas":14107,"ĠsÃ¶k":14108,"Ġdynam":14109,"arer":14110,"anced":14111,"iture":14112,"agar":14113,"real":14114,"Ġpardon":14115,"igi":14116,"igel":14117,"ĠkÃ¤lla":14118,"Ġyouth":14119,"Ġjunior":14120,"Ġattitude":14121,"idi":14122,"Ġintel":14123,"Ġrage":14124,"Ġrape":14125,"ĠstÃ¤nd":14126,"ĠSad":14127,"andes":14128,"Ġanty":14129,"ĠMot":14130,"ĠMath":14131,"ĠMoss":14132,"Ġalleg":14133,"Ġshadow":14134,"Ġtron":14135,"ĠBand":14136,"ĠBush":14137,"ĠavlÃ¤g":14138,"ĠTimes":14139,"ĠTrevligt":14140,"ĠGa":14141,"ĠGill":14142,"ĠLam":14143,"ĠOmar":14144,"Ġblowing":14145,"arehouse":14146,"ĠPE":14147,"ĠPrat":14148,"ĠFast":14149,"ĠFitz":14150,"Ġutpl":14151,"ĠRy":14152,"ĠEst":14153,"ĠmÃ¥la":14154,"ĠVince":14155,"Ġbrun":14156,"ĠWol":14157,"ĠWOULD":14158,"Ġleak":14159,"ĠÃ¶verenskomm":14160,"Ġboots":14161,"ĠklÃ¤dd":14162,"Ġklocka":14163,"Ġflow":14164,"Ġprem":14165,"ously":14166,"Ġsmitt":14167,"ĠÃ¥k":14168,"ĠÃ¶ster":14169,"ildren":14170,"Ġhittills":14171,"Doc":14172,"Ġstrids":14173,"Ġroomm":14174,"ĠThompson":14175,"everly":14176,"Ġdelay":14177,"Ġdelta":14178,"Ġframsteg":14179,"Ġshowen":14180,"ungna":14181,"Ġbesl":14182,"Ã¤ktare":14183,"Ġtogs":14184,"Ġthroughout":14185,"betal":14186,"ĠlÃ¤mp":14187,"innande":14188,"ĠMarge":14189,"ĠAlison":14190,"Ġdesire":14191,"Ġgrace":14192,"uba":14193,"Ġurgent":14194,"landet":14195,"ĠZach":14196,"ĠFÃ¶rstÃ¥r":14197,"Ġtestify":14198,"ĠIsrael":14199,"Ġarbetat":14200,"ĠrÃ¶nt":14201,"ĠSebastian":14202,"stÃ¤lle":14203,"Ġpatet":14204,"Ġrelated":14205,"reviously":14206,"ĠLeague":14207,"Ġpojkarna":14208,"Ġmode":14209,"Ġinstant":14210,"Ġdamaged":14211,"Ġlovat":14212,"ĠidÃ©n":14213,"relsen":14214,"Ġbullets":14215,"ĠupptÃ¤ck":14216,"Ġhumanity":14217,"ĠfÃ¶rfly":14218,"Ġvideos":14219,"Ġcirk":14220,"Ġextraordin":14221,"Ġgrabbed":14222,"Ġnaturligt":14223,"Ġflew":14224,"Ġslogs":14225,"Ġstrict":14226,"Ġconcert":14227,"Chefen":14228,"Couldn":14229,"Ġcontinues":14230,"Ġkungar":14231,"Ġenjoyed":14232,"Johnny":14233,"Ġirriterande":14234,"Ġcustomer":14235,"Quick":14236,"Ġtraveling":14237,"rÃ¤ffade":14238,"Ġdatorn":14239,"ĠSomeone":14240,"ĠSonny":14241,"ĠCraw":14242,"Ġcouncil":14243,"Ġdocuments":14244,"Ġavslutar":14245,"Snabb":14246,"ĠVictoria":14247,"Ġcaptured":14248,"jÃ¤nsten":14249,"ĠCassie":14250,"ĠDamon":14251,"Second":14252,"ĠRemember":14253,"Ġstruggle":14254,"ĠBrooklyn":14255,"Ġartikel":14256,"ĠAbsolut":14257,"ĠDirector":14258,"ĠfullstÃ¤ndigt":14259,"ĠValentine":14260,"ĠRogers":14261,"ĠVÃ¤lkommen":14262,"Ġachieve":14263,"Break":14264,"Fire":14265,"FBI":14266,"Hard":14267,"Jenny":14268,"Mid":14269,"Old":14270,"Papp":14271,"SÃ¤kert":14272,"cies":14273,"dies":14274,"ege":14275,"gro":14276,"gate":14277,"gÃ¤ld":14278,"ji":14279,"job":14280,"ked":14281,"lict":14282,"laget":14283,"match":14284,"moon":14285,"nare":14286,"run":14287,"Ġeth":14288,"Ġhockey":14289,"Ġfurn":14290,"Ġfeder":14291,"Ġbark":14292,"ĠbÃ¤ste":14293,"onda":14294,"orma":14295,"Ġgest":14296,"Ġguts":14297,"agle":14298,"station":14299,"stock":14300,"stance":14301,"Ġpiller":14302,"Ġpowder":14303,"ĠlÃ¤cker":14304,"ĠovÃ¤nt":14305,"Ġcri":14306,"elef":14307,"Ġenvis":14308,"amling":14309,"ĠskÃ¶tt":14310,"Ġskedde":14311,"Ġmeasure":14312,"ĠonÃ¶d":14313,"Ġvarning":14314,"enta":14315,"ential":14316,"ĠHu":14317,"ĠHud":14318,"ĠHolm":14319,"Ġmynt":14320,"olic":14321,"olved":14322,"ĠDAY":14323,"ĠCath":14324,"ĠCOME":14325,"ĠtrÃ¥d":14326,"ĠByr":14327,"ĠBird":14328,"unge":14329,"skola":14330,"Ġdeny":14331,"ĠTok":14332,"ĠToby":14333,"ĠTucker":14334,"ĠNiles":14335,"ĠGor":14336,"ĠLen":14337,"ĠLana":14338,"Ġmanus":14339,"ĠPam":14340,"ĠPerry":14341,"inkle":14342,"ĠFamil":14343,"ulate":14344,"ĠutfÃ¶ra":14345,"Ġplocka":14346,"uddy":14347,"Ġprince":14348,"Ġprovet":14349,"ĠWoo":14350,"Ġsheep":14351,"ivity":14352,"issy":14353,"Ġseek":14354,"ĠnÃ¤rvarande":14355,"quis":14356,"enson":14357,"Ġbyxorna":14358,"Ġintend":14359,"Japp":14360,"Ġflirt":14361,"FÃ¶rr":14362,"FÃ¶rresten":14363,"oppy":14364,"Ġtvungna":14365,"ĠUgh":14366,"Ġquality":14367,"ĠDude":14368,"Ġelva":14369,"ĠAnderson":14370,"Ġsnuten":14371,"ĠhÃ¤ndelse":14372,"ĠDeath":14373,"ĠlÃ¤s":14374,"ĠlÃ¤xa":14375,"OUS":14376,"Ġdrives":14377,"Ġapple":14378,"Ġsurgeon":14379,"Ġbabys":14380,"ĠAlpha":14381,"mmet":14382,"ĠBrother":14383,"ĠBrandon":14384,"Ġ47":14385,"Ġlager":14386,"Ġfixat":14387,"ĠIsab":14388,"ĠrÃ¶sta":14389,"ĠrÃ¶ster":14390,"Ã¤kter":14391,"Ġteleg":14392,"Ġemotions":14393,"ĠjÃ¤tteg":14394,"ĠElena":14395,"affe":14396,"Ġwishes":14397,"Ġradion":14398,"ĠfÃ¶rsvars":14399,"Ġsnabba":14400,"Ġdistrikt":14401,"Ġprotected":14402,"Ġantingen":14403,"ĠJulian":14404,"ĠConrad":14405,"Ġcirka":14406,"Ġabsolute":14407,"Ġmeddelanden":14408,"ĠfÃ¶ljt":14409,"Ġdivision":14410,"Ġopens":14411,"ĠLauren":14412,"Ġaktiver":14413,"Close":14414,"Ġneighbors":14415,"grejen":14416,"Ġuppskatt":14417,"ĠFucking":14418,"Luke":14419,"Grab":14420,"lÃ¤ge":14421,"Ġimmig":14422,"Ġfacing":14423,"ĠCenter":14424,"ĠmÃ¶ten":14425,"Ġlikadana":14426,"ĠGrandma":14427,"ĠtÃ¥rta":14428,"Team":14429,"ĠRegina":14430,"ĠIrish":14431,"Ġritual":14432,"ĠfÃ¶rtroende":14433,"ĠFelix":14434,"Ġtunga":14435,"stjÃ¤rna":14436,"Ġdefeat":14437,"Ġutbyte":14438,"ĠfÃ¶rhindra":14439,"Ġstabbed":14440,"Ġconsequences":14441,"Ġegendom":14442,"AV":14443,"Bull":14444,"Cher":14445,"CON":14446,"Eight":14447,"Fall":14448,"HÃ¶g":14449,"Josh":14450,"Lev":14451,"Rod":14452,"Spr":14453,"SHE":14454,"Vin":14455,"ciellt":14456,"fyll":14457,"ties":14458,"was":14459,"word":14460,"wife":14461,"Ġsample":14462,"ĠsÃ¶dra":14463,"Ġack":14464,"Ġdated":14465,"Ġdates":14466,"Ġhorm":14467,"Ġhyll":14468,"anut":14469,"ĠbjÃ¶rn":14470,"Ġwis":14471,"start":14472,"Ġnord":14473,"Ġked":14474,"Ġkond":14475,"ĠinstÃ¤ll":14476,"Ġcore":14477,"Ġcats":14478,"Ġtoward":14479,"Ã¶rer":14480,"tekn":14481,"othing":14482,"Ġjagade":14483,"race":14484,"ĠSna":14485,"Ġreward":14486,"ĠHol":14487,"Ġframe":14488,"ĠtillÃ¥telse":14489,"tering":14490,"oline":14491,"olycka":14492,"ĠAsk":14493,"Ġsharing":14494,"ĠDC":14495,"ĠDI":14496,"ĠDea":14497,"anton":14498,"ĠCrow":14499,"ĠCasey":14500,"Ġtrist":14501,"ĠNa":14502,"ĠGret":14503,"ĠLance":14504,"Ġblom":14505,"ĠPad":14506,"emot":14507,"ĠFat":14508,"umret":14509,"ĠRyss":14510,"Andy":14511,"ĠVera":14512,"abby":14513,"fÃ¶rtro":14514,"ansas":14515,"apers":14516,"Ġifall":14517,"Ġslave":14518,"ĠWolf":14519,"Ġklok":14520,"Ġcomin":14521,"Ġundercover":14522,"ĠChad":14523,"Ġsinne":14524,"Ġbergen":14525,"ĠvÃ¤lkommen":14526,"Ġverklig":14527,"Ġverkligt":14528,"Ġteor":14529,"Ġtillbaks":14530,"elyn":14531,"Ġstartar":14532,"Ġthrone":14533,"varet":14534,"rington":14535,"Ġbitar":14536,"Ġsamples":14537,"Ġpassager":14538,"Ġskyldiga":14539,"Ġkonto":14540,"ĠAli":14541,"oca":14542,"ENS":14543,"ENCE":14544,"Ġskrik":14545,"Ġsnap":14546,"Ġresurser":14547,"Ġdumpade":14548,"Ġinvasion":14549,"ĠHurry":14550,"Ġmagiska":14551,"ĠrÃ¶ven":14552,"Ġstudying":14553,"ĠAnnars":14554,"revlig":14555,"Ġspray":14556,"ĠStefan":14557,"ĠlÃ¥ten":14558,"Ġhotar":14559,"Ġdomaren":14560,"Ġsticks":14561,"Ġbasen":14562,"ĠCanada":14563,"Ġsimma":14564,"Ġgivet":14565,"forsk":14566,"Ġfoten":14567,"ĠUnion":14568,"ĠmÃ¶rdades":14569,"Ġinvestment":14570,"ĠEmil":14571,"ĠdrÃ¶mmer":14572,"Ġnormally":14573,"rollen":14574,"Ġclasses":14575,"ĠKev":14576,"ĠfÃ¶rlÃ¥ter":14577,"ificant":14578,"ĠGuys":14579,"Ġimagined":14580,"Ġmeantime":14581,"Ġinvolver":14582,"schef":14583,"Finally":14584,"PlÃ¶tsligt":14585,"Ġrapporten":14586,"fÃ¤rg":14587,"ĠfÃ¶rtjÃ¤nade":14588,"Ġrequires":14589,"Ġblocks":14590,"Ġbeskriva":14591,"Ġdjup":14592,"Ġkidnapping":14593,"Ġirre":14594,"Ġpractically":14595,"ĠBurns":14596,"ĠRussians":14597,"Ġentered":14598,"ĠAdams":14599,"Ġconditions":14600,"ĠstÃ¤ngt":14601,"banan":14602,"Ġsociala":14603,"Ġgrymt":14604,"ĠKatie":14605,"Ġkampanj":14606,"Ġinstructions":14607,"Angel":14608,"jÃ¤nst":14609,"Ġracing":14610,"Ġnails":14611,"Police":14612,"ĠtÃ¥lamod":14613,"Presidenten":14614,"ĠinlÃ¥st":14615,"ĠMitchell":14616,"ĠavgÃ¶rande":14617,"Ġjeans":14618,"Ġbomber":14619,"Ġunex":14620,"ĠfÃ¶rÃ¤lskad":14621,"Ġastronaut":14622,"Ġuppdater":14623,"Forgive":14624,"Ġroutine":14625,"Ġevacu":14626,"Ġcriminals":14627,"Aye":14628,"Da":14629,"Eat":14630,"GR":14631,"Hop":14632,"HjÃ¤r":14633,"Jose":14634,"Kar":14635,"Kay":14636,"Lik":14637,"Mass":14638,"Maggie":14639,"TING":14640,"TÃ¤nkte":14641,"URE":14642,"bad":14643,"dÃ¶m":14644,"gage":14645,"glas":14646,"lande":14647,"life":14648,"pit":14649,"rÃ¶r":14650,"tor":14651,"Ġtone":14652,"Ġmall":14653,"Ġmos":14654,"Ġfianc":14655,"Ġbrist":14656,"Ġwore":14657,"Ġwipe":14658,"orf":14659,"oma":14660,
[...]
