{"!":0,"\"":1,"#":2,"$":3,"%":4,"&":5,"'":6,"(":7,")":8,"*":9,"+":10,",":11,"-":12,".":13,"/":14,"0":15,"1":16,"2":17,"3":18,"4":19,"5":20,"6":21,"7":22,"8":23,"9":24,":":25,";":26,"<":27,"=":28,">":29,"?":30,"@":31,"A":32,"B":33,"C":34,"D":35,"E":36,"F":37,"G":38,"H":39,"I":40,"J":41,"K":42,"L":43,"M":44,"N":45,"O":46,"P":47,"Q":48,"R":49,"S":50,"T":51,"U":52,"V":53,"W":54,"X":55,"Y":56,"Z":57,"[":58,"\\":59,"]":60,"^":61,"_":62,"`":63,"a":64,"b":65,"c":66,"d":67,"e":68,"f":69,"g":70,"h":71,"i":72,"j":73,"k":74,"l":75,"m":76,"n":77,"o":78,"p":79,"q":80,"r":81,"s":82,"t":83,"u":84,"v":85,"w":86,"x":87,"y":88,"z":89,"{":90,"|":91,"}":92,"~":93,"¡":94,"¢":95,"£":96,"¤":97,"¥":98,"¦":99,"§":100,"¨":101,"©":102,"ª":103,"«":104,"¬":105,"®":106,"¯":107,"°":108,"±":109,"²":110,"³":111,"´":112,"µ":113,"¶":114,"·":115,"¸":116,"¹":117,"º":118,"»":119,"¼":120,"½":121,"¾":122,"¿":123,"À":124,"Á":125,"Â":126,"Ã":127,"Ä":128,"Å":129,"Æ":130,"Ç":131,"È":132,"É":133,"Ê":134,"Ë":135,"Ì":136,"Í":137,"Î":138,"Ï":139,"Ð":140,"Ñ":141,"Ò":142,"Ó":143,"Ô":144,"Õ":145,"Ö":146,"×":147,"Ø":148,"Ù":149,"Ú":150,"Û":151,"Ü":152,"Ý":153,"Þ":154,"ß":155,"à":156,"á":157,"â":158,"ã":159,"ä":160,"å":161,"æ":162,"ç":163,"è":164,"é":165,"ê":166,"ë":167,"ì":168,"í":169,"î":170,"ï":171,"ð":172,"ñ":173,"ò":174,"ó":175,"ô":176,"õ":177,"ö":178,"÷":179,"ø":180,"ù":181,"ú":182,"û":183,"ü":184,"ý":185,"þ":186,"ÿ":187,"Ā":188,"ā":189,"Ă":190,"ă":191,"Ą":192,"ą":193,"Ć":194,"ć":195,"Ĉ":196,"ĉ":197,"Ċ":198,"ċ":199,"Č":200,"č":201,"Ď":202,"ď":203,"Đ":204,"đ":205,"Ē":206,"ē":207,"Ĕ":208,"ĕ":209,"Ė":210,"ė":211,"Ę":212,"ę":213,"Ě":214,"ě":215,"Ĝ":216,"ĝ":217,"Ğ":218,"ğ":219,"Ġ":220,"ġ":221,"Ģ":222,"ģ":223,"Ĥ":224,"ĥ":225,"Ħ":226,"ħ":227,"Ĩ":228,"ĩ":229,"Ī":230,"ī":231,"Ĭ":232,"ĭ":233,"Į":234,"į":235,"İ":236,"ı":237,"Ĳ":238,"ĳ":239,"Ĵ":240,"ĵ":241,"Ķ":242,"ķ":243,"ĸ":244,"Ĺ":245,"ĺ":246,"Ļ":247,"ļ":248,"Ľ":249,"ľ":250,"Ŀ":251,"ŀ":252,"Ł":253,"ł":254,"Ń":255,"čĊ":256,"Ġt":257,"in":258,"Ġs":259,"er":260,"Ġa":261,"Ġd":262,"Ġh":263,"en":264,"Ã¤":265,"ar":266,"Ġm":267,"ou":268,"et":269,"an":270,"Ġth":271,"ll":272,"Ġf":273,"Ã¥":274,"Ġb":275,"on":276,"Ġw":277,"at":278,"Ã¶":279,"or":280,"it":281,"om":282,"Ġg":283,"Ġv":284,"Ã¤r":285,"ag":286,"ing":287,"st":288,"re":289,"Ġp":290,"Ġy":291,"ig":292,"Ġn":293,"Ġk":294,"Ġl":295,"Ġyou":296,"is":297,"Ġo":298,"Ġthe":299,"Ġin":300,"..":301,"ed":302,"Ġc":303,"Ġto":304,"tt":305,"Ã¶r":306,"ad":307,"nd":308,"ĠI":309,"Ġj":310,"ĠÃ¤r":311,"ch":312,"te":313,"ck":314,"ill":315,"es":316,"'s":317,"as":318,"Ġu":319,"Ġatt":320,"ot":321,"ow":322,"Ġdet":323,"Jag":324,"el":325,"ve":326,"id":327,"Ġdu":328,"...":329,"al":330,"Ġinte":331,"Ġbe":332,"Ġen":333,"Ġr":334,"ay":335,"ĠfÃ¶r":336,"am":337,"Ġof":338,"le":339,"Ġjag":340,"Ġi":341,"Ġit":342,"Th":343,"ld":344,"ere":345,"Ġst":346,"'t":347,"ke":348,"Ġe":349,"ver":350,"Ġand":351,"ut":352,"Ġthat":353,"na":354,"pp":355,"Ġwh":356,"Ġsom":357,"Det":358,"Ġsk":359,"Ġha":360,"Ġme":361,"Ġon":362,"ra":363,"Ã¤n":364,"Ġvar":365,"ĠpÃ¥":366,"Ġoch":367,"Ġhar":368,"You":369,"Ġis":370,"ĠS":371,"Ġre":372,"ade":373,"im":374,"ur":375,"se":376,"od":377,"Ġfor":378,"and":379,"Ġan":380,"Ġhe":381,"Ġdo":382,"ht":383,"out":384,"Ġli":385,"ĠM":386,"Ġwe":387,"Ġde":388,"Ã¥r":389,"il":390,"all":391,"ent":392,"Ġall":393,"Ġmed":394,"ro":395,"Ġgo":396,"ce":397,"ĠH":398,"ir":399,"ust":400,"Ġtill":401,"ter":402,"Ġfr":403,"ak":404,"ion":405,"Ã¥n":406,"Ġmy":407,"ol":408,"ĠA":409,"Ġmig":410,"Wh":411,"Ġsh":412,"ĠD":413,"Ġkn":414,"Ġwas":415,"Ġ-":416,"Ġvi":417,"We":418,"ss":419,"ĠhÃ¤r":420,"Ġom":421,"Ġthis":422,"ett":423,"ant":424,"ith":425,"'m":426,"Ġyour":427,"itt":428,"Ġse":429,"ĠC":430,"Ġtr":431,"ight":432,"Ġhave":433,"'re":434,"ĠB":435,"Ġkan":436,"Ġdig":437,"un":438,"Ġknow":439,"Ġnot":440,"ĠsÃ¥":441,"ould":442,"ct":443,"Ġwith":444,"sk":445,"ri":446,"Ġne":447,"Vi":448,"ly":449,"ack":450,"Ã¤l":451,"de":452,"kt":453,"The":454,"Du":455,"Ġmin":456,"Ġcan":457,"ok":458,"Ġav":459,"Ġden":460,"ĠT":461,"op":462,"lig":463,"ea":464,"Ġdon":465,"Ġhan":466,"Ġhon":467,"ĠN":468,"ĠG":469,"Ġjust":470,"us":471,"th":472,"Ġlo":473,"ic":474,"ick":475,"ĠJ":476,"Ġkom":477,"ste":478,"Ġwhat":479,"ĠL":480,"Ã¤tt":481,"art":482,"ara":483,"Ġare":484,"Ã¤g":485,"ta":486,"Ġbl":487,"ĠO":488,"Ġab":489,"Ġlike":490,"ull":491,"ie":492,"mer":493,"He":494,"are":495,"Ġso":496,"It":497,"Ġman":498,"em":499,"ome":500,"Ġout":501,"Ġsa":502,"ĠP":503,"Ġett":504,"Ġvill":505,"ff":506,"Ã¥t":507,"ry":508,"ning":509,"ink":510,"ul":511,"Ġget":512,"ĠF":513,"ake":514,"Ġska":515,"Ġsp":516,"Ġch":517,"Ã¥g":518,"um":519,"ĠgÃ¶r":520,"ers":521,"Ġup":522,"Ġut":523,"Ġno":524,"ĠR":525,"Ġhere":526,"one":527,"What":528,"ell":529,"'ll":530,"Ġmen":531,"ka":532,"ort":533,"Ġabout":534,"our":535,"ist":536,"ess":537,"ne":538,"Ġwant":539,"And":540,"ma":541,"Ġni":542,"Ġher":543,"Ġhim":544,"her":545,"Ġfin":546,"ore":547,"Ġpl":548,"Ġdid":549,"ast":550,"ally":551,"Ġat":552,"Ġvet":553,"Ã¤nd":554,"Ġor":555,"Ġthere":556,"Ġright":557,"Han":558,"Ã¶ver":559,"ĠK":560,"ĠmÃ¥":561,"Ġwor":562,"ĠV":563,"ob":564,"ga":565,"Ġthink":566,"ud":567,"ĠE":568,"Ġbut":569,"oug":570,"Ġ\"":571,"ation":572,"Ġbara":573,"That":574,"Ġpr":575,"Ġone":576,"fÃ¶r":577,"eah":578,"ap":579,"ab":580,"Ġhel":581,"au":582,"'ve":583,"ans":584,"os":585,"Ġthey":586,"Ġdin":587,"Ġgot":588,"ller":589,"Ġupp":590,"ĠmÃ¥ste":591,"ker":592,"Ġsu":593,"Ġif":594,"Ġany":595,"ven":596,"ĠJag":597,"Ġpro":598,"Ġal":599,"Ġus":600,"end":601,"ĠdÃ¤r":602,"ge":603,"Ġsl":604,"hing":605,"ns":606,"he":607,"Ġbr":608,"Ġar":609,"ej":610,"Ġtim":611,"Ġkommer":612,"fter":613,"Ġex":614,"Ã¤m":615,"ĠW":616,"Ġsome":617,"Ġhonom":618,"ive":619,"Ã¤ll":620,"Ġvad":621,"da":622,"jÃ¤l":623,"Ġshe":624,"Ġskull":625,"Ġing":626,"Ġer":627,"if":628,"onna":629,"uck":630,"ĠY":631,"ate":632,"ĠYou":633,"und":634,"iv":635,"ger":636,"ard":637,"Ġas":638,"Ġnu":639,"Ġgonna":640,"Ġever":641,"Ġnow":642,"Ġskulle":643,"Ġfrom":644,"Well":645,"Men":646,"Ġneed":647,"Ġwho":648,"ÃĦ":649,"Vad":650,"Ġback":651,"Ġwould":652,"Ġle":653,"ner":654,"Ġwill":655,"Ġvara":656,"ite":657,"ĠnÃ¤r":658,"Ġgu":659,"ong":660,"ame":661,"att":662,"kay":663,"Ġsee":664,"Och":665,"iss":666,"la":667,"Ġver":668,"ound":669,"Ġallt":670,"Ġcom":671,"est":672,"Ġsay":673,"Ġhis":674,"Ġund":675,"Ġsig":676,"De":677,"ank":678,"Ġoss":679,"ep":680,"Ġbeh":681,"Ġtime":682,"Ġhen":683,"But":684,"Ġtal":685,"gen":686,"ass":687,"qu":688,"Ġoff":689,"Ġthem":690,"ĠDet":691,"Ġcon":692,".\"":693,"sta":694,"Ġdem":695,"So":696,"Ġlook":697,"In":698,"ĠnÃ¥g":699,"ande":700,"Ġgoing":701,"Ġwere":702,"own":703,"Ġ1":704,"ble":705,"igt":706,"Ġcould":707,"der":708,"No":709,"Ġbeen":710,"way":711,"ĠfÃ¥r":712,"ause":713,"Ġhad":714,"Ġgr":715,"Ġbo":716,"ĠÃ¶ver":717,"ĠgÃ¶ra":718,"Ġthing":719,"Ġbra":720,"Ġgood":721,"ars":722,"ligt":723,"ens":724,"ord":725,"ĠsÃ¤g":726,"ĠdÃ¶":727,"This":728,"Oh":729,"Ġhade":730,"Ġbet":731,"Ġkl":732,"Ġby":733,"oll":734,"Ġfe":735,"Ġhur":736,"Ġta":737,"Ġint":738,"orde":739,"ik":740,"Var":741,"ind":742,"ĠfrÃ¥n":743,"They":744,"Ġig":745,"Ja":746,"ure":747,"Ġour":748,"ase":749,"ft":750,"het":751,"Ġser":752,"thing":753,"00":754,"av":755,"ose":756,"Ġevery":757,"Ġwhen":758,"fe":759,"ide":760,"ough":761,"per":762,"cause":763,"ĠfÃ¥":764,"ÃĦr":765,"ost":766,"Ġfl":767,"Hon":768,"Ġpre":769,"rig":770,"Ġun":771,"ys":772,"ine":773,"'d":774,"Ġtell":775,"All":776,"ber":777,"Ġjob":778,"ĠdÃ¥":779,"Ġunder":780,"Ġsomet":781,"FÃ¶r":782,"ous":783,"ice":784,"Ġhenne":785,"arna":786,"ood":787,"Ġhow":788,"Ġhand":789,"ip":790,"Ġdidn":791,"Ġreally":792,"Ġlet":793,"Ġgj":794,"ire":795,"Ġsm":796,"Ã¥ng":797,"be":798,"Ġway":799,"ĠnÃ¥t":800,"Ġwork":801,"Ġtake":802,"Ġmot":803,"Ġeller":804,"Ġcome":805,"ĠIt":806,"ĠfÃ¶rs":807,"Ġkill":808,"Ġhas":809,"Ġdown":810,"Ġigen":811,"Ġmake":812,"var":813,"Yeah":814,"ock":815,"Ġsomething":816,"app":817,"Ġdr":818,"yck":819,"Om":820,"Ġpe":821,"opp":822,"Ġalla":823,"isk":824,"Ġtalk":825,"Ġmore":826,"ĠÃ¤n":827,"ĠvÃ¤n":828,"ug":829,"ia":830,"ople":831,"Ġliv":832,"SÃ¥":833,"Ġvis":834,"kej":835,"ĠgÃ¥":836,"En":837,"ark":838,"Ġover":839,"amma":840,"Ġhapp":841,"Nej":842,"ies":843,"Ġsen":844,"Ġcall":845,"reat":846,"ace":847,"She":848,"arn":849,"og":850,"ĠCh":851,"Ã¤ng":852,"ny":853,"ĠÃ¥":854,"ittle":855,"Ġshould":856,"Ġtv":857,"There":858,"ĠkÃ¤n":859,"ity":860,"ook":861,"ĠnÃ¥n":862,"ja":863,"Ġmean":864,"Ġthen":865,"Ġpo":866,"ought":867,"Ġsin":868,"Ġhem":869,"ĠÃ¶":870,"Ġtoo":871,"ĠgÃ¥r":872,"ĠHe":873,"sp":874,"âĻ":875,"get":876,"Ġcl":877,"va":878,"erna":879,"âĻª":880,"Ġefter":881,"Ġam":882,"Ġtid":883,"Den":884,"ich":885,"Ġpeople":886,"Ġlittle":887,"ody":888,"Ġnever":889,"Ġid":890,"sel":891,"cket":892,"Ġtror":893,"ont":894,"ect":895,"Ġsaid":896,"ish":897,"ild":898,"ĠWhat":899,"ĠNo":900,"nt":901,"Ġdag":902,"Ġday":903,"ats":904,"If":905,"Ġber":906,"dd":907,"wo":908,"ĠbehÃ¶ver":909,"ldrig":910,"Ġdoes":911,"nan":912,"ĠU":913,"bb":914,"Ġprat":915,"amil":916,"Ġgl":917,"Ġfuck":918,"ĠWe":919,"ĠtÃ¤n":920,"Hur":921,"man":922,"pa":923,"akt":924,"Ġmycket":925,"Ġ2":926,"ĠvÃ¤l":927,"Ġqu":928,"Ġjobb":929,"ĠhjÃ¤l":930,"era":931,"ĠfÃ¶rst":932,"Ġaldrig":933,"ĠDu":934,"ci":935,"Ġsak":936,"pl":937,"Ġblir":938,"Ġim":939,"ree":940,"Ġlite":941,"Ġmitt":942,"pt":943,"ĠfÃ¶":944,"age":945,"Why":946,"aka":947,"Ġel":948,"ach":949,"ady":950,"St":951,"Ġmu":952,"Ġmor":953,"Ġhitt":954,"ske":955,"ew":956,"Ġingen":957,"ligen":958,"sÃ¥":959,"Ġhelp":960,"Ġonly":961,"ĠSt":962,"ju":963,"bl":964,"Ġfamil":965,"ress":966,"Ġfinns":967,"Ġkv":968,"Ġmer":969,"Ġbli":970,"gain":971,"lease":972,"Ġsv":973,"other":974,"kar":975,"ĠVi":976,"int":977,"iz":978,"ĠAnd":979,"ang":980,"erson":981,"Ġwhere":982,"Ġtar":983,"Ġny":984,"Ã¤st":985,"orry":986,"Ġfeel":987,"Ġju":988,"Ġvery":989,"How":990,"Ġkanske":991,"Ã¶m":992,"Ġco":993,"Do":994,"ait":995,"Ġinto":996,"ue":997,"irst":998,"sl":999,"Ġeven":1000,"Ã¥ll":1001,"Ġfind":1002,"ther":1003,"nar":1004,"Ġsc":1005,"Ġagain":1006,"orm":1007,"ĠÃ¥r":1008,"red":1009,"Ġtry":1010,"ĠYeah":1011,"âĢ":1012,"Hey":1013,"ĠsjÃ¤l":1014,"atch":1015,"Ã¤tta":1016,"Ġtwo":1017,"Ġlea":1018,"Ġbef":1019,"ond":1020,"Ġte":1021,"Ġye":1022,"ĠhÃ¶r":1023,"ĠÃ¥t":1024,"Ġmuch":1025,"self":1026,"ĠbÃ¶r":1027,"aybe":1028,"Ġbecause":1029,"anna":1030,"Ã¤ck":1031,"ken":1032,"Ã¤v":1033,"Ni":1034,"ling":1035,"Ġsn":1036,"Ġfri":1037,"eep":1038,"Ġmo":1039,"Ġstill":1040,"Ġtillb":1041,"Ġwhy":1042,"Ġsy":1043,"ater":1044,"Ġlove":1045,"ikt":1046,"ons":1047,"kl":1048,"Har":1049,"Ġpart":1050,"Ġwon":1051,"ĠdÃ¶d":1052,"Ġdoing":1053,"Ġfick":1054,"Ġstr":1055,"ment":1056,"ĠvÃ¤r":1057,"ĠhÃ¤nd":1058,"Ġokay":1059,"ely":1060,"Ġstor":1061,"Ġgjorde":1062,"ĠvÃ¥r":1063,"ving":1064,"ance":1065,"rar":1066,"amm":1067,"Ġpol":1068,"Ġplan":1069,"Ġtillbaka":1070,"Ġthought":1071,"Ġask":1072,"Ġdi":1073,"kte":1074,"Ġperson":1075,"Ġfort":1076,"ĠtrÃ¤":1077,"Ġfar":1078,"ather":1079,"ĠtvÃ¥":1080,"Ã¤lsk":1081,"VarfÃ¶r":1082,"amn":1083,"lev":1084,"Ġlife":1085,"Ġhappen":1086,"irl":1087,"Ġnog":1088,"wn":1089,"ster":1090,"we":1091,"Ġslut":1092,"Ġtheir":1093,"iga":1094,"Ġother":1095,"ence":1096,"Ġhans":1097,"Ġhit":1098,"Ġstart":1099,"ĠsÃ¤ger":1100,"ĠOh":1101,"gon":1102,"tta":1103,"ac":1104,"Ġthan":1105,"ĠfÃ¶rsÃ¶":1106,"My":1107,"Ġspe":1108,"Ġock":1109,"Ġfirst":1110,"Ġanything":1111,"ix":1112,"ĠrÃ¤tt":1113,"Okay":1114,"Ġner":1115,"blem":1116,"Kom":1117,"Ġbel":1118,"Ġinget":1119,"ru":1120,"ĠÃ¤lsk":1121,"sh":1122,"Ġgive":1123,"rs":1124,"ĠocksÃ¥":1125,"eck":1126,"Ġmiss":1127,"Ġthr":1128,"Ġnew":1129,"Ġbad":1130,"Ġthese":1131,"Ġsure":1132,"Ġkund":1133,"ath":1134,"Ġper":1135,"ile":1136,"old":1137,"Ġfun":1138,"ute":1139,"Ġro":1140,"ningen":1141,"Ġbefore":1142,"ef":1143,"ĠThat":1144,"ave":1145,"NÃ¤r":1146,"ĠTh":1147,"Min":1148,"Ġact":1149,"ĠThe":1150,"ER":1151,"ring":1152,"Ġfriend":1153,"day":1154,"ian":1155,"vis":1156,"Ġrun":1157,"aking":1158,"Ġkid":1159,"body":1160,"Ġlast":1161,"Ġdel":1162,"Now":1163,"ĠsÃ¤ga":1164,"ret":1165,"Ġville":1166,"Ġvid":1167,"sen":1168,"olk":1169,"ĠÃ¤":1170,"gg":1171,"Ġbarn":1172,"ek":1173,"Just":1174,"Ġgen":1175,"Ġnight":1176,"ise":1177,"Ġtur":1178,"ever":1179,"Nu":1180,"lar":1181,"ĠsjÃ¤lv":1182,"ren":1183,"ways":1184,"ĠmÃ¥n":1185,"Ġditt":1186,"Ġkunde":1187,"Ġac":1188,"Ġwell":1189,"ĠvÃ¤g":1190,"Ġproblem":1191,"ĠrÃ¤":1192,"Ġhome":1193,"Ġbu":1194,"Ġbor":1195,"ĠWh":1196,"ĠVad":1197,"Let":1198,"eter":1199,"Ġkeep":1200,"Ġborde":1201,"oh":1202,"ann":1203,"eng":1204,"Ġtold":1205,"Ġtra":1206,"Ġbest":1207,"Ġgirl":1208,"IN":1209,"Ġput":1210,"Ġring":1211,"sa":1212,"Ġthings":1213,"ng":1214,"appa":1215,"Ġvarit":1216,"ouse":1217,"Ġcar":1218,"Ġbit":1219,"oth":1220,"aren":1221,"ĠsÃ¤":1222,"ĠlÃ¥":1223,"Ġred":1224,"Ġfly":1225,"Ġafter":1226,"Ġsorry":1227,"Ġandra":1228,"Ġfel":1229,"Don":1230,"arl":1231,"Ġfram":1232,"Be":1233,"ier":1234,"Ġ'":1235,"Ġtre":1236,"io":1237,"liga":1238,"ĠJa":1239,"ee":1240,"Ġlot":1241,"Ġverk":1242,"Ġens":1243,"ska":1244,"xt":1245,"Ġsec":1246,"act":1247,"Ġreal":1248,"ĠtrÃ¤ff":1249,"Okej":1250,"ult":1251,"ary":1252,"Ġshow":1253,"Ġwr":1254,"Ġad":1255,"Ġaway":1256,"Look":1257,"cis":1258,"Ã¶j":1259,"Ġty":1260,"ĠTH":1261,"Ġag":1262,"Kan":1263,"ĠnÃ¥got":1264,"Ġutan":1265,"nes":1266,"ike":1267,"Ġalways":1268,"oy":1269,"Ġfan":1270,"ĠmÃ¤n":1271,"tar":1272,"ors":1273,"up":1274,"Ġthose":1275,"Ġbetter":1276,"ved":1277,"Ġmina":1278,"rÃ¥n":1279,"iskt":1280,"ĠIn":1281,"Is":1282,"oney":1283,"Ġtj":1284,"Ġson":1285,"Ġaround":1286,"Ġguys":1287,"ĠâĻª":1288,"nat":1289,"ually":1290,"ĠbÃ¶rj":1291,"âĢĵ":1292,"Ġguy":1293,"Ġbig":1294,"ey":1295,"Ġmust":1296,"ĠvÃ¤":1297,"aug":1298,"ĠGod":1299,"Ġyears":1300,"Ġass":1301,"Ġdis":1302,"Ã©":1303,"ious":1304,"Yes":1305,"amp":1306,"etting":1307,"sten":1308,"Ġhu":1309,"Ġrem":1310,"ser":1311,"Ġhus":1312,"Ġmat":1313,"Ġlong":1314,"Ġmade":1315,"ĠfrÃ¥g":1316,"Ġcou":1317,"Ġdoesn":1318,"ool":1319,"yr":1320,"Ġled":1321,"Ġkind":1322,"Ġplay":1323,"Ġblev":1324,"ins":1325,"Ġplace":1326,"Ġvil":1327,"Âł":1328,"uff":1329,"ions":1330,"Ġalltid":1331,"Ġbelie":1332,"Ġgreat":1333,"Ã¤sta":1334,"ades":1335,"ung":1336,"Ã¤kt":1337,"Ġhela":1338,"Ġbes":1339,"OU":1340,"Ġeverything":1341,"Ġgill":1342,"Ġkomma":1343,"Ġtog":1344,"jÃ¤r":1345,"ĠsÃ¥g":1346,"Ġthrough":1347,"Ġwanted":1348,"Ġwait":1349,"Ġph":1350,"ĠDe":1351,"ĠMr":1352,"odde":1353,"men":1354,"Ġsir":1355,"Ġprata":1356,"Ã¶g":1357,"vet":1358,"ĠSh":1359,"Ġpar":1360,"ĠsÃ¤ker":1361,"Ġbeing":1362,"Ġspel":1363,"Sk":1364,"Ġmamma":1365,"eg":1366,"port":1367,"Ġfucking":1368,"je":1369,"ĠHan":1370,"Ġins":1371,"ĠlÃ¤":1372,"ror":1373,"Ġcare":1374,"Ġge":1375,"vÃ¤nd":1376,"ĠkÃ¤nner":1377,"Som":1378,"Ġ3":1379,"Come":1380,"rat":1381,"Ġgjort":1382,"ott":1383,"Not":1384,"ĠnÃ¥gra":1385,"Ġsex":1386,"Ġold":1387,"Ã¶d":1388,"Ġdone":1389,"Ãħ":1390,"Ġdri":1391,"ful":1392,"Ġplease":1393,"ents":1394,"Ġfall":1395,"bet":1396,"AN":1397,"itta":1398,"Ġname":1399,"nen":1400,"Ġlit":1401,"Ġcour":1402,"Ġem":1403,"pen":1404,"Ġnothing":1405,"orna":1406,"Ġsit":1407,"Ġmight":1408,"Ġord":1409,"Ġfolk":1410,"Ã¤lla":1411,"Ġhead":1412,"ĠNej":1413,"Ġapp":1414,"ina":1415,"able":1416,"DÃ¥":1417,"Ġmoney":1418,"Ġstay":1419,"iska":1420,"Ġans":1421,"row":1422,"Ġmom":1423,"Ġpappa":1424,"Ġsam":1425,"Ã¥d":1426,"orn":1427,"Ġown":1428,"alk":1429,"Ġuh":1430,"very":1431,"Ġsist":1432,"my":1433,"Ã¶t":1434,"igh":1435,"--":1436,"Ġsch":1437,"ain":1438,"aw":1439,"ĠlÃ¤m":1440,"ember":1441,"Ġbil":1442,"Ġhouse":1443,"Inte":1444,"ves":1445,"Ġsomeone":1446,"Ġhear":1447,"ĠHar":1448,"Ġkont":1449,"Ġsur":1450,"Ġstop":1451,"Ġbelieve":1452,"ĠnÃ¥gon":1453,"Ġmind":1454,"Ġgick":1455,"ĠBut":1456,"ets":1457,"Ġgod":1458,"Ġpeng":1459,"Hej":1460,"Ġpass":1461,"Ġleft":1462,"als":1463,"gr":1464,"ash":1465,"Ġsky":1466,"Ġwom":1467,"cy":1468,"ated":1469,"inn":1470,"far":1471,"ye":1472,"sid":1473,"Ġcoming":1474,"ĠAll":1475,"tain":1476,"Ġmon":1477,"Ġbab":1478,"isst":1479,"Ġsupp":1480,"Ġcomp":1481,"ket":1482,"ail":1483,"Ġfound":1484,"Ġbre":1485,"ĠsÃ¤tt":1486,"Man":1487,"ope":1488,"Ġtrodde":1489,"Ġtrying":1490,"Ġrec":1491,"ĠfÃ¶rl":1492,"When":1493,"AT":1494,"Ġdina":1495,"ĠSo":1496,"Ġtyck":1497,"Ġleave":1498,"akes":1499,"Ġcame":1500,"Ġveta":1501,"Ġend":1502,"del":1503,"Did":1504,"ph":1505,"Ġgetting":1506,"ĠFr":1507,"Ġbort":1508,"ĠMar":1509,"ĠkÃ¶":1510,"Ġhell":1511,"ĠAl":1512,"Ġwanna":1513,"Ġexp":1514,"Ġworld":1515,"Are":1516,"Ã¤ttre":1517,"Your":1518,"ĠVar":1519,"illa":1520,"ied":1521,"Ġfull":1522,"Ġelse":1523,"Ġbus":1524,"Who":1525,"Tack":1526,"Ġfamily":1527,"ings":1528,"ĠkÃ¶r":1529,"Ã¥l":1530,"jer":1531,"ition":1532,"Ġste":1533,"oc":1534,"rÃ¤":1535,"ĠmÃ¥nga":1536,"ris":1537,"Ġcle":1538,"Ġsett":1539,"Ġih":1540,"rist":1541,"Ġverkligen":1542,"ib":1543,"ĠYes":1544,"Can":1545,"stand":1546,"ĠlÃ¤r":1547,"Ġwasn":1548,"Ã¥ra":1549,"Ġshit":1550,"Ġmeet":1551,"Ġtag":1552,"Ġwent":1553,"ub":1554,"alt":1555,"ffer":1556,"ĠlÃ¤g":1557,"wh":1558,"ĠgÃ¥ng":1559,"Ġisn":1560,"Ġinf":1561,"Ġkon":1562,"ĠÃ¤lskar":1563,"iver":1564,"Ġhappened":1565,"Ġbro":1566,"ĠbÃ¤ttre":1567,"Ġmil":1568,"Ġtro":1569,"mar":1570,"Ġdes":1571,"ĠtÃ¤nker":1572,"ork":1573,"Ġenough":1574,"oot":1575,"Sh":1576,"Ġgillar":1577,"Ġminute":1578,"ĠhÃ¥ll":1579,"AR":1580,"Ġanother":1581,"Ġfil":1582,"Ġthree":1583,"Ġmar":1584,"etty":1585,"Ġfast":1586,"ange":1587,"ipp":1588,"Ġyeah":1589,"erar":1590,"\".":1591,"ctor":1592,"ĠÃ¤nd":1593,"Ġsame":1594,"ĠjÃ¤v":1595,"Ġlooking":1596,"yss":1597,"Ġokej":1598,"dag":1599,"Ġkall":1600,"aught":1601,"Ġur":1602,"Ã¶v":1603,"Ġtalking":1604,"pe":1605,"Ġhopp":1606,"ĠShe":1607,"EN":1608,"Ġsju":1609,"ern":1610,"ĠhjÃ¤lpa":1611,"Ġgra":1612,"Vill":1613,"Ġdead":1614,"Ġroom":1615,"ĠfÃ¶rsta":1616,"Ġvem":1617,"Ġtoget":1618,"Ġtogether":1619,"Ġhal":1620,"anks":1621,"lut":1622,"Ġgre":1623,"Ġinnan":1624,"Ġbeg":1625,"Ta":1626,"ON":1627,"eras":1628,"ĠBr":1629,"ala":1630,"Ġhennes":1631,"Ã¤pp":1632,"inna":1633,"mm":1634,"Ġmother":1635,"ien":1636,"ife":1637,"den":1638,"Ska":1639,"so":1640,"Ġremember":1641,"vÃ¤r":1642,"Ġtoday":1643,"Ġweek":1644,"Ġtack":1645,"ert":1646,"Ġcra":1647,"ĠOkay":1648,"Ġwrong":1649,"ĠOch":1650,"Ġdro":1651,"Ġvisste":1652,"Vem":1653,"ĠĠ":1654,"Ġunderstand":1655,"ĠMen":1656,"Ġsaw":1657,"Ġfru":1658,"ah":1659,"tro":1660,"Ġrikt":1661,"ĠlÃ¤ng":1662,"ift":1663,"Ġlik":1664,"Ġfamilj":1665,"Ġfather":1666,"Ġboy":1667,"Att":1668,"Ġmaybe":1669,"Ġacc":1670,"Ġsaker":1671,"Ġhos":1672,"ating":1673,"Ġhelt":1674,"ask":1675,"Ġ5":1676,"Ã¥rt":1677,"nade":1678,"Ġreg":1679,"Then":1680,"Ġcourse":1681,"els":1682,"ĠDo":1683,"Ġnext":1684,"Ġhard":1685,"Ġklar":1686,"Ġdog":1687,"Ġev":1688,"Ġwhole":1689,"Where":1690,"ready":1691,"skap":1692,"ING":1693,"Ġmost":1694,"Maybe":1695,"Ġtills":1696,"ial":1697,"000":1698,"ĠlÃ¤n":1699,"Ġ...":1700,"ĠkvÃ¤ll":1701,"ĠvÃ¤rld":1702,"Ġsna":1703,"Ġbaby":1704,"Ġnice":1705,"Ġyourself":1706,"Ġ4":1707,"ory":1708,"Uh":1709,"ime":1710,"Ġgotta":1711,"tal":1712,"ĠgÃ¥n":1713,"ower":1714,"ĠWell":1715,"Ch":1716,"uter":1717,"Ã¥ller":1718,"Ġwhich":1719,"Ġpri":1720,"Ġter":1721,"Ġland":1722,"Ã¶rd":1723,"ole":1724,"Ġfine":1725,"Ġactually":1726,"Ġalready":1727,"led":1728,"ĠHow":1729,"tter":1730,"les":1731,"Ġmay":1732,"Ġmet":1733,"ty":1734,"LL":1735,"Ġknew":1736,"ible":1737,"ĠmÃ¤nn":1738,"farande":1739,"land":1740,"Ġcr":1741,"Ġmenar":1742,"Ġmany":1743,"Ġseen":1744,"ction":1745,"ĠdÃ¶da":1746,"ĠlÃ¤nge":1747,"Ġnum":1748,"Ġton":1749,"Ġturn":1750,"nad":1751,"ldigt":1752,"Vil":1753,"ĠlÃ¥ng":1754,"unch":1755,"ĠsÃ¥n":1756,"ason":1757,"Se":1758,"air":1759,"ĠvarfÃ¶r":1760,"net":1761,"Ġprecis":1762,"ical":1763,"OR":1764,"Ġkvar":1765,"ump":1766,"Ġskri":1767,"ĠanvÃ¤nd":1768,"Ġchild":1769,"ĠHey":1770,"osed":1771,"Ġtook":1772,"rsÃ¤kt":1773,"Ġwouldn":1774,"Ġpu":1775,"jud":1776,"ĠhÃ¤nder":1777,"ĠfÃ¶l":1778,"ĠÃĦr":1779,"ĠrÃ¤dd":1780,"Ġresp":1781,"Ġhitta":1782,"Ġschool":1783,"Ġglad":1784,"Because":1785,"Ġused":1786,"aj":1787,"Ġfortfarande":1788,"?\"":1789,"Ġhour":1790,"Ġtom":1791,"Ġcalled":1792,"Ġbak":1793,"Ġsitt":1794,"Ġlag":1795,"sy":1796,"Ingen":1797,"ple":1798,"Ġinter":1799,"Ġdum":1800,"Ġskit":1801,"Ġuse":1802,"ream":1803,"Ġguess":1804,"Ġenda":1805,"cial":1806,"Ġheard":1807,"Ġkoll":1808,"Ġannan":1809,"ĠThis":1810,"unt":1811,"Ãĸ":1812,"Ġres":1813,"An":1814,"by":1815,"atten":1816,"Ġbar":1817,"ĠThey":1818,"min":1819,"Mr":1820,"uth":1821,"ĠberÃ¤tta":1822,"Ġidea":1823,"Ġkun":1824,"ohn":1825,"ĠhjÃ¤lp":1826,"ird":1827,"Ġpengar":1828,"ĠfÃ¶rstÃ¥r":1829,"ably":1830,"ĠDon":1831,"Ġwatch":1832,"olog":1833,"Get":1834,"Ġcheck":1835,"ifrÃ¥n":1836,"alen":1837,"Ġpolis":1838,"vin":1839,"ĠhjÃ¤r":1840,"ĠkÃ¤r":1841,"Ġpretty":1842,"par":1843,"ĠZ":1844,"ĠberÃ¤tt":1845,"ika":1846,"Every":1847,"ĠHon":1848,"iness":1849,"Din":1850,"ĠlÃ¶":1851,"Ġ20":1852,"itch":1853,"Ġger":1854,"iel":1855,"Alla":1856,"LÃ¥t":1857,"ĠstÃ¥r":1858,"Ġfix":1859,"dda":1860,"kom":1861,"ĠsÃ¶":1862,"Ġinv":1863,"ĠrÃ¶":1864,"Ġquest":1865,"ese":1866,"ĠHur":1867,"ross":1868,"come":1869,"Ġdetta":1870,"cu":1871,"ĠTHE":1872,"dy":1873,"Ã¤nt":1874,"Ġcomm":1875,"Ġdrink":1876,"ym":1877,"Ġseem":1878,"Ġsecond":1879,"Ġlive":1880,"Ġann":1881,"Ġwithout":1882,"Ġmove":1883,"HÃ¤r":1884,"ote":1885,"Ġwalk":1886,"Ġdad":1887,"ĠstÃ¤ll":1888,"ler":1889,"ĠvÃ¥ra":1890,"Ġsaying":1891,"Her":1892,"Ett":1893,"Ġsamma":1894,"Ġdiffer":1895,"Ġfew":1896,"Ġ[":1897,"Ġredan":1898,"ried":1899,"Ġbring":1900,"Ġdra":1901,"ĠFÃ¶r":1902,"Ġnamn":1903,"Ġopen":1904,"zy":1905,"ient":1906,"urn":1907,"Ġdeal":1908,"ĠvÃ¤ldigt":1909,"iot":1910,"Ġword":1911,"med":1912,"Ġval":1913,"For":1914,"met":1915,"Fr":1916,"reg":1917,"Ġdef":1918,"Ġob":1919,"ces":1920,"else":1921,"leep":1922,"ations":1923,"Ġtycker":1924,"kv":1925,"ax":1926,"ĠdÃ¶r":1927,"ane":1928,"oe":1929,"Ġskick":1930,"Ġwar":1931,"Ġpoint":1932,"\"?":1933,"erade":1934,"Ġswe":1935,"ĠfÃ¶rsÃ¶ker":1936,"ĠAr":1937,"its":1938,"Ġmyself":1939,"Ġwoman":1940,"Ġfight":1941,"Ġmus":1942,"bably":1943,"ĠAn":1944,"Ġheter":1945,"uc":1946,"Ġgenom":1947,"vud":1948,"ten":1949,"Allt":1950,"ĠhÃ¥ller":1951,"ward":1952,"Ġunt":1953,"Ġwhile":1954,"Ġrum":1955,"ĠbÃ¤sta":1956,"Ġute":1957,"Ã¤nta":1958,"Go":1959,"ST":1960,"Ġkr":1961,"Ġperfe":1962,"ĠlÃ¥ter":1963,"ness":1964,"ĠhÃ¤m":1965,"Ġtest":1966,"Ġready":1967,"Ġfriends":1968,"lighet":1969,"sent":1970,"ĠEn":1971,"ĠÃ¥ter":1972,"Ġpay":1973,"lÃ¥t":1974,"Ġhaven":1975,"Ġmag":1976,"oo":1977,"ĠlÃ¤ngre":1978,"ader":1979,"Ġboth":1980,"Ġkilled":1981,"Ġveck":1982,"Ġdays":1983,"ĠIs":1984,"Ġpat":1985,"ĠtÃ¤nkte":1986,"Ġsent":1987,"son":1988,"Ġdit":1989,"Al":1990,"ida":1991,"Ġago":1992,"ĠLet":1993,"co":1994,"Ġanyone":1995,"cept":1996,"Ġbry":1997,"ale":1998,"som":1999,"pr":2000,"Ġstuff":2001,"ĠCome":2002,"Ġfem":2003,"ĠmÃ¤nnisk":2004,"aken":2005,"ingen":2006,"yra":2007,"eln":2008,"iet":2009,"Ġdoll":2010,"Ġdec":2011,"ush":2012,"jut":2013,"Ġlisten":2014,"Ġcase":2015,"Ġmatter":2016,"Ġhold":2017,"ĠYOU":2018,"nas":2019,"Ġrel":2020,"Ġwants":2021,"Ġborta":2022,"Ġvikt":2023,"vel":2024,"Ġstand":2025,"Ġteam":2026,"Ġalso":2027,"ĠJust":2028,"Ġplats":2029,"ĠNew":2030,"Ġhund":2031,"DÃ¤r":2032,"Ġprom":2033,"ningar":2034,"rew":2035,"cess":2036,"ize":2037,"Vet":2038,"ĠSe":2039,"Ġmorning":2040,"Ġhum":2041,"ying":2042,"ende":2043,"where":2044,"Ġyet":2045,"Ġgone":2046,"Ġverkar":2047,"ator":2048,"Ġinga":2049,"Ġaff":2050,"Ġstud":2051,"Ġmid":2052,"ĠstÃ¶r":2053,"Ġlyck":2054,"Ġbed":2055,"Ġcount":2056,"Ġuntil":2057,"Ġarbet":2058,"ĠfÃ¥tt":2059,"Ġfire":2060,"Ġhist":2061,"ĠkÃ¤nd":2062,"band":2063,"RE":2064,"ict":2065,"ĠRe":2066,"Ġwife":2067,"Ġimp":2068,"aring":2069,"Ġstopp":2070,"stÃ¤ll":2071,"aut":2072,"Ġpick":2073,"PÃ¥":2074,"Good":2075,"Ġmorgon":2076,"Ġstra":2077,"ĠhÃ¤nde":2078,"Or":2079,"Ġcouldn":2080,"Ġkids":2081,"rev":2082,"Ġihop":2083,"Ġface":2084,"Ġphone":2085,"Ġtiden":2086,"Ġret":2087,"Ġlig":2088,"Ġeveryone":2089,"Ġhaving":2090,"ĠÃ¶gon":2091,"edan":2092,"Ġinne":2093,"Ġdire":2094,"ppen":2095,"Ġext":2096,"ĠhÃ¶g":2097,"Ġgav":2098,"Ġflick":2099,"omb":2100,"Ã¤nk":2101,"oner":2102,"ĠBe":2103,"orrow":2104,"rum":2105,"Ġtonight":2106,"Ġbety":2107,"Ġworking":2108,"Ã¶k":2109,"Ġhurt":2110,"Ġbusiness":2111,"ates":2112,"ĠbÃ¶rjar":2113,"Ġrest":2114,"ĠfÃ¶re":2115,"Ġlug":2116,"Ġmess":2117,"Ġum":2118,"oke":2119,"Ġsw":2120,"ĠDen":2121,"ton":2122,"Ġsays":2123,"Ġsina":2124,"Ge":2125,"Ġap":2126,"God":2127,"ĠBl":2128,"ĠLe":2129,"Ġpratar":2130,"ov":2131,"Ġbreak":2132,"ana":2133,"br":2134,"ĠfÃ¶rlor":2135,"Ġhappy":2136,"SÃ¤g":2137,"ley":2138,"Ġlost":2139,"TH":2140,"Ġtjej":2141,"On":2142,"ĠvÃ¤nner":2143,"org":2144,"Ġconf":2145,"ames":2146,"Ġsound":2147,"Ġderas":2148,"ĠtrÃ¤ffa":2149,"Ġsign":2150,"ĠÃ¥ka":2151,"ĠhÃ¥lla":2152,"Ġhuvud":2153,"fri":2154,"Ġ19":2155,"Ġbrother":2156,"mit":2157,"Ġspr":2158,"ual":2159,"ared":2160,"Ġmur":2161,"Ġsince":2162,"sam":2163,"Ġthinking":2164,"asy":2165,"Ġonce":2166,"Ġhope":2167,"Ġfakt":2168,"Ġyear":2169,"Ġprobably":2170,"uk":2171,"iff":2172,"Bara":2173,"Please":2174,"ivit":2175,"ĠlÃ¥t":2176,"ena":2177,"Ġmonth":2178,"To":2179,"Ã¶s":2180,"bar":2181,"Ġeach":2182,"Some":2183,"sident":2184,"az":2185,"bland":2186,"Ġorder":2187,"ighet":2188,"Ġalone":2189,"Ã¤gg":2190,"ots":2191,"Ġsjuk":2192,"unk":2193,"agt":2194,"Ġheart":2195,"Ġblood":2196,"ĠWhy":2197,"Ġpoj":2198,"actly":2199,"Ġdifferent":2200,"Ġnej":2201,"Ġcool":2202,"Ġkonst":2203,"ither":2204,"Ġva":2205,"Ġleg":2206,"Ġemot":2207,"Ġhigh":2208,"ĠTO":2209,"ubb":2210,"ison":2211,"less":2212,"ĠSte":2213,"ove":2214,"Ġsleep":2215,"Ġdie":2216,"ĠJohn":2217,"ĠSp":2218,"Ġpa":2219,"Like":2220,"Ġfav":2221,"Ġdoor":2222,"Ġcoll":2223,"Ġrep":2224,"Ġread":2225,"Ġnya":2226,"ĠJack":2227,"Ġannat":2228,"cka":2229,"Ġhot":2230,"Ġkul":2231,"stÃ¥":2232,"ced":2233,"ĠDad":2234,"Med":2235,"Ġyes":2236,"anska":2237,"Ġdom":2238,"As":2239,"IS":2240,"Any":2241,"upp":2242,"Eller":2243,"attar":2244,"ĠglÃ¶m":2245,"tid":2246,"One":2247,"aughter":2248,"cle":2249,"ister":2250,"Ġsupposed":2251,"Ġmr":2252,"ĠjÃ¤vla":2253,"Ġmeans":2254,"Ġsuch":2255,"Ġdess":2256,"Ã¤ld":2257,"arly":2258,"ĠThere":2259,"Ġinc":2260,"Ġvan":2261,"Ġstory":2262,"Ġja":2263,"ilt":2264,"ollow":2265,"Ġarm":2266,"isten":2267,"Ġgave":2268,"Ġinform":2269,"ign":2270,"Ã¶ra":2271,"ĠhÃ¶":2272,"Ġmod":2273,"oss":2274,"elt":2275,"Ġminutes":2276,"ĠbÃ¥":2277,"ding":2278,"vÃ¤g":2279,"imes":2280,"Ġprote":2281,"Ġtel":2282,"nder":2283,"Ġfant":2284,"wer":2285,"Ġtaking":2286,"ĠvÃ¥rt":2287,"Ġkro":2288,"Ġadv":2289,"Ġlooks":2290,"Ġsol":2291,"Ġsista":2292,"Sen":2293,"Ã¶tt":2294,"ĠDr":2295,"ĠSÃ¥":2296,"Ġsoon":2297,"Ġgun":2298,"Ġvarje":2299,"Thank":2300,"eral":2301,"ps":2302,"ĠfrÃ¥ga":2303,"Ġknows":2304,"Ġsnart":2305,"Ġkunna":2306,"ention":2307,"Till":2308,"Ġskad":2309,"Ġfig":2310,"ĠNot":2311,"Ġmaking":2312,"Ġhittade":2313,"Ġpower":2314,"erat":2315,"ĠDan":2316,"Ġstick":2317,"ĠCl":2318,"ĠChrist":2319,"ita":2320,"Ġsort":2321,"Ġmakes":2322,"Ġtomorrow":2323,"Ġmark":2324,"Ġfre":2325,"Bra":2326,"Ġchans":2327,"Ġhands":2328,"ract":2329,"Ġimport":2330,"Ġattack":2331,"Here":2332,"Ġchar":2333,"Ġwonder":2334,"omm":2335,"Ġart":2336,"Ġain":2337,"Ġskol":2338,"Ġbeaut":2339,"nings":2340,"ĠGr":2341,"ĠSk":2342,"ĠsÃ¤kert":2343,"ekt":2344,"Sn":2345,"Ġside":2346,"Ġinside":2347,"Ġchange":2348,"ited":2349,"Ġhuh":2350,"yl":2351,"ĠÃ¶pp":2352,"Ġfaktiskt":2353,"ugg":2354,"Ġdan":2355,"erest":2356,"ron":2357,"Ġbook":2358,"Ġparty":2359,"ED":2360,"Ġthank":2361,"Ã¢":2362,"vie":2363,"issa":2364,"ha":2365,"ĠfÃ¶rb":2366,"andra":2367,"Ġbody":2368,"ĠQ":2369,"Ã¥k":2370,"Ġbas":2371,"Ġpolice":2372,"ĠhÃ¶ra":2373,"ĠCar":2374,"eth":2375,"Ġposs":2376,"ouble":2377,"ouch":2378,"Ãħh":2379,"ĠbehÃ¶v":2380,"cent":2381,"Ġasked":2382,"Ġleast":2383,"Ġeat":2384,"Ġsagt":2385,"Ġfive":2386,"Ġ10":2387,"ĠÃ¤ndÃ¥":2388,"Ġrunt":2389,"Ġstarted":2390,"Ã¤ller":2391,"Ġwater":2392,"more":2393,"Ġset":2394,"Ġgott":2395,"Ġlate":2396,"Ġworry":2397,"ney":2398,"Ġlu":2399,"ĠvÃ¤gen":2400,"erad":2401,"...?":2402,"Ã¤k":2403,"of":2404,"Ġclose":2405,"Ġchance":2406,"ĠGe":2407,"gent":2408,"atur":2409,"VÃ¤nta":2410,"Ġmass":2411,"lex":2412,"Ġforts":2413,"ES":2414,"Ġcompl":2415,"ĠMy":2416,"Ġbur":2417,"ET":2418,"Ġstan":2419,"Ġlight":2420,"lek":2421,"Ġhemma":2422,"iful":2423,"Ġmisst":2424,"side":2425,"Ġcrazy":2426,"for":2427,"ony":2428,"rsÃ¤kta":2429,"Ġgame":2430,"Ġpress":2431,"Ġgam":2432,"Ġsing":2433,"Ġdeath":2434,"GÃ¶r":2435,"Ġimportant":2436,"inner":2437,"Ġfour":2438,"ĠmÃ¥r":2439,"napp":2440,"Ġtrans":2441,"Ġ6":2442,"Ġliten":2443,"Ġmurder":2444,"FÃ¶rlÃ¥t":2445,"ĠjÃ¤tt":2446,"aste":2447,"Ġfavor":2448,"Ġtrust":2449,"ount":2450,"yes":2451,"Re":2452,"yn":2453,"Ġidag":2454,"ĠmÃ¤nniskor":2455,"Ġreason":2456,"any":2457,"Ġledsen":2458,"Ġriktigt":2459,"me":2460,"ĠfÃ¶rv":2461,"Ġhat":2462,"Ġdollar":2463,"Ġera":2464,"Ġexactly":2465,"oice":2466,"Ġaw":2467,"head":2468,"Have":2469,"Ġidiot":2470,"Ġlivet":2471,"ĠvÃ¤rlden":2472,"Ġent":2473,"OM":2474,"sol":2475,"vete":2476,"Ġfact":2477,"ering":2478,"Ġcont":2479,"Ġlater":2480,"Ġtrue":2481,"Ġexper":2482,"Jo":2483,"Ġfigure":2484,"Ġhours":2485,"Ġtitt":2486,"Ġshot":2487,"Ġrad":2488,"ital":2489,"Ġluck":2490,"iously":2491,"Ġtimes":2492,"ĠWho":2493,"llan":2494,"ationen":2495,"rade":2496,"Ġol":2497,"ĠEl":2498,"oun":2499,"Ġthough":2500,"ĠGo":2501,"ĠAmer":2502,"outh":2503,"Ã¤stan":2504,"Ġmoment":2505,"ĠhÃ¤rifrÃ¥n":2506,"Ġlaw":2507,"Ġwish":2508,"Ġgets":2509,"uset":2510,"elf":2511,"Ġable":2512,"cer":2513,"aff":2514,"ĠkÃ¤nns":2515,"Ã¶n":2516,"jur":2517,"Ġsluta":2518,"Ġvisa":2519,"ags":2520,"Ġquestion":2521,"Ġensam":2522,"ĠfÃ¶rsÃ¶kte":2523,"ĠsvÃ¥rt":2524,"ric":2525,"Ġagainst":2526,"ĠVarfÃ¶r":2527,"ĠWill":2528,"ĠslÃ¤pp":2529,"iken":2530,"Ġsim":2531,"ester":2532,"Ã¶l":2533,"Ã¤mt":2534,"most":2535,"ammans":2536,"fer":2537,"Ġdist":2538,"iven":2539,"Ġblivit":2540,"Ġlever":2541,"Ġhaft":2542,"ĠlÃ¤tt":2543,"Ġfollow":2544,"ĠgÃ¥ngen":2545,"ween":2546,"anske":2547,"agen":2548,"Ġskr":2549,"stem":2550,"Ġcop":2551,"igare":2552,"GÃ¥":2553,"erg":2554,"Ex":2555,"ene":2556,"Ġminuter":2557,"bo":2558,"ĠvÃ¤nta":2559,"AS":2560,"Ġfree":2561,"Right":2562,"Sp":2563,"ela":2564,"ĠhÃ¶rde":2565,"ĠCharl":2566,"ĠCan":2567,"Ġneeds":2568,"ily":2569,"ĠMan":2570,"Ġinterest":2571,"Ġpos":2572,"Ġinst":2573,"nu":2574,"Ġligger":2575,"Tror":2576,"Ġblod":2577,"ield":2578,"Bl":2579,"ica":2580,"Ġdaughter":2581,"Ġroll":2582,"Ġsj":2583,"each":2584,"Ġdest":2585,"Ġoper":2586,"Ġsvar":2587,"Ġanymore":2588,"Ġang":2589,"Ġpresent":2590,"Ġcomes":2591,"Sl":2592,"ĠGud":2593,"Ġhalf":2594,"Ġcor":2595,"mor":2596,"Ġjobbar":2597,"kta":2598,"Ġsuper":2599,"ject":2600,"ape":2601,"Ġgoes":2602,"Ġbetyder":2603,"Ġvack":2604,"Ġfot":2605,"Ġfront":2606,"Ã¶st":2607,"Ġmellan":2608,"Ġpull":2609,"luta":2610,"aget":2611,"ĠfÃ¶rsv":2612,"ften":2613,"Ġeyes":2614,"ĠfÃ¶rstÃ¥":2615,"Ġbeautiful":2616,"Wait":2617,"Ġbild":2618,"Ġnumber":2619,"Ġru":2620,"ira":2621,"Ġsend":2622,"Ġoffic":2623,"Ser":2624,"Ġredo":2625,"Ġarg":2626,"ĠÃ¥ker":2627,"Ġsnabb":2628,"Ġhor":2629,"lor":2630,"Ġvap":2631,"Ġbilen":2632,"Ġ9":2633,"ĠÃ¶n":2634,"Ġspeak":2635,"Ġtried":2636,"ired":2637,"Ġbevis":2638,"Ġbehind":2639,"vers":2640,"Ġwin":2641,"Ġhistor":2642,"ĠhÃ¥r":2643,"ĠfÃ¶rut":2644,"Ġlyss":2645,"full":2646,"Ġsafe":2647,"Ġcut":2648,"Ġlika":2649,"hÃ¥ll":2650,"Ġtelling":2651,"ĠFrank":2652,"Vilken":2653,"Ġkvinn":2654,"ĠbÃ¶rjade":2655,"Ġses":2656,"Ġgiv":2657,"FÃ¥r":2658,"Ġprof":2659,"orter":2660,"ĠlÃ¤mna":2661,"ĠGood":2662,"Ġdam":2663,"IT":2664,"Ã¤cker":2665,"ĠSam":2666,"ih":2667,"ex":2668,"fra":2669,"itet":2670,"Ġsedan":2671,"Ġilla":2672,"Ġpast":2673,"enting":2674,"Ġhelst":2675,"ĠtjÃ¤n":2676,"Ġmilj":2677,"Ġtruth":2678,"Ġ15":2679,"ĠsÃ¥nt":2680,"Ġ!":2681,"ically":2682,"ĠTom":2683,"ĠgÃ¥tt":2684,"gar":2685,"Ġcouple":2686,"Ġ7":2687,"ffic":2688,"regud":2689,"Ġforg":2690,"ĠnÃ¤sta":2691,"Ġklarar":2692,"Ġhoppas":2693,"ĠlÃ¥ta":2694,"skar":2695,"iell":2696,"Ġyoung":2697,"ĠAre":2698,"Ġigenom":2699,"ately":2700,"ĠYork":2701,"ĠdÃ¤rfÃ¶r":2702,"Ã¤mmer":2703,"ĠfÃ¶rr":2704,"ĠslÃ¥":2705,"ery":2706,"Ã¤t":2707,"stans":2708,"Ġry":2709,"Ġhittar":2710,"Ġhusband":2711,"Tell":2712,"Ġbok":2713,"Ġbetween":2714,"Ġnorm":2715,"ĠKom":2716,"Ġstora":2717,"dom":2718,"ĠJo":2719,"sm":2720,"Ġmatch":2721,"ama":2722,"ĠnÃ¤stan":2723,"Ġbud":2724,"uss":2725,"aps":2726,"Ġdream":2727,"Ġspec":2728,"Ã¤der":2729,"ĠidÃ©":2730,"Ġbuild":2731,"Ġ8":2732,"Ġeasy":2733,"rad":2734,"Dr":2735,"Ġsat":2736,"Sorry":2737,"Ġes":2738,"ĠOkej":2739,"ĠmÃ¶rd":2740,"Ġfilm":2741,"Ġanswer":2742,"Ã¤nn":2743,"Ġline":2744,"Ġinve":2745,"cker":2746,"vÃ¥":2747,"Ġtown":2748,"ĠfÃ¶rÃ¤ld":2749,"rest":2750,"gest":2751,"Ġsmart":2752,"ĠlÃ¥ngt":2753,"Ġwhatever":2754,"cc":2755,"ĠmÃ¶j":2756,"ĠbÃ¥da":2757,"ĠPh":2758,"Ġshoot":2759,"lin":2760,"ement":2761,"aul":2762,"klag":2763,"Ġpie":2764,"ĠHej":2765,"Ġdied":2766,"Ġfantast":2767,"Ġlj":2768,"Ã¤rna":2769,"fraid":2770,"ĠfÃ¤r":2771,"Ġskjut":2772,"Ġdep":2773,"Efter":2774,"Ġkvinna":2775,"Ġspecial":2776,"ĠWhere":2777,"rel":2778,"ĠMom":2779,"init":2780,"ĠnÃ¤ra":2781,"orge":2782,"aptain":2783,"ident":2784,"Ġrid":2785,"At":2786,"Ġsweet":2787,"ĠGet":2788,"Ġdotter":2789,"ones":2790,"Ġbitch":2791,"Ġvore":2792,"TÃ¤nk":2793,"iam":2794,"Ġinformation":2795,"ĠUn":2796,"dr":2797,"Ġmine":2798,"HÃ¥ll":2799,"str":2800,"Ġfyra":2801,"Ġtouch":2802,"With":2803,"Ġlov":2804,"oud":2805,"Ġfa":2806,"van":2807,"enn":2808,"Ġball":2809,"Ġoffice":2810,"Ġmill":2811,"Ġgrund":2812,"Ġsid":2813,"arch":2814,"ĠvÃ¤ntar":2815,"uh":2816,"Ġtillsammans":2817,"HÃ¶r":2818,"ĠÃ¤ta":2819,"Ġgift":2820,"Tr":2821,"Ġits":2822,"ĠkÃ¤nde":2823,"ĠSc":2824,"Ġsitu":2825,"âĢĲ":2826,"Ġcontro":2827,"Ġ30":2828,"ael":2829,"ĠAN":2830,"ĠKan":2831,"Ġfler":2832,"fl":2833,"reet":2834,"cuse":2835,"Ġsold":2836,"Ġbrought":2837,"ĠBar":2838,"Ġaren":2839,"Ġvisst":2840,"Ġquite":2841,"ĠThank":2842,"Ġminns":2843,"ĠIf":2844,"upid":2845,"ĠMich":2846,"Ġmonths":2847,"unn":2848,"ras":2849,"Ġbror":2850,"Ġben":2851,"OW":2852,"ship":2853,"Ġegen":2854,"Ġkrig":2855,"Ġafraid":2856,"ĠgÃ¥nger":2857,"friend":2858,"Ġvarandra":2859,"oj":2860,"Ġrol":2861,"ĠMc":2862,"Ġgamm":2863,"ium":2864,"yll":2865,"hand":2866,"heten":2867,"LE":2868,"Ġklart":2869,"kan":2870,"ĠrÃ¤dda":2871,"Ġstanna":2872,"Um":2873,"pis":2874,"onger":2875,"och":2876,"ĠdrÃ¶m":2877,"Ġlearn":2878,"Ġeng":2879,"Ġdagar":2880,"ĠRob":2881,"Ġalmost":2882,"Hell":2883,"ĠOK":2884,"Ġclear":2885,"Ġstol":2886,"ĠtÃ¤nka":2887,"ktion":2888,"iker":2889,"Ġexpect":2890,"ĠfÃ¶rÃ¤nd":2891,"ĠÃ¤ven":2892,"Ġnews":2893,"Titta":2894,"Ġsister":2895,"illy":2896,"ics":2897,"Ġpriv":2898,"not":2899,"ĠhÃ¶rt":2900,"Ġclean":2901,"ĠLook":2902,"Ġperfect":2903,"ĠfÃ¶rkl":2904,"Ġhuset":2905,"Ġgirls":2906,"Ġsan":2907,"ĠHer":2908,"ĠInte":2909,"ĠdÃ¶dade":2910,"Ġair":2911,"Listen":2912,"Ġfanns":2913,"Ġsomebody":2914,"alm":2915,"Ut":2916,"Of":2917,"Ġind":2918,"kn":2919,"Ġchang":2920,"See":2921,"NÃ¥g":2922,"Take":2923,"Ġchef":2924,"elcome":2925,"ĠkÃ¤nna":2926,"Ġhandlar":2927,"Ġsix":2928,"Ġoutside":2929,"Ġwaiting":2930,"Ġless":2931,"Ġform":2932,"Ġsecret":2933,"ald":2934,"Ã¤ra":2935,"Ġfood":2936,"ĠLu":2937,"ĠOr":2938,"Ġhate":2939,"Ġeither":2940,"gÃ¥r":2941,"let":2942,"Ah":2943,"Ġhelvete":2944,"Ġfing":2945,"Ġadd":2946,"erry":2947,"Ġoffer":2948,"agg":2949,"ĠfÃ¶rt":2950,"rick":2951,"ĠEm":2952,"esus":2953,"ĠbÃ¶rja":2954,"Ġz":2955,"Ġchildren":2956,"Ġeverybody":2957,"Mar":2958,"Ġwomen":2959,"gÃ¥ng":2960,"Ġbull":2961,"IG":2962,"stÃ¥nd":2963,"icture":2964,"lan":2965,"ards":2966,"Ġjobbet":2967,"Ġkra":2968,"Ġpolisen":2969,"Kanske":2970,"ĠmÃ¤r":2971,"ines":2972,"Ġant":2973,"roll":2974,"Ġtitta":2975,"Ġavsl":2976,"Ġblack":2977,"Ġ12":2978,"ants":2979,"Ġsant":2980,"imin":2981,"Ġsave":2982,"Ġgrand":2983,"Ġsub":2984,"Ġpubl":2985,"lain":2986,"Ġyours":2987,"Ġfest":2988,"Ġdamn":2989,"Ġla":2990,"Ġlist":2991,"Ġkille":2992,"ĠMin":2993,"Ġlead":2994,"ata":2995,"Ġuppt":2996,"Ġstar":2997,"aden":2998,"oon":2999,"ills":3000,"Ġtelef":3001,"Visst":3002,"jÃ¤n":3003,"hÃ¶r":3004,"Ġhey":3005,"Ġparents":3006,"Ġlilla":3007,"Ġfeeling":3008,"ĠMiss":3009,"Ġpsy":3010,"Ã¤d":3011,"Ġspelar":3012,"Ġreport":3013,"UrsÃ¤kta":3014,"ĠDid":3015,"Ġrecord":3016,"Ã¤nner":3017,"AL":3018,"Ġcomplet":3019,"ĠYour":3020,"ĠrÃ¶r":3021,"Ġche":3022,"Ġmist":3023,"Ġalive":3024,"kvÃ¤ll":3025,"ized":3026,"ĠNi":3027,"Ġfinish":3028,"Ġmord":3029,"Pro":3030,"VE":3031,"sin":3032,"ille":3033,"OK":3034,"Ã¥tt":3035,"ĠDav":3036,"Ġingenting":3037,"Ġtimmar":3038,"Somet":3039,"Ġcur":3040,"Ġbryr":3041,"oin":3042,"Ġbuy":3043,"Ġstupid":3044,"Ġpicture":3045,"Ġrunning":3046,"ĠgÃ¤rna":3047,"Ġreda":3048,"vid":3049,"Ġprotect":3050,"ĠOm":3051,"isa":3052,"Ġringer":3053,"Ġsitter":3054,"IC":3055,"Ġsystem":3056,"ĠPr":3057,"ĠhjÃ¤lper":3058,"Ġhang":3059,"Ġmarried":3060,"Ġheller":3061,"ĠIN":3062,"Ġont":3063,"Ġexpl":3064,"Ġvilja":3065,"Ġlock":3066,"fall":3067,"Ġspela":3068,"ĠTack":3069,"lade":3070,"Ġclass":3071,"arth":3072,"Ġgamla":3073,"Ġtrouble":3074,"rott":3075,"Ġhy":3076,"irt":3077,"ĠFor":3078,"Ġjobba":3079,"ution":3080,"vern":3081,"Ġband":3082,"Br":3083,"Ġcountry":3084,"OT":3085,"Ġbott":3086,"Ġlives":3087,"Ġ$":3088,"zing":3089,"ility":3090,"Ġdagen":3091,"add":3092,"Ġlunch":3093,"Ġcent":3094,"Ġrisk":3095,"Ġforget":3096,"room":3097,"pect":3098,"atter":3099,"ĠhÃ¤l":3100,"Ġlose":3101,"Hi":3102,"SnÃ¤lla":3103,"kten":3104,"ette":3105,"ior":3106,"ĠaffÃ¤r":3107,"cl":3108,"Ġcontrol":3109,"Ġringa":3110,"ertain":3111,"Ġrelation":3112,"ĠhÃ¤nt":3113,"Ġinvest":3114,"ĠmÃ¶":3115,"Ġtio":3116,"ĠAm":3117,"aster":3118,"ider":3119,"Ġkap":3120,"Ġbakom":3121,"Ġboys":3122,"Ġ?":3123,"ĠJim":3124,"ĠAd":3125,"Ġhair":3126,"Ġkropp":3127,"pro":3128,"ĠBen":3129,"Ġpresident":3130,"ĠNow":3131,"jen":3132,"Ber":3133,"Ġtop":3134,"ĠUh":3135,"Ġsmall":3136,"oor":3137,"utt":3138,"ĠifrÃ¥n":3139,"Ġhuman":3140,"Ġbank":3141,"Ġtrev":3142,"Un":3143,"Ġship":3144,"AD":3145,"ĠskÃ¶":3146,"Ġsenare":3147,"mÃ¤r":3148,"selves":3149,"sc":3150,"ense":3151,"Ġquick":3152,"oint":3153,"Ġfell":3154,"Ġsyster":3155,"Ġnatt":3156,"Ġtaken":3157,"Ġhote":3158,"Ġung":3159,"Ġwind":3160,"Ġsvart":3161,"Ġsick":3162,"ently":3163,"Ġdefinit":3164,"iting":3165,"Ġstat":3166,"These":3167,"Ġpack":3168,"artment":3169,"His":3170,"ĠMrs":3171,"ĠBob":3172,"ÂĻ":3173,"Ġgammal":3174,"Âª":3175,"bart":3176,"ism":3177,"Ġdinner":3178,"Ġplanet":3179,"Ġbetal":3180,"Ã¤s":3181,"ĠPar":3182,"ĠkÃ¤rlek":3183,"ĠSer":3184,"ĠTr":3185,"Ġasking":3186,"Ġmad":3187,"Our":3188,"!\"":3189,"Ġintress":3190,"Ġfelt":3191,"Ġdirekt":3192,"Sluta":3193,"Ġpap":3194,"sky":3195,"Ġmest":3196,"Ġringde":3197,"Inget":3198,"fÃ¤r":3199,"Ġvide":3200,"Ġextra":3201,"Ġseems":3202,"Ġtrain":3203,"bor":3204,"Ġliving":3205,"ihop":3206,"gan":3207,"rik":3208,"ĠsÃ¤l":3209,"irth":3210,"skt":3211,"idence":3212,"UT":3213,"ĠlÃ¥g":3214,"Ġbrott":3215,"ĠfÃ¤ng":3216,"Ġcover":3217,"odu":3218,"ball":3219,"Ar":3220,"Ġspend":3221,"rÃ¥d":3222,"orts":3223,"Pre":3224,"ev":3225,"ief":3226,"Ġcam":3227,"Ġweird":3228,"Ġskolan":3229,"Ġcell":3230,"ĠbÃ¤st":3231,"nie":3232,"ince":3233,"ingar":3234,"ĠsÃ¤tta":3235,"ĠÃ¤nnu":3236,",\"":3237,"Ġfoot":3238,"ĠUS":3239,"Ġtelefon":3240,"ID":3241,"ĠRight":3242,"Ġdenna":3243,"Ġalls":3244,"orth":3245,"Ġteach":3246,"Does":3247,"Ġtagit":3248,"Ġlugnt":3249,"Ġtala":3250,"ĠÃ¤g":3251,"Ġplaying":3252,"ĠJul":3253,"ĠIT":3254,"Ġalong":3255,"Ġdrive":3256,"Ġsus":3257,"Ġbomb":3258,"Ġsell":3259,"Ġcir":3260,"Ġcity":3261,"-[":3262,"Will":3263,"ĠOF":3264,"eren":3265,"ĠmÃ¶r":3266,"leas":3267,"Ġvak":3268,"entle":3269,"AY":3270,"Cause":3271,"bra":3272,"BI":3273,"inc":3274,"Ġleva":3275,"Ġkommit":3276,"Ġnytt":3277,"ĠRo":3278,"FÃ¶rs":3279,"Ġtyp":3280,"Ġ50":3281,"mas":3282,"Ġ.":3283,"pital":3284,"olis":3285,"Would":3286,"Ġvilket":3287,"ummer":3288,"Ġsense":3289,"ĠhÃ¤mta":3290,"Ã¥nga":3291,"Ġhappens":3292,"uld":3293,"Ġfara":3294,"ues":3295,"las":3296,"olly":3297,"oul":3298,"Ã¶ll":3299,"res":3300,"Ty":3301,"Ġdoctor":3302,"ĠSom":3303,"Ġshouldn":3304,"Ġbox":3305,"Ã¤tter":3306,"Mina":3307,"Ġmem":3308,"Ġvatten":3309,"Ġbek":3310,"Ġcertain":3311,"Ġtw":3312,"Ġgal":3313,"Ġmusic":3314,"Fuck":3315,"Give":3316,"Ġhimself":3317,"allÃ¥":3318,"nygg":3319,"ters":3320,"Thanks":3321,"Ġahead":3322,"Ġgrabb":3323,"Ġjord":3324,"Ġmeeting":3325,"ĠBra":3326,"amer":3327,"Hello":3328,"ĠJe":3329,"Ġdans":3330,"ĠfÃ¶rsÃ¶ka":3331,"Herregud":3332,"Ġpengarna":3333,"Hans":3334,"Ġimag":3335,"roy":3336,"Ġinsp":3337,"Ġdanger":3338,"ortun":3339,"Ġsituation":3340,"Ġfunny":3341,"Ġhop":3342,"urs":3343,"ĠfÃ¶rÃ¤ldrar":3344,"Ġten":3345,"ryck":3346,"ivers":3347,"ode":3348,"Ġlady":3349,"Ġpratade":3350,"lad":3351,"Ġrock":3352,"Ġklara":3353,"Ġvapen":3354,"Ġleaving":3355,"under":3356,"ĠfÃ¶rf":3357,"ĠstÃ¥":3358,"Ġanyway":3359,"uts":3360,"Ġske":3361,"Ġ100":3362,"Ġgif":3363,"Ġlab":3364,"Ġbecome":3365,"ĠNu":3366,"ised":3367,"form":3368,"pped":3369,"Ġterri":3370,"ĠCon":3371,"Ġcolle":3372,"Ġfunger":3373,"ific":3374,"Ġstort":3375,"ĠEng":3376,"ĠsnÃ¤ll":3377,"ows":3378,"Ġkort":3379,"Ġneeded":3380,"Ġworth":3381,"ular":3382,"Ġpost":3383,"ĠgÃ¶m":3384,"Ġpromise":3385,"used":3386,"Ġlev":3387,"oup":3388,"EL":3389,"ican":3390,"Ġgalen":3391,"ĠEd":3392,"Ġdress":3393,"right":3394,"Ġcatch":3395,"Ġcompany":3396,"ĠbehÃ¶vde":3397,"Ġexc":3398,"arm":3399,"ĠCol":3400,"igg":3401,"ĠberÃ¤ttade":3402,"anden":3403,"ran":3404,"Ġ000":3405,"com":3406,"off":3407,"NA":3408,"Ġpapp":3409,"Ġbirth":3410,"Ġcannot":3411,"ze":3412,"Ġert":3413,"Mamma":3414,"ĠfÃ¶lja":3415,"heter":3416,"Ġserv":3417,"inda":3418,"ĠlÃ¤ra":3419,"ĠstÃ¤llet":3420,"ĠihÃ¥g":3421,"dle":3422,"augh":3423,"enny":3424,"Ġeg":3425,"ele":3426,"ockan":3427,"Ġpop":3428,"Ġweeks":3429,"Ġvidare":3430,"lo":3431,"ĠVem":3432,"ĠursÃ¤kt":3433,"Ġjud":3434,"Ã¤nga":3435,"ession":3436,"Ġlie":3437,"Ġgener":3438,"ounds":3439,"Ġprogr":3440,"Ġentire":3441,"Ġmob":3442,"ulle":3443,"Ġmedic":3444,"Ġident":3445,"Ġnerv":3446,"urity":3447,"aker":3448,"Ġallvar":3449,"uten":3450,"ldig":3451,"NÃ¥n":3452,"Ġflera":3453,"Mitt":3454,"ience":3455,"ella":3456,"Ġsek":3457,"ager":3458,"Ġotro":3459,"Ġpain":3460,"CH":3461,"Ġworked":3462,"Ġflytt":3463,"ĠanvÃ¤nda":3464,"tat":3465,"Gu":3466,"Ġhalv":3467,"Ġdrug":3468,"Ġtreat":3469,"ĠTo":3470,"Ġannars":3471,"bjud":3472,"Ġra":3473,"ogra":3474,"Ġkiss":3475,"ĠlÃ¤mnade":3476,"ĠGu":3477,"ai":3478,"Ġpossible":3479,"ajor":3480,"Ġmillion":3481,"Ab":3482,"fr":3483,"Ġhittat":3484,"ips":3485,"Ġfattar":3486,"Ġloc":3487,"uture":3488,"Ġpatient":3489,"Ġeff":3490,"ĠAng":3491,"Ġstraight":3492,"Ġbygg":3493,"aged":3494,"ĠPre":3495,"Which":3496,"ĠAlex":3497,"ĠvÃ¤x":3498,"Ġboss":3499,"Ġantar":3500,"Ġscared":3501,"nda":3502,"ĠmÃ¥nader":3503,"Ġmannen":3504,"ĠsmÃ¥":3505,"Ġpartner":3506,"Ġhung":3507,"af":3508,"Ġdags":3509,"Ġhonest":3510,"ĠnÃ¥nsin":3511,"tel":3512,"joy":3513,"ĠKe":3514,"Ġvitt":3515,"ox":3516,"ham":3517,"ĠmÃ¥l":3518,"Ġhospital":3519,"ĠEx":3520,"Ġdessa":3521,"Ġcol":3522,"Ġkvinnor":3523,"Ġmeant":3524,"Ġref":3525,"utom":3526,"Ġ18":3527,"Ġnatur":3528,"Ġtem":3529,"iva":3530,"Ġserious":3531,"After":3532,"Ã¥ld":3533,"pel":3534,"Ġbeslut":3535,"Ġhoney":3536,"erk":3537,"Ġpot":3538,"Ġopp":3539,"des":3540,"ĠrÃ¥d":3541,"Ġkillen":3542,"owing":3543,"Ġabsol":3544,"Ġpersonal":3545,"bil":3546,"ander":3547,"andet":3548,"mazing":3549,"Ġtyst":3550,"ivt":3551,"Ġweren":3552,"ral":3553,"arbet":3554,"ĠTV":3555,"Ġfinally":3556,"Gr":3557,"rop":3558,"Ġkomm":3559,"Ġknown":3560,"Ġeye":3561,"olla":3562,"Even":3563,"haps":3564,"Ġcap":3565,"eople":3566,"Ġcalling":3567,"rey":3568,"ided":3569,"Ne":3570,"ĠQu":3571,"Ġwall":3572,"Ġrob":3573,"tera":3574,"Ġlad":3575,"ational":3576,"Ġlooked":3577,"Ġphot":3578,"unda":3579,"Kl":3580,"Ġkolla":3581,"Ġdy":3582,"Ġmiddag":3583,"ĠDÃ¥":3584,"Ġeftersom":3585,"Ġreturn":3586,"ĠdÃ¶rren":3587,"klart":3588,"Ġkar":3589,"Ġham":3590,"ĠÃ¢":3591,"cks":3592,"Ġkast":3593,"Ġill":3594,"ities":3595,"ĠikvÃ¤ll":3596,"Ġpiece":3597,"ĠHi":3598,"Ġkompis":3599,"Ġdisapp":3600,"Ġanybody":3601,"ĠutanfÃ¶r":3602,"ept":3603,"ts":3604,"Ġbag":3605,"Ġdate":3606,"Ġganska":3607,"Ġkick":3608,"ĠHen":3609,"ĠAb":3610,"edding":3611,"Ġtidigare":3612,"Fin":3613,"nor":3614,"ĠrÃ¤k":3615,"Ġenk":3616,"Ġfuture":3617,"Ġpark":3618,"ians":3619,"Wow":3620,"Ġlju":3621,"ĠkÃ¤nsl":3622,"Ġlonger":3623,"Ã¤nger":3624,"bers":3625,"Ã¥s":3626,"ĠkÃ¶ra":3627,"ĠWH":3628,"Ġly":3629,"iter":3630,"Ġwhite":3631,"Ġsqu":3632,"Ġkor":3633,"\",":3634,"andy":3635,"Ġamb":3636,"bur":3637,"Ġundan":3638,"Ġgri":3639,"ĠlÃ¤gga":3640,"Ġma":3641,"Ġexplain":3642,"Me":3643,"Ġagent":3644,"oes":3645,"Ġquestions":3646,"Ġinvol":3647,"Ġtank":3648,"AM":3649,"Ġshut":3650,"ĠgÃ¤ller":3651,"ender":3652,"ids":3653,"za":3654,"ĠPlease":3655,"Ġsomewhere":3656,"ĠkÃ¶pa":3657,"ERE":3658,"Ġdej":3659,"Ġseeing":3660,"Ġarrest":3661,"ĠPaul":3662,"Ġsal":3663,"ĠMart":3664,"Ġtot":3665,"Ġbreat":3666,"riv":3667,"Ġ(":3668,"ius":3669,"Ġjoin":3670,"rakt":3671,"Stop":3672,"Ġbru":3673,"Ġenerg":3674,"Ġned":3675,"Ġcry":3676,"Ġoro":3677,"Ġpolit":3678,"Folk":3679,"Ġgentle":3680,"Ġpen":3681,"ĠSka":3682,"Ã¤nder":3683,"Ġfund":3684,"Under":3685,"lyck":3686,"ĠPro":3687,"etter":3688,"osh":3689,"Ġsamtal":3690,"ĠBE":3691,"Ġposition":3692,"Ġmissing":3693,"Ġones":3694,"Ġclos":3695,"Er":3696,"Ġviktigt":3697,"Ġuppe":3698,"ĠrÃ¤cker":3699,"Ġvin":3700,"Ġcreat":3701,"Ġdark":3702,"Ġran":3703,"Ġthanks":3704,"Ġmoving":3705,"Ġsjukh":3706,"ĠÃ¤lskling":3707,"Ġroad":3708,"ĠGra":3709,"olen":3710,"Ġorgan":3711,"you":3712,"ĠfÃ¶ljer":3713,"FÃ¶rst":3714,"Per":3715,"Ġflyg":3716,"ĠMichael":3717,"Ġhappening":3718,"sch":3719,"Ġpan":3720,"Ġsong":3721,"Ġspring":3722,"idge":3723,"Sir":3724,"Ġbeat":3725,"ĠMm":3726,"Ġimor":3727,"By":3728,"Ġtapp":3729,"Ġnormal":3730,"Ġsounds":3731,"Upp":3732,"reen":3733,"Ġturned":3734,"Ġwords":3735,"ĠVill":3736,"Ġskriva":3737,"Ġshall":3738,"Pappa":3739,"Hen":3740,"rÃ¤ck":3741,"Ġtakes":3742,"Ġworks":3743,"ists":3744,"Ġloved":3745,"Ġamazing":3746,"Ġherr":3747,"Ġsmell":3748,"Ġbetala":3749,"Ġrym":3750,"Ġgiving":3751,"ear":3752,"Ġdeep":3753,"Ġsida":3754,"ĠTHAT":3755,"Ġvisar":3756,"nal":3757,"tact":3758,"ĠkÃ¶p":3759,"Ġmeddel":3760,"iner":3761,"Ġstrong":3762,"rÃ¤tt":3763,"Ġfint":3764,"SÃ¤tt":3765,"ĠsÃ¤kerhet":3766,"det":3767,"Ġinom":3768,"Fan":3769,"Ġsatt":3770,"Ġprison":3771,"Ġkontor":3772,"ino":3773,"ĠCharlie":3774,"Ġletar":3775,"ĠMa":3776,"ĠTa":3777,"Ã¥ga":3778,"thers":3779,"ĠAND":3780,"zz":3781,"ctim":3782,"ĠRich":3783,"Ġstep":3784,"Pl":3785,"ĠHell":3786,"Ġsidan":3787,"Ġpublic":3788,"Ġweap":3789,"Ste":3790,"Ġcoff":3791,"ora":3792,"Ġbegin":3793,"set":3794,"urch":3795,"ĠMe":3796,"Ã¶ts":3797,"Ġkallar":3798,"ages":3799,"Ġhatar":3800,"ety":3801,"okat":3802,"stone":3803,"Ġallow":3804,"ĠsnÃ¤lla":3805,"Ġfat":3806,"Ġesc":3807,"Could":3808,"Ġchoice":3809,"Ã¤rsk":3810,"Ã¶va":3811,"ĠDavid":3812,"Ġkopp":3813,"Ġmedan":3814,"anda":3815,"Ġshort":3816,"Ġworse":3817,"Ġhuvudet":3818,"ĠJoe":3819,"Ġjul":3820,"wood":3821,"Inga":3822,"Ġkontakt":3823,"ective":3824,"Was":3825,"Ġdisk":3826,"Hel":3827,"Ġcold":3828,"ĠSm":3829,"ĠigÃ¥r":3830,"ram":3831,"ktor":3832,"Ã¶sa":3833,"ument":3834,"ĠhÃ¥rt":3835,"ides":3836,"TvÃ¥":3837,"ĠÃ¶nskar":3838,"Ġfle":3839,"Ġgar":3840,"Ġheal":3841,"Ġskydd":3842,"...\"":3843,"lt":3844,"staur":3845,"ĠON":3846,"ĠfÃ¶lj":3847,"CK":3848,"Ġfamiljen":3849,"elle":3850,"Nothing":3851,"ops":3852,"ĠThanks":3853,"ives":3854,"ĠivÃ¤g":3855,"cing":3856,"Ġstri":3857,"Ġ11":3858,"ĠfÃ¶rstÃ¶r":3859,"Ġconne":3860,"ĠOne":3861,"Am":3862,"que":3863,"BerÃ¤tta":3864,"Ġsometimes":3865,"ĠHel":3866,"juk":3867,"Av":3868,"Ġbuilding":3869,"HallÃ¥":3870,"go":3871,"sla":3872,"ĠsjÃ¤lva":3873,"Ġworried":3874,"Ġpris":3875,"Ġmindre":3876,"verk":3877,"Ġallihop":3878,"ĠsÃ¤tter":3879,"Ġstannar":3880,"ĠFBI":3881,"ungen":3882,"Pr":3883,"Ġcollege":3884,"Ġchanged":3885,"Ġskrev":3886,"Ġmask":3887,"ĠST":3888,"Ġreach":3889,"Ġvictim":3890,"ĠJames":3891,"ĠdÃ¶dar":3892,"ĠÃ¤ter":3893,"Ġslog":3894,"work":3895,"ux":3896,"Ġimorgon":3897,"Ġuppf":3898,"Ġcook":3899,"Ġsurv":3900,"Ġsanningen":3901,"Ġfair":3902,"Ġ200":3903,"Ġgiven":3904,"Ġdev":3905,"Ġofta":3906,"dde":3907,"the":3908,"ĠMike":3909,"ĠhÃ¤nda":3910,"AND":3911,"ĠSch":3912,"ĠMon":3913,"Ġothers":3914,"Ġdefinitely":3915,"Ġfail":3916,"Ġknapp":3917,"ĠlÃ¤mnar":3918,"ĠspÃ¥r":3919,"gga":3920,"stead":3921,"Ġdear":3922,"Ġ40":3923,"ined":3924,"LÃ¤gg":3925,"ĠvÃ¥ld":3926,"Miss":3927,"Ã¤lt":3928,"Ġfault":3929,"bror":3930,"Ġsym":3931,"ĠhjÃ¤rta":3932,"Ha":3933,"Detta":3934,"ured":3935,"vÃ¤rr":3936,"ĠChe":3937,"blick":3938,"Ġrom":3939,"Ġrelationship":3940,"Ã¶ren":3941,"ĠinfÃ¶r":3942,"ĠfÃ¶rtjÃ¤n":3943,"ĠÃ¤lskade":3944,"Ġjobbat":3945,"ĠCo":3946,"aces":3947,"Ġwrite":3948,"ctually":3949,"lla":3950,"ffa":3951,"uta":3952,"vak":3953,"Ġveckor":3954,"Ġrespect":3955,"OL":3956,"tes":3957,"Ġglass":3958,"Ġrather":3959,"Ġconsid":3960,"Ġinvestig":3961,"ĠSara":3962,"ĠlÃ¤t":3963,"line":3964,"Ġnatten":3965,"Ġdar":3966,"Ġnobody":3967,"Ġcho":3968,"Ġvilken":3969,"Ġskydda":3970,"Ã¤nde":3971,"cri":3972,"to":3973,"ĠSim":3974,"Ġevidence":3975,"Ġsnabbt":3976,"Ġrestaur":3977,"anta":3978,"ĠÃ¶ppna":3979,"ĠhÃ¶ll":3980,"pris":3981,"oph":3982,"ĠJesus":3983,"Ġgifta":3984,"esterday":3985,"ĠGeorge":3986,"Ġwatching":3987,"ĠMax":3988,"Dad":3989,"Ġmisstag":3990,"Ġkost":3991,"Ġtalked":3992,"naden":3993,"AK":3994,"Ġmouth":3995,"ĠIS":3996,"Ġkept":3997,"Ġvecka":3998,"ĠVil":3999,"Ġsov":4000,"eder":4001,"Ġgud":4002,"Ġfeet":4003,"rummet":4004,"VÃ¤l":4005,"Ġhid":4006,"Ġconc":4007,"ĠfortsÃ¤tta":4008,"IM":4009,"irs":4010,"Ġorol":4011,"ikan":4012,"Ã¶lj":4013,"Ã¥ter":4014,"ĠfrÃ¥gor":4015,"Ġibland":4016,"tan":4017,"Ġblock":4018,"ete":4019,"ĠanvÃ¤nder":4020,"Ġsova":4021,"ĠMay":4022,"Ġtyd":4023,"Ġground":4024,"rav":4025,"Ġlovar":4026,"ola":4027,"ands":4028,"Ġmovie":4029,"yle":4030,"ĠSu":4031,"Ġtittar":4032,"Ġperfekt":4033,"Ġdecis":4034,"Ġed":4035,"Ġearly":4036,"ĠGer":4037,"ĠMad":4038,"du":4039,"Kommer":4040,"Ġtillf":4041,"ĠLou":4042,"ative":4043,"lag":4044,"Vilket":4045,"ms":4046,"ĠWhen":4047,"kare":4048,"ĠNick":4049,"Sam":4050,"Ġframtid":4051,"Ġsil":4052,"Ġenjoy":4053,"Ġroligt":4054,"Ġbjud":4055,"ĠfÃ¶ret":4056,"Ġmilit":4057,"ĠRay":4058,"ĠÃ¥kte":4059,"Ã¤cka":4060,"50":4061,"Che":4062,"skan":4063,"ĠberÃ¤ttar":4064,"len":4065,"Ġspace":4066,"ĠPeter":4067,"ĠAtt":4068,"Ġcommun":4069,"Ġdeser":4070,"Ġanim":4071,"Ġdestroy":4072,"Ġexist":4073,"Two":4074,"Ġcontact":4075,"ĠHere":4076,"Ġtrick":4077,"ks":4078,"bt":4079,"HE":4080,"reci":4081,"ĠAt":4082,"ĠfÃ¶rm":4083,"ĠBo":4084,"Ġhandle":4085,"Ã¤ngen":4086,"ury":4087,"atan":4088,"Ġcoffee":4089,"ÃĦven":4090,"hmm":4091,"Ã¤mna":4092,"view":4093,"Ġdiv":4094,"Ġself":4095,"miss":4096,"bye":4097,"Ġresult":4098,"30":4099,"Ġwedding":4100,"Ġgrej":4101,"Ġthinks":4102,"Ġdrar":4103,"Ġlucky":4104,"Ġstoppa":4105,"oid":4106,"itor":4107,"ĠNe":4108,"Everything":4109,"Ġstark":4110,"cted":4111,"Ġdance":4112,"Ġjump":4113,"Ġstad":4114,"ĠtrÃ¶tt":4115,"ether":4116,"ĠKing":4117,"Ġstyr":4118,"Ġsecurity":4119,"ĠtrÃ¤ffade":4120,"Ġbill":4121,"ĠWait":4122,"Ġdecided":4123,"Ġfir":4124,"Ġjour":4125,"Ġcontin":4126,"Ġprov":4127,"Ã¤nker":4128,"Sa":4129,"ĠME":4130,"ĠtÃ¤nkt":4131,"Ġolika":4132,"Ġors":4133,"ĠWal":4134,"ca":4135,"Ġbroke":4136,"illar":4137,"ĠThen":4138,"eace":4139,"bit":4140,"orl":4141,"Ġlyssna":4142,"ĠalltsÃ¥":4143,"Le":4144,"utely":4145,"ĠLord":4146,"urt":4147,"People":4148,"Ġcaught":4149,"ĠChristmas":4150,"Ġhom":4151,"ĠNÃ¤r":4152,"ures":4153,"Ġris":4154,"Ġsingle":4155,"Ġthrow":4156,"Ġsitta":4157,"Ġvoice":4158,"Ġport":4159,"Ġrapp":4160,"ondon":4161,"ĠkÃ¤m":4162,"ĠstÃ¶rre":4163,"usen":4164,"Ġcompletely":4165,"ume":4166,"Ġstund":4167,"Ġrespons":4168,"Ġkillar":4169,"ĠframfÃ¶r":4170,"ĠMaybe":4171,"SE":4172,"Ġride":4173,"Ġop":4174,"Ġnere":4175,"jÃ¤lv":4176,"Ġstod":4177,"ĠMor":4178,"over":4179,"Ġtyckte":4180,"Ġsad":4181,"bord":4182,"prise":4183,"Ġhall":4184,"Ġtotally":4185,"Ġansvar":4186,"ĠLike":4187,"Ġkonstigt":4188,"Ġgas":4189,"ĠX":4190,"Ġbi":4191,"ĠOn":4192,"Cl":4193,"Ġproper":4194,"Ġmessage":4195,"ĠMer":4196,"Ġmiddle":4197,"Ġobv":4198,"omp":4199,"ĠTy":4200,"Ġstation":4201,"Ġpush":4202,"mt":4203,"Ġtalar":4204,"ĠMary":4205,"Ġhistoria":4206,"Hopp":4207,"obody":4208,"lem":4209,"Ġnummer":4210,"Ġthreat":4211,"ules":4212,"Ġsug":4213,"Ġcre":4214,"ĠLa":4215,"ĠÃ¶gonblick":4216,"Ġrequ":4217,"Ġspeciell":4218,"een":4219,"Ġdrop":4220,"Ġpleas":4221,"ĠvÃ¤rre":4222,"Ġfred":4223,"ila":4224,"Ġmis":4225,"ĠBer":4226,"Gl":4227,"Ġtrack":4228,"Those":4229,"Ġbruk":4230,"lish":4231,"attle":4232,"Ġvinna":4233,"rid":4234,"Ġsenaste":4235,"enda":4236,"Ġnear":4237,"Ġgovern":4238,"ĠmÃ¶jligt":4239,"bara":4240,"yssna":4241,"ĠhÃ¤":4242,"jÃ¤lp":4243,"ĠSn":4244,"Ġfeels":4245,"Ġnyck":4246,"iller":4247,"ĠblÃ¥":4248,"Kolla":4249,"Ġgoda":4250,"Ġvart":4251,"Ġstore":4252,"amed":4253,"ĠOl":4254,"ĠfÃ¶rrÃ¤n":4255,"Ġcard":4256,"allt":4257,"Ġundrar":4258,"Ġbirthday":4259,"Ġusing":4260,"bed":4261,"kor":4262,"larna":4263,"ĠPat":4264,"ices":4265,"ĠstÃ¤lle":4266,"Ġtable":4267,"kra":4268,"aket":4269,"Ġflicka":4270,"Something":4271,"itness":4272,"ĠWE":4273,"Skulle":4274,"ĠlÃ¤gger":4275,"Ġdjur":4276,"ĠEvery":4277,"con":4278,"ikte":4279,"ĠAs":4280,"ĠOf":4281,"ogen":4282,"Tom":4283,"Ġmassa":4284,"ĠFl":4285,"Ġcross":4286,"Ġslipp":4287,"bild":4288,"ĠsÃ¥d":4289,"Ã¤ker":4290,"ĠfÃ¶rsikt":4291,"Ġmention":4292,"Ġsupport":4293,"enty":4294,"vÃ¤":4295,"Sm":4296,"Ġutt":4297,"Ġglas":4298,"Ġbrukar":4299,"Ġhistory":4300,"oman":4301,"ĠWas":4302,"chn":4303,"ĠBill":4304,"Ġmiljoner":4305,"ĠInd":4306,"ĠbrÃ¶ll":4307,"Ġcost":4308,"Ġ16":4309,"Ã¶ss":4310,"Ġprogram":4311,"Keep":4312,"Ġtext":4313,"ances":4314,"Ġbehand":4315,"ĠrÃ¶st":4316,"yer":4317,"ting":4318,"Ġtick":4319,"Sure":4320,"orlunda":4321,"ĠbÃ¶rjan":4322,"iant":4323,"Ġpist":4324,"ĠSl":4325,"Ġappreci":4326,"cious":4327,"ĠsÃ¤gs":4328,"Ġapolog":4329,"Ġkey":4330,"Ġfunkar":4331,"ĠMed":4332,"gh":4333,"Ġbrain":4334,"cep":4335,"sv":4336,"tade":4337,"Ġstreet":4338,"Only":4339,"Ġadvokat":4340,"wards":4341,"sed":4342,"ĠnÃ¶j":4343,"ption":4344,"Ġ14":4345,"Ġfloor":4346,"Ġlying":4347,"HT":4348,"ĠMark":4349,"ĠdÃ¥ligt":4350,"ĠfrÃ¥gade":4351,"ĠklÃ¤der":4352,"essor":4353,"Ġscen":4354,"Ġacross":4355,"ĠLondon":4356,"Ġsearch":4357,"ĠAh":4358,"oly":4359,"Ġfinger":4360,"Put":4361,"Ġtrip":4362,"rian":4363,"Ġlar":4364,"iny":4365,"Ġsun":4366,"mÃ¥l":4367,"Ġflytta":4368,"itu":4369,"Ġmobil":4370,"agn":4371,"ĠCaptain":4372,"Mom":4373,"owers":4374,"Ġpract":4375,"obb":4376,"Ġcons":4377,"Ġmach":4378,"Ġbland":4379,"itz":4380,"Ġannorlunda":4381,"Ġoh":4382,"Ġvideo":4383,"key":4384,"use":4385,"Ġvacker":4386,"Ġbath":4387,"Ãĸver":4388,"Ad":4389,"ycket":4390,"jag":4391,"ĠbehÃ¶va":4392,"iles":4393,"VER":4394,"Ġmistake":4395,"Ġfool":4396,"brott":4397,"atsen":4398,"ĠtjÃ¤nst":4399,"Ġyesterday":4400,"ĠslÃ¥r":4401,"Ġtruck":4402,"Ġwear":4403,"Ġaccept":4404,"Ġresten":4405,"ĠCarl":4406,"Ġkung":4407,"ALL":4408,"ray":4409,"Ġbusy":4410,"Ġpaper":4411,"ĠPhil":4412,"Ġfart":4413,"gre":4414,"inal":4415,"Ġwelcome":4416,"mon":4417,"iden":4418,"iment":4419,"Ġspark":4420,"oper":4421,"ĠsvÃ¤r":4422,"Ġvisit":4423,"Ġassist":4424,"lingen":4425,"Ġskyldig":4426,"Ġcamp":4427,"Ġclub":4428,"Ã¤rskilt":4429,"Everyone":4430,"udden":4431,"Ġpur":4432,"Ġbarnen":4433,"arry":4434,"ford":4435,"ĠfÃ¶rklara":4436,"ension":4437,"Ġbrukade":4438,"une":4439,"Mrs":4440,"Ġpaid":4441,"ments":4442,"ĠfÃ¶rbi":4443,"Ġkaff":4444,"sas":4445,"First":4446,"allen":4447,"Ibland":4448,"Ġhasn":4449,"cially":4450,"rÃ¤ckligt":4451,"Ġskriv":4452,"gn":4453,"Ġfi":4454,"ĠBro":4455,"Ġeight":4456,"orr":4457,"ĠfÃ¤ngelse":4458,"SlÃ¤pp":4459,"Ġneigh":4460,"Rem":4461,"Ġanled":4462,"Ã¤mma":4463,"ILL":4464,"Someone":4465,"El":4466,"terna":4467,"Ġdju":4468,"Ġaccident":4469,"ĠBecause":4470,"DÃ¤rfÃ¶r":4471,"ĠsmÃ¤r":4472,"Ġamer":4473,"Ġstack":4474,"VÃ¥r":4475,"ges":4476,"Ġdangerous":4477,"Ġforever":4478,"Ġboard":4479,"Ġrev":4480,"Ġquiet":4481,"Ġgroup":4482,"Ġgett":4483,"mare":4484,"Precis":4485,"Ġdou":4486,"stÃ¤llet":4487,"Ġiss":4488,"Ã¥ngen":4489,"AG":4490,"Ã¤nda":4491,"Ġutom":4492,"Actually":4493,"othes":4494,"Ġdrunk":4495,"ĠstÃ¤mmer":4496,"Ġdrag":4497,"ktorn":4498,"Ġkidnapp":4499,"Ġskickade":4500,"Ġakt":4501,"Ġsitting":4502,"Ġjack":4503,"ĠtrÃ¤n":4504,"Ġterrible":4505,"Ġarri":4506,"Ġ17":4507,"Ġsuc":4508,"Ġslutar":4509,"stairs":4510,"Ġklockan":4511,"Ġanywhere":4512,"Ġstate":4513,"lace":4514,"Ġmonster":4515,"Ġgol":4516,"ĠÃĦ":4517,"Ġpsych":4518,"pet":4519,"ĠEll":4520,"Ġproud":4521,"From":4522,"Ġdude":4523,"Ġsaken":4524,"Ġerk":4525,"ĠsÃ¥na":4526,"ĠCal":4527,"Vart":4528,"Ġuppsk":4529,"LD":4530,"Ġsjun":4531,"Ġsteal":4532,"Ġbesk":4533,"uel":4534,"Ġwearing":4535,"Got":4536,"innan":4537,"Ġslow":4538,"Ġhundred":4539,"FF":4540,"hole":4541,"Ġpaint":4542,"Ġskj":4543,"Ġeget":4544,"ĠsÃ¥r":4545,"ona":4546,"Ġren":4547,"Dan":4548,"table":4549,"Ġforward":4550,"Ġsaknar":4551,"ige":4552,"Ġkalla":4553,"Ġsynd":4554,"ico":4555,"Ġshare":4556,"fuck":4557,"Ġstuck":4558,"Ġking":4559,"Ġrent":4560,"Ġble":4561,"ĠhÃ¤mtar":4562,"ĠlÃ¤sa":4563,"ĠfrÃ¥gar":4564,"ĠtrÃ¤ffas":4565,"cel":4566,"damn":4567,"Ġorolig":4568,"read":4569,"Ġcat":4570,"Ġskepp":4571,"minstone":4572,"Jack":4573,"yan":4574,"Ġ0":4575,"ddie":4576,"ĠAmerican":4577,"kommen":4578,"Ġbuddy":4579,"lit":4580,"Ġhemskt":4581,"Ġ25":4582,"Ġdemon":4583,"Ãĥ":4584,"Ġcourt":4585,"Ġtrevligt":4586,"Ġtving":4587,"ĠUSA":4588,"pat":4589,"but":4590,"ĠDO":4591,"cuss":4592,"Gud":4593,"tting":4594,"ĠÃ¥tervÃ¤nd":4595,"Ġkraft":4596,"rog":4597,"Ġrealize":4598,"Ġarea":4599,"Ġstress":4600,"Ġelect":4601,"eel":4602,"Ġcrime":4603,"Ġsuggest":4604,"Ġconsider":4605,"Ġseven":4606,"ĠigÃ¥ng":4607,"bÃ¤r":4608,"can":4609,"ĠâĢĵ":4610,"oster":4611,"Ġpeace":4612,"ĠHE":4613,"Ġblow":4614,"ĠSorry":4615,"Qu":4616,"Ġskada":4617,"ĠParis":4618,"Ġprodu":4619,"Ġneg":4620,"Ġthous":4621,"Ġmun":4622,"kon":4623,"ula":4624,"Ġlita":4625,"Ġve":4626,"elly":4627,"Ġresa":4628,"anke":4629,"John":4630,"Ġsci":4631,"ĠHA":4632,"Ġstopped":4633,"ningarna":4634,"Ġprocess":4635,"asÃ¥":4636,"aven":4637,"Fl":4638,"ĠstÃ¶rsta":4639,"gentligen":4640,"Ġswear":4641,"Ġegna":4642,"ĠSan":4643,"ĠfÃ¤rd":4644,"ĠhÃ¤st":4645,"Ring":4646,"Ġcharge":4647,"ppar":4648,"Ġriktig":4649,"Ġskicka":4650,"Ġsoul":4651,"itive":4652,"ĠGen":4653,"Ġchick":4654,"Ġimagine":4655,"Ġdrog":4656,"ias":4657,"ĠnÃ¥gons":4658,"Ġpiss":4659,"ada":4660,"Ġdricka":4661,"Ġvir":4662,"Ġmoved":4663,"Ġage":4664,"ination":4665,"Ġlim":4666,"elser":4667,"Ġduring":4668,"Ġspir":4669,"Ġsuspect":4670,"Ġlur":4671,"ĠIngen":4672,"Ġhide":4673,"irty":4674,"osa":4675,"Ġcalm":4676,"Ġboat":4677,"gency":4678,"Ġburn":4679,"ĠGO":4680,"Ġban":4681,"Ġir":4682,"Ġsnygg":4683,"Ġviol":4684,"resent":4685,"vÃ¤n":4686,"Ġfixa":4687,"Ġpun":4688,"okus":4689,"Ġkilling":4690,"ENT":4691,"oder":4692,"Ġtuff":4693,"ĠCity":4694,"ature":4695,"Ġterror":4696,"ionen":4697,"bol":4698,"Ġbord":4699,"Tja":4700,"ĠkvÃ¤llen":4701,"Ġcarry":4702,"ĠHenry":4703,"Ġappro":4704,"MÃ¥":4705,"Ġgirlfriend":4706,"Ġciv":4707,"samma":4708,"ĠbÃ¥t":4709,"Ġuppdr":4710,"sikt":4711,"bok":4712,"Ġknock":4713,"UR":4714,"Ġloss":4715,"Ġfur":4716,"Ġfield":4717,"Ã¥ta":4718,"UN":4719,"FrÃ¥n":4720,"Ġmissed":4721,"inen":4722,"Ã¶der":4723,"Ã¶ken":4724,"Ġhemlighet":4725,"pade":4726,"Ġtired":4727,"Ã¤ss":4728,"olisen":4729,"Ġeas":4730,"ĠkÃ¤":4731,"Ġbelong":4732,"atte":4733,"Ġborn":4734,"Ġcas":4735,"Ġpojke":4736,"Ġveckan":4737,"ĠBlack":4738,"Ġpoor":4739,"Ġkiller":4740,"giv":4741,"Ġbought":4742,"Ġclothes":4743,"ĠbÃ¤r":4744,"ĠRuss":4745,"ogn":4746,"Ġya":4747,"Ġsens":4748,"Ġtax":4749,"Ġdiffic":4750,"ĠstÃ¤lla":4751,"ming":4752,"Lug":4753,"yd":4754,"Ġdifficult":4755,"Ġerbjud":4756,"Ġbetalar":4757,"ĠÃ¥tta":4758,"ĠGl":4759,"Ġspent":4760,"arr":4761,"Ġinn":4762,"talet":4763,"Ġenter":4764,"Ã¤ster":4765,"ays":4766,"Ġinstead":4767,"ending":4768,"Ġgold":4769,"Ġcalls":4770,"Ġkyr":4771,"ero":4772,"ned":4773,"ĠRed":4774,"ĠCla":4775,"aten":4776,"Ġkry":4777,"ION":4778,"ĠHave":4779,"ĠstÃ¤ng":4780,"Ġinvolved":4781,"Gen":4782,"ĠSa":4783,"ĠdÃ¥lig":4784,"ĠfortsÃ¤tter":4785,"IA":4786,"Ġansikte":4787,"Ġkapten":4788,"Ġfoc":4789,"Ġevent":4790,"Ġhonor":4791,"Ġagree":4792,"Ġfinnas":4793,"ĠFran":4794,"ĠbÃ¶":4795,"Ġmagic":4796,"Ġfungerar":4797,"ĠtillrÃ¤ckligt":4798,"Ġhotel":4799,"cell":4800,"Ġenkelt":4801,"Ġfear":4802,"Ġsnack":4803,"Ġintr":4804,"Ġround":4805,"Ġfixar":4806,"time":4807,"Ġunge":4808,"Ġsatte":4809,"Ġide":4810,"Ġrece":4811,"Lyssna":4812,"Ġsurpris":4813,"akta":4814,"ĠfÃ¶rra":4815,"Should":4816,"Ġkil":4817,"Ġbutt":4818,"Ġsyn":4819,"Ġsaved":4820,"klagar":4821,"ĠSw":4822,"oduc":4823,"ĠlÃ¤gen":4824,"rit":4825,"Ġwake":4826,"hood":4827,"ĠHello":4828,"gift":4829,"Ġhej":4830,"Nice":4831,"ĠsÃ¤ll":4832,"Ġkontroll":4833,"Ġstarting":4834,"Ġarbete":4835,"house":4836,"Ġaccount":4837,"Ġwitness":4838,"ĠStop":4839,"Ġrummet":4840,"Ġenem":4841,"Ġstorm":4842,"Ġavsk":4843,"uthor":4844,"val":4845,"Ġapartment":4846,"Ġblind":4847,"rask":4848,"ĠsÃ¶t":4849,"Ġansikt":4850,"Ġhers":4851,"ĠtillfÃ¤ll":4852,"Ġappreciate":4853,"ĠFuck":4854,"Ġofficer":4855,"Ġwonderful":4856,"Ġfill":4857,"Ġreser":4858,"Ġcust":4859,"ĠkÃ¶pte":4860,"ĠFOR":4861,"ĠkrÃ¤":4862,"Ġice":4863,"ĠfÃ¥ng":4864,"ec":4865,"ĠPer":4866,"ĠSen":4867,"Ġscrew":4868,"ĠSir":4869,"onen":4870,"Ġprop":4871,"Ã©n":4872,"Hold":4873,"Ġtough":4874,"boll":4875,"ĠBur":4876,"well":4877,"Ġ..":4878,"bert":4879,"Ġskriver":4880,"ĠrÃ¥":4881,"Ditt":4882,"Ġpret":4883,"Ġ24":4884,"athan":4885,"ago":4886,"stad":4887,"Ġsten":4888,"ĠDel":4889,"Ġow":4890,"ĠEarth":4891,"Ġlos":4892,"Ġscene":4893,"Ġgay":4894,"kel":4895,"ify":4896,"Ġfighting":4897,"Ġgry":4898,"icka":4899,"Ġevening":4900,"Ġfatt":4901,"atal":4902,"Ġmusik":4903,"arsh":4904,"ĠstjÃ¤r":4905,"ycka":4906,"ĠEtt":4907,"fil":4908,"ries":4909,"cover":4910,"Ġviktiga":4911,"Ġpratat":4912,"ĠkÃ¶rde":4913,"Ġboyfriend":4914,"Ġmission":4915,"OME":4916,"Minns":4917,"tern":4918,"ĠslÃ¤ppa":4919,"ĠlÃ¶g":4920,"Excuse":4921,"ĠMal":4922,"ified":4923,"eal":4924,"por":4925,"IR":4926,"sar":4927,"Ġcla":4928,"Ġpassar":4929,"night":4930,"ifter":4931,"Ġ13":4932,"Ġforgot":4933,"Ġlow":4934,"Ġment":4935,"kring":4936,"Ġdecision":4937,"bel":4938,"Ġattention":4939,"Ã¤nna":4940,"how":4941,"usan":4942,"Ġoperation":4943,"ĠCor":4944,"Ġtimme":4945,"Ġkidding":4946,"Ġfyll":4947,"Ġvilka":4948,"ĠHarry":4949,"Ġskuld":4950,"shit":4951,"ĠlÃ¤kare":4952,"Ġservice":4953,"IK":4954,"Ġpersoner":4955,"Ġfavorite":4956,"jÃ¤v":4957,"stru":4958,"Ġchamp":4959,"Ġgovernment":4960,"rÃ¥det":4961,"Ġsuit":4962,"ĠvÃ¥g":4963,"Ġcops":4964,"Ġunivers":4965,"roller":4966,"ĠsÃ¤lja":4967,"Ġegentligen":4968,"lat":4969,"Ġmain":4970,"Really":4971,"ĠsÃ¶ker":4972,"Ġcele":4973,"ĠMex":4974,"Ġok":4975,"Ġbast":4976,"ĠRE":4977,"Ġca":4978,"aby":4979,"ĠbrÃ¶llop":4980,"Hennes":4981,"ends":4982,"Ġdiscuss":4983,"Looks":4984,"Ġskjuta":4985,"Ġradio":4986,"Ġdriver":4987,"ĠSee":4988,"ĠjÃ¤tte":4989,"Ġslag":4990,"Ġtechn":4991,"Ġinterested":4992,"ĠfÃ¶rtjÃ¤nar":4993,"ston":4994,"ĠvÃ¤rd":4995,"Ġfish":4996,"asc":4997,"ĠÃ¶verallt":4998,"ĠAny":4999,"Ġhost":5000,"Ġsudden":5001,"Ġgrow":5002,"Ġbroken":5003,"Whatever":5004,"Ġlandet":5005,"host":5006,"achel":5007,"Ġgillade":5008,"omas":5009,"geant":5010,"ĠkrÃ¤v":5011,"Ġplane":5012,"ĠskÃ¶t":5013,"igheter":5014,"ils":5015,"Ġputting":5016,"riage":5017,"Ġmenade":5018,"ĠnÃ¶d":5019,"Ġbase":5020,"Ġkaffe":5021,"IL":5022,"iminal":5023,"ĠFre":5024,"Ġrema":5025,"Ã¶tsligt":5026,"ycker":5027,"ĠRobert":5028,"Ġproblems":5029,"May":5030,"Ġsimple":5031,"jekt":5032,"nars":5033,"Ġlaugh":5034,"ĠfÃ¶rlora":5035,"kort":5036,"aly":5037,"rote":5038,"FÃ¥":5039,"rench":5040,"kade":5041,"ĠnÃ¥gonsin":5042,"jÃ¤lvklart":5043,"Ġagre":5044,"Ġsignal":5045,"Sc":5046,"Ġworst":5047,"ĠJeff":5048,"ĠWith":5049,"olf":5050,"ini":5051,"ĠtrÃ¤d":5052,"Ġsuppose":5053,"ival":5054,"Ġequ":5055,"Ġfal":5056,"Ġcond":5057,"Ġstab":5058,"Ġeld":5059,"Ġcareful":5060,"Ġhotell":5061,"Ġvers":5062,"Ġcute":5063,"ĠJan":5064,"ĠTra":5065,"Ġimpress":5066,"Ġlog":5067,"ivet":5068,"Ġextre":5069,"Ġcow":5070,"Ġskickar":5071,"ĠÃ¥tminstone":5072,"Ġmakt":5073,"RO":5074,"Ġcash":5075,"ÃŃ":5076,"ĠfrÃ¤m":5077,"Ġlawyer":5078,"Make":5079,"rarna":5080,"Ġpil":5081,"Ġvatt":5082,"Ġtvungen":5083,"Ã¶sses":5084,"Call":5085,"Ġskill":5086,"Ġcy":5087,"Ġvinner":5088,"Ġaning":5089,"Ġconvers":5090,"bs":5091,"Ġseconds":5092,"ĠrÃ¶ra":5093,"Ã¥ende":5094,"ĠnÃ¥nstans":5095,"Ġunders":5096,"Ġmajor":5097,"Ġstanding":5098,"ĠberÃ¤ttat":5099,"Ġsand":5100,"ĠAngel":5101,"20":5102,"ĠAmerica":5103,"vo":5104,"Ã¶jligt":5105,"RA":5106,"ived":5107,"ĠfÃ¶rlorade":5108,"Ġspot":5109,"spel":5110,"ibly":5111,"Ġhuge":5112,"ktig":5113,"Ġhamn":5114,"Ġrules":5115,"Ã¶ja":5116,"ĠMel":5117,"Never":5118,"Nobody":5119,"ĠPresident":5120,"ppna":5121,"ĠskÃ¤mt":5122,"Ġforce":5123,"atis":5124,"Ġhealth":5125,"Con":5126,"Lu":5127,"terar":5128,"ients":5129,"Ġfisk":5130,"UST":5131,"ĠMac":5132,"lÃ¶s":5133,"aked":5134,"Ġtoppen":5135,"Ġslags":5136,"edd":5137,"Ġbrand":5138,"Ġwalking":5139,"ĠLuc":5140,"ires":5141,"Ġpsyk":5142,"Ġwindow":5143,"Ġprove":5144,"ĠWilliam":5145,"ĠmÃ¥nad":5146,"ĠmÃ¤nniska":5147,"Ġconcern":5148,"Ġmrs":5149,"oden":5150,"Mm":5151,"Ġbother":5152,"Ġjail":5153,"appy":5154,"Ġexperience":5155,"ĠEller":5156,"ĠHa":5157,"ĠTake":5158,"ĠEr":5159,"Very":5160,"yg":5161,"ged":5162,"Ġintell":5163,"Ġstolt":5164,"ĠReally":5165,"ished":5166,"eless":5167,"redit":5168,"back":5169,"ĠÃ¶verrask":5170,"Ġot":5171,"Ġjorden":5172,"Ġfavorit":5173,"etch":5174,"ĠÃ¤lska":5175,"Ġbri":5176,"ĠglÃ¶mde":5177,"Ġljus":5178,"Ġtravel":5179,"akar":5180,"IGHT":5181,"bis":5182,"stÃ¤nd":5183,"Ġseat":5184,"ĠtillhÃ¶r":5185,"Ġ--":5186,"ĠAnt":5187,"Ġfallet":5188,"Ġaddress":5189,"Ġklass":5190,"ĠStreet":5191,"elsen":5192,"Anyway":5193,"essa":5194,"Ġjobbade":5195,"pare":5196,"Ġprivate":5197,"ĠMo":5198,"Ġgentlemen":5199,"ended":5200,"Ġfuckin":5201,"ĠmisstÃ¤n":5202,"CT":5203,"KÃ¤nner":5204,"lingar":5205,"Ġbunch":5206,"stÃ¥r":5207,"Ġguld":5208,"Ġtrad":5209,"ĠfÃ¶del":5210,"Ġfucked":5211,"Ġliked":5212,"ĠHall":5213,"ĠÃ¶verle":5214,"Ġlay":5215,"Ġholding":5216,"ĠDNA":5217,"samhet":5218,"Ġkallas":5219,"ĠWar":5220,"ĠPÃ¥":5221,"Ġsurprise":5222,"Ġlikes":5223,"Ġlycklig":5224,"US":5225,"Ġladies":5226,"Ġdoubt":5227,"Ġmarry":5228,"Finns":5229,"Ġleta":5230,"ĠVet":5231,"Remember":5232,"Ġstrange":5233,"iley":5234,"sett":5235,"Ġopportun":5236,"ĠtrÃ¤ffat":5237,"gÃ¶r":5238,"esome":5239,"ĠvÃ¤lja":5240,"ĠhjÃ¤lpte":5241,"Ġinteresting":5242,"Ġexakt":5243,"Ġhelping":5244,"atta":5245,"ortsÃ¤tt":5246,".'":5247,"GlÃ¶m":5248,"Ġcause":5249,"Isn":5250,"ĠTed":5251,"klar":5252,"Ã¤ns":5253,"ĠslÃ¥ss":5254,"ĠskÃ¤m":5255,"ĠrÃ¤tta":5256,"ĠScott":5257,"Ġnone":5258,"ĠSome":5259,"Stanna":5260,"ging":5261,"ĠÃ¶gonen":5262,"ĠRichard":5263,"ktar":5264,"Ġdrugs":5265,"ĠkÃ¤nslor":5266,"Ġbal":5267,"Ġexcept":5268,"Ġbuck":5269,"Ġrich":5270,"Ġteck":5271,"ĠlÃ¶sa":5272,"Ġocc":5273,"Ġmotor":5274,"icul":5275,"Ġdirect":5276,"rupt":5277,"uch":5278,"vent":5279,"Ġupset":5280,"Ġstal":5281,"'.":5282,"field":5283,"Ġnyheter":5284,"Ġblue":5285,"Ġbegrav":5286,"ĠmÃ¶te":5287,"CE":5288,"nack":5289,"Ġcab":5290,"iana":5291,"Ġwood":5292,"Ġdriving":5293,"omen":5294,"Ġangry":5295,"ĠCr":5296,"aga":5297,"ĠDin":5298,"Ã¶ka":5299,"roa":5300,"Ġmiles":5301,"ĠJimmy":5302,"Ġwrote":5303,"eds":5304,"Ġcivil":5305,"ĠSE":5306,"Ġexcited":5307,"Ġtarget":5308,"Ġrecogn":5309,"Ġhorse":5310,"Ġtidigt":5311,"uren":5312,"year":5313,"Ġfantastisk":5314,"ĠAdam":5315,"Ġfinished":5316,"ura":5317,"ibility":5318,"Sometimes":5319,"Ġfinal":5320,"Ġpal":5321,"Ã¶nt":5322,"Ã¥god":5323,"ĠSarah":5324,"avy":5325,"ĠÃ¥ld":5326,"ĠKim":5327,"Ġanledning":5328,"ĠrÃ¤ddade":5329,"Ġslutet":5330,"alf":5331,"Ġknappt":5332,"OD":5333,"Ġsuccess":5334,"Ġbird":5335,"Ġsjukhuset":5336,"andon":5337,"Oj":5338,"bry":5339,"Bes":5340,"Ġlearned":5341,"ĠLÃ¥t":5342,"apan":5343,"jÃ¶r":5344,"Ġvit":5345,"Ġtunn":5346,"Ġguest":5347,"ĠbehÃ¶vs":5348,"Ġbarnet":5349,"icated":5350,"Ġtred":5351,"sn":5352,"ĠBig":5353,"Ã¤ckte":5354,"Ġlovely":5355,"Ġlugn":5356,"Ġletter":5357,"tem":5358,"Ġkross":5359,"Ġgard":5360,"ya":5361,"ĠComm":5362,"Ġlived":5363,"Great":5364,"ĠPark":5365,"ĠBilly":5366,"ĠWest":5367,"Ġpiz":5368,"ĠGÃ¶r":5369,"bby":5370,"iced":5371,"Ã¶ker":5372,"Ġorig":5373,"Everybody":5374,"came":5375,"veck":5376,"Charl":5377,"Ġstudent":5378,"rÃ¤d":5379,"anger":5380,"Ġdraw":5381,"ĠJess":5382,"Car":5383,"Ph":5384,"Tre":5385,"Ġfigured":5386,"ĠlÃ¤rde":5387,"PP":5388,"Ġjoke":5389,"plan":5390,"ĠBara":5391,"Ġotroligt":5392,"ĠnÃ¤m":5393,"Ġtekn":5394,"medi":5395,"Ġovan":5396,"mi":5397,"Ġsoci":5398,"NÃ¥gon":5399,"Ġskin":5400,"ĠSteve":5401,"lÃ¤g":5402,"ĠWil":5403,"gin":5404,"ploy":5405,"Ġdat":5406,"cher":5407,"ĠlÃ¥tsas":5408,"iday":5409,"Back":5410,"Ã¡":5411,"Ġrese":5412,"ĠTony":5413,"Ġmater":5414,"ĠsvÃ¥r":5415,"NOW":5416,"Stay":5417,"YOU":5418,"Whoa":5419,"Ġwithin":5420,"ology":5421,"Gra":5422,"Ġbigger":5423,"Ġthird":5424,"ĠfÃ¶rber":5425,"Ġneck":5426,"rass":5427,"ĠTim":5428,"EA":5429,"ligtvis":5430,"Ġdying":5431,"Ġabsolutely":5432,"Ġdisc":5433,"iddag":5434,"10":5435,"Ġloves":5436,"test":5437,"Ġpray":5438,"ĠWAS":5439,"ĠfÃ¶rh":5440,"fully":5441,"Ġaccep":5442,"Ġsty":5443,"eave":5444,"ĠVal":5445,"Ġdick":5446,"Lite":5447,"ining":5448,"Ant":5449,"san":5450,"ners":5451,"ĠHÃ¤r":5452,"Ġgran":5453,"Ġvissa":5454,"ĠLee":5455,"ording":5456,"Ġmachine":5457,"Ġchoose":5458,"ĠÃ¤ld":5459,"itten":5460,"ĠVÃ¤nta":5461,"Ġvisade":5462,"Ġobviously":5463,"ĠkÃ¤nt":5464,"Ġdetail":5465,"Varje":5466,"ĠGreat":5467,"alla":5468,"Sky":5469,"jÃ¶d":5470,"samt":5471,"RI":5472,"iger":5473,"Think":5474,"vi":5475,"ĠEnglish":5476,"ĠTell":5477,"Ġsepar":5478,"NÃ¥t":5479,"ĠAT":5480,"Ġtjejer":5481,"fortable":5482,"Ġremind":5483,"ague":5484,"Vilka":5485,"Ġaud":5486,"Ġflesta":5487,"ĠSÃ¤g":5488,"ĠTHIS":5489,"Ġimmedi":5490,"Ġsuffer":5491,"mÃ¤st":5492,"ationer":5493,"lax":5494,"Ã¤dd":5495,"Ġkroppen":5496,"ĠÃ¥ret":5497,"Ġkollar":5498,"efore":5499,"Ġrepresent":5500,"ĠPol":5501,"Ġvux":5502,"ĠtÃ¤v":5503,"Ġalter":5504,"Ġgrab":5505,"Ã¤nnande":5506,"Em":5507,"ĠnÃ¥nting":5508,"berg":5509,"rÃ¥":5510,"Ġsvara":5511,"Ġest":5512,"Ġchurch":5513,"ocka":5514,"ĠEur":5515,"ĠÃ¶r":5516,"ratul":5517,"Once":5518,"Ġexam":5519,"illen":5520,"ĠÃ¶l":5521,"Ġegg":5522,"ĠTe":5523,"ĠmÃ¤nsk":5524,"Ġhoping":5525,"ĠRon":5526,"Ġfokus":5527,"ĠNor":5528,"ĠDÃ¤r":5529,"Ġallowed":5530,"Sv":5531,"ĠsÃ¤ttet":5532,"Ġkvinnan":5533,"ĠistÃ¤llet":5534,"ĠRick":5535,"Mich":5536,"Ġriktiga":5537,"mÃ¤n":5538,"Ġexcuse":5539,"Damn":5540,"Ġgeneral":5541,"ligheten":5542,"Ġbecame":5543,"Ġconvin":5544,"ĠsÃ¤ng":5545,"inne":5546,"Spe":5547,"Ġtree":5548,"igar":5549,"fast":5550,"Mer":5551,"ĠfÃ¶n":5552,"ĠFlor":5553,"Ġgoddamn":5554,"slag":5555,"Ġrisker":5556,"icle":5557,"Ġutred":5558,"Ġtight":5559,"Ġowe":5560,"Ġnamed":5561,"Ġfit":5562,"don":5563,"omer":5564,"ĠPe":5565,"ĠKat":5566,"Ġhelped":5567,"ĠfÃ¶rsvann":5568,"Kn":5569,"atic":5570,"Ġmorse":5571,"Ġourselves":5572,"Ġhero":5573,"ĠChris":5574,"Jesus":5575,"Hade":5576,"cus":5577,"Ġsover":5578,"just":5579,"ĠGrand":5580,"wise":5581,"Ġsocial":5582,"lu":5583,"Ġvel":5584,"awn":5585,"ĠJon":5586,"abri":5587,"ubben":5588,"Ġvare":5589,"Ã¤mde":5590,"Ġunless":5591,"Ġdelar":5592,"Ġcertainly":5593,"sey":5594,"Ġskiten":5595,"fatt":5596,"Ġtor":5597,"Ġaccess":5598,"Ġeating":5599,"Jaha":5600,"itchen":5601,"Ġcollect":5602,"ĠJoh":5603,"eding":5604,"HjÃ¤lp":5605,"istan":5606,"Ġweapon":5607,"Ġomkring":5608,"Ġljuger":5609,"iat":5610,"Ġpojkv":5611,"olm":5612,"Ġskil":5613,"Ġgrupp":5614,"Utan":5615,"ully":5616,"ÃĦl":5617,"Ġearl":5618,"Ġkeeping":5619,"Ġstaying":5620,"Led":5621,"Va":5622,"Ġsekunder":5623,"Ġskall":5624,"Ġcrew":5625,"Ġvol":5626,"Ġherself":5627,"ĠgÃ¤ng":5628,"ĠJu":5629,"ateg":5630,"ĠMartin":5631,"Ġbathroom":5632,"Ġknull":5633,"Ġras":5634,"ĠfÃ¶rsÃ¶kt":5635,"Ġsteg":5636,"iar":5637,"ohol":5638,"Ġguard":5639,"ĠhÃ¤nderna":5640,"rÃ¤ff":5641,"ĠdÃ¶tt":5642,"ĠskÃ¤l":5643,"ĠÃ¤nt":5644,"Try":5645,"Ġgrabben":5646,"Welcome":5647,"ajest":5648,"Dom":5649,"Ġtjejen":5650,"chen":5651,"Ġhunt":5652,"Enligt":5653,"Ġwilling":5654,"Ġpicked":5655,"ĠsÃ¤rskilt":5656,"igger":5657,"KÃ¶r":5658,"ipe":5659,"ĠskÃ¤r":5660,"heart":5661,"revligt":5662,"Ġlyssnar":5663,"ordin":5664,"Ġcamera":5665,"Ġfantastiskt":5666,"Ġvalde":5667,"ĠFin":5668,"Ġunf":5669,"ĠFrench":5670,"Ġlevel":5671,"Yo":5672,"Ġshop":5673,"Ã¤ckt":5674,"umb":5675,"Ġvac":5676,"eta":5677,"ĠÃ¤ntligen":5678,"ĠMs":5679,"TER":5680,"Hela":5681,"Ġfullt":5682,"Dra":5683,"utenant":5684,"ĠLA":5685,"NÃ¥gra":5686,"ĠsÃ¶nder":5687,"Ġtype":5688,"Ġgang":5689,"Ġusually":5690,"ĠanvÃ¤nde":5691,"Ġwhoa":5692,"ĠFather":5693,"ĠSher":5694,"Ġmisslyck":5695,"Ġfolks":5696,"Ġasshole":5697,"Ġdeserve":5698,"Ġrik":5699,"ktenskap":5700,"Ġpressure":5701,"noon":5702,"Ġtalat":5703,"Ġspelade":5704,"Ġoften":5705,"ĠvÃ¤nster":5706,"MÃ¥ste":5707,"ĠUm":5708,"Ġemer":5709,"fest":5710,"ĠStar":5711,"ĠSure":5712,"Ġprofession":5713,"Say":5714,"ĠhÃ¶gt":5715,"Ġinnoc":5716,"Ġprepar":5717,"Ġsake":5718,"orld":5719,"Perhaps":5720,"Ġdesper":5721,"che":5722,"rie":5723,"ĠkÃ¶tt":5724,"Ġkyss":5725,"Ġtrots":5726,"Ġthemselves":5727,"spl":5728,"Ġmarriage":5729,"Ġnervous":5730,"Hoppas":5731,"ĠGive":5732,"Ġleder":5733,"ĠjÃ¤vel":5734,"ĠlÃ¶s":5735,"Ġconversation":5736,"Ġyell":5737,"itting":5738,"Ġphys":5739,"Ġfresh":5740,"Ġfac":5741,"ĠCarol":5742,"arac":5743,"Ġhol":5744,"Ġlocked":5745,"Ġinterview":5746,"Ġways":5747,"ĠfÃ¶rstÃ¶ra":5748,"Ġosky":5749,"Ġlitet":5750,"ĠCharles":5751,"ĠQue":5752,"ishing":5753,"Ġfeelings":5754,"ĠJane":5755,"Ã¤na":5756,"ĠDaniel":5757,"Ġhi":5758,"do":5759,"Ġstaden":5760,"ellt":5761,"Ġshowed":5762,"ban":5763,"Ġdecide":5764,"Ġseriously":5765,"ĠDoctor":5766,"Ġincred":5767,"Ġmamm":5768,"Ġkallade":5769,"Ġromant":5770,"ĠStan":5771,"Ġdifference":5772,"Ġbeer":5773,"oking":5774,"Ġcancer":5775,"Ġskoj":5776,"Ġsticker":5777,"Ġrespekt":5778,"Ġsorts":5779,"Dina":5780,"Far":5781,"Ġstrax":5782,"Fast":5783,"Ġpassed":5784,"Ġrace":5785,"Ġfocus":5786,"ista":5787,"ĠFÃ¶rlÃ¥t":5788,"ĠGerman":5789,"ĠMur":5790,"Ã¶rja":5791,"Ġevil":5792,"Ġobe":5793,"ĠfÃ¶retag":5794,"Ġmotherfuck":5795,"onel":5796,"Didn":5797,"Ġuppr":5798,"Ġhole":5799,"mord":5800,"stret":5801,"Ġbeginning":5802,"Ġvackra":5803,"usk":5804,"Ġbow":5805,"Ġherrar":5806,"ĠHouse":5807,"Ġgotten":5808,"Ġbuilt":5809,"rol":5810,"Ġstole":5811,"ĠflickvÃ¤n":5812,"Ġkompl":5813,"Ġrakt":5814,"Ġwhether":5815,"ĠhÃ¥l":5816,"boy":5817,"Ġgives":5818,"itter":5819,"ĠVisst":5820,"gu":5821,"Ġbullshit":5822,"vÃ¤nt":5823,"kost":5824,"ĠfÃ¶rhÃ¥ll":5825,"pping":5826,"Fly":5827,"Ġenergy":5828,"ength":5829,"Ġjur":5830,"ĠpÃ¥gÃ¥r":5831,"Ġmira":5832,"Ġneighbor":5833,"avsett":5834,"Ġpistol":5835,"Tj":5836,"enskap":5837,"Ġsleeping":5838,"press":5839,"Ã¤ren":5840,"gas":5841,"WH":5842,"ĠPl":5843,"Ġhind":5844,"ĠstjÃ¤l":5845,"Last":5846,"rats":5847,"Ġmedicin":5848,"ossible":5849,"Ġlitar":5850,"Ġslutade":5851,"udd":5852,"ĠfÃ¶delsed":5853,"Ġproject":5854,"Ġopportunity":5855,"Ġhook":5856,"ĠDanny":5857,"Ooh":5858,"others":5859,"Ġdubb":5860,"Ġspeaking":5861,"ĠMY":5862,"inder":5863,"ĠFÃ¥r":5864,"ĠAnna":5865,"Ġmeter":5866,"ANT":5867,"Ġhadn":5868,"Ġrelax":5869,"Ġpromised":5870,"Ġappl":5871,"ased":5872,"tryck":5873,"Ġkontroller":5874,"gÃ¶ra":5875,"ĠSal":5876,"amb":5877,"ints":5878,"ÃĸR":5879,"ĠvÃ¤rsta":5880,"ĠhÃ¤lsa":5881,"Ġtanke":5882,"han":5883,"ened":5884,"ĠDaddy":5885,"WE":5886,"Ġlust":5887,"rect":5888,"ITH":5889,"ota":5890,"Ġ60":5891,"Ġcup":5892,"ĠÃ¤t":5893,"Frank":5894,"Ġweekend":5895,"ari":5896,"Ġjournal":5897,"itted":5898,"Ġshoes":5899,"ipped":5900,"Ġsamman":5901,"Ġdarling":5902,"Ġnames":5903,"ocol":5904,"Ġwine":5905,"kes":5906,"inger":5907,"Ġliter":5908,"Ġauthor":5909,"Ġwondering":5910,"ĠglÃ¶mma":5911,"ĠinsÃ¥g":5912,"Ġsummer":5913,"ĠfÃ¶dd":5914,"Three":5915,"Ġmate":5916,"Ġlevande":5917,"Ġoroa":5918,"unnit":5919,"Ġimm":5920,"ĠkÃ¤ra":5921,"Ġflight":5922,"Ġbrev":5923,"ĠfÃ¶rbann":5924,"ĠWhite":5925,"Ġmix":5926,"Ġearlier":5927,"Ġclaim":5928,"ĠTommy":5929,"itty":5930,"Ġcrack":5931,"ĠEngland":5932,"ĠÃ¶verty":5933,"ĠJake":5934,"Ġbyta":5935,"mail":5936,"ĠKevin":5937,"Ġuts":5938,"Ġljud":5939,"Ġligga":5940,"Ġbooks":5941,"Ġspar":5942,"Ġfrukt":5943,"ĠbehÃ¥ll":5944,"Ġviktig":5945,"Prat":5946,"oday":5947,"arsÃ¥god":5948,"Annars":5949,"Ã¤mta":5950,"Ġvamp":5951,"Ġgreen":5952,"Ġhiding":5953,"Ma":5954,"Ġlovade":5955,"Ġstil":5956,"Ġplayed":5957,"etten":5958,"ĠSec":5959,"ensive":5960,"Ġinse":5961,"Ġtea":5962,"ĠÃ¤ndra":5963,"weet":5964,"Ġdry":5965,"...!":5966,"Ġraring":5967,"Ġsuck":5968,"Ġtacka":5969,"aks":5970,"Ġminut":5971,"Ġafternoon":5972,"vÃ¤l":5973,"ograf":5974,"Ġskott":5975,"Ġcelebr":5976,"FÃ¶rsÃ¶k":5977,"Ġnotice":5978,"ĠVan":5979,"Ġwild":5980,"Ġmyster":5981,"mÃ¤rk":5982,"ĠpojkvÃ¤n":5983,"ĠGar":5984,"Ġluft":5985,"rust":5986,"Ġdumb":5987,"Oroa":5988,"Ġtrevlig":5989,"-\"":5990,"ĠfÃ¶rlorat":5991,"ule":5992,"....":5993,"thur":5994,"usion":5995,"ĠplÃ¶tsligt":5996,"ĠTur":5997,"Ġfina":5998,"Ġtredje":5999,"LA":6000,"Ġsvarta":6001,"Beh":6002,"Ġgro":6003,"Ġjudge":6004,"ĠÃ¤kta":6005,"ĠTer":6006,"organ":6007,"Ġlosing":6008,"-...":6009,"ĠBobby":6010,"Ġquickly":6011,"Ġkitchen":6012,"Ġplans":6013,"ĠstÃ¶d":6014,"ĠbesÃ¶k":6015,"Ġview":6016,"pty":6017,"Ġscream":6018,"fÃ¶ra":6019,"ograph":6020,"ĠÃħ":6021,"Ġorsak":6022,"olution":6023,"Ġintellig":6024,"Ġchefen":6025,"here":6026,"Ã¶da":6027,"Ġquit":6028,"Ġnine":6029,"Ġklipp":6030,"ĠfÃ¶rklar":6031,"Ġhurry":6032,"Ġlistening":6033,"sb":6034,"ĠtrÃ¤ffar":6035,"Ġblame":6036,"Ġ]":6037,"nytt":6038,"ĠlÃ¤rt":6039,"Ġfired":6040,"komna":6041,"Ġcomputer":6042,"Ġskapa":6043,"ĠaffÃ¤rer":6044,"Ġdeliver":6045,"ĠKNOW":6046,"ential":6047,"Ġodd":6048,"Ġcock":6049,"Ġvattnet":6050,"Ġpulled":6051,"Ġclient":6052,"Innan":6053,"gery":6054,"Ġspirit":6055,"Ġskjuter":6056,"Ġrain":6057,"resten":6058,"Ġnio":6059,"Ġinbland":6060,"ĠHigh":6061,"ĠNE":6062,"ĠÃ¶verens":6063,"ĠvÃ¤rldens":6064,"ĠRoy":6065,"ĠÃ¤ktenskap":6066,"Ġsurprised":6067,"vey":6068,"Ġ500":6069,"oms":6070,"Herr":6071,"Ġearth":6072,"ÂĢ":6073,"Ġvelat":6074,"eys":6075,"Ġnecess":6076,"FortsÃ¤tt":6077,"hington":6078,"Ġcontinue":6079,"Ġprivat":6080,"Ġpleasure":6081,"ĠvÃ¤rt":6082,"Ġ21":6083,"Ã¥da":6084,"ĠmÃ¶t":6085,"Sy":6086,"MÃ¥nga":6087,"Ġou":6088,"âĢĶ":6089,"Ġsaf":6090,"ĠfÃ¶rlorar":6091,"ĠCent":6092,"akten":6093,"Ġreger":6094,"ĠDar":6095,"Ġtour":6096,"Ġexplos":6097,"Ġcode":6098,"onting":6099,"ĠjÃ¤m":6100,"Ġeverywhere":6101,"aller":6102,"Ġaut":6103,"Ġlang":6104,"Ġdouble":6105,"Ġuppdrag":6106,"Ġescape":6107,"ĠMatt":6108,"Ġgrejer":6109,"Ġapart":6110,"ĠAlla":6111,"Ġbred":6112,"ĠfÃ¶rlÃ¥t":6113,"tr":6114,"ĠTill":6115,"ĠHAVE":6116,"Since":6117,"Ġdrinking":6118,"ĠÃ¶verlev":6119,"ĠfÃ¶rsÃ¶k":6120,"ori":6121,"Ġaction":6122,"odd":6123,"ĠHmm":6124,"Ġunga":6125,"ansen":6126,"Ġpool":6127,"ĠCam":6128,"rap":6129,"ĠbÃ¶rjat":6130,"Ġsle":6131,"Ġpath":6132,"SjÃ¤lvklart":6133,"ĠglÃ¶mt":6134,"TÃ¤nker":6135,"hus":6136,"incip":6137,"ilty":6138,"centr":6139,"mark":6140,"stemet":6141,"Ġstraff":6142,"Ġbrud":6143,"ĠtrÃ¥k":6144,"visa":6145,"ĠÃ¥ng":6146,"Ġfilmen":6147,"ĠAllt":6148,"icide":6149,"Ġchair":6150,"Ġskaffa":6151,"Ã¤rt":6152,"Ġweak":6153,"ĠhÃ¶ger":6154,"Ġperhaps":6155,"eller":6156,"Ġmemory":6157,"anter":6158,"pÃ¥":6159,"Ġbrut":6160,"Ġinfe":6161,"Ġgiss":6162,"ĠkÃ¶per":6163,"ĠSon":6164,"Ġproblemet":6165,"Ġ-[":6166,"gÃ¥s":6167,"Ġdollars":6168,"Ġkommun":6169,"Ġbear":6170,"Ġcharac":6171,"ech":6172,"ĠbrÃ¶st":6173,"stit":6174,"gnant":6175,"Ġsamarbet":6176,"Ġfurther":6177,"Ġcit":6178,"Ġpregnant":6179,"Ġutveck":6180,"erm":6181,"ĠThomas":6182,"Ġintressant":6183,"vert":6184,"Ġers":6185,"stÃ¤lla":6186,"Ġpictures":6187,"ĠgrÃ¤n":6188,"ilar":6189,"About":6190,"ucky":6191,"Ġcrap":6192,"\"...":6193,"Still":6194,"Ġthousand":6195,"Ġgatan":6196,"Ġwarm":6197,"Ġpers":6198,"Ã¶rj":6199,"velop":6200,"spe":6201,"Ġdela":6202,"ĠmÃ¶rdare":6203,"Ġbygga":6204,"Ġinde":6205,"Ġadmit":6206,"ĠstÃ¤ller":6207,"ĠFar":6208,"osen":6209,"NÃ¤sta":6210,"Ġklient":6211,"ĠbÃ¥de":6212,"book":6213,"ĠJud":6214,"iers":6215,"Ġhungry":6216,"Ġupon":6217,"ĠHold":6218,"Ġorders":6219,"alys":6220,"Ġtittade":6221,"Ġfarligt":6222,"More":6223,"sfÃ¶r":6224,"light":6225,"Ġmemor":6226,"Ġstage":6227,"ĠdÃ¶dat":6228,"Ġpres":6229,"apt":6230,"Ġwriting":6231,"Ġgum":6232,"ĠJohnny":6233,"Ġclosed":6234,"ano":6235,"Ġrelig":6236,"ĠKate":6237,"Visa":6238,"ĠRyan":6239,"Ġreading":6240,"Ġtaste":6241,"Ġresearch":6242,"Tur":6243,"jorde":6244,"Jim":6245,"ĠJord":6246,"ĠHolly":6247,"Ġgrav":6248,"ĠjÃ¤ttebra":6249,"ĠJam":6250,"Ġkamer":6251,"Ġvann":6252,"Ãĸppna":6253,"Ġacting":6254,"JasÃ¥":6255,"Ġcareer":6256,"Ġpuss":6257,"Ġkeeps":6258,"ĠRose":6259,"Ġimmediately":6260,"Ġhearing":6261,"ubl":6262,"ĠNorth":6263,"icious":6264,"Ġdump":6265,"ĠfÃ¶rsiktig":6266,"no":6267,"istr":6268,"Ġmum":6269,"nande":6270,"ĠhÃ¤ng":6271,"ĠEric":6272,"Ġskogen":6273,"icago":6274,"sters":6275,"Ġvanligt":6276,"amt":6277,"ĠWow":6278,"Ġcompet":6279,"ĠljÃ¶g":6280,"Ġcomplete":6281,"Str":6282,"ĠsÃ¤ljer":6283,"Ġdirty":6284,"oom":6285,"Ġamerikan":6286,"ample":6287,"Ġcast":6288,"Ġmedvet":6289,"Ġmedical":6290,"Ġundv":6291,"imate":6292,"Ġmeddelande":6293,"ĠvÃ¤ntade":6294,"cum":6295,"Ġmaster":6296,"Ġsever":6297,"Ġdata":6298,"Ins":6299,"11":6300,"Mycket":6301,"kont":6302,"Mor":6303,"deles":6304,"Ġtru":6305,"ĠNothing":6306,"ĠMat":6307,"Ġgym":6308,"Ġinnocent":6309,"Ġtrial":6310,"ĠkÃ¤ften":6311,"Ġprice":6312,"Ġ#":6313,"Ġconfir":6314,"rom":6315,"Ġinvestigation":6316,"ply":6317,"lden":6318,"Ġexem":6319,"Ġlivs":6320,"ĠKn":6321,"aron":6322,"ongratul":6323,"Ġbattle":6324,"ĠVictor":6325,"Ġchansen":6326,"ĠtÃ¥g":6327,"Ġfaster":6328,"Ġupptagen":6329,"ĠGrace":6330,"Ġverkade":6331,"ĠJac":6332,"Ġplant":6333,"ique":6334,"Ġcolor":6335,"Ġbell":6336,"ĠhjÃ¤rtat":6337,"Ġkinda":6338,"Ġuppen":6339,"LY":6340,"ĠtyvÃ¤rr":6341,"JÃ¶sses":6342,"Ġfollowing":6343,"Ġstolen":6344,"Ġhoppa":6345,"Alex":6346,"Ġarr":6347,"Ġbuss":6348,"Ġwalked":6349,"Ġsea":6350,"aughing":6351,"Ġgilla":6352,"Ġseemed":6353,"amin":6354,"board":6355,"Ġstre":6356,"ĠnÃ¥":6357,"Ġcorner":6358,"Ġplaces":6359,"enden":6360,"Je":6361,"ĠhjÃ¤rt":6362,"Ġflickan":6363,"Ġgravid":6364,"Ġbastard":6365,"ĠBoy":6366,"Ġtum":6367,"Ġtradition":6368,"Ġquar":6369,"ĠpoÃ¤ng":6370,"ĠMil":6371,"ĠWin":6372,"Ġsusp":6373,"II":6374,"Ġawesome":6375,"ĠomrÃ¥det":6376,"ening":6377,"Rob":6378,"Ġambul":6379,"ĠEddie":6380,"Ġhellre":6381,"Ġdesign":6382,"Ã¶rel":6383,"ĠHis":6384,"Ġcigar":6385,"ĠCra":6386,"vÃ¤rd":6387,"ĠTwo":6388,"FÃ¶lj":6389,"elset":6390,"ĠWHAT":6391,"uring":6392,"aped":6393,"iforn":6394,"ND":6395,"Ġ22":6396,"ĠdÃ¥liga":6397,"ĠSouth":6398,"JÃ¤v":6399,"ĠdÃ¶ds":6400,"amous":6401,"barrass":6402,"esh":6403,"Ġcaptain":6404,"Ġturns":6405,"Ġtwice":6406,"Ġfaith":6407,"Ġkus":6408,"Ġdumt":6409,"Ġlyckades":6410,"ads":6411,"Ġbloody":6412,"Ġenemy":6413,"Ġghost":6414,"edy":6415,"Ġbecom":6416,"Ġvita":6417,"attis":6418,"Ġlocal":6419,"vinn":6420,"abeth":6421,"edel":6422,"ĠPet":6423,"Ġmurdered":6424,"mission":6425,"ĠnervÃ¶s":6426,"ĠkÃ¤ll":6427,"Ġordna":6428,"Ġbilder":6429,"aylor":6430,"jÃ¶l":6431,"ĠfÃ¥g":6432,"Before":6433,"wen":6434,"Ġintresserad":6435,"Ġwaste":6436,"Ġlikad":6437,"ĠlÃ¤genhet":6438,"Ġhungrig":6439,"Ġlift":6440,"ĠkÃ¤ndes":6441,"Fine":6442,"Ġpizza":6443,"ĠWashington":6444,"stra":6445,"Hmm":6446,"agon":6447,"Ġplac":6448,"dan":6449,"Ġsvarar":6450,"Ġpig":6451,"edom":6452,"ĠslÃ¤pper":6453,"ĠJones":6454,"Ġfile":6455,"Ġupstairs":6456,"Ġbreakfast":6457,"ĠCall":6458,"hip":6459,"Ġeh":6460,"Shit":6461,"rant":6462,"Dav":6463,"Ġguilty":6464,"ugga":6465,"ioner":6466,"Ġrealized":6467,"Ġdreams":6468,"Ġkriget":6469,"Ġarmy":6470,"Ġbesv":6471,"Ġalternat":6472,"Ġod":6473,"gÃ¥":6474,"fessor":6475,"Ġguns":6476,"Ġimpossible":6477,"law":6478,"Ġsmoke":6479,"Ġhorri":6480,"Vissa":6481,"ĠBrit":6482,"sec":6483,"Ġspoke":6484,"Ġbiggest":6485,"Ġhanden":6486,"Ġkam":6487,"fte":6488,"ĠstÃ¶":6489,"Ġsour":6490,"Ġansiktet":6491,"ĠtillstÃ¥nd":6492,"ĠfrÃ¥gan":6493,"ĠSpe":6494,"iling":6495,"essed":6496,"Ġweapons":6497,"Ġhack":6498,"Ġdetal":6499,"Ġemotion":6500,"xy":6501,"Ġforgive":6502,"arnas":6503,"Ġsem":6504,"ni":6505,"ieutenant":6506,"Vis":6507,"Ġpurp":6508,"ĠkrÃ¤vs":6509,"Ġopt":6510,"Ġboll":6511,"irk":6512,"ĠdÃ¤rifrÃ¥n":6513,"Ġkunnat":6514,"Ġbringing":6515,"Ġanm":6516,"Ġsight":6517,"Ġprefer":6518,"Ġkamp":6519,"imm":6520,"Ġcous":6521,"Ġdumma":6522,"Ġdamer":6523,"Ġnose":6524,"Ġvote":6525,"ĠBrian":6526,"bell":6527,"Tro":6528,"xa":6529,"NÃ¥":6530,"SÃ¥g":6531,"ems":6532,"ĠsÃ¤kra":6533,"gel":6534,"OULD":6535,"fÃ¶rs":6536,"ĠVilken":6537,"Ġembarrass":6538,"karen":6539,"that":6540,"Ġbreath":6541,"burg":6542,"abb":6543,"ĠDra":6544,"ĠYOUR":6545,"Ġstories":6546,"eared":6547,"Ġsum":6548,"ĠSil":6549,"ggen":6550,"ĠBa":6551,"ĠSH":6552,"Ġsurgery":6553,"spr":6554,"ĠknÃ¤pp":6555,"Ġcommon":6556,"ĠPal":6557,"Ġdricker":6558,"ieve":6559,"Ġlegs":6560,"Ġkok":6561,"ĠDay":6562,"ĠCH":6563,"Ġfars":6564,"Ġbod":6565,"barn":6566,"ctions":6567,"Ġisland":6568,"ĠVa":6569,"ĠdÃ¶l":6570,"ĠbekrÃ¤":6571,"Ġbeklagar":6572,"ĠHÃ¥ll":6573,"Vid":6574,"Ġmarket":6575,"iform":6576,"iod":6577,"OP":6578,"ially":6579,"Ġletting":6580,"Ġtotal":6581,"Ġplanning":6582,"Ġsticka":6583,"riÃ¤r":6584,"olan":6585,"IE":6586,"ĠfÃ¶rsvar":6587,"Ġrygg":6588,"Ġreact":6589,"rof":6590,"ĠGÃ¥":6591,"ĠsÃ¤ngen":6592,"Ġdivor":6593,"Jul":6594,"Ġpants":6595,"Ġarms":6596,"Ġpowerful":6597,"middag":6598,"Ġfeed":6599,"Eftersom":6600,"Ġbottom":6601,"Ġcloser":6602,"Ġshirt":6603,"ĠhÃ¤nger":6604,"ĠmÃ¶rk":6605,"arty":6606,"Ġempty":6607,"Ġexpert":6608,"aska":6609,"Ġresponsible":6610,"ĠjÃ¤mt":6611,"VÃ¤lkommen":6612,"ĠJapan":6613,"Ġcake":6614,"jord":6615,"Ġutnytt":6616,"ams":6617,"Ġtaught":6618,"ortunately":6619,"Guys":6620,"ĠÃ¥lder":6621,"zen":6622,"ĠhÃ¥rd":6623,"Fem":6624,"ĠID":6625,"Ġshock":6626,"entligt":6627,"ĠHit":6628,"ĠÃ¤ldre":6629,"ĠsÃ¤llskap":6630,"xor":6631,"Ġsorg":6632,"Ġoly":6633,"ĠWITH":6634,"Ġdansa":6635,"ville":6636,"Ġtells":6637,"ĠHaw":6638,"ĠLo":6639,"Ġapologize":6640,"ili":6641,"Ġnote":6642,"THE":6643,"Ġavslut":6644,"agne":6645,"Ġrapporter":6646,"ĠSluta":6647,"itions":6648,"Ġandas":6649,"Bob":6650,"karna":6651,"Ġknowing":6652,"hÃ¤ll":6653,"Ġclearly":6654,"Ġinterv":6655,"Ġhello":6656,"Ġframtiden":6657,"ĠvÃ¤ljer":6658,"Ġfake":6659,"Ġgalet":6660,"Ġhinner":6661,"Ġarrived":6662,"Ġinser":6663,"nde":6664,"mande":6665,"Ġbevisa":6666,"ĠskÃ¶ter":6667,"ĠlÃ¤sk":6668,"Ġharm":6669,"ĠRock":6670,"ĠLO":6671,"otten":6672,"ĠnÃ¤rheten":6673,"Ġringt":6674,"Ġadvice":6675,"arp":6676,"ĠmÃ¤rk":6677,"ĠDoug":6678,"Ġswim":6679,"icy":6680,"Ġinstru":6681,"ho":6682,"Ġphoto":6683,"ĠlÃ¤st":6684,"Ġtol":6685,"ales":6686,"ĠSmith":6687,"Ġonto":6688,"Ġanklag":6689,"Ġarbetar":6690,"Ġhette":6691,"ĠIsl":6692,"Ġmanager":6693,"ĠspÃ¶":6694,"ÂĢÂ":6695,"Absol":6696,"Ġsurvive":6697,"vinner":6698,"Ġdogs":6699,"Ġrequest":6700,"ben":6701,"Ledsen":6702,"hem":6703,"Ġabove":6704,"Ġlok":6705,"15":6706,"Ġnumbers":6707,"ĠnÃ¥gonting":6708,"Ġrestaurant":6709,"lock":6710,"Ġgull":6711,"pper":6712,"opt":6713,"Ġdejt":6714,"itar":6715,"Ġchecked":6716,"iest":6717,"ĠvÃ¤ntat":6718,"ĠbestÃ¤mmer":6719,"ĠAgent":6720,"Ġdiscover":6721,"Ġshows":6722,"Ġklarade":6723,"Ġcoun":6724,"Ġpoison":6725,"Ġtraining":6726,"ĠGeneral":6727,"opa":6728,"Ben":6729,"ĠChicago":6730,"Ġengine":6731,"Ġspell":6732,"Ã¥rd":6733,"Ġutman":6734,"Ġenorm":6735,"ĠJackson":6736,"fficer":6737,"ĠlÃ¤mnat":6738,"Ġnyhet":6739,"using":6740,"Ġnamnet":6741,"Ġemergency":6742,"Ġsher":6743,"ONE":6744,"Ġtydligen":6745,"ligare":6746,"Ġuppskattar":6747,"Has":6748,"Ġ,":6749,"Ġpartic":6750,"Ġdroger":6751,"nam":6752,"ifer":6753,"lyn":6754,"ĠEast":6755,"Ġtit":6756,"vad":6757,"Ġcru":6758,"Ġitself":6759,"ĠnÃ¤t":6760,"ĠSuper":6761,"ĠHuh":6762,"Ġopin":6763,"ĠListen":6764,"Ġshooting":6765,"atest":6766,"ĠdÃ¶den":6767,"iens":6768,"Ġproduc":6769,"fta":6770,"anc":6771,"ARE":6772,"Ġappar":6773,"uckles":6774,"Ġmeat":6775,"lerna":6776,"Ġdevelop":6777,"andid":6778,"ĠCom":6779,"Stick":6780,"ality":6781,"Ġheld":6782,"Ġbebis":6783,"stant":6784,"Ms":6785,"atherine":6786,"Ġhanging":6787,"ĠNOT":6788,"Ġosk":6789,"iten":6790,"ndag":6791,"ĠglÃ¶mmer":6792,"Ġstarts":6793,"ĠCIA":6794,"ĠgÃ¤st":6795,"icate":6796,"ĠBea":6797,"Ġcars":6798,"ĠnÃ¤rmare":6799,"ĠJUST":6800,"aura":6801,"Ġram":6802,"Ġliterally":6803,"Time":6804,"Ġplatsen":6805,"Ġsport":6806,"Ġmarken":6807,"Ġdropped":6808,"ĠjÃ¤k":6809,"Menar":6810,"Ġgrad":6811,"ilj":6812,"Ġsvag":6813,"ĠGreen":6814,"mond":6815,"Ġsurr":6816,"Ġkons":6817,"ĠAfri":6818,"Ġluktar":6819,"ĠJer":6820,"Ġstink":6821,"Ġaware":6822,"LÃ¤mna":6823,"ĠRa":6824,"ĠmÃ¶jlighet":6825,"ppet":6826,"Ġmatters":6827,"ountain":6828,"Ġhamnar":6829,"ĠSy":6830,"ĠNice":6831,"ĠGot":6832,"istor":6833,"Ġbodde":6834,"Ġvarann":6835,"what":6836,"Ġended":6837,"Ġvila":6838,"Ġgames":6839,"Ġeasier":6840,"ancy":6841,"Ã¤nning":6842,"Ġadress":6843,"Ġbeach":6844,"Anything":6845,"Ġlista":6846,"RÃ¶r":6847,"vor":6848,"Ġduty":6849,"Ġlied":6850,"aggie":6851,"Ġmilitary":6852,"Ġchicken":6853,"hel":6854,"Ġtroll":6855,"Ġteacher":6856,"illing":6857,"ĠAB":6858,"Ġfrukost":6859,"ĠJose":6860,"Ġfarbror":6861,"ĠfÃ¶rvÃ¥n":6862,"umber":6863,"Ġcommand":6864,"Ġlyckas":6865,"Ġmaterial":6866,"Ġanimal":6867,"ĠAust":6868,"Ġanimals":6869,"Ġmut":6870,"ski":6871,"Ġbottle":6872,"cue":6873,"Ã¥p":6874,"ounce":6875,"IKE":6876,"ĠAS":6877,"tidigt":6878,"ĠHans":6879,"ĠLiz":6880,"Ġdrott":6881,"Ġcoach":6882,"Ġemploy":6883,"ores":6884,"Ġ90":6885,"Ġnation":6886,"ito":6887,"ĠRos":6888,"Ġadm":6889,"rep":6890,"ĠÃ¤rlig":6891,"Ġinspir":6892,"ĠJen":6893,"inct":6894,"ĠÃ¤ger":6895,"Ġcal":6896,"ĠAndy":6897,"Ġcrow":6898,"Ġprocent":6899,"ĠInter":6900,"Most":6901,"rator":6902,"Ġknife":6903,"Polisen":6904,"empt":6905,"Ġcontract":6906,"Ġstrength":6907,"ĠtÃ¤nk":6908,"Ġmedia":6909,"Ġdue":6910,"Ġspeed":6911,"ĠMont":6912,"Ġ80":6913,"Ġkniv":6914,"Ġwash":6915,"ante":6916,"Ġignor":6917,"ĠrÃ¥n":6918,"ĠfjÃ¤r":6919,"Ġfesten":6920,"bes":6921,"ikanska":6922,"Ġdare":6923,"ĠCAN":6924,"Ġprins":6925,"like":6926,"pass":6927,"Ġsoft":6928,"bru":6929,"Ġtape":6930,"Ġdock":6931,"mp":6932,"Ġtab":6933,"Watch":6934,"skling":6935,"Dess":6936,"Ġawful":6937,"rikt":6938,"Ġtalas":6939,"Ġug":6940,"Ġbid":6941,"ĠanstÃ¤ll":6942,"down":6943,"yond":6944,"ĠKl":6945,"Ġfinding":6946,"ĠfÃ¶rsÃ¤k":6947,"ĠMaria":6948,"Ġhyp":6949,"Ġpaying":6950,"Ġsheriff":6951,"Ġlin":6952,"Shut":6953,"Today":6954,"chef":6955,"Ġrobot":6956,"Ġdiskut":6957,"erap":6958,"kins":6959,"ĠAsh":6960,"Ġprior":6961,"imp":6962,"ĠlÃ¶gn":6963,"cca":6964,"Ġpractice":6965,"Ġplanen":6966,"ushing":6967,"Ġdescri":6968,"Ġcommunity":6969,"ĠhÃ¶j":6970,"ĠKen":6971,"icks":6972,"ĠinnebÃ¤r":6973,"ising":6974,"Ġcommit":6975,"ĠupprÃ¶rd":6976,"Te":6977,"ĠJerry":6978,"ulation":6979,"ĠlÃ¤ste":6980,"abel":6981,"Ġnyss":6982,"Ġuncle":6983,"Ġrac":6984,"lde":6985,"ppa":6986,"dags":6987,"ĠTex":6988,"ammet":6989,"OS":6990,"Ġbredvid":6991,"Ġvind":6992,"ĠfÃ¶rvir":6993,"Ġhavet":6994,"iculous":6995,"Ġcrash":6996,"Ġsjukhus":6997,"Ju":6998,"Ġcrying":6999,"EM":7000,"Su":7001,"ĠWay":7002,"ground":7003,"Ġflyttade":7004,"Ġvackert":7005,"Ġflyga":7006,"Ġtruly":7007,"unny":7008,"ĠslÃ¤kt":7009,"airs":7010,"Ġolyck":7011,"Ġrule":7012,"Ġnor":7013,"Ġraise":7014,"Ġnoticed":7015,"alty":7016,"ĠfÃ¶rstod":7017,"ĠbrÃ¥":7018,"Ġcult":7019,"ĠMother":7020,"itude":7021,"ĠlÃ¤gg":7022,"gy":7023,"Ġ23":7024,"ĠavslÃ¶j":7025,"izing":7026,"ites":7027,"ĠDoes":7028,"Ã±":7029,"ises":7030,"Ġtviv":7031,"ĠAlice":7032,"Ġkeys":7033,"kter":7034,"ĠBru":7035,"ĠALL":7036,"ĠGreg":7037,"pecially":7038,"lud":7039,"Ġond":7040,"VÃ¤r":7041,"Ġdyr":7042,"Ġsurf":7043,"Ġballs":7044,"Ġarrested":7045,"Ġcream":7046,"cil":7047,"uls":7048,"iellt":7049,"ĠBu":7050,"Ġexperiment":7051,"Ġtort":7052,"ĠMag":7053,"izabeth":7054,"Aw":7055,"Ġalldeles":7056,"Ġlaga":7057,"Honey":7058,"ongratulations":7059,"TyvÃ¤rr":7060,"ibb":7061,"ĠUncle":7062,"Ġenc":7063,"Ġpassion":7064,"Ġwitch":7065,"Ġheavy":7066,"Somebody":7067,"Ġleka":7068,"ĠfÃ¶red":7069,"uvud":7070,"Help":7071,"Ġdeb":7072,"Ġbon":7073,"Ġcorrect":7074,"Dude":7075,"'?":7076,"ĠbehÃ¥lla":7077,"gru":7078,"ĠofÃ¶r":7079,"ĠskÃ¥d":7080,"stein":7081,"Ġagg":7082,"Ġho":7083,"Ġintern":7084,"Ġinvited":7085,"Ġhemsk":7086,"Ġspeech":7087,"ĠEmily":7088,"ĠkrÃ¤ver":7089,"Ġprincip":7090,"ctors":7091,"rip":7092,"Ang":7093,"ĠNO":7094,"iko":7095,"mo":7096,"ees":7097,"Ġear":7098,"apten":7099,"ĠMajest":7100,"igen":7101,"Ġstrid":7102,"ĠChief":7103,"Ġpet":7104,"iving":7105,"Ġfreak":7106,"VÃ¥ra":7107,"Ġmilk":7108,"Ġespecially":7109,"Ġwound":7110,"ĠfÃ¶resl":7111,"ĠRachel":7112,"Ġforsk":7113,"Ġcomfortable":7114,"wers":7115,"ĠJosh":7116,"Ġordnar":7117,"egas":7118,"Ġdiam":7119,"fly":7120,"Ġkat":7121,"aded":7122,"Ġenligt":7123,"ĠDom":7124,"New":7125,"ierna":7126,"Ġgreatest":7127,"Ġlights":7128,"Ġeffect":7129,"though":7130,"ĠHill":7131,"Ġagreed":7132,"Ġbodies":7133,"ĠJason":7134,"ĠLisa":7135,"Ġryggen":7136,"ences":7137,"ĠUnited":7138,"Ġissue":7139,"ssk":7140,"ĠDave":7141,"Ġpock":7142,"incess":7143,"ĠuppmÃ¤rk":7144,"ĠbÃ¤ra":7145,"UM":7146,"lare":7147,"ĠTw":7148,"ĠLeon":7149,"Next":7150,"Pat":7151,"ntil":7152,"ĠfÃ¶ll":7153,"iber":7154,"Ġcredit":7155,"Ã¶p":7156,"teck":7157,"Ġartist":7158,"ĠTor":7159,"ĠGuds":7160,"ĠRom":7161,"Ġbust":7162,"Ġbarely":7163,"ĠlÃ¤get":7164,"Ġrecords":7165,"Ġtemper":7166,"arta":7167,"rek":7168,"Ġsuddenly":7169,"Ġtok":7170,"ĠfÃ¶ljde":7171,"Ġstry":7172,"nÃ¤r":7173,"Ġpred":7174,"ĠfÃ¤rg":7175,"19":7176,"ĠFR":7177,"Ġstudy":7178,"Ġet":7179,"Ġko":7180,"Ġsekund":7181,"Skynda":7182,"Ġtoal":7183,"Ġprot":7184,"ĠChin":7185,"Ġspy":7186,"ression":7187,"Ġvild":7188,"Ġilleg":7189,"Ġsnackar":7190,"Ġhig":7191,"Ġbjuda":7192,"ĠfÃ¶rsvinner":7193,"Kul":7194,"Ġabs":7195,"ĠColl":7196,"Ġobser":7197,"Ġminst":7198,"ĠbrÃ¥k":7199,"Ġcomb":7200,"ĠPa":7201,"Ġljuga":7202,"ĠtvÃ¤tt":7203,"Ġtecken":7204,"ĠLuke":7205,"Ġuniform":7206,"ĠnÃ¥d":7207,"ĠGET":7208,"ĠLouis":7209,"Ġfj":7210,"ĠRam":7211,"Captain":7212,"ĠBel":7213,"Ġskor":7214,"ĠtjÃ¤na":7215,"Ġasleep":7216,"Ġplaner":7217,"Ġafford":7218,"Ġbilj":7219,"Ġboken":7220,"ĠbesvÃ¤r":7221,"jan":7222,"Ġcriminal":7223,"zo":7224,"Ġdoktorn":7225,"ĠEmma":7226,"ĠSpan":7227,"RY":7228,"Ġ300":7229,"Ġfarm":7230,"Ġolder":7231,"Ã¼":7232,"ĠfÃ¶rstÃ¥s":7233,"ĠstÃ¶tt":7234,"ringar":7235,"sidan":7236,"Ġax":7237,"Ġshower":7238,"Ġinclud":7239,"ĠFred":7240,"Ġcondition":7241,"ĠVer":7242,"Ġfed":7243,"Ġonline":7244,"Ġnon":7245,"Ġcharacter":7246,"ÃĦn":7247,"opping":7248,"ĠGold":7249,"Ġfootball":7250,"ledge":7251,"ĠlÃ¤ser":7252,"Ġapproach":7253,"Ã¤lj":7254,"idan":7255,"Ġombord":7256,"Ġbullet":7257,"ĠtÃ¥r":7258,"Ġpojken":7259,"Ġfamous":7260,"stÃ¶v":7261,"Ġlugna":7262,"cha":7263,"Ġriver":7264,"Ġstann":7265,"ication":7266,"Ġteeth":7267,"VarsÃ¥god":7268,"kr":7269,"Leave":7270,"attan":7271,"ĠgrÃ¤":7272,"Ġlung":7273,"Ġinsist":7274,"Besides":7275,"Ġabsolut":7276,"Ġtung":7277,"Ġsne":7278,"Ġbrothers":7279,"Lo":7280,"Tra":7281,"Ġcenter":7282,"oppa":7283,"Ġsmak":7284,"ba":7285,"Ġrecept":7286,"Ġgem":7287,"Ġlic":7288,"ĠDON":7289,"Ġsjunga":7290,"ĠRod":7291,"Ġelev":7292,"Ã¤llde":7293,"Ġoriginal":7294,"bre":7295,"ĠomÃ¶jligt":7296,"Ġpossibly":7297,"medel":7298,"ĠQueen":7299,"bba":7300,"ios":7301,"Ġtransport":7302,"Ã¤ltet":7303,"ĠBye":7304,"egan":7305,"Ġweight":7306,"12":7307,"ĠARE":7308,"anten":7309,"Ã¶re":7310,"Ġalright":7311,"Ġpunch":7312,"ĠHal":7313,"Ġkontoret":7314,"Ġpurpose":7315,"Ġdator":7316,"Ġbeyond":7317,"mend":7318,"Helt":7319,"ĠrÃ¤d":7320,"Ġbasically":7321,"Ġlarge":7322,"Ġnature":7323,"ÃĤ":7324,"Ġrull":7325,"ĠLarry":7326,"Ġobject":7327,"Ġconcerned":7328,"ĠfÃ¶rflut":7329,"ivia":7330,"Ġfatta":7331,"David":7332,"tag":7333,"eda":7334,"ĠsÃ¶m":7335,"ĠÃ¶ppnar":7336,"unior":7337,"Ġbasket":7338,"ĠBon":7339,"Barn":7340,"ĠClark":7341,"Bring":7342,"Ġdaddy":7343,"ĠDE":7344,"ĠPut":7345,"ĠÃ¶vervak":7346,"oppen":7347,"Ġskillnad":7348,"erkligen":7349,"OUT":7350,"Ġsomehow":7351,"asons":7352,"Ġos":7353,"Tar":7354,"Ġbehav":7355,"ĠWood":7356,"Fick":7357,"ĠÃ¶ga":7358,"Ġtraum":7359,"ĠkarriÃ¤r":7360,"ĠÃ¶verleva":7361,"Ġsize":7362,"vist":7363,"Ã³":7364,"Ġsacri":7365,"Ġturning":7366,"Ġvanliga":7367,"Ġvision":7368,"Ġmoon":7369,"phy":7370,"ĠÃ¤gg":7371,"Ġcheese":7372,"VÃ¤":7373,"ĠÃħh":7374,"Ġwhose":7375,"Ġimpro":7376,"ĠbrÃ¶t":7377,"ĠLady":7378,"Ġhed":7379,"Christ":7380,"ĠSO":7381,"Ġaffect":7382,"huh":7383,"Ġrefer":7384,"Ġsmile":7385,"Alright":7386,"borg":7387,"Ġdisappoint":7388,"Ġskadad":7389,"Ġleader":7390,"Com":7391,"faren":7392,"Ġpin":7393,"Michael":7394,"Ġcreate":7395,"ĠfÃ¶delsedag":7396,"Ġallting":7397,"otter":7398,"Ġdepartment":7399,"ĠspÃ¤nnande":7400,"Ġswitch":7401,"ĠlÃ¥n":7402,"Ġspeciellt":7403,"anie":7404,"Ġspread":7405,"rag":7406,"iti":7407,"ilda":7408,"Ġtall":7409,"ĠCle":7410,"Ġleda":7411,"ĠHam":7412,"ugo":7413,"Ġplenty":7414,"Ġideas":7415,"IF":7416,"Ġduktig":7417,"Ġcousin":7418,"Check":7419,"Ġdestroyed":7420,"Ġconnection":7421,"ĠAv":7422,"ĠUnder":7423,"Ã¤ngd":7424,"Ġwritten":7425,"UG":7426,"Ġamount":7427,"hund":7428,"Ġversion":7429,"Ġvarm":7430,"Ġsched":7431,"Ġwarn":7432,"Ġparker":7433,"Ġattempt":7434,"ĠdÃ¶k":7435,"Ġliksom":7436,"Ġavoid":7437,"Ġleaves":7438,"ĠFrancis":7439,"Ġdamage":7440,"AP":7441,"mod":7442,"ĠÃ¤nda":7443,"Max":7444,"Ġsaving":7445,"ĠhjÃ¤rna":7446,"ĠBeck":7447,"ĠStates":7448,"Ġloud":7449,"Ġpersonen":7450,"vens":7451,"otte":7452,"Ġgalna":7453,"Ġdating":7454,"ĠSnÃ¤lla":7455,"ĠLos":7456,"oci":7457,"Ġkostar":7458,"Ġviss":7459,"Ġflying":7460,"Ġintrodu":7461,"Ġtankar":7462,"ĠfÃ¶ddes":7463,"Ġvakt":7464,"Ġheads":7465,"Ġmorgonen":7466,"Ġunderbar":7467,"Ġkyrkan":7468,"Ġstrateg":7469,"Ġhistorien":7470,"Ġsprang":7471,"Kon":7472,"Ġsacrif":7473,"ented":7474,"ĠtrÃ¤ffades":7475,"ĠBrad":7476,"Ġdjupt":7477,"ordon":7478,"Ġselling":7479,"Ġpilot":7480,"Ġridiculous":7481,"ĠWhoa":7482,"ÂĢÂ¦":7483,"Ġkatt":7484,"ĠKeep":7485,"ĠfÃ¶rÃ¤ndras":7486,"loe":7487,"ealous":7488,"Ġchock":7489,"VadÃ¥":7490,"Ġnowhere":7491,"GÃ¥r":7492,"Ġfy":7493,"bling":7494,"ĠJohns":7495,"ĠOUT":7496,"ĠInget":7497,"Ġnecessary":7498,"Cle":7499,"Res":7500,"ĠSomet":7501,"ĠSimon":7502,"ization":7503,"Big":7504,"Bo":7505,"vy":7506,"Lugn":7507,"Ġhantera":7508,"vakt":7509,"ifier":7510,"Ġsexual":7511,"ault":7512,"eph":7513,"Ġsats":7514,"Ġdok":7515,"Ġminnas":7516,"Ġlocation":7517,"Ġsimply":7518,"bud":7519,"aos":7520,"Ġpretend":7521,"ĠWould":7522,"Ġscience":7523,"HÃ¤mta":7524,"Ġprepared":7525,"ĠJay":7526,"Ġsalt":7527,"ĠCass":7528,"ĠTror":7529,"rib":7530,"Ġult":7531,"Ġdefinitivt":7532,"Tills":7533,"Ġsweetheart":7534,"sson":7535,"Ġkasta":7536,"ĠfÃ¶rbl":7537,"NÃ¥got":7538,"Bye":7539,"Ġbelieved":7540,"Ġshift":7541,"ongen":7542,"Ġcurr":7543,"Ġmening":7544,"aser":7545,"Ġlots":7546,"ko":7547,"ĠUP":7548,"itation":7549,"Ġknark":7550,".,":7551,"Ġ199":7552,"Ġexec":7553,"Ġvag":7554,"ato":7555,"ĠlÃ¥na":7556,"Ġyo":7557,"annah":7558,"imb":7559,"ĠCount":7560,"oken":7561,"Ġhelvet":7562,"Ġends":7563,"Ġseveral":7564,"Ġcopy":7565,"anne":7566,"ĠUrsÃ¤kta":7567,"Trevligt":7568,"ĠTexas":7569,"Paul":7570,"Ġflyttar":7571,"oren":7572,"Ġhamnade":7573,"ĠHÃ¶r":7574,"ĠstÃ¤nga":7575,"Ġqueen":7576,"ĠÃ¶ppen":7577,"ĠsjÃ¤lvmord":7578,"Sara":7579,"ĠWorld":7580,"ĠframgÃ¥ng":7581,"ĠJew":7582,"asha":7583,"ĠsamhÃ¤ll":7584,"Ġexempel":7585,"Ġbond":7586,"ears":7587,"Ġtowards":7588,"ĠClaire":7589,"Ġgratis":7590,"Ġheaven":7591,"Ġavsluta":7592,"Ġingenstans":7593,"Ġvarenda":7594,"Ġdesk":7595,"Ġstyck":7596,"iverse":7597,"ĠÃ¤ck":7598,"dri":7599,"ĠSanta":7600,"amme":7601,"erande":7602,"ĠhjÃ¤lte":7603,"ĠChuck":7604,"ĠSky":7605,"Ġlagt":7606,"Ġgodk":7607,"Ġincredible":7608,"asing":7609,"Ġmult":7610,"Ġarbeta":7611,"ares":7612,"Ġhorrible":7613,"Ġkrafter":7614,"Ġregret":7615,"Ġpapper":7616,"Red":7617,"Ġsuger":7618,"ima":7619,"ĠBern":7620,"Mad":7621,"illed":7622,"ĠEv":7623,"hav":7624,"Ġpump":7625,"Ġbreaking":7626,"ria":7627,"dagen":7628,"Ġpoints":7629,"ĠArthur":7630,"ĠÃ¥tal":7631,"ĠGary":7632,"Ġnatural":7633,"nis":7634,"ĠCap":7635,"rÃ¶m":7636,"Ġgn":7637,"ktioner":7638,"Ġtaget":7639,"Ġgrown":7640,"Ġstarka":7641,"Ġplus":7642,"ĠÃ¥ren":7643,"ĠfÃ¥n":7644,"ceed":7645,"IST":7646,"Ġengel":7647,"annen":7648,"ĠMick":7649,"vies":7650,"Ġinsane":7651,"Too":7652,"Ġdefend":7653,"ĠTaylor":7654,"Ġpieces":7655,"Ġproperty":7656,"gifter":7657,"yst":7658,"Ġshame":7659,"Ġcere":7660,"Ġmordet":7661,"Ġsafety":7662,"Ġtask":7663,"Ġmammas":7664,"Î¿":7665,"orten":7666,"ĠdÃ¶rr":7667,"ĠskÃ¶nt":7668,"Ġamong":7669,"ammy":7670,"lÃ¤gg":7671,"ĠDa":7672,"Ġeftermiddag":7673,"Ġnar":7674,"olt":7675,"Ġseason":7676,"Ġlord":7677,"Ġbetray":7678,"Ġroof":7679,"ulen":7680,"eland":7681,"ĠWall":7682,"Ġtusen":7683,"Ġactiv":7684,"Ġassume":7685,"rison":7686,"Were":7687,"Ġgather":7688,"mannen":7689,"Ġmej":7690,"TA":7691,"Ġthrew":7692,"Ġrat":7693,"ĠAmy":7694,"Ġjustice":7695,"Ġrough":7696,"orney":7697,"Ġsubject":7698,"Ġpojkar":7699,"Ġheading":7700,"natt":7701,"jÃ¶":7702,"asion":7703,"ĠPete":7704,"Ġopinion":7705,"Ġpappas":7706,"father":7707,"Ġperiod":7708,"Ġlangu":7709,"okes":7710,"ittar":7711,"Ġskrivit":7712,"aper":7713,"hin":7714,"vap":7715,"ĠgÃ¶mma":7716,"Samma":7717,"Ġvetenskap":7718,"ĠWhich":7719,"Ġruin":7720,"ĠÃ¤tit":7721,"ĠRoger":7722,"ERS":7723,"raft":7724,"Ġtherap":7725,"Ġstrun":7726,"gÃ¥rd":7727,"omi":7728,"ado":7729,"Ġledare":7730,"ilen":7731,"esse":7732,"ĠVir":7733,"mans":7734,"adies":7735,"syn":7736,"ĠsmÃ¤rta":7737,"uses":7738,"Ġserve":7739,"Ġmissade":7740,"Ġtelefonen":7741,"Ġpercent":7742,"ĠvÃ¤grar":7743,"Doesn":7744,"Ġscient":7745,"Ġnorth":7746,"Ã¤get":7747,"HÃ¤l":7748,"Ġhust":7749,"Ġdyker":7750,"Ġost":7751,"ĠÃ¤m":7752,"Ġopened":7753,"Ġproof":7754,"Ġsplit":7755,"anch":7756,"urse":7757,"Ġfys":7758,"Ġkol":7759,"Ġoutta":7760,"ĠSund":7761,"alley":7762,"Ġspringa":7763,"ĠHerregud":7764,"ĠFel":7765,"Ġjobbigt":7766,"sna":7767,"Ġcreated":7768,"Ġolycka":7769,"Ġjealous":7770,"ĠhÃ¤nga":7771,"pun":7772,"Ġpill":7773,"Ã¤kert":7774,"Ġbryta":7775,"atet":7776,"onest":7777,"Ġwast":7778,"ĠDor":7779,"Ġbete":7780,"ipul":7781,"ĠfÃ¶rvÃ¤nt":7782,"adow":7783,"namn":7784,"Ġdelen":7785,"Ġkilom":7786,"Ġ198":7787,"Ġplast":7788,"Ġneither":7789,"Ã¶kte":7790,"Ġvictims":7791,"Ġordet":7792,"abe":7793,"Ġmassor":7794,"Ġfailed":7795,"Ġdokument":7796,"ĠpÃ¥ver":7797,"Ġlies":7798,"Dags":7799,"Ġbordet":7800,"ĠFan":7801,"ĠÃ¶v":7802,"Ġlegal":7803,"ĠfÃ¶rhand":7804,"Ġhug":7805,"Ġbatter":7806,"ĠkÃ¤nsla":7807,"Ġsending":7808,"ĠtjÃ¤nar":7809,"Out":7810,"ĠlÃ¶ser":7811,"Ġtrygg":7812,"inet":7813,"Ġbreathe":7814,"Ġheat":7815,"Unless":7816,"Move":7817,"Fucking":7818,"Ġcapt":7819,"Tycker":7820,"Ġgrip":7821,"utting":7822,"wich":7823,"amen":7824,"Ġtiny":7825,"ĠMitch":7826,"Sedan":7827,"ros":7828,"ĠfÃ¶rhÃ¥llande":7829,"huset":7830,"lÃ¶sa":7831,"Ġrelease":7832,"Ġrespek":7833,"Ġflickor":7834,"Ġsjukdom":7835,"Ġpage":7836,"oved":7837,"vÃ¤rt":7838,"Sounds":7839,"ĠWalter":7840,"opter":7841,"ĠBell":7842,"Ġsamtidigt":7843,"Gillar":7844,"ĠBrown":7845,"OH":7846,"ĠItal":7847,"ĠtÃ¤nd":7848,"ĠBarry":7849,"onder":7850,"sell":7851,"Ke":7852,"Ġsettle":7853,"Ġgoodbye":7854,"Ġgenast":7855,"Ġmotherfucker":7856,"Ġstayed":7857,"eline":7858,"illiant":7859,"Ġtryck":7860,"Ed":7861,"Ġmovies":7862,"ĠShut":7863,"ĠlÃ¤ttare":7864,"Another":7865,"ĠIr":7866,"Ġhimlen":7867,"cean":7868,"ellan":7869,"ĠKelly":7870,"Ġshowing":7871,"Ġsyss":7872,"Ġkass":7873,"ĠtillgÃ¥ng":7874,"ĠvÃ¤rde":7875,"Ġabandon":7876,"ĠLucy":7877,"Ġgolvet":7878,"ĠpÃ¥min":7879,"ĠAndrew":7880,"Ol":7881,"ktionen":7882,"ĠDep":7883,"Ġcards":7884,"Ġlikely":7885,"Ġstir":7886,"urg":7887,"ĠglÃ¤d":7888,"FÃ¶rsta":7889,"Ġgrew":7890,"mos":7891,"Ġak":7892,"Ġmiljon":7893,"Snygg":7894,"Ġmormor":7895,"Ġiron":7896,"roat":7897,"aughs":7898,"Ġchief":7899,"Ġfasc":7900,"Ġregler":7901,"Huh":7902,"ĠDetective":7903,"Ġappear":7904,"usive":7905,"ernas":7906,"ĠframÃ¥t":7907,"ÃĦlskling":7908,"bot":7909,"ĠSta":7910,"Ġdefe":7911,"Ġgru":7912,"Ġsymbol":7913,"ldiga":7914,"athy":7915,"Ġtappade":7916,"asure":7917,"Ġkusin":7918,"Ġexplod":7919,"Ġdressed":7920,"Ġappoint":7921,"Ġdisp":7922,"rande":7923,"ĠLIKE":7924,"ĠLeo":7925,"Ġfollowed":7926,"Par":7927,"ln":7928,"Probably":7929,"Ġexpecting":7930,"Ġisol":7931,"bon":7932,"tains":7933,"ĠGeorg":7934,"Ġrolig":7935,"Ġast":7936,"gress":7937,"Bet":7938,"ĠKal":7939,"rated":7940,"ĠhÃ¶gre":7941,"Ġ%":7942,"Ġlately":7943,"Ro":7944,"Ġsigned":7945,"ĠPier":7946,"pan":7947,"Ġprofessor":7948,"Bar":7949,"Ġbridge":7950,"Find":7951,"telse":7952,"Want":7953,"ourt":7954,"Ġfantas":7955,"Ġtand":7956,"ĠSteph":7957,"cellent":7958,"Ġrit":7959,"ĠsvÃ¥ra":7960,"Ġbilden":7961,"ĠungefÃ¤r":7962,"ĠvÃ¤xte":7963,"djur":7964,"Ġfaller":7965,"stol":7966,"Ġunderbart":7967,"ĠjÃ¤veln":7968,"sjuk":7969,"uce":7970,"Ġinflu":7971,"issar":7972,"Ġpotential":7973,"Ġkal":7974,"Ġnormalt":7975,"trÃ¥d":7976,"Ġmaten":7977,"Ġextrem":7978,"Ġslapp":7979,"Ġbetalt":7980,"Ã¶jt":7981,"Ġnearly":7982,"Ġopening":7983,"Ġvillage":7984,"ading":7985,"ĠMmm":7986,"Ġdusch":7987,"Ġ45":7988,"Ġtransfer":7989,"BehÃ¶ver":7990,"Ġperfectly":7991,"Ġletade":7992,"Aren":7993,"ĠumgÃ¥s":7994,"Ġhalvt":7995,"Ġyr":7996,"ĠAlan":7997,"ĠfÃ¤ngelset":7998,"Ġharder":7999,"Ġmembers":8000,"Ġrepe":8001,"Sex":8002,"PS":8003,"Ġpapers":8004,"ĠtÃ¥l":8005,"Ġindiv":8006,"Ġcovered":8007,"Ġneighborhood":8008,"ĠhÃ¤ft":8009,"Ġnet":8010,"leken":8011,"ĠDoc":8012,"Ġresponsibility":8013,"Ã¤ntar":8014,"ongress":8015,"ĠLove":8016,"Ġjury":8017,"ĠLittle":8018,"ĠÃĸ":8019,"skor":8020,"Ġallvarligt":8021,"Ġanfall":8022,"ĠAri":8023,"mel":8024,"ĠMcC":8025,"Ã¥gan":8026,"ighs":8027,"Ġanswers":8028,"ĠkÃ¶rt":8029,"ĠvÃ¥gar":8030,"Ġstrugg":8031,"ĠExcuse":8032,"rÃ¥de":8033,"gl":8034,"rike":8035,"Ġchok":8036,"ĠHay":8037,"ĠkÃ¶ket":8038,"Ġplayer":8039,"bum":8040,"ĠmjÃ¶l":8041,"ador":8042,"stal":8043,"ĠbrÃ¶der":8044,"Peter":8045,"Ġbett":8046,"Ġrecently":8047,"Mark":8048,"Ġorganis":8049,"ĠÃ¥kt":8050,"ĠVery":8051,"Ġarrang":8052,"Ġpir":8053,"isen":8054,"ART":8055,"Ġdetails":8056,"Ġflu":8057,"cul":8058,"styr":8059,"ĠÃ¤ra":8060,"ĠlÃ¤rare":8061,"Ob":8062,"Ġlille":8063,"Ġlaughing":8064,"vir":8065,"fan":8066,"emon":8067,"Dessutom":8068,"Ġsees":8069,"Ġbedroom":8070,"vision":8071,"aves":8072,"eap":8073,"Ġenergi":8074,"Ġborrow":8075,"Ġdealing":8076,"Ġstaff":8077,"Pol":8078,"Ġrymd":8079,"Charlie":8080,"aving":8081,"ĠnÃ¶jd":8082,"Ġterrif":8083,"Ġsemester":8084,"stood":8085,"ĠFine":8086,"ĠskÃ¶ta":8087,"ued":8088,"Ġsweetie":8089,"Ġgrowing":8090,"gÃ¥ngen":8091,"unter":8092,"ĠskitstÃ¶v":8093,"ĠNÃ¥g":8094,"Ġordning":8095,"Ġkop":8096,"Ġerfaren":8097,"ĠsÃ¥dan":8098,"UL":8099,"look":8100,"Sim":8101,"Ã¶kt":8102,"ĠDick":8103,"mÃ¤rkt":8104,"Over":8105,"Ġrecognize":8106,"mber":8107,"Ġstock":8108,"Ġsouth":8109,"ĠfÃ¶rvand":8110,"Ġslipper":8111,"Ġfrisk":8112,"Ok":8113,"ĠAtl":8114,"oby":8115,"ĠÃ¶verl":8116,"Ġhoppades":8117,"Ġbucks":8118,"Ġfira":8119,"ĠReg":8120,"hy":8121,"Ġperform":8122,"Ġlines":8123,"ĠIsland":8124,"Ġtopp":8125,"ĠfÃ¶rflutna":8126,"ĠSoph":8127,"Plus":8128,"pher":8129,"Sna":8130,"ĠKar":8131,"ĠÃ¶de":8132,"Ġpowers":8133,"ural":8134,"Ġbite":8135,"ĠfrÃ¶ken":8136,"apa":8137,"ampa":8138,"Ġbjuder":8139,"oln":8140,"Ġgolf":8141,"allenge":8142,"Ġkors":8143,"ateful":8144,"ĠUpp":8145,"Ġrena":8146,"fÃ¶rande":8147,"Ġlaget":8148,"ĠRiver":8149,"Ġdisg":8150,"Ġmember":8151,"Ġsilver":8152,"Ġinblandad":8153,"king":8154,"Ġveh":8155,"Del":8156,"Ã¤nnisk":8157,"fÃ¤rd":8158,"Ġmail":8159,"jar":8160,"fiken":8161,"Ġissues":8162,"Ã¤cken":8163,"ĠRem":8164,"Skit":8165,"urance":8166,"Ġungdom":8167,"ĠHonor":8168,"ĠbegÃ¤r":8169,"Ġuns":8170,"Ġloose":8171,"ĠLy":8172,"ardrÃ¶m":8173,"ĠCast":8174,"Ġmeaning":8175,"ĠVin":8176,"Ġdoors":8177,"Ġlegend":8178,"ewis":8179,"Ġtju":8180,"Ġmap":8181,"ĠmotstÃ¥nd":8182,"iled":8183,"Ġminnen":8184,"Ġcomplicated":8185,"Ġtaxi":8186,"ĠfÃ¶rutom":8187,"Rich":8188,"Ġbrave":8189,"arts":8190,"pril":8191,"Ġfuneral":8192,"Ġbrief":8193,"Ġseg":8194,"Ġchest":8195,"Ġtun":8196,"uf":8197,"Ġvul":8198,"Ġpartners":8199,"Ġuniverse":8200,"iera":8201,"Ġprim":8202,"ĠfÃ¥nga":8203,"Ġpension":8204,"40":8205,"ĠBeth":8206,"Ġserver":8207,"Ġcases":8208,"ĠrÃ¤tteg":8209,"Nick":8210,"resp":8211,"Ġpresentera":8212,"Ġphotos":8213,"ashion":8214,"ĠlÃ¶n":8215,"Ġours":8216,"Ġtalade":8217,"Ġvars":8218,"Ġmentioned":8219,"Ġhurts":8220,"Except":8221,"icans":8222,"ĠstjÃ¤la":8223,"hal":8224,"Ġflo":8225,"Ġhonestly":8226,"ĠvÃ¥n":8227,"ĠrÃ¶d":8228,"ament":8229,"Ġfore":8230,"Ġchose":8231,"Ġskur":8232,"pekt":8233,"ĠDean":8234,"sig":8235,"Ġluften":8236,"Ġskola":8237,"win":8238,"ĠVegas":8239,"Ġate":8240,"ĠDev":8241,"Ġhemska":8242,"Ã¤stare":8243,"ĠbestÃ¤mt":8244,"ĠIns":8245,"Ġkollade":8246,"Ġbev":8247,"Ġsnacka":8248,"Ġcontain":8249,"ĠStr":8250,"Ġoskyldig":8251,"akter":8252,"Ġstatement":8253,"ĠSOME":8254,"Ġdancing":8255,"NING":8256,"teen":8257,"Ġskeppet":8258,"ĠÃ¥tervÃ¤nda":8259,"Ġsilly":8260,"isar":8261,"Mike":8262,"ALLY":8263,"Ġvarmt":8264,"Ġexpected":8265,"Ġheaded":8266,"tell":8267,"thew":8268,"Ġwhoever":8269,"Ġfotboll":8270,"Ġgrym":8271,"ĠRIGHT":8272,"ylan":8273,"Ġforced":8274,"acka":8275,"Ġdiskutera":8276,"Show":8277,"iler":8278,"Pass":8279,"cture":8280,"ords":8281,"mat":8282,"alitet":8283,"AnvÃ¤nd":8284,"ĠfÃ¶rhÃ¶r":8285,"aturday":8286,"ĠMexico":8287,"Ġnational":8288,"kning":8289,"Ġnail":8290,"Ġberor":8291,"Ġthoughts":8292,"Ġcreep":8293,"Ġattacked":8294,"Ġcrowd":8295,"StÃ¤ll":8296,"Deras":8297,"Ġwoods":8298,"Ġfirm":8299,"Ġtoil":8300,"Ġbabe":8301,"asen":8302,"ĠPatrick":8303,"ikter":8304,"Ġupplev":8305,"fullt":8306,"grund":8307,"Ġkillarna":8308,"Ġscary":8309,"ube":8310,"Ġindust":8311,"bben":8312,"ĠBrook":8313,"ĠAngeles":8314,"Guess":8315,"ĠMid":8316,"Ġmots":8317,"Ġrub":8318,"Ġfamilies":8319,"ĠRoss":8320,"hets":8321,"espel":8322,"Ġdistra":8323,"cient":8324,"ĠSol":8325,"Ġlon":8326,"Ġreceived":8327,"scar":8328,"bilen":8329,"Ġought":8330,"ĠNathan":8331,"Snart":8332,"Ġflyger":8333,"Ġsons":8334,"Ġdisappeared":8335,"iser":8336,"ĠAL":8337,"hÃ¥l":8338,"ĠkÃ¤mpa":8339,"Ã¤ngde":8340,"Im":8341,"Ġvia":8342,"ĠerkÃ¤nna":8343,"iano":8344,"Ġexample":8345,"aging":8346,"Ġattract":8347,"ĠfÃ¶rstÃ¶rde":8348,"INK":8349,"ĠBy":8350,"ĠKanske":8351,"fru":8352,"Ġparts":8353,"ĠHollywood":8354,"Ġyng":8355,"ĠFriday":8356,"Ġstyrka":8357,"Ġekon":8358,"Ġvarken":8359,"igga":8360,"Ġincident":8361,"Ġ70":8362,"ĠnÃ¤s":8363,"Ġbrors":8364,"Ġslept":8365,"ĠDam":8366,"etta":8367,"Ġreality":8368,"ĠÃ¶vertyg":8369,"Ġmatchen":8370,"ĠdrÃ¶mmar":8371,"Ġblomm":8372,"FrÃ¥ga":8373,"Ġordered":8374,"Ġposit":8375,"ĠbjÃ¶d":8376,"ĠkÃ¶pt":8377,"ĠHank":8378,"ĠDun":8379,"zie":8380,"sek":8381,"Ġordentligt":8382,"Ġsecrets":8383,"ĠfÃ¶rklarar":8384,"jus":8385,"Ġskum":8386,"ĠNic":8387,"Ġdisappear":8388,"AKE":8389,"jor":8390,"ĠrÃ¥k":8391,"andal":8392,"Prata":8393,"Ġcares":8394,"ĠnÃ¥gonstans":8395,"ĠLieutenant":8396,"oker":8397,"Ġdip":8398,"ĠHERE":8399,"ĠmÃ¶rdaren":8400,"Ġmemories":8401,"ĠJohnson":8402,"Fort":8403,"aph":8404,"Ġdram":8405,"Their":8406,"Ġchanges":8407,"ĠvÃ¥rd":8408,"zer":8409,"ĠskÃ¶n":8410,"ĠJulia":8411,"Ġflowers":8412,"cles":8413,"Ġep":8414,"Ã¤mp":8415,"ugs":8416,"oda":8417,"ĠCole":8418,"ĠUt":8419,"Ġau":8420,"ĠSean":8421,"ĠEurope":8422,"Ġtip":8423,"Ġmanipul":8424,"Lugna":8425,"platsen":8426,"Ġfrun":8427,"ĠÃ¥rs":8428,"ĠvÃ¥ldt":8429,"Ġoffret":8430,"Ġlys":8431,"Ġhud":8432,"Until":8433,"Ġhired":8434,"Ġexciting":8435,"ĠihjÃ¤l":8436,"oses":8437,"Ġkyck":8438,"Ġdesto":8439,"Ã¶gon":8440,"Ġytter":8441,"ĠberÃ¶m":8442,"Ġearn":8443,"Mmm":8444,"IV":8445,"Ġreglerna":8446,"ĠMum":8447,"ĠÃ¶verraskning":8448,"ĠuppmÃ¤rksamhet":8449,"Ġutbild":8450,"Ġscr":8451,"ision":8452,"Ġflat":8453,"specially":8454,"Ġnuts":8455,"Kapten":8456,"La":8457,"ega":8458,"vek":8459,"ĠElizabeth":8460,"Ġchem":8461,"Sch":8462,"Sec":8463,"ators":8464,"Ġspl":8465,"Ġvanlig":8466,"Ġmotiv":8467,"Son":8468,"varande":8469,"Ġloy":8470,"Ġcaused":8471,"omach":8472,"bro":8473,"Ġlanguage":8474,"DÃ¶d":8475,"Ġbilar":8476,"Love":8477,"lÃ¶st":8478,"osition":8479,"atin":8480,"Visste":8481,"Ġlaunch":8482,"Ġoil":8483,"Ġminne":8484,"FÃ¶rstÃ¥r":8485,"ĠGre":8486,"VÃ¥rt":8487,"Ġformer":8488,"iktigt":8489,"Ġdoc":8490,"ĠvÃ¤nda":8491,"Ã¤ttning":8492,"Ġanalys":8493,"Ġticket":8494,"ĠjÃ¤kla":8495,"Ġprogress":8496,"uella":8497,"Five":8498,"fen":8499,"Ġevigt":8500,"Ġvapnet":8501,"Ġgentleman":8502,"Ġjerk":8503,"erek":8504,"Ġhelgen":8505,"Reg":8506,"ĠfÃ¶rmod":8507,"AB":8508,"stÃ¤llning":8509,"ĠMama":8510,"Ġugly":8511,"Ġhals":8512,"Ġglada":8513,"order":8514,"Ġbat":8515,"ĠCould":8516,"Ġstrike":8517,"ĠgrÃ¤nsen":8518,"asty":8519,"Ġbytt":8520,"fs":8521,"ĠgrÃ¶":8522,"Ġclock":8523,"ĠSU":8524,"Ġsnow":8525,"Ġadult":8526,"Ġchallenge":8527,"Ġremain":8528,"ĠTitta":8529,"ĠVart":8530,"Ġfamiliar":8531,"Ġlagen":8532,"Ġchampagne":8533,"Talk":8534,"ĠRome":8535,"Ġwheel":8536,"ĠnÃ¶dvÃ¤nd":8537,"rak":8538,"Ġsolen":8539,"kast":8540,"elia":8541,"Ġdish":8542,"ELL":8543,"IND":8544,"Ġfellow":8545,"Ġbrings":8546,"Ġlagar":8547,"ĠCooper":8548,"ormer":8549,"Also":8550,"Ġyoun":8551,"THING":8552,"Ġstreets":8553,"urb":8554,"Ġgifte":8555,"Ġconv":8556,"Ġsuicide":8557,"Ġviktigaste":8558,"Ġundvika":8559,"ĠbÃ¥ten":8560,"ĠmÃ¶tt":8561,"Grattis":8562,"ĠgrÃ¥ta":8563,"ored":8564,"ĠsÃ¥lde":8565,"Ġbutter":8566,"Ġfalling":8567,"Ġtie":8568,"Ġful":8569,"ĠMaggie":8570,"Ġbabies":8571,"vation":8572,"urr":8573,"ipping":8574,"Ġsource":8575,"Skicka":8576,"Ġprojekt":8577,"ĠbrÃ¶d":8578,"ugust":8579,"Ġskyddar":8580,"hab":8581,"Ġbetalade":8582,"ĠState":8583,"Ġfemale":8584,"Ġrap":8585,"Ġbang":8586,"Ġfunn":8587,"antast":8588,"Hit":8589,"ĠBry":8590,"Ġalarm":8591,"Ġkomplic":8592,"Ġprofessional":8593,"Ġusual":8594,"Ġsoldiers":8595,"ĠmardrÃ¶m":8596,"Ġomedel":8597,"Ġskaff":8598,"oni":8599,"fattat":8600,"AlltsÃ¥":8601,"Ġcharges":8602,"Ġsparken":8603,"Ġbeseg":8604,"Ġhors":8605,"oende":8606,"Ġgenius":8607,"Ġsanning":8608,"imme":8609,"ĠCher":8610,"mother":8611,"ĠJoey":8612,"Ġog":8613,"Ġpaus":8614,"ĠmÃ¶ta":8615,"ilities":8616,"Ġhundra":8617,"Other":8618,"ĠvÃ¤ggen":8619,"ocolate":8620,"',":8621,"Ġtras":8622,"ĠHitler":8623,"bie":8624,"Ġskapade":8625,"gger":8626,"pparently":8627,"ĠGOT":8628,"Ġnjut":8629,"Ġjobs":8630,"Ġgate":8631,"Ġwhis":8632,"Amer":8633,"ĠNik":8634,"entals":8635,"ĠNever":8636,"Ġassum":8637,"Ġplanned":8638,"Ġsed":8639,"Ġtap":8640,"ĠFer":8641,"ĠThree":8642,"ĠanmÃ¤l":8643,"JÃ¤tt":8644,"Ġangel":8645,"Ġmodel":8646,"kla":8647,"ĠAnne":8648,"Und":8649,"ĠMarsh":8650,"Ġtrade":8651,"bled":8652,"Ġrot":8653,"ĠsnÃ¤llt":8654,"Ġtunnel":8655,"Ġlycka":8656,"ĠSP":8657,"ĠAndre":8658,"Agent":8659,"Ġpoliser":8660,"Ġburied":8661,"Ġnyckeln":8662,"hÃ¤r":8663,"rary":8664,"ĠMamma":8665,"ĠÃ¶verv":8666,"uster":8667,"Ġvirus":8668,"Ġunit":8669,"jort":8670,"Ġwatched":8671,"Ã¤gare":8672,"ratta":8673,"Turn":8674,"Ġstomach":8675,"ĠKor":8676,"Famil":8677,"Ġstars":8678,"Ġ35":8679,"âĻªâĻª":8680,"Ġproduct":8681,"ĠKyle":8682,"Ġresults":8683,"cohol":8684,"sex":8685,"Ġsms":8686,"alle":8687,"ĠPort":8688,"San":8689,"Open":8690,"iper":8691,"ĠJacob":8692,"Ġnoise":8693,"Ġgarage":8694,"tha":8695,"ĠChinese":8696,"Col":8697,"ĠAg":8698,"ĠDis":8699,"Ġintroduce":8700,"Ġager":8701,"spro":8702,"Ġdevil":8703,"Ġdies":8704,"Ġalk":8705,"ĠCarter":8706,"ĠCa":8707,"slÃ¶s":8708,"nsel":8709,"ĠrÃ¤tten":8710,"Ġhardly":8711,"kin":8712,"ĠOoh":8713,"dÃ¥":8714,"Ġess":8715,"Ġfingers":8716,"Ġreasons":8717,"Ġhyr":8718,"Ġklubb":8719,"Ġskapar":8720,"Ġmood":8721,"Ġhav":8722,"bly":8723,"Ġmeningen":8724,"Ġrush":8725,"plant":8726,"ĠhÃ¤ls":8727,"Ġmas":8728,"Ġrek":8729,"ĠStay":8730,"ĠfÃ¶nstret":8731,"becca":8732,"Ġfancy":8733,"ashed":8734,"tten":8735,"Ġsoldat":8736,"Ġgarden":8737,"George":8738,"ĠmÃ¤kt":8739,"ĠSpring":8740,"Ġfarfar":8741,"Ġstudents":8742,"Spring":8743,"akan":8744,"Ġavtal":8745,"Ġdrinks":8746,"Ġavl":8747,"Ġloj":8748,"ĠJenny":8749,"atu":8750,"ĠrÃ¶v":8751,"Ġreleas":8752,"Ġcelebrate":8753,"Ġruns":8754,"Mon":8755,"ĠsÃ¥ng":8756,"Ġfinds":8757,"Ġprick":8758,"Ġrespond":8759,"Ġpocket":8760,"ando":8761,"Ġtanken":8762,"ĠMars":8763,"ĠOliver":8764,"Must":8765,"oti":8766,"ĠRen":8767,"Ġgig":8768,"Tw":8769,"Boy":8770,"Tog":8771,"Ġpatients":8772,"Ġwet":8773,"ĠKaren":8774,"Ġspringer":8775,"Ġkuk":8776,"Ġcampa":8777,"Ġfolket":8778,"Ġbrilliant":8779,"Ġmuse":8780,"Ġcircum":8781,"vÃ¤p":8782,"Ġbuying":8783,"ĠRussian":8784,"ARD":8785,"Four":8786,"alth":8787,"Ġeffekt":8788,"usentals":8789,"ĠLex":8790,"Ġmale":8791,"None":8792,"ĠvadÃ¥":8793,"Ġfab":8794,"than":8795,"skapet":8796,"iami":8797,"Ġspecif":8798,"Ġterrorist":8799,"ĠRub":8800,"ĠBull":8801,"ĠgÃ¶mmer":8802,"jo":8803,"ĠarmÃ©":8804,"ĠEN":8805,"Ġsite":8806,"ĠFirst":8807,"Ġshots":8808,"EP":8809,"Ġjourney":8810,"ĠsjÃ¶":8811,"Ġdoktor":8812,"Ġprova":8813,"EAH":8814,"angen":8815,"Ġintervju":8816,"Ġkur":8817,"ĠOur":8818,"usting":8819,"ĠfÃ¶rsvinna":8820,"ively":8821,"Ġmeth":8822,"Ġljuset":8823,"Baby":8824,"Ġsnabbare":8825,"ĠGirl":8826,"ĠLaura":8827,"Ġfreedom":8828,"ogan":8829,"ĠTre":8830,"Ġbright":8831,"ĠFlorida":8832,"ATION":8833,"Ġassault":8834,"ĠJamie":8835,"mask":8836,"Ġmodern":8837,"Ġpissed":8838,"ĠSaturday":8839,"Ġlek":8840,"Ġtow":8841,"Ġreporter":8842,"Ġboring":8843,"ĠOR":8844,"ĠnÃ¥r":8845,"Ġraised":8846,"Ġeggs":8847,"Ġlink":8848,"ĠÃ¶nsk":8849,"Ġtillbring":8850,"ki":8851,"Ġstarkare":8852,"Ã¤ger":8853,"ĠmÃ¤nniskorna":8854,"Ġdiscovered":8855,"nos":8856,"Ġkontrakt":8857,"Ġtheory":8858,"Ġhelvetet":8859,"ĠJordan":8860,"Ġgrejen":8861,"ĠmÃ¶rdade":8862,"ĠSunday":8863,"Ġtips":8864,"fort":8865,"Things":8866,"Ġreb":8867,"ĠTHERE":8868,"Ġbased":8869,"aled":8870,"Ġborg":8871,"Ġungar":8872,"worth":8873,"Ġterms":8874,"Ġreached":8875,"pack":8876,"ĠdjÃ¤v":8877,"Ġkungen":8878,"ĠBritish":8879,"Ġthroat":8880,"ĠutfÃ¶r":8881,"hÃ¥ller":8882,"Ġrevolution":8883,"Ġactual":8884,"ĠfÃ¶rÃ¤ndrats":8885,"su":8886,"ĠbefÃ¤l":8887,"Ġzomb":8888,"morgon":8889,"Ġtrapp":8890,"oles":8891,"Ġfilmer":8892,"Better":8893,"Ġbless":8894,"ACK":8895,"chuckles":8896,"ĠTime":8897,"Ġblick":8898,"Joe":8899,"Ladies":8900,"stig":8901,"Ã¤da":8902,"Ġobvious":8903,"Ġprakt":8904,"Ã¤mpa":8905,"ches":8906,"Ġindivid":8907,"Ġdesig":8908,"aning":8909,"Ġpassa":8910,"Hand":8911,"ĠÃ¤v":8912,"Ġdise":8913,"esa":8914,"ĠrÃ¤kna":8915,"skri":8916,"ĠMorgan":8917,"Ġears":8918,"Ġfungera":8919,"Ġweather":8920,"ĠBud":8921,"ĠgrÃ¤s":8922,"Ġsituationen":8923,"Ġscreen":8924,"onym":8925,"Ġkallt":8926,"gram":8927,"Ġvakna":8928,"ĠABOUT":8929,"Ġkult":8930,"Ġlevde":8931,"Hitta":8932,"ĠfÃ¶redrar":8933,"cia":8934,"ĠbestÃ¤mma":8935,"ibi":8936,"FÃ¶rutom":8937,"Ġteen":8938,"Ġrou":8939,"Ġsoldier":8940,"cast":8941,"Ã¥ring":8942,"ĠBay":8943,"Ġoffered":8944,"Ġletters":8945,"osing":8946,"ĠhÃ¤lften":8947,"stjÃ¤r":8948,"Ġfrust":8949,"Ġpicking":8950,"vÃ¤gen":8951,"Ġoroar":8952,"Ġillegal":8953,"gat":8954,"ĠHallÃ¥":8955,"terade":8956,"ĠJean":8957,"ĠEverything":8958,"60":8959,"Ġskynda":8960,"Ġ197":8961,"Ġrole":8962,"Ġschem":8963,"Ġmic":8964,"acon":8965,"ĠrÃ¶da":8966,"Ġgrann":8967,"Ġkonstig":8968,"oston":8969,"Ġmagi":8970,"etag":8971,"ĠSergeant":8972,"ĠklÃ¤tt":8973,"igheterna":8974,"Ġreven":8975,"ĠHelen":8976,"ĠidÃ©er":8977,"Ġmunnen":8978,"Ġinvite":8979,"Ġbenef":8980,"RÃ¤tt":8981,"isy":8982,"anken":8983,"ĠhÃ¥ret":8984,"JÃ¤vla":8985,"Ġskiter":8986,"Ġmir":8987,"cho":8988,"ĠfÃ¤st":8989,"tto":8990,"Ġpermission":8991,"Ġelekt":8992,"Ġsatell":8993,"Ġvuxen":8994,"Ġtong":8995,"Ġregular":8996,"ĠstÃ¤d":8997,"While":8998,"Ġfans":8999,"avtryck":9000,"GE":9001,"laughs":9002,"ĠjÃ¤vligt":9003,"Ġfann":9004,"ooth":9005,"ĠColonel":9006,"SK":9007,"Ġexact":9008,"Bill":9009,"mann":9010,"ĠLaw":9011,"Ġtri":9012,"Ġnyligen":9013,"agement":9014,"Ġdoctors":9015,"iane":9016,"Ġmoral":9017,"SlÃ¥":9018,"Little":9019,"istic":9020,"Ġsmuts":9021,"Ġscrewed":9022,"Ġshape":9023,"ĠBor":9024,"ĠSand":9025,"Ġcapable":9026,"ĠRep":9027,"VÃ¤ldigt":9028,"antage":9029,"fect":9030,"Ġinterrupt":9031,"Ġofficers":9032,"ky":9033,"Ġpund":9034,"Ġkicked":9035,"ĠOb":9036,"Ġladd":9037,"Ġtolv":9038,"Ġensamma":9039,"Ġtaket":9040,"hes":9041,"Ġcharm":9042,"ements":9043,"unde":9044,"oween":9045,"jÃ¶rn":9046,"ittade":9047,"ESS":9048,"lands":9049,"Ġhumans":9050,"ĠWANT":9051,"KÃ¤ra":9052,"Ġstranden":9053,"Ġcameras":9054,"Ġoavsett":9055,"outs":9056,"ples":9057,"Ġimponer":9058,"Ġstruntar":9059,"ĠnÃ¤rma":9060,"Ġ*":9061,"ĠClay":9062,"ĠbÃ¶cker":9063,"Ġassign":9064,"Ġdefense":9065,"Lou":9066,"lim":9067,"rull":9068,"ĠfÃ¤rdig":9069,"Ġcrush":9070,"Ġrop":9071,"arante":9072,"ĠHoward":9073,"Ġgemens":9074,"Ġjaga":9075,"Ġmedlem":9076,"Ġhous":9077,"Ġlistan":9078,"Ġpanik":9079,"Ġapparently":9080,"isera":9081,"Ġpair":9082,"ĠAir":9083,"LO":9084,"Ġgiant":9085,"ĠFrom":9086,"Ġmax":9087,"Ġhalsen":9088,"ĠMajor":9089,"Ġsinging":9090,"ĠWilson":9091,"Ġlack":9092,"ĠknÃ¤":9093,"ĠBart":9094,"chie":9095,"ums":9096,"ĠRobin":9097,"ardo":9098,"Ġdownstairs":9099,"Ġruined":9100,"ĠmÃ¶tet":9101,"ĠBruce":9102,"gÃ¤r":9103,"Bel":9104,"Ġfiles":9105,"Ġconnected":9106,"ĠMir":9107,"Ġfader":9108,"Ġbike":9109,"Ġdivorce":9110,"uty":9111,"Ġdetective":9112,"ĠledtrÃ¥d":9113,"Klockan":9114,"cons":9115,"town":9116,"ĠmÃ¥let":9117,"ĠfÃ¶rtro":9118,"Ġbeauty":9119,"icia":9120,"uti":9121,"Ġcrit":9122,"Ġartik":9123,"ĠLily":9124,"ĠskrÃ¤m":9125,"ĠhÃ¤rom":9126,"Ġdrove":9127,"Ġjacket":9128,"Ġobs":9129,"hold":9130,"jun":9131,"ĠsÃ¶ka":9132,"Ã¥ren":9133,"Hem":9134,"ĠtrÃ¥kigt":9135,"Ġpenis":9136,"Ġpistolen":9137,"Ġavail":9138,"Ġfought":9139,"ĠÃ¥terupp":9140,"Ġdetect":9141,"Ġspelet":9142,"Ġgoin":9143,"Ġjagar":9144,"ĠSay":9145,"Ġengelska":9146,"ĠFrance":9147,"Ġsooner":9148,"Ġkram":9149,"ICK":9150,"Ġscare":9151,"Ġberedd":9152,"ardon":9153,"Ray":9154,"ĠPri":9155,"ĠgÃ¥va":9156,"Ġrights":9157,"Ġpitch":9158,"Without":9159,"Ġanl":9160,"onestly":9161,"Ġgifter":9162,"Ġkem":9163,"James":9164,"ĠSqu":9165,"garet":9166,"ĠsÃ¤m":9167,"ĠTar":9168,"ĠEle":9169,"Ġalbum":9170,"Ġcheer":9171,"Ġamerikanska":9172,"Ġblank":9173,"ONG":9174,"Ġskjuten":9175,"Ġ27":9176,"enter":9177,"Ġvetat":9178,"ORE":9179,"Ġsmugg":9180,"ĠAnn":9181,"Ġkontrollera":9182,"Idag":9183,"bles":9184,"place":9185,"Ġmans":9186,"Ġej":9187,"Ġburned":9188,"Ġdrack":9189,"ĠChristian":9190,"itan":9191,"Ġmama":9192,"ĠArt":9193,"ĠLÃ¤gg":9194,"Ġphysical":9195,"ĠstrÃ¶m":9196,"Ġsandwich":9197,"Ġthousands":9198,"Ġforgotten":9199,"Ġplatser":9200,"Ner":9201,"Ġsker":9202,"elax":9203,"Ġbryter":9204,"Ġperfor":9205,"box":9206,"Ġbegan":9207,"Bry":9208,"Ġhotellet":9209,"Ġpromen":9210,"ICE":9211,"Ġfu":9212,"Ġtrigger":9213,"ĠnÃ¤":9214,"ĠDes":9215,"nant":9216,"Ġnaked":9217,"Ġvaknar":9218,"Ġbekym":9219,"Ġpul":9220,"Gjorde":9221,"Ġkart":9222,"Borde":9223,"Ġmoves":9224,"onight":9225,"Ġalien":9226,"Carl":9227,"ped":9228,"delningen":9229,"stid":9230,"Luc":9231,"Ġpills":9232,"Ġtorn":9233,"Ġslippa":9234,"Ġchoklad":9235,"Ġparticular":9236,"Ġsenast":9237,"Ġkm":9238,"fulla":9239,"Ġscenen":9240,"rot":9241,"acken":9242,"cke":9243,"olo":9244,"Always":9245,"Ġtoast":9246,"eez":9247,"ĠslÃ¤ppte":9248,"Ġdirector":9249,"Ġbleeding":9250,"Ġstul":9251,"ĠskÃ¥despel":9252,"ĠDi":9253,"Ġjuice":9254,"igaste":9255,"Ġrab":9256,"Ġtoilet":9257,"ĠfÃ¶rresten":9258,"ĠMarcus":9259,"Ġexpensive":9260,"ĠShit":9261,"Ġstannade":9262,"ĠHER":9263,"Acc":9264,"Absolut":9265,"Ã¨":9266,"ĠÃ¶vert":9267,"Ġdiagn":9268,"pire":9269,"ĠstÃ¤m":9270,"Ġgoal":9271,"Ġliknar":9272,"Ġbeund":9273,"Ġperfekta":9274,"RAT":9275,"Ġelectric":9276,"jung":9277,"Ġbekv":9278,"Ġofficial":9279,"Ġhandsome":9280,"atty":9281,"Ġspion":9282,"Ġanser":9283,"ĠMiller":9284,"Ġdomare":9285,"Ġpositive":9286,"pple":9287,"ĠBaby":9288,"ĠfÃ¶tter":9289,"ĠAlf":9290,"eremy":9291,"ĠdÃ¶lja":9292,"plats":9293,"Ġlesson":9294,"ĠSomething":9295,"Ġhealthy":9296,"Ġlid":9297,"ĠtÃ¤nder":9298,"Fre":9299,"Ġhunden":9300,"Ġmanage":9301,"ĠskrÃ¤":9302,"tiden":9303,"Ġtickets":9304,"Ġhoppar":9305,"Ġstationen":9306,"Ġexperien":9307,"hetic":9308,"ogs":9309,"Ġalcohol":9310,"ĠThese":9311,"ggy":9312,"viously":9313,"Ġbenen":9314,"Ġforest":9315,"Ġexch":9316,"rating":9317,"Ġsugar":9318,"Ġgrateful":9319,"ĠDie":9320,"Co":9321,"Ġnyheterna":9322,"azz":9323,"ĠmisstÃ¤nkt":9324,"ĠstÃ¤llde":9325,"Tid":9326,"aler":9327,"Ġkork":9328,"Ġreve":9329,"Ġstronger":9330,"Ġdoin":9331,"ennifer":9332,"Ġdirection":9333,"Ġhemligheter":9334,"kÃ¤n":9335,"Ġlyckliga":9336,"Ġfokusera":9337,"ĠFort":9338,"yp":9339,"utor":9340,"Ġskratt":9341,"Ġliknande":9342,"ĠvÃ¤xer":9343,"Blir":9344,"Ġpresidenten":9345,"Ġkonk":9346,"Ġwoke":9347,"akor":9348,"ĠMiami":9349,"ologi":9350,"Ġsoldater":9351,"Ġowner":9352,"Ãħt":9353,"Ġstarta":9354,"Happy":9355,"Ġhidden":9356,"ĠHannah":9357,"Ġsexy":9358,"Bad":9359,"Ġmanaged":9360,"Ġcancel":9361,"Ġchanging":9362,"ĠAbsol":9363,"Ġje":9364,"eman":9365,"agligen":9366,"Ġkod":9367,"ĠrÃ¶rel":9368,"ĠAnnie":9369,"narare":9370,"ĠnÃ¤mnde":9371,"Ġneighb":9372,"Lycka":9373,"ĠTri":9374,"allar":9375,"lair":9376,"Ġchecking":9377,"Ġaggress":9378,"Ġpulling":9379,"ĠTÃ¤nk":9380,"arden":9381,"Ask":9382,"ĠBarn":9383,"Ġfria":9384,"Start":9385,"ĠDID":9386,"endent":9387,"Ġtesta":9388,"Ġstru":9389,"ĠCamp":9390,"ensen":9391,"Ġdrottning":9392,"Ġuna":9393,"play":9394,"45":9395,"ĠHor":9396,"Ġbluff":9397,"Ġinvester":9398,"ddy":9399,"Best":9400,"Ġguarante":9401,"till":9402,"Ġtrash":9403,"ĠFe":9404,"Ġsvarade":9405,"fin":9406,"Ġfarlig":9407,"Ġresist":9408,"ĠfÃ¶rÃ¤ndra":9409,"ompl":9410,"ĠMolly":9411,"ĠJoseph":9412,"Ġstone":9413,"Ġdim":9414,"yo":9415,"Ġocean":9416,"Ġ-...":9417,"ji":9418,"Genom":9419,"SÃ¤ger":9420,"Ġbesviken":9421,"icted":9422,"CA":9423,"ĠGal":9424,"Ġconfused":9425,"Ġwalls":9426,"Ġtufft":9427,"ĠMus":9428,"ological":9429,"ĠProfessor":9430,"Ġjoy":9431,"Ġplate":9432,"ĠstrÃ¥l":9433,"Ġcompetition":9434,"mÃ¶rd":9435,"ĠomrÃ¥de":9436,"Verkligen":9437,"ĠBuck":9438,"ĠAunt":9439,"vik":9440,"Ġtappat":9441,"Ġnights":9442,"icked":9443,"ĠTerry":9444,"Ġnoll":9445,"Ġtrap":9446,"ĠfÃ¶rsvun":9447,"ĠfÃ¶ra":9448,"thony":9449,"ĠBat":9450,"ĠShel":9451,"Ã¶relse":9452,"Ġnons":9453,"ĠAnton":9454,"case":9455,"Ġimage":9456,"Ġtrees":9457,"ĠPen":9458,"Ġinsurance":9459,"Ġbread":9460,"Ġpunk":9461,"Ã¶rer":9462,"Ġassoci":9463,"mÃ¶":9464,"Ġstyle":9465,"Aldrig":9466,"Ġskojar":9467,"Ġfantastiska":9468,"ĠLewis":9469,"Ġglob":9470,"ration":9471,"ĠAbby":9472,"Ġscar":9473,"efully":9474,"ĠInga":9475,"Ġavailable":9476,"smÃ¤ss":9477,"Ġfaces":9478,"ĠnÃ¤rmar":9479,"Ġmiljard":9480,"Mot":9481,"UD":9482,"Ġclimb":9483,"lly":9484,"visst":9485,"Ġvaken":9486,"Ġbaren":9487,"Ġnoga":9488,"iece":9489,"Ġfro":9490,"Ġutl":9491,"ĠpÃ¥minner":9492,"OUG":9493,"ĠPrince":9494,"Ġena":9495,"Pretty":9496,"ĠborgmÃ¤st":9497,"Ġstycken":9498,"Ġoption":9499,"otel":9500,"ĠGabri":9501,"ĠLug":9502,"Ġutrust":9503,"ĠhjÃ¤rnan":9504,"ĠbekrÃ¤ft":9505,"tton":9506,"Ġviolence":9507,"Nah":9508,"stern":9509,"Ġschedule":9510,"Ġsolve":9511,"Sweet":9512,"Ġpersonally":9513,"Rep":9514,"ĠlÃ¶r":9515,"ched":9516,".]":9517,"ĠnivÃ¥":9518,"engar":9519,"liv":9520,"Ġinspekt":9521,"Ġframme":9522,"Ġgeneration":9523,"Ġargument":9524,"SÃ¥n":9525,"Ġspin":9526,"ĠtillfÃ¤lle":9527,"SO":9528,"Ġmedicine":9529,"akna":9530,"ĠWOR":9531,"Ġdesert":9532,"KÃ¤r":9533,"uell":9534,"Ġfully":9535,"ĠEven":9536,"Ġassistant":9537,"ITT":9538,"ĠfÃ¶rdel":9539,"ĠMAN":9540,"ĠBack":9541,"Dar":9542,"rades":9543,"Ġconfident":9544,"Ġairport":9545,"Id":9546,"ĠBoston":9547,"Ġfilled":9548,"HÃ¶rde":9549,"Ġms":9550,"ĠÃ¶k":9551,"Ġmedel":9552,"ĠFÃĸR":9553,"ÃĦR":9554,"Ġkvarter":9555,"Cool":9556,"ĠSusan":9557,"Ġeventually":9558,"Ġalternativ":9559,"oted":9560,"ĠlÃ¥nga":9561,"Up":9562,"Ġgods":9563,"END":9564,"Ġmental":9565,"\"!":9566,"po":9567,"Ġku":9568,"ĠWalker":9569,"inary":9570,"ieur":9571,"ĠBUT":9572,"ĠMove":9573,"Ġtacksam":9574,"Ġlamp":9575,"person":9576,"imeter":9577,"BÃ¤st":9578,"Ġrika":9579,"gÃ¥rden":9580,"ĠOut":9581,"Ġbreathing":9582,"Bu":9583,"opper":9584,"Ġrecomm":9585,"igheten":9586,"Ġpopul":9587,"Ġtydligt":9588,"uro":9589,"Ġwarrant":9590,"Ġhigher":9591,"uing":9592,"ĠClub":9593,"Ġonda":9594,"PD":9595,"Ã¥rig":9596,"ressed":9597,"iring":9598,"Ġcustom":9599,"Ġguests":9600,"Ġcoolt":9601,"Ġallerg":9602,"Ã¤gen":9603,"ĠWayne":9604,"Ġvalt":9605,"ights":9606,"Ġbackup":9607,"NO":9608,"Run":9609,"Jon":9610,"Ġrate":9611,"Ġincre":9612,"ussell":9613,"ĠPappa":9614,"ĠBerlin":9615,"Ġskickat":9616,"Ġcitiz":9617,"ĠBlue":9618,"ĠGri":9619,"Ġvalue":9620,"Ġbyggnaden":9621,"Ġstudio":9622,"Ġundrade":9623,"ĠMake":9624,"ĠMet":9625,"Apparently":9626,"Ġthrowing":9627,"ĠTal":9628,"Ġhoppade":9629,"Ġflykt":9630,"Killen":9631,"Ġminsta":9632,"Ġvent":9633,"Ġsabb":9634,"Ġautom":9635,"Ġeasily":9636,"ua":9637,"udy":9638,"Ġslip":9639,"Ġprosec":9640,"esten":9641,"Ġprotection":9642,"Ġpainting":9643,"rab":9644,"Ġvillkor":9645,"asta":9646,"Ġregistr":9647,"ĠAbout":9648,"Ġpounds":9649,"mate":9650,"ugan":9651,"Ġfra":9652,"Ġtreatment":9653,"ĠvÃ¤st":9654,"Ġyourselves":9655,"onsieur":9656,"Ġcoat":9657,"Ġsakna":9658,"Ġskadade":9659,"Seriously":9660,"mus":9661,"Ġambass":9662,"ĠtÃ¤ck":9663,"ifornia":9664,"ĠFace":9665,"ropri":9666,"istern":9667,"Ġinjur":9668,"Ġchocolate":9669,"ĠLucas":9670,"Ġchat":9671,"angers":9672,"ds":9673,"Ġextremely":9674,"rough":9675,"Ġquarter":9676,"Ġincluding":9677,"Ġwarning":9678,"IP":9679,"Ġdagarna":9680,"Ġconvince":9681,"ĠkÃ¤mpar":9682,"ĠShow":9683,"pha":9684,"elar":9685,"ĠhÃ¤mnd":9686,"Ġgumman":9687,"Ġpins":9688,"DR":9689,"Ġsignat":9690,"ogue":9691,"Ġtail":9692,"Ġsecure":9693,"inic":9694,"Ġlura":9695,"ĠPop":9696,"ĠSun":9697,"ĠpÃ¥m":9698,"etti":9699,"ĠbrÃ¥tt":9700,"ĠHerr":9701,"Bro":9702,"ĠspÃ¥ra":9703,"Ġpunish":9704,"Ġemotional":9705,"Ġrescue":9706,"Six":9707,"ĠVirgin":9708,"ĠhÃ¥llit":9709,"Ġromantic":9710,"ĠsmÃ¶r":9711,"Ver":9712,"ani":9713,"80":9714,"Ġnytta":9715,"Ġwow":9716,"Ġlear":9717,"Mary":9718,"Ġbone":9719,"ĠbrÃ¶llopet":9720,"ĠvÃ¤xa":9721,"Ġlower":9722,"Shall":9723,"ĠRing":9724,"Ġpure":9725,"ĠAR":9726,"ĠChloe":9727,"Ġfamiljer":9728,"Ġnegoti":9729,"Ġreturned":9730,"Fyra":9731,"Ġsolid":9732,"gÃ¤ng":9733,"lom":9734,"ĠRoman":9735,"Ġsiff":9736,"Ġhorses":9737,"ĠprÃ¤st":9738,"Ġslutat":9739,"ĠMajesty":9740,"Ġresan":9741,"endet":9742,"Ġuppenbar":9743,"ĠTHEY":9744,"Ġnurse":9745,"jobb":9746,"astrof":9747,"sman":9748,"Ġgosh":9749,"Ġhandlade":9750,"ĠbestÃ¤mde":9751,"ĠNÃ¥n":9752,"Ġattorney":9753,"ĠWatch":9754,"stav":9755,"Ġmistakes":9756,"Ġuppfost":9757,"Ġknowledge":9758,"istent":9759,"Ġalert":9760,"ĠMaster":9761,"ĠfÃ¶rslag":9762,"VÃ¤lkomna":9763,"Ġcommitted":9764,"Ġsink":9765,"ĠavslÃ¶ja":9766,"Ġcro":9767,"TO":9768,"Ġmeal":9769,"ĠmÃ¶rkret":9770,"UCK":9771,"Ġhamna":9772,"Stand":9773,"ware":9774,"Ġdamen":9775,"urer":9776,"Ġfinan":9777,"ĠvÃ¤ska":9778,"Ġdevice":9779,"Ġsword":9780,"rin":9781,"Ġkastar":9782,"igan":9783,"Ġproced":9784,"isher":9785,"Ter":9786,"Ġpopular":9787,"agar":9788,"Trots":9789,"ĠfÃ¶retaget":9790,"Fram":9791,"Ġadopt":9792,"clock":9793,"iac":9794,"Def":9795,"IVE":9796,"Ġconfirm":9797,"Ġedge":9798,"juka":9799,"Ġtool":9800,"Ġmort":9801,"ĠMarie":9802,"Ġblew":9803,"owns":9804,"ĠGordon":9805,"Ġuppgift":9806,"Ġadvantage":9807,"Ġfrihet":9808,"Ġbio":9809,"Ġtriv":9810,"ĠChar":9811,"reek":9812,"Ġsamtalet":9813,"Ġfantastic":9814,"Ġsvaret":9815,"ĠJackie":9816,"ĠÃ¶verlever":9817,"Ġhindra":9818,"Ġinl":9819,"ĠstÃ¤nger":9820,"THER":9821,"ĠfÃ¶rd":9822,"ĠSÃ¤tt":9823,"ĠSHE":9824,"nold":9825,"Ġdamm":9826,"Ġperman":9827,"Ġtve":9828,"Ġparad":9829,"Ġvacation":9830,"Ġsnut":9831,"Ã¤nkte":9832,"Ġbudget":9833,"ĠbegÃ¥":9834,"Ġresid":9835,"Ġflash":9836,"ĠSpanish":9837,"ssy":9838,"Dear":9839,"komst":9840,"Ã¶ter":9841,"NE":9842,"25":9843,"fet":9844,"Ġsigns":9845,"ĠÃ¶ppet":9846,"Ġmissar":9847,"Ġshr":9848,"Ġhated":9849,"girl":9850,"ĠGil":9851,"Ġrecover":9852,"Ġmountain":9853,"Problem":9854,"Ġsyns":9855,"Tyst":9856,"ĠbrÃ¥ttom":9857,"Ġhittades":9858,"ĠskrÃ¤mmer":9859,"Ġrepl":9860,"ĠTvÃ¥":9861,"ĠOfficer":9862,"Especially":9863,"Ġchain":9864,"ĠClar":9865,"Ġtraged":9866,"Ġkyckling":9867,"ĠIng":9868,"steg":9869,"Ġsucks":9870,"Ġalibi":9871,"StÃ¤ng":9872,"ĠMond":9873,"usten":9874,"ĠLind":9875,"mers":9876,"ĠSant":9877,"ĠgrÃ¤l":9878,"Ġdubbel":9879,"Ġphotograph":9880,"Yep":9881,"Ġmik":9882,"Ġanti":9883,"strar":9884,"ĠYep":9885,"ĠJav":9886,"Ġdemand":9887,"Ġbygger":9888,"thet":9889,"ĠDavis":9890,"Ell":9891,"varligt":9892,"Ã¤ste":9893,"ucker":9894,"splatsen":9895,"rare":9896,"Ġotherwise":9897,"Ġgain":9898,"Ġtatt":9899,"HÃ¤lsa":9900,"ĠsÃ¶kte":9901,"arson":9902,"Ġlaid":9903,"Ã¤klar":9904,"Ġlonely":9905,"lik":9906,"Ġomedelbart":9907,"Ġlicense":9908,"Ġvehicle":9909,"Ġbehavior":9910,"Ġov":9911,"Ġsvin":9912,"Ġherre":9913,"ĠNaz":9914,"Ġfixed":9915,"ami":9916,"Ġsociety":9917,"Ġretur":9918,"annel":9919,"Ãħk":9920,"tande":9921,"marna":9922,"Sit":9923,"folk":9924,"Ġkameran":9925,"ĠPeople":9926,"Ġkilometer":9927,"ĠKommer":9928,"Â´":9929,"Ġmusk":9930,"ĠmilitÃ¤r":9931,"Ġfruktans":9932,"Ġscratch":9933,"ĠRad":9934,"attack":9935,"Ġkastade":9936,"star":9937,"Ġrepa":9938,"Ġknulla":9939,"Ġstood":9940,"ĠLong":9941,"ĠDem":9942,"Ġcustody":9943,"Ġkilo":9944,"Ġcampaign":9945,"ĠBO":9946,"baka":9947,"Ġadvis":9948,"Ġbandet":9949,"Ġgall":9950,"Ã¶rren":9951,"Ġledde":9952,"ĠBre":9953,"Ġentr":9954,"Ġsaknas":9955,"Ġtycka":9956,"iende":9957,"ĠsÃ¤kerhets":9958,"oyd":9959,"Ġdistract":9960,"Skjut":9961,"Ġbegg":9962,"ĠMatthew":9963,"snitt":9964,"Ġinbjud":9965,"Ã¤nka":9966,"Ġassistent":9967,"Ġtalang":9968,"Ġconvinced":9969,"ĠTHINK":9970,"Ġreplace":9971,"Phil":9972,"BER":9973,"Ġsade":9974,"isf":9975,"ĠIm":9976,"ĠAss":9977,"snack":9978,"Ġhandled":9979,"Ġcircumst":9980,"Ġtongue":9981,"100":9982,"Ġcris":9983,"Ġbags":9984,"Ġlikadant":9985,"ĠÃ¥sikt":9986,"Ġfunka":9987,"Ġolag":9988,"Ġhunting":9989,"Ġkna":9990,"Ġkring":9991,"Ġannanstans":9992,"LÃ¥ter":9993,"Girl":9994,"Ġacceptera":9995,"ĠSyd":9996,"ĠÃ¶ppnade":9997,"ĠrÃ¤dsla":9998,"ĠJasÃ¥":9999,"Ġtalent":10000,"Ġfiender":10001,"Ġburning":10002,"ĠfÃ¶rstÃ¥tt":10003,"Ġhemlig":10004,"Ġparking":10005,"Ã¶jtnant":10006,"uns":10007,"Ġpriset":10008,"ĠHIM":10009,"Ġvaknade":10010,"Ġgrabbar":10011,"Ġskratta":10012,"ĠDonna":10013,"ĠvÃ¤rdel":10014,"Ġnyckel":10015,"Ġnorr":10016,"agan":10017,"rymm":10018,"Ġgrade":10019,"Trust":10020,"oop":10021,"edde":10022,"Ġfate":10023,"Ġfet":10024,"sem":10025,"Ġregister":10026,"ĠTyler":10027,"ringen":10028,"Ġtrapped":10029,"ĠHelp":10030,"Medan":10031,"fortunately":10032,"Ġhelps":10033,"Ġtechnology":10034,"Ġsurround":10035,"Ġtests":10036,"ĠWilliams":10037,"Ġelimin":10038,"ĠONE":10039,"Ġyounger":10040,"Ġconnect":10041,"Ġgradu":10042,"ĠParker":10043,"Ġcure":10044,"ppy":10045,"Ġreck":10046,"ĠkÃ¤ns":10047,"Ġshopping":10048,"ript":10049,"ĠÃ¥tervÃ¤nder":10050,"ĠInternet":10051,"Although":10052,"Ġstatus":10053,"Ġrevenge":10054,"ĠfÃ¶restÃ¤lla":10055,"Ġkrit":10056,"Ġ400":10057,"ĠhumÃ¶r":10058,"ĠSlÃ¤pp":10059,"MÃ¥r":10060,"Ġhet":10061,"Ġsisters":10062,"Ġaudience":10063,"bÃ¥t":10064,"ffs":10065,"ĠRand":10066,"rina":10067,"Ġclients":10068,"Ġappears":10069,"Ġappointment":10070,"Ġfrys":10071,"ache":10072,"Ġdirectly":10073,"ĠÃ¥klag":10074,"ĠGrant":10075,"Ġvictor":10076,"ĠvÃ¤nskap":10077,"Ġdust":10078,"Ġfyr":10079,"Ġinformer":10080,"ĠBow":10081,"bage":10082,"Ġ201":10083,"ĠVilket":10084,"Ġinternet":10085,"Ġpaket":10086,"ĠCO":10087,"ĠPR":10088,"laus":10089,"Cor":10090,"dest":10091,"ĠvÃ¤skan":10092,"bast":10093,"Off":10094,"ĠLinda":10095,"INE":10096,"Ġreports":10097,"Ġting":10098,"Ġsjunger":10099,"Ġglasses":10100,"ĠRes":10101,"osex":10102,"Ġsann":10103,"aming":10104,"Ġeduc":10105,"ĠÃ¤vent":10106,"Ġerfarenhet":10107,"cise":10108,"Ġvett":10109,"Ġflag":10110,"ĠMill":10111,"Ġmiddagen":10112,"agram":10113,"Ġlib":10114,"Ġindeed":10115,"ĠKr":10116,"BE":10117,"Ġcounter":10118,"alph":10119,"ĠSav":10120,"fore":10121,"ĠhjÃ¤rn":10122,"omy":10123,"oli":10124,"Hund":10125,"Ġcurious":10126,"utch":10127,"Ġtrag":10128,"ĠTeddy":10129,"Anyone":10130,"chan":10131,"Ġfallen":10132,"Holy":10133,"ders":10134,"Ġtvingade":10135,"Mel":10136,"Ġstealing":10137,"»¿":10138,"ï»¿":10139,"asey":10140,"ĠhÃ¶ga":10141,"Ġdeter":10142,"Henry":10143,"Ã¤nningen":10144,"Ġaccompl":10145,"Sarah":10146,"Ã¥telse":10147,"Ġwhom":10148,"ĠsÃ¤nd":10149,"rict":10150,"Ġlurade":10151,"Ġsny":10152,"General":10153,"WHAT":10154,"Ġbail":10155,"Ġputs":10156,"ĠmÃ¤nnen":10157,"Ġalkohol":10158,"Ġfulla":10159,"Ġstake":10160,"ivitet":10161,"ĠÂ":10162,"otion":10163,"mun":10164,"ĠLi":10165,"Ġreag":10166,"SkÃ¥l":10167,"Ġradi":10168,"Ġbyggde":10169,"Ġenemies":10170,"ĠfÃ¥ngar":10171,"ĠHarvey":10172,"Ġbot":10173,"Ġjoint":10174,"Ġhumor":10175,"Ġpolitical":10176,"ĠfÃ¶rmodligen":10177,"Ġconsidered":10178,"Ġbutton":10179,"vat":10180,"Ġupps":10181,"Ġdetaljer":10182,"rikes":10183,"Ġgala":10184,"Ġbesky":10185,"Ġpaj":10186,"Ġprint":10187,"Ġaccording":10188,"opher":10189,"ĠAw":10190,"fÃ¶rt":10191,"pton":10192,"Ġbelongs":10193,"ĠavgÃ¶r":10194,"ency":10195,"ĠAc":10196,"Ġuniversum":10197,"ookie":10198,"Ġprivile":10199,"Ġprepare":10200,"Ġfyller":10201,"splats":10202,"Ġannoy":10203,"Ġbussen":10204,"Ġdisease":10205,"dra":10206,"ĠfÃ¶rvÃ¥nad":10207,"Ġcheap":10208,"Ġleads":10209,"ĠanvÃ¤nt":10210,"Forget":10211,"Fru":10212,"Mother":10213,"Ġbom":10214,"river":10215,"Harry":10216,"Ġreleased":10217,"atorn":10218,"ĠRh":10219,"Ġspecific":10220,"ĠTan":10221,"Ġjournalist":10222,"Ġmessed":10223,"ĠCounty":10224,"ĠBetty":10225,"esar":10226,"Ġhundar":10227,"ĠsprÃ¤ng":10228,"Ġifred":10229,"Ġanger":10230,"Ġotrolig":10231,"giving":10232,"MAN":10233,"Ġlegit":10234,"ĠnÃ¤tet":10235,"ishop":10236,"ĠPrecis":10237,"Ġchampion":10238,"Van":10239,"Ġpoet":10240,"Ġdesperate":10241,"SP":10242,"Ġinstall":10243,"However":10244,"Ġbotten":10245,"ober":10246,"Ġwinning":10247,"Ny":10248,"Ġ28":10249,"ntligen":10250,"Ġpushed":10251,"Ġzero":10252,"ĠmjÃ¶lk":10253,"wa":10254,"Ġil":10255,"Ġbillion":10256,"Ġbanan":10257,"ĠTodd":10258,"jej":10259,"Ġtele":10260,"arge":10261,"Ġgrave":10262,"fik":10263,"zzy":10264,"Ġbecoming":10265,"Hang":10266,"orgeous":10267,"vice":10268,"ĠaffÃ¤ren":10269,"Ġgoodness":10270,"ĠCalifornia":10271,"Ġsystemet":10272,"ĠhÃ¶gsta":10273,"Ġcompan":10274,"Ġmostly":10275,"ĠfÃ¶reslÃ¥r":10276,"Ġrykte":10277,"Ġtouched":10278,"Ġhemliga":10279,"Ġaunt":10280,"Ġskv":10281,"jul":10282,"ĠOver":10283,"ĠOscar":10284,"ĠTina":10285,"ogg":10286,"Ġcarrying":10287,"ĠskitstÃ¶vel":10288,"Ġorkar":10289,"kul":10290,"api":10291,"Ġspending":10292,"Ġscore":10293,"Ġplanerat":10294,"Ġenkel":10295,"ĠÃ¥ratal":10296,"Ġmetal":10297,"Ġnav":10298,"Ġdelicious":10299,"varo":10300,"Ġdetsamma":10301,"Ġblom":10302,"Ġsop":10303,"ĠFour":10304,"Ġscreaming":10305,"Ġmurderer":10306,"ĠfÃ¥gel":10307,"ĠTIM":10308,"fekt":10309,"Ġsteps":10310,"Ġvittnes":10311,"huvud":10312,"Ġtreated":10313,"ĠsÃ¶mn":10314,"Ġtycks":10315,"asch":10316,"ĠSecret":10317,"ONNA":10318,"ĠklÃ¤":10319,"Kill":10320,"ttag":10321,"Ġpriest":10322,"Ġpub":10323,"Andra":10324,"Ġpolicy":10325,"Ġfederal":10326,"elserna":10327,"Ġsneak":10328,"Ġfright":10329,"Ġtraffic":10330,"Mart":10331,"Ġkines":10332,"iev":10333,"gav":10334,"har":10335,"ĠrÃ¥kar":10336,"drag":10337,"Ġtak":10338,"geon":10339,"Ġ48":10340,"Bor":10341,"Ġbasement":10342,"BÃ¶rja":10343,"sequ":10344,"ĠfÃ¶tt":10345,"Same":10346,"car":10347,"ĠEve":10348,"rier":10349,"MA":10350,"ĠUN":10351,"Ġmagaz":10352,"Stan":10353,"Ġmirror":10354,"Ġdece":10355,"iote":10356,"Ġped":10357,"Ġunderstood":10358,"Ġvampyr":10359,"ĠRoad":10360,"TE":10361,"uellt":10362,"Ġmagen":10363,"force":10364,"Ġsmells":10365,"Ġavs":10366,"Ġherrn":10367,"Ġnut":10368,"Ġcos":10369,"elson":10370,"Ġslav":10371,"Ġbadly":10372,"Int":10373,"pector":10374,"viron":10375,"ĠKent":10376,"ammed":10377,"ĠtÃ¥get":10378,"ĠAmanda":10379,"Ġspare":10380,"Tim":10381,"ĠKrist":10382,"Ġwire":10383,"Ugh":10384,"Ġ26":10385,"ĠâĢĲ":10386,"Ġswing":10387,"Ġgamle":10388,"ĠPolice":10389,"Ġbrown":10390,"ĠfÃ¶rstÃ¤r":10391,"Cla":10392,"Ġwhenever":10393,"Ġbroder":10394,"Ġbound":10395,"Ġshake":10396,"ĠJulie":10397,"Ġtids":10398,"ĠAp":10399,"Des":10400,"Ġmath":10401,"alls":10402,"ĠjÃ¤r":10403,"ivan":10404,"ĠklÃ¤nning":10405,"Ġplays":10406,"Ġsmakar":10407,"Ġsuccessful":10408,"Ġexchange":10409,"Ġrare":10410,"Ġcigarette":10411,"ĠsÃ¥dant":10412,"Ġbecomes":10413,"vapen":10414,"stat":10415,"ĠStone":10416,"ĠfÃ¶rsvara":10417,"ĠLake":10418,"levant":10419,"Trodde":10420,"Ġhann":10421,"Ġtusan":10422,"Ġtjejerna":10423,"Oavsett":10424,"ĠNight":10425,"ĠstjÃ¤rn":10426,"Ġgrant":10427,"aku":10428,"Ġvolun":10429,"pre":10430,"Ġfootage":10431,"Work":10432,"Ġmissa":10433,"ĠYo":10434,"Ġterm":10435,"ĠCourt":10436,"Ġregeringen":10437,"ĠAmericans":10438,"allow":10439,"ĠmÃ¥naden":10440,"ĠShould":10441,"Ġreakt":10442,"Kont":10443,"500":10444,"Snyggt":10445,"SA":10446,"Ġsamt":10447,"ĠRuth":10448,"Ġcomplain":10449,"Ġcooking":10450,"shot":10451,"Ġlyckats":10452,"Ġnetwork":10453,"Ġbarns":10454,"Ġlade":10455,"Ġwanting":10456,"ĠNancy":10457,"ĠbÃ¶g":10458,"Ġsjuka":10459,"ĠAngela":10460,"ods":10461,"Stack":10462,"ĠfÃ¶rsk":10463,"Ġtoaletten":10464,"Ġexplosion":10465,"Ġbyter":10466,"Ġprotest":10467,"Ġsweat":10468,"colm":10469,"Ġgodis":10470,"Jess":10471,"Ġbump":10472,"ipment":10473,"ĠefterÃ¥t":10474,"Had":10475,"fel":10476,"Ġbones":10477,"Ingent":10478,"Ġborder":10479,"ĠViet":10480,"Ġtermin":10481,"bi":10482,"ĠEX":10483,"THAT":10484,"oret":10485,"ĠOlivia":10486,"Ġsmoking":10487,"Ġcleaning":10488,"Ingenting":10489,"alien":10490,"Ġbekant":10491,"Hurry":10492,"Ġaffair":10493,"ĠvÃ¤nder":10494,"stolen":10495,"Ġpurs":10496,"Ġspo":10497,"Ã¥st":10498,"ĠrÃ¤ddar":10499,"Ġvans":10500,"Ġvink":10501,"Ġicke":10502,"Ġna":10503,"ĠGrey":10504,"Ġrobber":10505,"ĠstÃ¤da":10506,"rapp":10507,"ĠCharlotte":10508,"Ġsikt":10509,"Ġdistance":10510,"Ġfrig":10511,"anschen":10512,"Ġstoppar":10513,"ĠGONNA":10514,"Ġnyfiken":10515,"Ġstandard":10516,"agged":10517,"eks":10518,"film":10519,"Ġroute":10520,"Ġmedborg":10521,"Ġtjock":10522,"ĠSteven":10523,"Ġawake":10524,"Ġheroin":10525,"Ġbegr":10526,"Mc":10527,"uman":10528,"Ġgissa":10529,"ĠMommy":10530,"Full":10531,"Ġwaited":10532,"ĠarmÃ©n":10533,"Ġseger":10534,"ĠflÃ¶g":10535,"Ġhemligt":10536,"Ġrekl":10537,"Ġtied":10538,"Ġtent":10539,"rock":10540,"Ġhalva":10541,"iral":10542,"ĠSophie":10543,"Ġekonom":10544,"bass":10545,"isky":10546,"bygg":10547,"Ġmyst":10548,"Ġconfer":10549,"Ġstarkt":10550,"Ġeffort":10551,"tav":10552,"iste":10553,"Ġrand":10554,"Ġuttal":10555,"rael":10556,"Jeff":10557,"Ġskallen":10558,"ANK":10559,"Skriv":10560,"Ġplaneten":10561,"amas":10562,"Ġsomm":10563,"ques":10564,"Sher":10565,"ĠAfter":10566,"Ġrestaurang":10567,"Ġkyl":10568,"ĠTeam":10569,"Tomorrow":10570,"skarna":10571,"Ġsquare":10572,"MÃ¤nnisk":10573,"Ġspoken":10574,"Ġviktigare":10575,"Ġign":10576,"Ġfoto":10577,"Ġinj":10578,"Ġflask":10579,"xorna":10580,"Ġchap":10581,"Ġles":10582,"reds":10583,"fisk":10584,"itti":10585,"Ġplock":10586,"Ġsistone":10587,"ĠsÃ¶ta":10588,"ĠDamn":10589,"LÃ¤get":10590,"Ġfas":10591,"Ġinuti":10592,"xter":10593,"Ġpushing":10594,"Ġbollen":10595,"Ã¤md":10596,"kommend":10597,"Ġperforman":10598,"Ġstyra":10599,"Ġmayor":10600,"TS":10601,"Ġfloden":10602,"pencer":10603,"Ġmultip":10604,"ĠDef":10605,"Ġsjukt":10606,"Kat":10607,"ĠMeg":10608,"Herre":10609,"Ġsympt":10610,"Ġstabil":10611,"Ġconstant":10612,"Ġmoments":10613,"Honestly":10614,"erob":10615,"ĠOff":10616,"ffin":10617,"Ġsacrifice":10618,"Plan":10619,"Ġleks":10620,"ĠJesse":10621,"klare":10622,"Ten":10623,"According":10624,"ĠJessica":10625,"ĠnÃ¶dvÃ¤ndigt":10626,"Ġfavour":10627,"Ġvunnit":10628,"Ġguards":10629,"hib":10630,"Ġgat":10631,"Ġregard":10632,"ĠHard":10633,"ials":10634,"ningsk":10635,"ĠÃ¤ndrar":10636,"Ġbibl":10637,"fit":10638,"ĠSv":10639,"Ġnotes":10640,"ĠÃ¤rligt":10641,"Ger":10642,"Ġavbry":10643,"Javisst":10644,"ĠsprÃ¥k":10645,"Ġsatisf":10646,"Ã¥pet":10647,"Ġagents":10648,"lers":10649,"Ġavskyr":10650,"Ġshoulder":10651,"ĠDennis":10652,"Ġskrattar":10653,"Tony":10654,"Ġmitten":10655,"Ġsentence":10656,"ĠMichelle":10657,"Ġberg":10658,"Ġfoster":10659,"Ġpor":10660,"Ġdrama":10661,"Ever":10662,"Ġwinner":10663,"Ġnaken":10664,"Ġwhore":10665,"ĠMonday":10666,"Ġinner":10667,"Ġequipment":10668,"Ġplayers":10669,"ĠjÃ¤ttef":10670,"Ġlake":10671,"Ġark":10672,"nity":10673,"rym":10674,"Ġcandy":10675,"vironment":10676,"ĠHarris":10677,"Ġbyggnad":10678,"ĠSheriff":10679,"Ġtrou":10680,"Ġsetting":10681,"Ġpip":10682,"hm":10683,"Ã¥gas":10684,"Ġrooms":10685,"Ġfinans":10686,"Ġhire":10687,"ĠEli":10688,"otic":10689,"Ġpee":10690,"Ġgrandfather":10691,"oked":10692,"Ġforces":10693,"Ġeast":10694,"Ġdecisions":10695,"Both":10696,"Ġsergeant":10697,"ups":10698,"ĠOnly":10699,"Ġfiende":10700,"Ġadvent":10701,"Ġserved":10702,"Ġsor":10703,"lie":10704,"Ġprotecting":10705,"Ġintelligence":10706,"ĠSA":10707,"ĠfÃ¶rlÃ¥ta":10708,"ĠrÃ¤knar":10709,"Ġcloset":10710,"ggie":10711,"Ġpussy":10712,"ĠLas":10713,"ĠmÃ¶rkt":10714,"nummer":10715,"Ġpink":10716,"ĠrÃ¤ttvisa":10717,"Ġsolution":10718,"ĠSab":10719,"oma":10720,"Ġstairs":10721,"ablish":10722,"ĠlÃ¥gt":10723,"Ġprovide":10724,"Ġyngre":10725,"Ġdirt":10726,"arma":10727,"ĠhÃ¥llet":10728,"ĠAmerika":10729,"ĠslÃ¤":10730,"endy":10731,"ĠsÃ¤s":10732,"Hal":10733,"amman":10734,"ippa":10735,"Ġhelg":10736,"ĠBerÃ¤tta":10737,"Ġclown":10738,"Ġheder":10739,"ĠfÃ¶rvar":10740,"ĠfÃ¶rbjud":10741,"ĠrÃ¥kade":10742,"Ġuppre":10743,"Ġnewsp":10744,"Ġliar":10745,"Ġremains":10746,"Ġcouch":10747,"ĠNational":10748,"ĠIsn":10749,"Ġrim":10750,"ĠDerek":10751,"othy":10752,"Ġkatastrof":10753,"Ġcircumstances":10754,"Ġunus":10755,"Ġuppdraget":10756,"ĠlÃ¶rdag":10757,"Comm":10758,"ĠFive":10759,"Ã³n":10760,"ĠArmy":10761,"eringen":10762,"ĠCommander":10763,"ĠRey":10764,"Ã¸":10765,"Ġkomment":10766,"ĠbesÃ¶ka":10767,"Ġsimilar":10768,"Ġdun":10769,"known":10770,"Era":10771,"Ġrepeat":10772,"Daniel":10773,"ĠfÃ¶rvirrad":10774,"Ġskills":10775,"Ġfrid":10776,"aman":10777,"Ġatmos":10778,"Ġklubben":10779,"Ġstretch":10780,"Ġsuppl":10781,"Ele":10782,"opy":10783,"ĠOld":10784,"Ġgenet":10785,"uv":10786,"Ġrow":10787,"east":10788,"Ġpersonligt":10789,"Ġclever":10790,"ĠCarlos":10791,"made":10792,"ĠWy":10793,"Ġliber":10794,"Ġdemonstr":10795,"ugit":10796,"ĠmÃ¤rker":10797,"woman":10798,"ĠfÃ¶nster":10799,"iella":10800,"Ġjakt":10801,"Ġrekommend":10802,"Ġblommor":10803,"Ġarch":10804,"Ġjung":10805,"ĠavstÃ¥nd":10806,"ĠTry":10807,"Ġtempor":10808,"Ġanx":10809,"ĠNobody":10810,"Ġpresence":10811,"Ġcondu":10812,"fallet":10813,"Ã¤ls":10814,"ĠFrancisco":10815,"Ġreview":10816,"Richard":10817,"Ġadmin":10818,"Kalla":10819,"Ġparan":10820,"ĠAustral":10821,"Ġancient":10822,"Ġneur":10823,"Ġtwist":10824,"lyss":10825,"Ġaside":10826,"cos":10827,"Mat":10828,"onse":10829,"she":10830,"Ġchances":10831,"iance":10832,"Ġsel":10833,"Ġbug":10834,"Ã¤rer":10835,"Thought":10836,"Ġstro":10837,"Typ":10838,"ĠGU":10839,"Super":10840,"ĠEdward":10841,"ability":10842,"Ġgjord":10843,"Ġavund":10844,"Klart":10845,"ĠfÃ¶rstÃ¶rt":10846,"ĠfÃ¶rne":10847,"utation":10848,"Ġslump":10849,"stitute":10850,"HS":10851,"Either":10852,"Glad":10853,"foot":10854,"200":10855,"ĠfÃ¤lla":10856,"Ġbly":10857,"ĠWes":10858,"riget":10859,"Ġtjuv":10860,"Ġhandling":10861,"Ġmillions":10862,"Ġtherapy":10863,"Ġexcellent":10864,"Ġtrusted":10865,"Ġacqu":10866,"ĠIF":10867,"Adam":10868,"ĠmÃ¶ter":10869,"ĠbrÃ¥ka":10870,"ansk":10871,"ĠNoah":10872,"ĠMort":10873,"ĠMina":10874,"Ġsakerna":10875,"Ġlyssnade":10876,"Daddy":10877,"Ġink":10878,"Father":10879,"ĠBab":10880,"tee":10881,"ĠRebecca":10882,"Ġriding":10883,"Ġmaj":10884,"Ġbakgrund":10885,"utan":10886,"Ġsuffering":10887,"ĠskÃ¥p":10888,"ĠHoly":10889,"Ġrak":10890,"nast":10891,"ĠlÃ¤ngs":10892,"Ġhighly":10893,"Ġmystery":10894,"ĠIsa":10895,"Ġparties":10896,"Ġphones":10897,"ĠfÃ¶rol":10898,"ĠunderhÃ¥ll":10899,"Ġcorn":10900,"Ġbelow":10901,"Ġjudg":10902,"aver":10903,"Ġmiracle":10904,"Ġmart":10905,"ĠMO":10906,"uno":10907,"incoln":10908,"bjÃ¶d":10909,"Ġstilla":10910,"Being":10911,"Ġnick":10912,"Akta":10913,"ĠgÃ¤ster":10914,"Ġvilse":10915,"Ġleker":10916,"ĠPL":10917,"resse":10918,"ickan":10919,"slaget":10920,"uckit":10921,"ĠlÃ¶st":10922,"Ġfreaking":10923,"reck":10924,"Ġmars":10925,"Ġledigt":10926,"troligt":10927,"ocks":10928,"Ġfortune":10929,"Ġmel":10930,"Ġovanligt":10931,"ĠHy":10932,"SS":10933,"Anna":10934,"Flytta":10935,"Ġtend":10936,"Ġveget":10937,"ANG":10938,"Ġtear":10939,"Ġinstit":10940,"bÃ¶rj":10941,"Ġarmed":10942,"Ġuppfatt":10943,"Ġanonym":10944,"iding":10945,"Ġtvinga":10946,"Ġremove":10947,"FÃ¶rsÃ¶ker":10948,"ĠsjÃ¤lvklart":10949,"ĠMitt":10950,"Ġmobilen":10951,"Ġskriker":10952,"Ġprogrammet":10953,"Chris":10954,"Ġtusentals":10955,"OUND":10956,"Ġcart":10957,"osite":10958,"ĠBR":10959,"Ġability":10960,"slut":10961,"Ġjew":10962,"Ġdetalj":10963,"ĠKarl":10964,"arily":10965,"Ġnegat":10966,"odge":10967,"Ġtidningen":10968,"Ã¥la":10969,"Ra":10970,"Ġmaskin":10971,"ĠPo":10972,"Ġtrauma":10973,"Ġconference":10974,"Ġsongs":10975,"ĠWhit":10976,"ĠfÃ¶rvÃ¤ntar":10977,"**":10978,"ĠstÃ¶ra":10979,"Ġregel":10980,"ls":10981,"rester":10982,"Ġgrandmother":10983,"Ġtomt":10984,"ĠnÃ¶je":10985,"boken":10986,"Ġdisgusting":10987,"ockey":10988,"Ġporn":10989,"Ġblast":10990,"ropriate":10991,"struction":10992,"Ġserie":10993,"ĠWhatever":10994,"Ġfej":10995,"Ġskam":10996,"while":10997,"ĠupptÃ¤ckte":10998,"USE":10999,"ĠMore":11000,"ĠsvÃ¥rare":11001,"Ġlearning":11002,"eday":11003,"berry":11004,"Ġbrottsl":11005,"annon":11006,"hopp":11007,"orer":11008,"rater":11009,"Ġsamla":11010,"tra":11011,"alet":11012,"Ġwinter":11013,"Ġshel":11014,"Ġflaska":11015,"Mo":11016,"ĠhjÃ¤lpt":11017,"Ġelak":11018,"ĠsÃ¶ndag":11019,"ĠÃ¤ventyr":11020,"Ġestate":11021,"ĠBailey":11022,"water":11023,"Ġfriendship":11024,"Ġminds":11025,"ĠmÃ¶rka":11026,"Lord":11027,"skÃ¤r":11028,"Ġskrek":11029,"arks":11030,"Ġkinds":11031,"ĠlÃ¶sning":11032,"Fel":11033,"Ġloser":11034,"Steve":11035,"ynam":11036,"Ġtast":11037,"odes":11038,"Ġhelik":11039,"ĠTem":11040,"Ġbirds":11041,"Ġexer":11042,"Ġcoinc":11043,"Sw":11044,"ĠCentral":11045,"ĠÃ":11046,"Ġoptions":11047,"Kevin":11048,"Ġdansar":11049,"ĠLes":11050,"Ġkollat":11051,"stÃ¥ende":11052,"indy":11053,"Ġplanerar":11054,"Ġintens":11055,"ĠmÃ¶rda":11056,"ĠskÃ¤ra":11057,"Unfortunately":11058,"Ready":11059,"Ġhouses":11060,"ĠfÃ¶rfatt":11061,"Ġseparate":11062,"ĠgrÃ¥ter":11063,"ĠlÃ¥dan":11064,"ĠmÃ¤rkligt":11065,"ĠAven":11066,"ĠNate":11067,"Ġfredag":11068,"Ġcomfort":11069,"iah":11070,"auff":11071,"Ġ196":11072,"Ġlau":11073,"Ġtalks":11074,"Ġcourage":11075,"ĠrÃ¶k":11076,"ĠKay":11077,"Ġven":11078,"ĠChurch":11079,"Ġintelligent":11080,"Ġlt":11081,"Ġfylla":11082,"rich":11083,"ÃĦnnu":11084,"Ġanstr":11085,"pite":11086,"ĠÃ¶d":11087,"Ġbehov":11088,"Ġzone":11089,"Ġminim":11090,"Ġsales":11091,"Ġhundreds":11092,"Toppen":11093,"Ġships":11094,"Ġskar":11095,"Ġavst":11096,"Ġroliga":11097,"Ġdiplom":11098,"aters":11099,"Ġgorgeous":11100,"ĠCOM":11101,"Ġspons":11102,"Ġspelare":11103,"Ã¶ljer":11104,"Ġbesatt":11105,"Ġrange":11106,"ĠkonstnÃ¤r":11107,"Ġguide":11108,"Ġhates":11109,"SÃ¤kert":11110,"laine":11111,"Ġbanken":11112,"Ġcurrent":11113,"Mannen":11114,"Ġletat":11115,"Ġdarkness":11116,"Ġtoler":11117,"avin":11118,"gor":11119,"Ġhurting":11120,"part":11121,"ĠrejÃ¤l":11122,"Ã¤kare":11123,"Ġhits":11124,"Ġfotograf":11125,"punkt":11126,"Ġjunk":11127,"Ġsale":11128,"ĠursÃ¤kta":11129,"Ġdeli":11130,"ĠFrankie":11131,"ĠLor":11132,"ĠANY":11133,"ĠorÃ¤tt":11134,"ĠundersÃ¶ka":11135,"Ġsurface":11136,"Ġyellow":11137,"Jord":11138,"with":11139,"Ġevents":11140,"Ġpiano":11141,"Ġload":11142,"Ġnightmare":11143,"ĠCir":11144,"uled":11145,"Ġannounce":11146,"ĠtrÃ¤na":11147,"Ġconcl":11148,"Ġliqu":11149,"ĠFrankrike":11150,"Bre":11151,"Ġshout":11152,"still":11153,"Ġbegravning":11154,"Ġperformance":11155,"agent":11156,"ĠdÃ¶m":11157,"clear":11158,"ĠHalloween":11159,"edda":11160,"Ġentirely":11161,"essan":11162,"Ġvuxna":11163,"Ġsaknade":11164,"ĠArm":11165,"Ġskrika":11166,"ĠPan":11167,"Ġabandoned":11168,"Ġintim":11169,"Ġrise":11170,"Ġregn":11171,"glar":11172,"unts":11173,"Ġtelevision":11174,"ĠTrump":11175,"icing":11176,"Ġinkl":11177,"ĠBad":11178,"Person":11179,"Ġcounsel":11180,"Ġenvironment":11181,"Ġtatu":11182,"DÃ¶da":11183,"bin":11184,"Ġdecent":11185,"Ġcircle":11186,"ĠCON":11187,"hew":11188,"Ġinstrum":11189,"ĠLang":11190,"President":11191,"ĠlÃ¤genheten":11192,"vatten":11193,"irurg":11194,"Ġskap":11195,"ologist":11196,"Ġpy":11197,"Ġgisslan":11198,"Ken":11199,"TT":11200,"ĠOwen":11201,"Jimmy":11202,"ĠLand":11203,"ĠHappy":11204,"Ted":11205,"ĠskrÃ¤mde":11206,"Livet":11207,"Tjej":11208,"acker":11209,"Ġroy":11210,"Ġsoup":11211,"Ġded":11212,"ĠskrÃ¤mma":11213,"Ġbaseball":11214,"Ġerbjuda":11215,"vard":11216,"Ġkron":11217,"Ġskadar":11218,"Ġbeast":11219,"ĠangÃ¥ende":11220,"ĠmÃ¤rke":11221,"ĠHIS":11222,"jas":11223,"Ġgrat":11224,"Ġinit":11225,"Ġpassing":11226,"ĠTro":11227,"eels":11228,"Ġcutting":11229,"Ass":11230,"Bort":11231,"Ġfingeravtryck":11232,"riter":11233,"ĠSally":11234,"ĠDR":11235,"ĠCool":11236,"Synd":11237,"Ġsysslar":11238,"gypt":11239,"Jan":11240,"lings":11241,"Ġknees":11242,"Ġansvarig":11243,"Seems":11244,"Mag":11245,"Ġdiscip":11246,"Ġvolunte":11247,"ĠSwed":11248,"Ġrout":11249,"Sitt":11250,"ĠKeith":11251,"inter":11252,"Ġbens":11253,"Ã¥gor":11254,"Ġleading":11255,"Ġkommissar":11256,"ission":11257,"Ġambulance":11258,"Congratulations":11259,"Ġbroad":11260,"ĠJoy":11261,"ĠrÃ¶rde":11262,"Ġtrail":11263,"Ġkrossa":11264,"ĠVietnam":11265,"ĠgevÃ¤r":11266,"ATE":11267,"Ġsides":11268,"arbete":11269,"vÃ¤tt":11270,"Ġmodell":11271,"ĠfÃ¶rÃ¤lsk":11272,"Ġwide":11273,"Ġdiamond":11274,"Ġclue":11275,"Ġ32":11276,"Ġrens":11277,"Ġfalse":11278,"Ġpermanent":11279,"ĠbevÃ¤p":11280,"skl":11281,"Antingen":11282,"dar":11283,"Ġverkliga":11284,"Ġskitsnack":11285,"Ġmotorcy":11286,"Ġsvett":11287,"Ġutredningen":11288,"Ã¤nns":11289,"Ġentertain":11290,"ÃĦN":11291,"ĠHope":11292,"Ġhiss":11293,"oto":11294,"Ġblodet":11295,"gree":11296,"Ġkys":11297,"ĠNOW":11298,"ĠallmÃ¤n":11299,"ĠPRO":11300,"ĠDiego":11301,"Ġprovid":11302,"Ġhustru":11303,"Ġlokal":11304,"ĠSix":11305,"Ġsurve":11306,"Ġalltihop":11307,"ĠGene":11308,"Ġskulden":11309,"Dis":11310,"ĠSid":11311,"Ġfruit":11312,"Ġbilderna":11313,"Ġrude":11314,"Ġdruckit":11315,"Bli":11316,"asm":11317,"Ġfailure":11318,"Eh":11319,"rell":11320,"Ain":11321,"ĠErs":11322,"ĠRussell":11323,"plet":11324,"wear":11325,"Ġescaped":11326,"ĠMargaret":11327,"tember":11328,"Ġsenior":11329,"uri":11330,"Ġlabor":11331,"Ġutredning":11332,"Ġtrace":11333,"unger":11334,"Ġslowly":11335,"ĠtvÃ¤tta":11336,"Ġfashion":11337,"icking":11338,"Ġsmooth":11339,"Ġknappast":11340,"''":11341,"ection":11342,"odka":11343,"alar":11344,"ĠUnivers":11345,"illance":11346,"Ġwest":11347,"Ġpanic":11348,"ĠutmÃ¤rkt":11349,"Ġbeter":11350,"Ġscan":11351,"Fil":11352,"ĠlÃ¥ngsamt":11353,"ÃĦrligt":11354,"Ġkroppar":11355,"Ġspott":11356,"ĠvÃ¤lkomna":11357,"MÃ¤n":11358,"inson":11359,"Ġelever":11360,"ĠComp":11361,"Ġutby":11362,"ĠerbjÃ¶d":11363,"Ġdeserves":11364,"ikerna":11365,"ĠÃ¶vervÃ¤g":11366,"Exactly":11367,"Ġmessages":11368,"sken":11369,"ÃĦntligen":11370,"Us":11371,"ĠBlake":11372,"Ġcloud":11373,"Helvete":11374,"osal":11375,"Ġtrained":11376,"Ġvittne":11377,"ĠsmÃ¤rt":11378,"ynn":11379,"End":11380,"BLE":11381,"Ġsoff":11382,"Ġrapport":11383,"ĠNina":11384,"Ġknocked":11385,"Ġmonitor":11386,"Ġkonf":11387,"Ġmotion":11388,"ĠfÃ¶rlov":11389,"Ġda":11390,"Ġkunder":11391,"Ġdebt":11392,"ĠPam":11393,"Ġlegat":11394,"Ġler":11395,"Ġbol":11396,"atory":11397,"ingo":11398,"ĠAf":11399,"ĠOw":11400,"mÃ¥n":11401,"Ġresour":11402,"ĠfÃ¶rhind":11403,"Kr":11404,"Ġbrains":11405,"ĠMcG":11406,"Ġbitti":11407,"Ġ150":11408,"Ġrack":11409,"Ġstackars":11410,"zon":11411,"una":11412,"ali":11413,"sighs":11414,"Ġduger":11415,"Ã¡n":11416,"Ġdocument":11417,"Ġmusiken":11418,"Ġdott":11419,"Ġidioter":11420,"Ġprincess":11421,"Ġkontakta":11422,"Ġseries":11423,"Ġloving":11424,"Poj":11425,"vÃ¤ll":11426,"Ġnigga":11427,"Ġvisat":11428,"coming":11429,"Ġboo":11430,"Ġkyssa":11431,"Ġastron":11432,"ĠMig":11433,"hi":11434,"ĠIan":11435,"arens":11436,"ĠbÃ¶n":11437,"Ġforeign":11438,"ĠLE":11439,"Ġpatienter":11440,"cience":11441,"Ġarmen":11442,"ĠAud":11443,"Black":11444,"Ġinspel":11445,"Ġskrivbord":11446,"Ġexecut":11447,"ĠDepartment":11448,"urser":11449,"FÃ¶rresten":11450,"Ġmisshand":11451,"load":11452,"ablo":11453,"bid":11454,"ĠFly":11455,"ĠsjÃ¶n":11456,"Ġunusual":11457,"Ġvand":11458,"Rick":11459,"Tonight":11460,"ĠgÃ¶mde":11461,"obs":11462,"Stra":11463,"Ġfarmor":11464,"unge":11465,"Ġcreature":11466,"Ãħter":11467,"Ans":11468,"nel":11469,"Ġattach":11470,"Ġsupply":11471,"ĠAnthony":11472,"ttit":11473,"power":11474,"Ġmynd":11475,"Ġsharp":11476,"ĠhÃ¤v":11477,"Ġuseful":11478,"ĠmissfÃ¶r":11479,"Hoppa":11480,"SÃ¥nt":11481,"ĠstjÃ¤rna":11482,"Ġknuff":11483,"ĠfarvÃ¤l":11484,"rÃ¤dd":11485,"StÃ¥":11486,"FÃ¶re":11487,"ĠShh":11488,"Ġideal":11489,"Ġunderstanding":11490,"Ġpackage":11491,"ĠsvÃ¤rd":11492,"ĠMarty":11493,"BÃ¥da":11494,"ĠBeach":11495,"iction":11496,"Ġfakta":11497,"Robert":11498,"BUT":11499,"Natur":11500,"Ġcraw":11501,"Gick":11502,"ĠCat":11503,"fton":11504,"tare":11505,"ĠgrÃ¤va":11506,"Ġwise":11507,"Ġleaders":11508,"ĠEverybody":11509,"Ġagreement":11510,"ĠSomeone":11511,"ĠbelÃ¶":11512,"ĠtrÃ¤dgÃ¥rd":11513,"ĠEva":11514,"Ġrubb":11515,"anny":11516,"ĠWHO":11517,"Ġledig":11518,"klÃ¤der":11519,"Bru":11520,"Ġveter":11521,"Ġvalet":11522,"ĠLock":11523,"90":11524,"Wal":11525,"Enough":11526,"Ġcooper":11527,"Ġrehab":11528,"Ġviolent":11529,"Ġoskuld":11530,"Ġestablish":11531,"Ġskugg":11532,"Ġsuttit":11533,"Ġoblig":11534,"Ġchosen":11535,"ĠVirginia":11536,"Ġfris":11537,"ĠglÃ¤dje":11538,"delning":11539,"Ġkollega":11540,"Ġspill":11541,"Ã¶nster":11542,"Ġexha":11543,"Ġbrinner":11544,"Easy":11545,"ĠFord":11546,"obby":11547,"SH":11548,"Ġdomin":11549,"irekt":11550,"ĠHas":11551,"Ġspelat":11552,"kommer":11553,"ĠAlbert":11554,"rive":11555,"Ġcentury":11556,"ĠJunior":11557,"Ġblink":11558,"ĠnÃ¤san":11559,"Ġstryk":11560,"Ġdrabb":11561,"Ġthreatened":11562,"bow":11563,"ĠFair":11564,"Ġnasty":11565,"Ġresultat":11566,"Ġmirakel":11567,"Ġplikt":11568,"Ġtider":11569,"Ġpressen":11570,"ĠEfter":11571,"Life":11572,"ĠCas":11573,"unden":11574,"bul":11575,"ĠChina":11576,"Ġstands":11577,"ĠDale":11578,"ĠfullstÃ¤nd":11579,"Ġune":11580,"Ġfriendly":11581,"ĠlÃ¶gner":11582,"ĠÃ¶verlevde":11583,"ĠCoun":11584,"wan":11585,"Ġdozen":11586,"ĠHotel":11587,"ĠGus":11588,"afÃ©":11589,"Ġuppgifter":11590,"Ġfuel":11591,"Ġerbjuder":11592,"Ġintresse":11593,"aya":11594,"ĠdÃ¶dad":11595,"ĠSaint":11596,"Ġreligion":11597,"Billy":11598,"ĠtillfÃ¤llet":11599,"Ġvess":11600,"Tio":11601,"Ġfeg":11602,"Goodbye":11603,"vag":11604,"Ġexplan":11605,"ĠsÃ¶der":11606,"Ġorigin":11607,"Ġinbrott":11608,"Ġtooth":11609,"Ġhip":11610,"Ġgrill":11611,"spir":11612,"Ġdagens":11613,"Ġattend":11614,"Ġstays":11615,"Ġslagit":11616,"ĠpÃ¥verk":11617,"Ġanlit":11618,"Ġteater":11619,"Ġvig":11620,"Ġlej":11621,"Ġengaged":11622,"Ġuniversitet":11623,"ĠEVER":11624,"ĠhÃ¶rnet":11625,"ĠHarold":11626,"Ġgrader":11627,"ications":11628,"Ġflesh":11629,"Ġfacts":11630,"Ġopposite":11631,"ĠDylan":11632,"Ġimpa":11633,"Ġendast":11634,"ĠEuropa":11635,"ĠJennifer":11636,"Ġsports":11637,"ammare":11638,"Ġsaknat":11639,"Ġsquad":11640,"18":11641,"Ġfriv":11642,"Ġfactory":11643,"kward":11644,"Ġsinne":11645,"Ġkarakt":11646,"Ġsurvived":11647,"chester":11648,"ifiera":11649,"Ġklok":11650,"Ġorden":11651,"Ġmagn":11652,"ĠMinister":11653,"Ġremembered":11654,"Ġpry":11655,"ĠRicky":11656,"entlemen":11657,"ĠValley":11658,"ĠZe":11659,"Ġmassive":11660,"Ġbenet":11661,"hest":11662,"Ġarbetet":11663,"Danny":11664,"ĠStew":11665,"ĠhÃ¶jd":11666,"ĠLight":11667,"ĠkÃ¤llaren":11668,"ĠLeave":11669,"udge":11670,"Ġsmaka":11671,"Ġreward":11672,"aries":11673,"AC":11674,"Ġvictory":11675,"Ġstaring":11676,"icles":11677,"Ġcabin":11678,"ĠFire":11679,"Ġkompisar":11680,"Ġconsequ":11681,"Doctor":11682,"bastian":11683,"rÃ¥gas":11684,"Ġneut":11685,"ĠfÃ¶rbÃ¤tt":11686,"Ġprisoner":11687,"Ġtub":11688,"Ġkla":11689,"ĠFÃ¶rs":11690,"Ġkonstiga":11691,"ĠstÃ¤llen":11692,"Ġdisturb":11693,"Ġhitting":11694,"vÃ¥n":11695,"Ġoccasion":11696,"cÃ©":11697,"Ġconfidence":11698,"inte":11699,"ĠElena":11700,"agine":11701,"Ġsocker":11702,"Pull":11703,"ĠhÃ¤n":11704,"ratals":11705,"Ġrandom":11706,"Dum":11707,"ĠTR":11708,"Ġchill":11709,"ĠskilsmÃ¤ss":11710,"agna":11711,"Ġtysta":11712,"Ġgammalt":11713,"Ġclosing":11714,"Ġpj":11715,"Ġtenn":11716,"ĠnÃ¥tt":11717,"Bea":11718,"ĠÃĦR":11719,"yers":11720,"antic":11721,"Ġchips":11722,"13":11723,"Might":11724,"ningsvis":11725,"Ġkrist":11726,"Ġende":11727,"ĠHug":11728,"ĠklÃ¤derna":11729,"edi":11730,"grupp":11731,"Ġberoende":11732,"naren":11733,"Bobby":11734,"post":11735,"ĠEnter":11736,"Ġfundera":11737,"Ġtox":11738,"Ġfalla":11739,"ĠVilka":11740,"ollar":11741,"ĠlÃ¤ngst":11742,"Ron":11743,"SÃ¤rskilt":11744,"loria":11745,"jÃ¤nst":11746,"ĠrÃ¥tt":11747,"rence":11748,"ĠNa":11749,"ĠhÃ¤mnas":11750,"Ġrelat":11751,"ĠdÃ¶ende":11752,"sf":11753,"zed":11754,"ĠIndian":11755,"ĠZoe":11756,"ĠTen":11757,"opat":11758,"ĠJune":11759,"Ġassass":11760,"Ġkunskap":11761,"ifth":11762,"Ġguarantee":11763,"Ġgeni":11764,"fish":11765,"Ġlapp":11766,"Ġlova":11767,"alking":11768,"Ġproperly":11769,"Ġsidor":11770,"ĠJapanese":11771,"Ã¤nkt":11772,"Ã¶gen":11773,"ĠLouise":11774,"athers":11775,"Ġfaktum":11776,"ĠGuy":11777,"bal":11778,"Ġbeating":11779,"Ġjoined":11780,"Ġlibrary":11781,"ĠBeh":11782,"ÃŃa":11783,"ĠAM":11784,"ĠThink":11785,"Ash":11786,"Ġyard":11787,"ĠKenny":11788,"Ġgross":11789,"otch":11790,"Ġreported":11791,"OUR":11792,"Fantast":11793,"Ġrymden":11794,"ĠFROM":11795,"allad":11796,"ĠsmÃ¤l":11797,"Ġinsult":11798,"Ġhora":11799,"Ġmisslyckas":11800,"Job":11801,"ĠKid":11802,"Ġtackar":11803,"ĠvÃ¤nnen":11804,"Mind":11805,"yard":11806,"Ġflott":11807,"Ġgripa":11808,"Ġkills":11809,"Ġgarbage":11810,"Ġlips":11811,"Ġdatab":11812,"ases":11813,"ĠfjÃ¤rde":11814,"Ã¤dda":11815,"Ã¶jer":11816,"ĠDark":11817,"Ġminor":11818,"Ġchip":11819,"Ġchasing":11820,"ĠValent":11821,"ĠhÃ¤ftigt":11822,"abet":11823,"Ġfarliga":11824,"looking":11825,"isterna":11826,"ĠUp":11827,"Ġarrive":11828,"amber":11829,"ĠkÃ¤rleken":11830,"Ġprevent":11831,"ĠPierce":11832,"pol":11833,"Ġbubb":11834,"Ġsearching":11835,"Ġmodig":11836,"iÃ¶st":11837,"Ġassure":11838,"ĠJeremy":11839,"Ġfunkade":11840,"ĠjÃ¤tteg":11841,"ĠomstÃ¤nd":11842,"Ġidentity":11843,"Ġjumped":11844,"ĠrÃ¶ka":11845,"Ġkomplicerat":11846,"uable":11847,"ĠLin":11848,"ivor":11849,"slagen":11850,"Ġtav":11851,"Ġlesb":11852,"ĠSing":11853,"believ":11854,"Ġrape":11855,"FÃ¶rsvinn":11856,"ĠItalian":11857,"Pa":11858,"cies":11859,"Ġrehe":11860,"Ġvice":11861,"osaur":11862,"ĠfrÃ¥gat":11863,"Ġbars":11864,"uesday":11865,"Ġqual":11866,"Ġskjuts":11867,"anj":11868,"standing":11869,"Ġslight":11870,"initely":11871,"ĠEllen":11872,"Ġholiday":11873,"ĠMurphy":11874,"Ġodds":11875,"\"-":11876,"ipper":11877,"ountains":11878,"Ġsystems":11879,"ĠskÃ¶nhet":11880,"rior":11881,"Ġfourth":11882,"ĠSkulle":11883,"ĠmÃ¶rdad":11884,"ĠEthan":11885,"Ġbelt":11886,"Ġpojk":11887,"hamed":11888,"Ġoffering":11889,"Ġreputation":11890,"Ġnonsense":11891,"riga":11892,"Ġrutt":11893,"Fakt":11894,"Ġuncom":11895,"DA":11896,"Ġce":11897,"Slut":11898,"VÃ¤n":11899,"ĠgrÃ¤v":11900,"ĠÃĸver":11901,"Ġashamed":11902,"jamin":11903,"Ġinb":11904,"keep":11905,"ĠRoll":11906,"ĠmÃ¤rkte":11907,"17":11908,"Ġverkligheten":11909,"Ġparent":11910,"ĠCatherine":11911,"ĠfÃ¶rbannad":11912,"ĠTimes":11913,"reter":11914,"Ġutk":11915,"Ġwherever":11916,"Ġdisappointed":11917,"Ġabort":11918,"dale":11919,"Ġskru":11920,"Ġrein":11921,"Ġnag":11922,"Svara":11923,"Ġcand":11924,"iro":11925,"Ġarv":11926,"Ġauthority":11927,"ĠfÃ¶rk":11928,"ĠRandy":11929,"ĠrÃ¤ttegÃ¥ng":11930,"Ġpara":11931,"Ġminister":11932,"olas":11933,"bbie":11934,"Ġmile":11935,"aterna":11936,"Ġlider":11937,"ĠGermany":11938,"Ġstranger":11939,"Ġresponse":11940,"Ġmidnight":11941,"Ġstall":11942,"Ġfunderat":11943,"ĠPac":11944,"Ġtrott":11945,"ĠÃ¥ngrar":11946,"antha":11947,"Ġreaction":11948,"Ġdeck":11949,"ĠWild":11950,"Ġculture":11951,"ĠpoÃ¤ngen":11952,"Ġfishing":11953,"rets":11954,"Ġhalvtimme":11955,"isha":11956,"ĠdÃ¶dades":11957,"Ġcontest":11958,"Ġirrit":11959,"atalie":11960,"ĠLOOK":11961,"Uppfattat":11962,"esk":11963,"ĠThose":11964,"ĠSel":11965,"Ġgruppen":11966,"ĠEveryone":11967,"ĠAaron":11968,"ĠInst":11969,"ĠsÃ¶tnos":11970,"ĠCy":11971,"ĠKÃ¤nner":11972,"slet":11973,"ĠVincent":11974,"Ġdelivery":11975,"ĠCru":11976,"phone":11977,"ĠMiles":11978,"14":11979,"ĠSov":11980,"ĠsÃ¥dana":11981,"Fri":11982,"aze":11983,"heim":11984,"Ġpremi":11985,"ĠvÃ¤gg":11986,"ursday":11987,"gers":11988,"ĠVadÃ¥":11989,"ĠskÃ¥l":11990,"ĠFox":11991,"Ġringen":11992,"ĠBarbara":11993,"prov":11994,"Ġcorpor":11995,"Ġpant":11996,"Ġprecious":11997,"Nor":11998,"point":11999,"Ġanteck":12000,"ours":12001,"ĠEgypt":12002,"Ġoccur":12003,"vil":12004,"Ġsiffror":12005,"Ġbye":12006,"Denna":12007,"Ġflickorna":12008,"ĠEarl":12009,"Ġmesta":12010,"Ġinsats":12011,"skr":12012,"ghan":12013,"amod":12014,"seende":12015,"Ġfinna":12016,"Ġdetermin":12017,"Otherwise":12018,"Ġple":12019,"ĠRO":12020,"ĠlÃ¥st":12021,"ĠGray":12022,"Tommy":12023,"oody":12024,"Ġbarnbarn":12025,"ortera":12026,"Ġtappar":12027,"istisk":12028,"alo":12029,"Ġhearts":12030,"bu":12031,"mony":12032,"Ġhappiness":12033,"Ġrocks":12034,"fire":12035,"dem":12036,"Ġsail":12037,"ĠApril":12038,"Ġupple":12039,"craft":12040,"Ġthief":12041,"gs":12042,"tur":12043,"Ġgarderob":12044,"ĠTok":12045,"ĠmÃ¤stare":12046,"Cra":12047,"Ġpunkt":12048,"ĠMartha":12049,"ĠJersey":12050,"cut":12051,"Ġach":12052,"ington":12053,"ÃĦt":12054,"Ġnjuta":12055,"Dessa":12056,"iety":12057,"revor":12058,"Ġframt":12059,"Ġwra":12060,"Ġwins":12061,"Jake":12062,"pers":12063,"ĠMason":12064,"ulu":12065,"ifty":12066,"Ġmissat":12067,"ĠCoach":12068,"ĠsmÃ¤rtan":12069,"Ġbeord":12070,"Ġavsked":12071,"ĠVince":12072,"Ġmurders":12073,"Ġskador":12074,"Ġhandla":12075,"Ġrecall":12076,"ĠBert":12077,"problem":12078,"WELL":12079,"Ġbibliote":12080,"lÃ¤nd":12081,"Ġjet":12082,"Ġsommar":12083,"Ġfranska":12084,"Ġ36":12085,"ĠKaliforn":12086,"Ġtakt":12087,"Allvarligt":12088,"Ġcurse":12089,"Ġdesigned":12090,"Ġintegr":12091,"ĠHoney":12092,"face":12093,"Ġklo":12094,"Ġeaten":12095,"Ġslott":12096,"ĠfortsÃ¤tt":12097,"Ġmovement":12098,"uffy":12099,"Kvinn":12100,"verket":12101,"Ġrecommend":12102,"uge":12103,"Ġrip":12104,"Ġpleased":12105,"Ġunderbara":12106,"Ġparken":12107,"Ġdessert":12108,"Ġnj":12109,"Ġego":12110,"kat":12111,"Ġitalien":12112,"ĠKai":12113,"Ġarticle":12114,"Ġanar":12115,"olet":12116,"Ġfrag":12117,"Ġkvitt":12118,"Ġextraordin":12119,"vinnan":12120,"ÃħN":12121,"Ġparanoid":12122,"Ġmage":12123,"Ġnumret":12124,"ebra":12125,"ĠAli":12126,"Ġcowboy":12127,"ĠOpen":12128,"aleb":12129,"Ġ194":12130,"Ġsurveillance":12131,"Ġawkward":12132,"Ġupd":12133,"jack":12134,"Ġattitude":12135,"ĠRun":12136,"anor":12137,"ĠCont":12138,"Konst":12139,"Fattar":12140,"Ġotrogen":12141,"Ġcrisis":12142,"Ġminnes":12143,"ĠerkÃ¤nner":12144,"Hope":12145,"Ġplat":12146,"ĠKatie":12147,"ĠÃ¥ngra":12148,"Ġnap":12149,"Ġambulans":12150,"Ġbyn":12151,"Ġrespekterar":12152,"Sal":12153,"shirt":12154,"Ġutrymm":12155,"Whoever":12156,"Ã¤karen":12157,"ullen":12158,"Ġteknik":12159,"Fred":12160,"Mal":12161,"oppy":12162,"Ġbehandlar":12163,"Ġsnarare":12164,"ĠDiana":12165,"ĠsmÃ¤ll":12166,"Ġprofile":12167,"Ġverka":12168,"Ġshoe":12169,"Ġstopping":12170,"ĠAugust":12171,"Ġfla":12172,"Ġtas":12173,"ĠLeonard":12174,"Ġexit":12175,"abor":12176,"Tillbaka":12177,"Ġembarrassing":12178,"Ġtreasure":12179,"ĠLincoln":12180,"ĠJustin":12181,"Ġscript":12182,"Ġstops":12183,"Ġvinden":12184,"Ã¥ste":12185,"Mil":12186,"Ġwave":12187,"ipa":12188,"NÃ¤stan":12189,"ĠÃ¤ran":12190,"ideon":12191,"ĠbestÃ¤ll":12192,"ĠQuinn":12193,"Bravo":12194,"ĠDuke":12195,"Ġuttry":12196,"Ġitu":12197,"Ġbron":12198,"givare":12199,"unker":12200,"ĠSEE":12201,"Ġcarried":12202,"Ġpod":12203,"ava":12204,"ATH":12205,"Ġbaj":12206,"see":12207,"Ġkredit":12208,"ĠkÃ¤nnas":12209,"Ġidentifier":12210,"now":12211,"verse":12212,"klubb":12213,"Roger":12214,"Eric":12215,"ĠDidn":12216,"ĠMexiko":12217,"Ġkurs":12218,"Sju":12219,"eters":12220,"Ġnuclear":12221,"Obviously":12222,"Ġwriter":12223,"onica":12224,"Blev":12225,"Ġskatt":12226,"Ġkock":12227,"ashing":12228,"ĠMass":12229,"rows":12230,"Ġutre":12231,"Ġmelt":12232,"ĠShawn":12233,"ĠRu":12234,"ĠgrÃ¤t":12235,"Ġcrossed":12236,"Ġcandid":12237,"ĠvÃ¤lsig":12238,"sign":12239,"Ġjokes":12240,"Ġfixade":12241,"Ġarbetade":12242,"Ġreceive":12243,"xan":12244,"Ġbrick":12245,"Ġcrimes":12246,"osc":12247,"Ġkandid":12248,"ĠBrooklyn":12249,"ĠCarrie":12250,"Ġungarna":12251,"rÃ¥k":12252,"splan":12253,"Ġflydde":12254,"Ġantingen":12255,"Ġteaching":12256,"Kim":12257,"hjÃ¤l":12258,"Ġcave":12259,"Ġdistraher":12260,"ĠFrÃ¥n":12261,"Ġbeteende":12262,"alleng":12263,"Ġspan":12264,"ĠSchool":12265,"Ġkostym":12266,"Ġifall":12267,"Ġbitter":12268,"ĠpÃ¥verkar":12269,"Ġmuseum":12270,"AST":12271,"Ġincredibly":12272,"Ġbytte":12273,"given":12274,"ĠfÃ¶rsiktigt":12275,"Ġimper":12276,"Ġcomprom":12277,"ĠAllen":12278,"Ġchoices":12279,"Ġtokig":12280,"ĠtrÃ¤ffats":12281,"Long":12282,"Tala":12283,"ĠKong":12284,"ĠGun":12285,"Ġsparka":12286,"ĠmÃ¤rkt":12287,"komma":12288,"Ġrefuse":12289,"iju":12290,"Ġhatade":12291,"Fix":12292,"Major":12293,"lats":12294,"tail":12295,"ĠKenn":12296,"Ġsometime":12297,"Ġkonsek":12298,"ĠThanksgiving":12299,"ĠtrÃ¶":12300,"ĠÃ¶verste":12301,"Grand":12302,"Ġpromenad":12303,"%.":12304,"Ġintention":12305,"Ġbury":12306,"ĠfÃ¶rklaring":12307,"Ġmercy":12308,"Ġbrydde":12309,"famil":12310,"ĠlÃ¥da":12311,"Ġofficially":12312,"ĠShaw":12313,"ĠDiane":12314,"Matt":12315,"Ġmedal":12316,"mera":12317,"ĠCheck":12318,"Pe":12319,"ĠvÃ¤cka":12320,"Ġbelieves":12321,"Ġprize":12322,"Ġwindows":12323,"ĠtrÃ¤ning":12324,"ered":12325,"Ġboot":12326,"Ġinled":12327,"Ġblond":12328,"Ġteamet":12329,"Ġrope":12330,"ĠKolla":12331,"ains":12332,"Ġending":12333,"allas":12334,"ĠWelcome":12335,"VEN":12336,"skland":12337,"Ġdepends":12338,"ĠGOOD":12339,"polisen":12340,"Play":12341,"Ġdesire":12342,"Ġconfess":12343,"Ġfunnits":12344,"Relax":12345,"Send":12346,"Ġguessing":12347,"Ġflyttat":12348,"pot":12349,"RATOR":12350,"Ġteams":12351,"Ġmonkey":12352,"Ġnic":12353,"ĠuppfÃ¶r":12354,"Sil":12355,"Poor":12356,"Ġsanna":12357,"ĠÃ¥n":12358,"Ġpit":12359,"ĠSeattle":12360,"ĠhÃ¤lsar":12361,"Ġhomes":12362,"ĠAfrica":12363,"ĠvÃ¤grade":12364,"ĠFacebook":12365,"cting":12366,"Ġorange":12367,"Ġtiming":12368,"Cut":12369,"ĠtÃ¶nt":12370,"iteten":12371,"EAR":12372,"Ġjoking":12373,"Ġlevt":12374,"Ġflygplatsen":12375,"ĠfÃ¶rde":12376,"Ġmarks":12377,"LEY":12378,"Ġvideon":12379,"Ġexamen":12380,"ĠpÃ¥stÃ¥r":12381,"Ġdriva":12382,"grees":12383,"skomm":12384,"quar":12385,"Ġmagnet":12386,"ĠJulian":12387,"ĠSpencer":12388,"ĠInspector":12389,"Ġinre":12390,"pit":12391,"eler":12392,"ĠundersÃ¶k":12393,"ĠWarren":12394,"cin":12395,"ĠvÃ¤lkommen":12396,"bad":12397,"Ġdefin":12398,"Ã¶var":12399,"Ġsenator":12400,"Ġimpressive":12401,"Brian":12402,"Ġsprit":12403,"Ġkvinnorna":12404,"Wouldn":12405,"):":12406,"Ġkaos":12407,"aily":12408,"Ġexplanation":12409,"ĠAna":12410,"ARRATOR":12411,"Ġkidnapped":12412,"ĠOk":12413,"ĠmÃ¥nen":12414,"Ġlager":12415,"bandet":12416,"ĠÃ¶vertyga":12417,"ĠÃ¶ron":12418,"Ġtheater":12419,"ameron":12420,"Ġreserv":12421,"Ġimpressed":12422,"ĠSus":12423,"Ġsmar":12424,"Ġsession":12425,"Ġsvek":12426,"erable":12427,"ĠAshley":12428,"ĠfÃ¶rÃ¶d":12429,"Ġkorrid":12430,"ĠThor":12431,"ĠfÃ¶remÃ¥l":12432,"agh":12433,"Ġriskera":12434,"Ġuseless":12435,"Ġthrown":12436,"Ġtunga":12437,"pse":12438,"Ġrecent":12439,"hÃ¥lla":12440,"Ġfascin":12441,"Ġwhisky":12442,"ĠtÃ¶m":12443,"Ġgrind":12444,"urtis":12445,"Ġnegative":12446,"ademy":12447,"ĠGR":12448,"ĠGall":12449,"ĠLeg":12450,"Ġtroligen":12451,"ĠDal":12452,"Ġelement":12453,"Ġfacility":12454,"Ġuncomfortable":12455,"Care":12456,"rigt":12457,"ÃĦnd":12458,"Ġwing":12459,"stÃ¤llningen":12460,"ĠForce":12461,"Ġselfish":12462,"Ġtors":12463,"Ġfunderar":12464,"ĠCraig":12465,"Ġfalska":12466,"Ã¤sk":12467,"Ġtattoo":12468,"Ġoperationen":12469,"ĠEver":12470,"Ġoptim":12471,"ANS":12472,"Ġunits":12473,"Ġtogs":12474,"Ġantagligen":12475,"Ġthick":12476,"ĠMarl":12477,"Ġlatest":12478,"Ġpersonliga":12479,"Ġkissed":12480,"ĠRalph":12481,"ĠskÃ¤mtar":12482,"Ġuppenbart":12483,"Ġbritt":12484,"ĠTIME":12485,"atar":12486,"Ġtracks":12487,"kraft":12488,"Ġsensitive":12489,"Ġshell":12490,"Ġexpress":12491,"Ur":12492,"ĠNar":12493,"Ã¤mtar":12494,"Ã¶jlig":12495,"Ġcapital":12496,"ĠÃ¶gat":12497,"narrator":12498,"ification":12499,"ĠHoll":12500,"Ġkris":12501,"ories":12502,"Ġstartade":12503,"Mur":12504,"Ġmottag":12505,"ĠslÃ¶s":12506,"bler":12507,"ĠjÃ¤vlar":12508,"Ġkingdom":12509,"sprung":12510,"ĠElliot":12511,"Ġnycklarna":12512,"Ġdramat":12513,"agging":12514,"Ġintroduc":12515,"ĠDJ":12516,"Bas":12517,"life":12518,"Ġfungerade":12519,"ĠstÃ¤mma":12520,"Ġavsikt":12521,"Ġuppenbarligen":12522,"Such":12523,"Ġcompla":12524,"Ġkokain":12525,"ĠBACK":12526,"ĠunderrÃ¤tt":12527,"delse":12528,"ĠStephen":12529,"Down":12530,"Ġdegrees":12531,"owder":12532,"Ġpersonligen":12533,"uga":12534,"Ġsilence":12535,"Ġsamarbeta":12536,"Ġimpression":12537,"Ġinstinct":12538,"Ġnat":12539,"Ġmoster":12540,"Ġjudgment":12541,"Ġepis":12542,"ĠrÃ¶tt":12543,"Ġfrivill":12544,"aling":12545,"Ġfortsatte":12546,"check":12547,"Ġlands":12548,"Ġsuspicious":12549,"belt":12550,"Ġsection":12551,"ĠblÃ¶d":12552,"Ġconcert":12553,"Ġsly":12554,"lnte":12555,"rings":12556,"ĠordfÃ¶rande":12557,"Ġlabbet":12558,"Ġdigging":12559,"acy":12560,"Ġwasting":12561,"Ã¶jd":12562,"Ġdyg":12563,"Ġbalance":12564,"Ġdyka":12565,"Ġfond":12566,"Po":12567,"ĠVic":12568,"LES":12569,"ctic":12570,"Ġcarefully":12571,"Ġcomplex":12572,"Ġpride":12573,"Ġguilt":12574,"Ġmole":12575,"ĠrÃ¤knas":12576,"Polis":12577,".?":12578,"Ġgreater":12579,"ĠAnything":12580,"Ã¶ser":12581,"Ġcoast":12582,"Ġdisaster":12583,"Ġsnake":12584,"ordet":12585,"ĠStu":12586,"Ġbevak":12587,"Ġsommaren":12588,"rien":12589,"ĠvÃ¥ningen":12590,"ingarna":12591,"izz":12592,"Ġallihopa":12593,"Ġconsult":12594,"BÃ¤ttre":12595,"Ġreject":12596,"Ġbyxor":12597,"Ġduck":12598,"ĠrÃ¤ttvist":12599,"mÃ¶rdare":12600,"Ġbacon":12601,"Ġkontrollen":12602,"Ġmeters":12603,"ĠmÃ¥ndag":12604,"Ġcommer":12605,"ektiv":12606,"vit":12607,"Ġrepar":12608,"Ġbackground":12609,"ĠlÃ¥ten":12610,"OWN":12611,"Ġros":12612,"Ġcoincidence":12613,"Ġgear":12614,"Ġnom":12615,"Ġshitty":12616,"Ġunique":12617,"ĠSha":12618,"ĠSna":12619,"Stackars":12620,"Rad":12621,"ĠSof":12622,"ĠsnÃ¶":12623,"Ġvittnen":12624,"Ġrar":12625,"Ġconsidering":12626,"pir":12627,"Ġdestru":12628,"Ġbeskydd":12629,"Way":12630,"Ġrefle":12631,"Ġrut":12632,"Ġsystrar":12633,"Ġsamvete":12634,"Ġseek":12635,"umpan":12636,"Ġhumili":12637,"Ġthin":12638,"Ġcustomers":12639,"Ġaim":12640,"Ġbrevet":12641,"ĠGabriel":12642,"hattan":12643,"ĠmÃ¤nskliga":12644,"ĠlÃ¤skigt":12645,"Ġmagazine":12646,"Ġchildhood":12647,"Ġbreast":12648,"Ġhistorier":12649,"Ġarbets":12650,"Ġbiljetter":12651,"Ġspecies":12652,"ĠMickey":12653,"Ġsyfte":12654,"Ġcleared":12655,"Ġtears":12656,"ĠkÃ¤rn":12657,"Ġbin":12658,"okrat":12659,"ĠMitchell":12660,"Ġsoffan":12661,"Ġimpl":12662,"Ġbetyda":12663,"ĠjÃ¤rn":12664,"utiful":12665,"ĠNY":12666,"ĠKÃ¶r":12667,"cred":12668,"ORT":12669,"ugged":12670,"Ġrisken":12671,"ĠKalifornien":12672,"ĠStill":12673,"Ġsnygga":12674,"Ġelden":12675,"vÃ¤rder":12676,"ĠMalcolm":12677,"ibbs":12678,"ĠFil":12679,"Ġhelpful":12680,"ĠGOING":12681,"Ġwitnesses":12682,"ĠfÃ¶rbereda":12683,"ĠifrÃ¥gas":12684,"ĠPhilip":12685,"Ġstyrel":12686,"Ġpolare":12687,"Ġconfirmed":12688,"Ġkoncentr":12689,"70":12690,"ĠBeat":12691,"Ġbefinner":12692,"Ġlover":12693,"ĠFinn":12694,"minister":12695,"ĠavlÃ¤g":12696,"Ġrobbery":12697,"seln":12698,"ĠlÃ¤karen":12699,"opped":12700,"ierade":12701,"Ġsabot":12702,"ĠBravo":12703,"Ġoskyldiga":12704,"oring":12705,"rÃ¤der":12706,"ĠmisstÃ¤nkte":12707,"vill":12708,"Ġloan":12709,"Ġrecru":12710,"Ġoffense":12711,"orse":12712,"ubbe":12713,"Ġpossibility":12714,"HjÃ¤r":12715,"ĠsvÃ¤l":12716,"this":12717,"vember":12718,"ĠLil":12719,"rÃ¤dare":12720,"Ly":12721,"ĠFranklin":12722,"Ġerbjudande":12723,"Ã¶tter":12724,"Professor":12725,"helst":12726,"Ġvo":12727,"Ġutnyttj":12728,"Ġshield":12729,"Ġaccent":12730,"ĠAC":12731,"ĠhÃ¶rs":12732,"Ġoutfit":12733,"Ġsexig":12734,"ĠBenn":12735,"ĠPenny":12736,"Ġtiger":12737,"oebe":12738,"ĠskrÃ¤mmande":12739,"ĠkÃ¤nslan":12740,"Lady":12741,"ĠlÃ¶jligt":12742,"ĠMoon":12743,"22":12744,"Ġhill":12745,"atÃ¶r":12746,"ĠskrÃ¤ck":12747,"Ġhorn":12748,"ĠPlan":12749,"ĠhÃ¤mtade":12750,"Kate":12751,"Ġpoker":12752,"ublic":12753,"Ġkej":12754,"engarna":12755,"icken":12756,"Ġimmun":12757,"Ġignore":12758,"ĠfÃ¶rrÃ¥d":12759,"Believe":12760,"ĠOFF":12761,"Otroligt":12762,"Ġrust":12763,"auer":12764,"Ġlapt":12765,"ĠAk":12766,"Tiden":12767,"risten":12768,"ĠAG":12769,"ĠDown":12770,"pherd":12771,"Ġkrimin":12772,"Sla":12773,"Jam":12774,"Ġvinn":12775,"ĠAV":12776,"Ġactions":12777,"ĠMaya":12778,"ĠBrig":12779,"Ġ29":12780,"Ġinformationen":12781,"erades":12782,"isses":12783,"ĠlÃ¥tit":12784,"Ġeter":12785,"ĠTILL":12786,"ĠGrandma":12787,"Ġsauce":12788,"Ã¥riga":12789,"Ġrepet":12790,"Lita":12791,"Ġupph":12792,"Dem":12793,"klass":12794,"ĠHum":12795,"ĠExactly":12796,"Ġpretending":12797,"rice":12798,"grejen":12799,"lades":12800,"elet":12801,"ĠPlay":12802,"Ġreklam":12803,"UE":12804,"Ġchase":12805,"ĠnÃ¤rmaste":12806,"Ġchalleng":12807,"Ġbrotts":12808,"Charles":12809,"oten":12810,"ĠSjÃ¤lvklart":12811,"ĠEM":12812,"kÃ¤nn":12813,"Ġverkt":12814,"AME":12815,"Ġtrunk":12816,"ĠskrÃ¤p":12817,"Ġsmy":12818,"jah":12819,"Kar":12820,"lopp":12821,"ĠdÃ¤ck":12822,"ĠMia":12823,"ĠTuesday":12824,"Ġaccepted":12825,"believable":12826,"Ġfoton":12827,"ĠDur":12828,"Ġboxes":12829,"Ġgris":12830,"Ġfella":12831,"Ġguvern":12832,"Ġfalls":12833,"jet":12834,"Ġtracking":12835,"16":12836,"imately":12837,"ĠidÃ©n":12838,"bing":12839,"gun":12840,"Ã¤ft":12841,"Ġprotocol":12842,"ĠAvenue":12843,"uther":12844,"open":12845,"ĠNad":12846,"rika":12847,"Ġcontroll":12848,"lys":12849,"Ġskapat":12850,"nest":12851,"skon":12852,"Ġcomment":12853,"Ġactor":12854,"Ġgemensamt":12855,"ĠonÃ¶d":12856,"ĠHart":12857,"Ġegend":12858,"Ġmicro":12859,"ĠbrÃ¶llops":12860,"ĠLois":12861,"ĠJos":12862,"Ġindustry":12863,"Ġecon":12864,"ĠtillÃ¥ter":12865,"Ġlida":12866,"banan":12867,"orean":12868,"Ġvaluable":12869,"ĠToo":12870,"BO":12871,"orf":12872,"ĠhÃ¤kt":12873,"Ġhast":12874,"Ġcollection":12875,"Ġregion":12876,"ĠovÃ¤nt":12877,"ĠSyl":12878,"ĠWOULD":12879,"Ġsamm":12880,"ĠLiam":12881,"Ġcoordin":12882,"ydia":12883,"Ġpinsamt":12884,"verna":12885,"oyle":12886,"Ġtyska":12887,"Ġbesides":12888,"istry":12889,"egor":12890,"Ġtvingar":12891,"ĠThursday":12892,"Ġkyrk":12893,"Ġwolf":12894,"uba":12895,"Victor":12896,"Ġfellas":12897,"Ġmadam":12898,"Ġfocused":12899,"Feel":12900,"ĠDaw":12901,"Ġteori":12902,"via":12903,"ourse":12904,"ugen":12905,"Ġmorfar":12906,"Ġfunction":12907,"Ġretire":12908,"Ġriskerar":12909,"Ġtitle":12910,"cie":12911,"gerna":12912,"ĠVen":12913,"Ġrequire":12914,"tog":12915,"Ġtricks":12916,"ureau":12917,"ario":12918,"ĠsÃ¥gs":12919,"Scott":12920,"ĠAfghan":12921,"ĠLana":12922,"prat":12923,"Ġcounting":12924,"Ġelection":12925,"Ġencour":12926,"Ġbarnd":12927,"ĠHAD":12928,"Ġremoved":12929,"Ġnormally":12930,"Ġregering":12931,"Ġcastle":12932,"Ġbokstav":12933,"scri":12934,"kopp":12935,"rer":12936,"ĠCasey":12937,"Ġingred":12938,"Ġkulor":12939,"ĠvÃ¤d":12940,"Fint":12941,"ĠOly":12942,"Ġtrubb":12943,"Ġdesperat":12944,"Ġhotade":12945,"Ġslappna":12946,"Ġlastbil":12947,"Ġbegra":12948,"Cal":12949,"OLD":12950,"run":12951,"ĠBall":12952,"Ġvapnen":12953,"vell":12954,"ĠgÃ¶ras":12955,"Ġhmm":12956,"Ġlawyers":12957,"Gre":12958,"stic":12959,"Ġkarl":12960,"ĠavgÃ¶ra":12961,"Ġmoder":12962,"Ġmarknad":12963,"Ġrail":12964,"Ġconsp":12965,"Ġforth":12966,"ĠNich":12967,"ĠdÃ¶ma":12968,"Ġolagligt":12969,"ĠPhill":12970,"neath":12971,"ping":12972,"Ġtransp":12973,"ĠhÃ¤rligt":12974,"Ġactivity":12975,"Mus":12976,"Ġargue":12977,"Ġbyggt":12978,"Ġcruel":12979,"Klar":12980,"Ġprisoners":12981,"Ġhood":12982,"ĠSea":12983,"Ġtech":12984,"Ġcells":12985,"Ġavsnitt":12986,"ĠFa":12987,"prim":12988,"Ġentrance":12989,"Ġaudition":12990,"ĠKurt":12991,"stil":12992,"Ġiniti":12993,"osis":12994,"irector":12995,"ĠgrÃ¶na":12996,"ĠGuard":12997,"ĠdÃ¶ljer":12998,"ĠsÃ¤mre":12999,"Ġvodka":13000,"Ġuppn":13001,"ously":13002,"ĠLeague":13003,"Ġtennis":13004,"ministern":13005,"stick":13006,"NÃ¤m":13007,"Ind":13008,"Speaking":13009,"Ġkamera":13010,"Ġavf":13011,"Ġtypen":13012,"Ġmixed":13013,"ĠGina":13014,"Ġhomework":13015,"esen":13016,"ĠupptÃ¤ckt":13017,"ildren":13018,"vest":13019,"Ġquality":13020,"poj":13021,"Ġfienden":13022,"Ville":13023,"ĠfÃ¶rÃ¤ndring":13024,"Ġtroops":13025,"Ġcharged":13026,"Ġstrand":13027,"Ġfinner":13028,"Ġsociala":13029,"Ġverkligt":13030,"Ġkny":13031,"gÃ¶ren":13032,"Ġflock":13033,"ĠWant":13034,"Ġkriminal":13035,"Ġlifet":13036,"Ġalleg":13037,"Ġcats":13038,"Ġbeef":13039,"ĠStanna":13040,"Ġjurid":13041,"ĠGi":13042,"Ġeleg":13043,"Ġgrandma":13044,"ĠMonica":13045,"Ġexisterar":13046,"Ġcreepy":13047,"Ġmorg":13048,"Ġflyr":13049,"arka":13050,"prints":13051,"ĠNord":13052,"rost":13053,"orta":13054,"ĠHend":13055,"Ġannoying":13056,"Jac":13057,"ĠRy":13058,"ĠClaud":13059,"Ġembarrassed":13060,"ĠSilver":13061,"Ġvampire":13062,"stitution":13063,"Ġlap":13064,"ĠChan":13065,"Ġplocka":13066,"Ġbride":13067,"ĠfÃ¶rg":13068,"Ã¤ttningen":13069,"Ġtoy":13070,"ĠErik":13071,"urd":13072,"Ġdeny":13073,"Ġque":13074,"Almost":13075,"Ã¤kten":13076,"Ġknack":13077,"Ġpattern":13078,"Ġkula":13079,"Ġmedveten":13080,"Ġdropping":13081,"Ġsilent":13082,"ĠSpecial":13083,"Old":13084,"ĠNEED":13085,"Ġwarned":13086,"riva":13087,"Ġplastic":13088,"iona":13089,"ĠSK":13090,"ui":13091,"Ġpatch":13092,"Ġelevator":13093,"ĠRemember":13094,"à¸":13095,"pert":13096,"Ġbored":13097,"Ġboots":13098,"ĠActually":13099,"Ġsmek":13100,"Vin":13101,"VÃ¤nd":13102,"ĠStick":13103,"ĠNÃ¥t":13104,"Ġhomosex":13105,"uary":13106,"tele":13107,"Ġapply":13108,"Many":13109,"stÃ¤lld":13110,"ĠMagn":13111,"Ġdealer":13112,"Ġsovrum":13113,"ĠFolk":13114,"Sergeant":13115,"Kind":13116,"Ġpoll":13117,"Ġrecording":13118,"Doug":13119,"Ġprev":13120,"Ġdent":13121,"Ġintend":13122,"Ġremote":13123,"ĠDonald":13124,"conscious":13125,"Ġneighbors":13126,"Ġshared":13127,"ĠpÃ¥g":13128,"Ġcheating":13129,"ĠStanley":13130,"Ġytterligare":13131,"ISH":13132,"Ġpolitics":13133,"Ġbetrayed":13134,"Use":13135,"Ġaccused":13136,"ĠInstagram":13137,"ĠFE":13138,"Ġpacka":13139,"Ġagency":13140,"ĠLogan":13141,"Calm":13142,"Ġstrip":13143,"Ġtoss":13144,"anen":13145,"Ġsettled":13146,"lande":13147,"Ġflygplan":13148,"Ġeva":13149,"Ġglo":13150,"ounced":13151,"LÃ¤r":13152,"ĠAle":13153,"ĠinspektÃ¶r":13154,"ĠConnor":13155,"Ġcoward":13156,"Ġpubliken":13157,"ĠframgÃ¥ngs":13158,"Ġ75":13159,"ĠYoung":13160,"geln":13161,"Ġutomjord":13162,"Ġmud":13163,"Ġgrymt":13164,"fir":13165,"osit":13166,"Ġenjoying":13167,"Carol":13168,"Ġutpress":13169,"Ã¥gar":13170,"holes":13171,"Ġporr":13172,"FrÃ¶ken":13173,"ĠPRE":13174,"ĠsÃ¥hÃ¤r":13175,"Ġmiljarder":13176,"Ġsounded":13177,"ĠIsrael":13178,"Ġgode":13179,"ĠskÃ¶ld":13180,"Ġrestaurangen":13181,"unting":13182,"ĠglasÃ¶gon":13183,"vida":13184,"Ġpotent":13185,"ĠLane":13186,"ĠUniversity":13187,"ĠSC":13188,"ĠosÃ¤ker":13189,"Ġduss":13190,"they":13191,"Ġglor":13192,"ALK":13193,"Ġprocedure":13194,"verage":13195,"Ġceleb":13196,"ĠstÃ¤ngt":13197,"Ġvillig":13198,"Ġswimming":13199,"HÃ¶g":13200,"ligheter":13201,"Ġinterrog":13202,"Ã¥rs":13203,"Ġconfession":13204,"Ġdynam":13205,"ĠlÃ¤ge":13206,"tio":13207,"Ġinsidan":13208,"ikation":13209,"Ġklarat":13210,"Ġpathetic":13211,"ĠCenter":13212,"Ġsnur":13213,"Ġdrown":13214,"Ġurgent":13215,"ĠvÃ¤nde":13216,"ORD":13217,"Ġkoppling":13218,"Val":13219,"Cont":13220,"dad":13221,"raska":13222,"Again":13223,"Ġfinancial":13224,"Ġgest":13225,"Ers":13226,"URE":13227,"Ġbum":13228,"ENS":13229,"Ġlimit":13230,"ĠÃ¶nskan":13231,"Ġsovit":13232,"Ġshelter":13233,"Ġtransl":13234,"Chefen":13235,"Ġinstrument":13236,"stud":13237,"ARK":13238,"ĠgÃ¤r":13239,"ĠklÃ¤r":13240,"ĠWILL":13241,"chefen":13242,"Ġmultiple":13243,"JÃ¤klar":13244,"bag":13245,"ĠanstÃ¤llda":13246,"Hop":13247,"ijuana":13248,"five":13249,"Ã©s":13250,"imony":13251,"Ġuppd":13252,"Ġkoppla":13253,"FFFF":13254,"Ã¤kter":13255,"ĠHem":13256,"Ġvirt":13257,"ĠHo":13258,"ĠEst":13259,"Ġmessing":13260,"ĠhÃ¶gst":13261,"got":13262,"Ġflower":13263,"ĠtÃ¥lamod":13264,"ĠfÃ¤ll":13265,"ĠstÃ¤nd":13266,"oting":13267,"Ġshadow":13268,"pson":13269,"Ġarmar":13270,"Ġhundratals":13271,"Cam":13272,"Ġdomaren":13273,"ĠRaymond":13274,"Ġmister":13275,"Ã¤nderna":13276,"ĠCho":13277,"vitt":13278,"phere":13279,"Going":13280,"ĠLaur":13281,"ĠfÃ¶rsvunnen":13282,"isc":13283,"akers":13284,"Ġvittna":13285,"munt":13286,"Ġoxy":13287,"Ġinjured":13288,"ĠRonnie":13289,"ĠKh":13290,"Ġhatt":13291,"Ġfilma":13292,"adda":13293,"bas":13294,"VÃ¤rlden":13295,"ĠHol":13296,"Ġrings":13297,"ĠOs":13298,"ĠmisstÃ¤nkta":13299,"onde":13300,"Ġskal":13301,"ĠGlÃ¶m":13302,"ĠvittnesmÃ¥l":13303,"Ġbreaks":13304,"Ġmarknaden":13305,"ĠtÃ¤vling":13306,"rix":13307,"Ġarrester":13308,"vÃ¤rlden":13309,"Ġcleaned":13310,"bered":13311,"was":13312,"ĠtrÃ¥d":13313,"ĠLed":13314,"ftet":13315,"ĠhÃ¤star":13316,"Ġstruggle":13317,"Ġarrog":13318,"Ġmeantime":13319,"ĠSecurity":13320,"Ġskip":13321,"ĠTurn":13322,"Ġanswering":13323,"Ġbills":13324,"Ġandras":13325,"ĠColin":13326,"ĠRuby":13327,"Ġlill":13328,"Ġobsessed":13329,"agues":13330,"Finally":13331,"entlig":13332,"ĠfÃ¶tterna":13333,"Each":13334,"Ġweed":13335,"Ġstoppade":13336,"izes":13337,"Martin":13338,"ĠFitz":13339,"oen":13340,"Ġhittills":13341,"ĠAlexander":13342,"ĠRussia":13343,"ĠLiv":13344,"ADE":13345,"ĠNicole":13346,"Ġdeton":13347,"Ġapology":13348,"oned":13349,"ĠMust":13350,"Ġheliga":13351,"Ġloyal":13352,"{\\":13353,"ĠHomer":13354,"Ġuttryck":13355,"ĠmÃ¤nsklig":13356,"DO":13357,"Ġtrycka":13358,"ĠWolf":13359,"ĠManhattan":13360,"Ġgenu":13361,"bird":13362,"Ġelva":13363,"ĠHand":13364,"Ġinvent":13365,"Ġbensin":13366,"Sur":13367,"kas":13368,"fa":13369,"Follow":13370,"Detective":13371,"Ġgrass":13372,"Ġursprung":13373,"ĠSit":13374,"ĠIsaac":13375,"Ġstroke":13376,"ĠdÃ¤rinne":13377,"Problemet":13378,"Ġwreck":13379,"ĠVÃ¤l":13380,"Lisa":13381,"Ġallas":13382,"ĠCaroline":13383,"ĠmÃ¤ster":13384,"ĠCastle":13385,"Ġsomeday":13386,"ĠKa":13387,"ĠKina":13388,"ĠBren":13389,"Ġservices":13390,"Ġpaperwork":13391,"EO":13392,"ĠJill":13393,"ĠJuliet":13394,"Ġidentify":13395,"Ġwrap":13396,"Ġbuff":13397,"ĠklÃ¤d":13398,"ĠStra":13399,"Ġbetydde":13400,"Ġdiss":13401,"Ġseats":13402,"Ġuses":13403,"Ġlaws":13404,"mates":13405,"ikes":13406,"App":13407,"ĠCard":13408,"Ġrecon":13409,"âĢĲâĢĲ":13410,"Ġpainful":13411,"fyll":13412,"oard":13413,"vara":13414,"ĠavrÃ¤tt":13415,"Ġsucceed":13416,"skade":13417,"ĠtÃ¶r":13418,"ĠDA":13419,"ĠGovern":13420,"Ġutrustning":13421,"ĠsamhÃ¤llet":13422,"Ġwings":13423,"Ġleende":13424,"Ġconcer":13425,"Ġflirt":13426,"ĠbehÃ¶vt":13427,"FBI":13428,"ĠBishop":13429,"Ġextremt":13430,"Ġmechan":13431,"Ġtouching":13432,"ixon":13433,"Ġadvance":13434,"ĠplÃ¥n":13435,"revlig":13436,"Ġslit":13437,"ĠJonathan":13438,"Ġmal":13439,"Ġmjuk":13440,"ĠAnderson":13441,"Ġkapit":13442,"ologiska":13443,"Ġhowever":13444,"Ġbastards":13445,"Kid":13446,"Ġtotalt":13447,"icularly":13448,"adel":13449,"ĠLite":13450,"angel":13451,"Sanningen":13452,"Ġstudying":13453,"Ġbegins":13454,"Â¶":13455,"Ã¤ngt":13456,"elyn":13457,"ĠJudy":13458,"Ġlyfta":13459,"ĠbrÃ¤nna":13460,"Ġritual":13461,"ĠWater":13462,"Ġdeeply":13463,"Emma":13464,"Ġnerve":13465,"Ġmisunder":13466,"Ġpojkarna":13467,"Ryan":13468,"Ġdomstol":13469,"Ġljudet":13470,"Ġwore":13471,"ĠAlright":13472,"ĠRoyal":13473,"ĠCOULD":13474,"Ġlustigt":13475,"Ġidentitet":13476,"zi":13477,"Ġgy":13478,"Ġmakten":13479,"ruption":13480,"ĠÃ¤ndrade":13481,"Ġattacks":13482,"Ġblown":13483,"Ġgren":13484,"Ġmidnatt":13485,"andes":13486,"ĠPÃħ":13487,"ĠutfÃ¶ra":13488,"enger":13489,"ĠMadd":13490,"ĠRyss":13491,"Ġtower":13492,"bury":13493,"Ġdescribe":13494,"Ġdyrt":13495,"ĠBet":13496,"lee":13497,"Ġkniven":13498,"lict":13499,"Ġclinic":13500,"Sol":13501,"vere":13502,"ching":13503,"YS":13504,"Ġryss":13505,"ĠfÃ¶ren":13506,"Ġanaly":13507,"Ġbetalat":13508,"orma":13509,"Ġnin":13510,"Ġklag":13511,"Getting":13512,"Ġheta":13513,"iske":13514,"Absolutely":13515,"ĠBas":13516,"Donald":13517,"Spr":13518,"ector":13519,"Ġdatorn":13520,"ĠGuys":13521,"rif":13522,"ĠPrincess":13523,"mjuk":13524,"Haven":13525,"Ġconsequences":13526,"Jane":13527,"emed":13528,"ĠfÃ¶rmÃ¥ga":13529,"Imagine":13530,"ĠKon":13531,"Ġsyr":13532,"ĠHarper":13533,"Ġungen":13534,"sor":13535,"skalle":13536,"ĠLyssna":13537,"Ġsav":13538,"Ġsamlar":13539,"ĠsÃ¶k":13540,"Ã¥lar":13541,"etts":13542,"Ġwalks":13543,"ĠSimpson":13544,"ĠlÃ¶fte":13545,"Ġexhaust":13546,"Ġtutt":13547,"Ġkvart":13548,"Ġlukten":13549,"Andy":13550,"apper":13551,"Liz":13552,"Ġcreatures":13553,"Ġasks":13554,"ĠDani":13555,"mmet":13556,"ĠdrÃ¶mde":13557,"ritory":13558,"ĠhÃ¥rda":13559,"emat":13560,"iped":13561,"Ġboom":13562,"ĠPapa":13563,"ĠRog":13564,"Ġforgiven":13565,"Ġtappa":13566,"ouston":13567,"ĠDiv":13568,"ĠSur":13569,"ĠSweet":13570,"Ġdelay":13571,"Ġknee":13572,"kerna":13573,"hag":13574,"Ġmast":13575,"Ġterr":13576,"Ġbitches":13577,"ĠChap":13578,"Ã¥let":13579,"Ġkryp":13580,"Ġklippa":13581,"Ġhimmel":13582,"Ġwishes":13583,"ĠFinns":13584,"Ġescort":13585,"aki":13586,"ĠHawai":13587,"Ġresources":13588,"Ġbehalf":13589,"Ġsignific":13590,"Ġbehandla":13591,"ĠspÃ¶ke":13592,"ĠFri":13593,"ĠTHING":13594,"Ġcirk":13595,"ĠHjÃ¤lp":13596,"Quick":13597,"Gentlemen":13598,"Ġtoward":13599,"mÃ¤rken":13600,"ĠmÃ¤":13601,"Ġutrymme":13602,"ĠgÃ¥rden":13603,"Ġamerikansk":13604,"Ġroutine":13605,"Pick":13606,"ĠMem":13607,"Ġprec":13608,"Ġhalluc":13609,"YEAH":13610,"Ġaccepterar":13611,"Ã¥na":13612,"ĠSnow":13613,"Ġunh":13614,"Sub":13615,"ĠHarvard":13616,"ĠBEEN":13617,"Ow":13618,"Ġwallet":13619,"lur":13620,"tle":13621,"Ġdrawing":13622,"Ġexcl":13623,"Ġundra":13624,"ĠrÃ¤ttigheter":13625,"Ġcared":13626,"Sta":13627,"ĠFeder":13628,"ĠMarshall":13629,"bÃ¶":13630,"Gotta":13631,"Ġowns":13632,"stÃ¤ller":13633,"Ġrolling":13634,"Ġrus":13635,"duk":13636,"gener":13637,"Ġlanded":13638,"Ġdegree":13639,"sluta":13640,"Kunde":13641,"aton":13642,"Ġexercise":13643,"Johnny":13644,"Ġwasted":13645,"Ġbortom":13646,"rial":13647,"ĠPrat":13648,"Anybody":13649,"Ġlip":13650,"Ġklocka":13651,"Ġemotions":13652,"ĠvÃ¤nd":13653,"ormal":13654,"Ġcostume":13655,"ĠTurner":13656,"Ġcompanies":13657,"ECT":13658,"nare":13659,"Ġbullets":13660,"xen":13661,"Ġbitar":13662,"WAY":13663,"ĠDude":13664,"Ġinfly":13665,"Ã¤tet":13666,"istiska":13667,"Ġsomethin":13668,"ĠpÃ¥minna":13669,"Ġcert":13670,"resa":13671,"agger":13672,"Ġjobbig":13673,"Ġtrupp":13674,"Ġskorna":13675,"Ġfirar":13676,"Ġdecor":13677,"Ġutbildning":13678,"ĠBonnie":13679,"Ġfence":13680,"amrat":13681,"Ġshown":13682,"Ġdial":13683,"Ġvarna":13684,"Ġtaj":13685,"Ġexpand":13686,"ferens":13687,"ĠSummer":13688,"ĠTravis":13689,"Ġridd":13690,"Bud":13691,"ĠSAY":13692,"ĠHunter":13693,"ĠRita":13694,"Ġgranne":13695,"Ġskith":13696,"Ġordinary":13697,"Ġfrank":13698,"Ġcage":13699,"ĠmÃ¶jliga":13700,"Ġkrav":13701,"edith":13702,"ĠCross":13703,"Blod":13704,"ĠKorea":13705,"asa":13706,"Ġserial":13707,"Ġinher":13708,"roe":13709,"Ġnewspaper":13710,"give":13711,"Ġradion":13712,"Ġproceed":13713,"Ord":13714,"Ġimpact":13715,"Ġkond":13716,"ĠGeorgia":13717,"ĠVictoria":13718,"anced":13719,"ctive":13720,"ĠhÃ¤ngde":13721,"race":13722,"Ġdiet":13723,"ĠNora":13724,"Hard":13725,"Nic":13726,"Ġpour":13727,"ĠgrÃ¶n":13728,"enson":13729,"stod":13730,"Ġcred":13731,"Though":13732,"Ġdefeat":13733,"Ġlifetime":13734,"Roy":13735,"ĠvÃ¤lgÃ¶ren":13736,"Ġvulner":13737,"ISS":13738,"ĠBooth":13739,"Ġdelivered":13740,"Ġtvivel":13741,"Ġbadrummet":13742,"Ġjoining":13743,"ĠNeil":13744,"cake":13745,"Ġmajest":13746,"ĠDaisy":13747,"Ġmedborgare":13748,"Ġframe":13749,"ĠFamil":13750,"Mig":13751,"Part":13752,"Ġhata":13753,"amet":13754,"Ġcosts":13755,"Ġdelight":13756,"Ġachieve":13757,"Ung":13758,"put":13759,"Â©":13760,"ĠChamp":13761,"Ġfantasi":13762,"agle":13763,"Ġmetall":13764,"say":13765,"Hejsan":13766,"Ġearned":13767,"ĠHOW":13768,"ansas":13769,"ĠhemifrÃ¥n":13770,"ĠOj":13771,"Ġtoa":13772,"inka":13773,"Ġsurrender":13774,"Ġilska":13775,"kvar":13776,"Ġarga":13777,"ĠDina":13778,"Ġvideos":13779,"Meet":13780,"ĠlÃ¶gnare":13781,"Ġhabit":13782,"Ġranch":13783,"ĠTyskland":13784,"ĠOlymp":13785,"Ġfemin":13786,"Ġtyder":13787,"Ġenkla":13788,"ĠCrane":13789,"Ġlevels":13790,"Ġpatrol":13791,"ĠGraham":13792,"word":13793,"Ġantal":13794,"Ġrund":13795,"ĠÃ¤lskat":13796,"Ġdestiny":13797,"Ġbowl":13798,"uma":13799,"ĠfruktansvÃ¤rt":13800,"Ġfold":13801,"ĠEmpire":13802,"ĠRiley":13803,"Ġflow":13804,"Ġholy":13805,"ĠbehÃ¥ller":13806,"ĠStand":13807,"Gar":13808,"Ġrehears":13809,"ĠÃ¤ngel":13810,"Ġbaksidan":13811,"Â¤":13812,"Ġimponerande":13813,"ĠCrow":13814,"Bon":13815,"Shouldn":13816,"ĠstÃ¤der":13817,"Ġaboard":13818,"Ġbedr":13819,"Ġbatt":13820,"Looking":13821,"Ġmonsters":13822,"ĠPOL":13823,"ĠWERE":13824,"ĠAfghanistan":13825,"Test":13826,"action":13827,"Ġhyll":13828,"iable":13829,"attnet":13830,"Ġlaptop":13831,"Ġvarning":13832,"ĠSue":13833,"Eddie":13834,"risk":13835,"Ġfortare":13836,"Morning":13837,"ĠSpa":13838,"ĠtrÃ¶st":13839,"ĠGro":13840,"ĠZach":13841,"Ġprotected":13842,"iserar":13843,"opsy":13844,"Ġunderneath":13845,"Ġmakeup":13846,"visor":13847,"ĠLooks":13848,"elling":13849,"Ġpractically":13850,"mÃ¤ss":13851,"Ġmaintain":13852,"Ġmountains":13853,"ĠHome":13854,"Tot":13855,"Ġsample":13856,"ĠÃ¥k":13857,"Art":13858,"ovan":13859,"Ġrank":13860,"ĠMorning":13861,"Ġallra":13862,"Instead":13863,"blod":13864,"Ġcharity":13865,"Couldn":13866,"tement":13867,"Ġspect":13868,"everly":13869,"urally":13870,"Ġcouncil":13871,"Ġbehandling":13872,"iÃ¶s":13873,"slan":13874,"Ġdumped":13875,"mot":13876,"imul":13877,"ĠKirk":13878,"Ġsuits":13879,"ĠbekvÃ¤m":13880,"kass":13881,"Ġkomp":13882,"ĠKo":13883,"Ġconscious":13884,"Ġfrequ":13885,"Ġreception":13886,"Ġbeford":13887,"nades":13888,"Ġstartar":13889,"ables":13890,"Ġstrunt":13891,"Ġuppskatt":13892,"Simon":13893,"ĠKennedy":13894,"ĠjÃ¤ttes":13895,"Ġclassic":13896,"Ġtorture":13897,"Ġgulligt":13898,"Ġtrappan":13899,"21":13900,"stÃ¥tt":13901,"war":13902,"Ġwid":13903,"Ġsakta":13904,"wr":13905,"ĠstÃ¤llt":13906,"Ġzombie":13907,"ĠBook":13908,"ĠFem":13909,"ĠEnd":13910,"Ġsuffered":13911,"Ġinfo":13912,"Ġcitizens":13913,"rah":13914,"Fran":13915,"Ġsupplies":13916,"Ġpud":13917,"attered":13918,"skolan":13919,"Ġinfluence":13920,"alin":13921,"ĠUr":13922,"Ġofficiellt":13923,"Ġvinst":13924,"Ġwhiskey":13925,"Ġmiserable":13926,"Ġunfortunately":13927,"Drop":13928,"tekn":13929,"ednes":13930,"ĠLam":13931,"Ġstable":13932,"ĠskÃ¶tt":13933,"ĠfÃ¶rtjÃ¤nade":13934,"Ġnaz":13935,"William":13936,"ktur":13937,"Ġhelic":13938,"ĠTob":13939,"Ġhyra":13940,"Ġbul":13941,"leveland":13942,"Ġpacked":13943,"Ġbonus":13944,"ednesday":13945,"ĠGhost":13946,"Ġconcentr":13947,"Ġcri":13948,"arest":13949,"Ġtrycker":13950,"ĠNed":13951,"Ġnaturligtvis":13952,"Ġyelling":13953,"ĠAlpha":13954,"Ġprem":13955,"Ġceremony":13956,"Ġappeal":13957,"ĠMot":13958,"ĠMah":13959,"KÃ¶p":13960,"Ġdejta":13961,"umm":13962,"ician":13963,"Ġ600":13964,"Ġsharing":13965,"Spela":13966,"Ġ)":13967,"Ġkvittar":13968,"ĠskÃ¤ms":13969,"oning":13970,"Ġfilth":13971,"Ġforskning":13972,"Ġterritory":13973,"call":13974,"ĠfÃ¶da":13975,"Ġdates":13976,"Ġenjoyed":13977,"ked":13978,"Ġbrist":13979,"uit":13980,"Ġmete":13981,"Ġengag":13982,"Ġskaffar":13983,"ĠLast":13984,"ege":13985,"ĠHang":13986,"ĠGret":13987,"BerÃ¤tt":13988,"AIN":13989,"Ġomt":13990,"Ġhoped":13991,"Ġemail":13992,"ERY":13993,"Ġpassport":13994,"ĠGermans":13995,"wing":13996,"gro":13997,"Seven":13998,"Ġosyn":13999,"ĠinnehÃ¥ller":14000,"Ġbasketball":14001,"corn":14002,"ĠCath":14003,"Ġgalning":14004,"ĠnÃ¤mna":14005,"ĠInt":14006,"Ġsimma":14007,"Ġaktiver":14008,"Ġbomber":14009,"Soon":14010,"ĠlÃ¥ts":14011,"Ġaddition":14012,"eri":14013,"Ġblowing":14014,"Ã¥dan":14015,"Ġskyldiga":14016,"Ġlistened":14017,"OUGH":14018,"omet":14019,"Ġskytt":14020,"Ġgenerous":14021,"Sign":14022,"slÃ¶st":14023,"ĠPass":14024,"aint":14025,"okater":14026,"ĠREALLY":14027,"Ġklin":14028,"ĠStock":14029,"iserade":14030,"Enjoy":14031,"Ġdjup":14032,"ĠfÃ¶rfattare":14033,"ĠÃ¶gonblicket":14034,"Ġcampus":14035,"Lik":14036,"Ġskumt":14037,"FÃ¶rra":14038,"arian":14039,"ĠAx":14040,"ASE":14041,"grej":14042,"Thomas":14043,"holm":14044,"Ġaccounts":14045,"ndry":14046,"Ġadventure":14047,"Ġblyg":14048,"ĠvÃ¤nlig":14049,"zzle":14050,"Ġ42":14051,"ĠGPS":14052,"Ġmarker":14053,"Ġbefri":14054,"ĠlÃ¥sa":14055,"Ac":14056,"Ġworkers":14057,"ĠÃ¤ndrat":14058,"rate":14059,"Ġsecretary":14060,"Coming":14061,"atoes":14062,"Rachel":14063,"wife":14064,"Ġhipp":14065,"Ġtorr":14066,"bbar":14067,"jÃ¤rn":14068,"Ġsignature":14069,"ĠfÃ¶rstÃ¶rd":14070,"ĠJaha":14071,"Ġinvestigating":14072,"ĠDitt":14073,"Ġtis":14074,"Ġidentifiera":14075,"ĠdrÃ¶mmer":14076,"ĠBird":14077,"ĠrÃ¶ster":14078,"ĠNews":14079,"Doktorn":14080,"Ġindividual":14081,"Ġattra":14082,"ĠlÃ¤ger":14083,"ĠpÃ¥verka":14084,"Ġstulit":14085,"ĠBY":14086,"ĠNy":14087,"Ġprints":14088,"Star":14089,"Ġweakness":14090,"station":14091,"ĠHead":14092,"acher":14093,"Ġcrimin":14094,"Arthur":14095,"jour":14096,"new":14097,"Ġframsteg":14098,"ĠmÃ¶rdades":14099,"Ġnothin":14100,"arehouse":14101,"Ġoer":14102,"arbetare":14103,"ĠfÃ¤rdigt":14104,"Ġflip":14105,"gud":14106,"35":14107,"Ġrelated":14108,"Ġprivata":14109,"Ġsvartsjuk":14110,"ĠdÃ¤rute":14111,"Ġbabys":14112,"Know":14113,"Second":14114,"Ġkreat":14115,"Ġrival":14116,"Ġdocum":14117,"fÃ¤rg":14118,"ĠÃ¥s":14119,"Ġdivorced":14120,"undy":14121,"Ġkollegor":14122,"ivity":14123,"Ã¤mnar":14124,"ĠBond":14125,"ĠChase":14126,"Ġmode":14127,"ĠVita":14128,"Ġytt":14129,"ilde":14130,"Ġtvivlar":14131,"Ġkopia":14132,"ĠBenny":14133,"efter":14134,"who":14135,"ĠbakÃ¥t":14136,"ĠAnnars":14137,"igo":14138,"Ġorganization":14139,"Ġpurse":14140,"ĠvÃ¥ldtÃ¤kt":14141,"ront":14142,"Ġlikt":14143,"ĠHolm":14144,"Ġreminds":14145,"Ġregul":14146,"Ġallvarlig":14147,"viv":14148,"Ġmynt":14149,"Ġmanus":14150,"Ġintense":14151,"ĠWendy":14152,"ornas":14153,"CI":14154,"Twenty":14155,"ĠLen":14156,"ĠlÃ¤kar":14157,"program":14158,"Stoppa":14159,"Naturligtvis":14160,"Ġemellan":14161,"jÃ¤nsten":14162,"War":14163,"Ġshowen":14164,"ĠSeth":14165,"Ġbetydelse":14166,"Ġkommentar":14167,"storm":14168,"Ġlarm":14169,"Ġsuspects":14170,"olved":14171,"ĠbegrÃ¤ns":14172,"Ġadressen":14173,"away":14174,"ties":14175,"zan":14176,"arten":14177,"ĠlÃ¤xa":14178,"ĠstÃ¤ngde":14179,"Greg":14180,"eten":14181,"Ġthor":14182,"ĠChristopher":14183,"ĠGlad":14184,"Ġrig":14185,"aterial":14186,"spÃ¥r":14187,"ĠSex":14188,"Ġkonkurr":14189,"Ġsena":14190,"Ġskak":14191,"Ġfordon":14192,"Ġgubben":14193,"Ġgifts":14194,"Ġadjust":14195,"Ġwounds":14196,"ropp":14197,"PR":14198,"ĠDog":14199,"ĠWillie":14200,"cock":14201,"ĠDana":14202,"stan":14203,"Ġguitar":14204,"Ġlanding":14205,"Ġexception":14206,"onsider":14207,"Ġconcept":14208,"ĠRodney":14209,"Ġsingel":14210,"phew":14211,"Ġfritt":14212,"ungna":14213,"Ġbomben":14214,"Ġwealth":14215,"Ġbasic":14216,"Ġgolden":14217,"Ġfever":14218,"HA":14219,"ĠYear":14220,"eaven":14221,"Ġhostage":14222,"Half":14223,"Ġah":14224,"Ġjagade":14225,"ĠPic":14226,"Ġskift":14227,"Cr":14228,"Perfekt":14229,"OUS":14230,"ĠWallace":14231,"Ġlyckligt":14232,"Ġstream":14233,"Redo":14234,"ĠHong":14235,"Ġsmaller":14236,"Ġinspiration":14237,"fig":14238,"Ġuppmunt":14239,"Ġradar":14240,"Ġtesting":14241,"CO":14242,"iversary":14243,"ÃĦlskar":14244,"Ġstorlek":14245,"ĠSonny":14246,"Ġspirits":14247,"Ġutnyttja":14248,"Ġstrategy":14249,"Ġsmitt":14250,"omÃ¤ss":14251,"respect":14252,",..":14253,"acey":14254,"Ġcurrently":14255,"ĠMall":14256,"Real":14257,"stÃ¤lle":14258,"ĠkÃ¤nda":14259,"ĠkaraktÃ¤r":14260,"ĠSM":14261,"Mum":14262,"Ġrelationships":14263,"Nope":14264,"Ġmall":14265,"utred":14266,"Ġdisag":14267,"Ġmassage":14268,"ĠkÃ¤mpade":14269,"ĠSebastian":14270,"Ġrebell":14271,"ĠtillÃ¥t":14272,"Ġtillbringa":14273,"Ġmarsh":14274,"Ġytan":14275,"Ġdope":14276,"ĠJuan":14277,"Ġholes":14278,"ĠPalmer":14279,"ĠsÃ¥rad":14280,"staden":14281,"angle":14282,"iggy":14283,"ĠLance":14284,"Ġactive":14285,"Ġtrubbel":14286,"Ã¶rda":14287,"ĠIra":14288,"lder":14289,"rene":14290,"Ġtrasig":14291,"Ġeducation":14292,"ĠHom":14293,"ĠToby":14294,"blad":14295,"somhelst":14296,"agers":14297,"ĠvÃ¤der":14298,"ĠfÃ¶ruts":14299,"ĠsÃ¤llan":14300,"EK":14301,"Ġvisual":14302,"Ġrykt":14303,"imal":14304,"Ġrefused":14305,"Ġtydlig":14306,"ĠbrÃ¥d":14307,"Ġoccup":14308,"Ġbegging":14309,"enomen":14310,"Ġmex":14311,"ĠHeather":14312,"Ġbenefit":14313,"CAUSE":14314,"ĠlÃ¤mp":14315,"Ert":14316,"Sov":14317,"ĠPad":14318,"ekn":14319,"ĠfÃ¶rsvunnit":14320,"ĠHopp":14321,"ema":14322,"Ġmes":14323,"Ġprofit":14324,"Ġkommend":14325,"rÃ¤dande":14326,"ĠNorman":14327,"Ġegendom":14328,"Soph":14329,"skott":14330,"Hot":14331,"ĠbekrÃ¤fta":14332,"atum":14333,"ĠklÃ¤nningen":14334,"formation":14335,"Ġextraordinary":14336,"Ġhockey":14337,"amilton":14338,"Ġteleph":14339,"Ġcharming":14340,"Ġpersonality":14341,"Ġprince":14342,"ĠfÃ¶rsÃ¤lj":14343,"Ġkontakter":14344,"ĠSeven":14345,"Step":14346,"Emily":14347,"Ġorsakade":14348,"Ġfrit":14349,"Ġoroliga":14350,"ĠbegÃ¥tt":14351,"Ġnephew":14352,"dam":14353,"peration":14354,"Ġrif":14355,"Ġank":14356,"ĠCheryl":14357,"Ġspara":14358,"Ġutfor":14359,"Ġverklig":14360,"Ġmak":14361,"Josh":14362,"Tor":14363,"omise":14364,"Ġsheep":14365,"Ġtvungna":14366,"lyst":14367,"Ġindep":14368,"Ġbelly":14369,"ĠtÃ¤cker":14370,"Ġyouth":14371,"skydd":14372,"road":14373,"enses":14374,"ĠfÃ¶rfly":14375,"Jason":14376,"Ġangle":14377,"Ġcrown":14378,"Ġgrace":14379,"ĠRussians":14380,"SjÃ¤lv":14381,"dÃ¶m":14382,"Ġ2000":14383,"immer":14384,"ĠGoth":14385,"ĠOct":14386,"ĠjÃ¤vlas":14387,"Ġbesegra":14388,"Ġhett":14389,"ĠLuci":14390,"Ġevacu":14391,"Said":14392,"HjÃ¤l":14393,"klara":14394,"Neither":14395,"ĠlÃ¤ngtar":14396,"Ġdessutom":14397,"Ġstinker":14398,"enta":14399,"ĠFore":14400,"xton":14401,"cakes":14402,"ĠkÃ¤lla":14403,"Ġdelta":14404,"ĠIsab":14405,"Ġentered":14406,"ĠsÃ¥lt":14407,"ĠFal":14408,"ammar":14409,"ĠTroy":14410,"Ġreste":14411,"Ġgrott":14412,"Ġintent":14413,"eringar":14414,"ĠHunt":14415,"ftar":14416,"Been":14417,"Ġlurar":14418,"olves":14419,"Ġrelevant":14420,"Ġlyder":14421,"Ġcontinues":14422,"ĠMiguel":14423,"ĠtÃ¤vlingen":14424,"Ġsurrounded":14425,"ifest":14426,"Ã¥ngt":14427,"Ġfotot":14428,"uttle":14429,"Ġguts":14430,"Ġidiots":14431,"Yet":14432,"ĠstÃ¥l":14433,"Ġsurgeon":14434,"Vakna":14435,"Mac":14436,"Ġleak":14437,"ĠViv":14438,"Ġimpon":14439,"lass":14440,"Ġpity":14441,"ĠÃ¶veren":14442,"Uncle":14443,"ĠtrÃ¶ja":14444,"Ġtechnically":14445,"Ġtestify":14446,"Ġclaims":14447,"Ġplanerade":14448,"Kay":14449,"Ġdowntown":14450,"olic":14451,"SkÃ¶nt":14452,"Lieutenant":14453,"ĠAvery":14454,"Ġraped":14455,"Ġfixat":14456,"laget":14457,"rem":14458,"ĠBank":14459,"Ġmagical":14460,"ĠfÃ¶rÃ¤ndrar":14461,"illo":14462,"aughters":14463,"ĠfÃ¶ljt":14464,"rÃ¤k":14465,"HÃ¶rni":14466,"Ġrod":14467,"Ġmotive":14468,"Ġkissing":14469,"ĠhÃ¤xa":14470,"ĠSandy":14471,"iffer":14472,"oka":14473,"RED":14474,"ĠCouncil":14475,"park":14476,"ĠfÃ¶rsvars":14477,"Ġgrabbed":14478,"Ġmorbror":14479,"Ġpatri":14480,"Ġsurvival":14481,"ĠmÃ¶jligheter":14482,"Ġspeaks":14483,"Ġpunishment":14484,"eat":14485,"Ġcore":14486,"thlet":14487,"Ġdisco":14488,"Ġneutral":14489,"Ġpiller":14490,"Wanna":14491,"ĠÃ¶kar":14492,"Ġspeciella":14493,"SÃ¥na":14494,"Ġanpass":14495,"Ġinfilt":14496,"Ġagera":14497,"BA":14498,"terat":14499,"ĠBan":14500,"ivÃ¥":14501,"ĠBroad":14502,"ĠtÃ¤nderna":14503,"aphne":14504,"gra":14505,"ĠDee":14506,"ĠLife":14507,"ĠrÃ¤ttvis":14508,"fight":14509,"opard":14510,"ĠFÃ¥":14511,"Ġkicking":14512,"Ġutsikt":14513,"Grace":14514,"Ġked":14515,"ĠReady":14516,"ĠVanessa":14517,"Ġpound":14518,"ĠShane":14519,"Ġstolta":14520,"Shh":14521,"ĠBridge":14522,"iy":14523,"burn":14524,"Ġtone":14525,"Ġvr":14526,"ĠCOME":14527,"Ġsouls":14528,"Ġglobal":14529,"Ġskrik":14530,"ĠberÃ¤ttelse":14531,"Ġartikel":14532,"umn":14533,"ĠmÃ¥dde":14534,"ĠService":14535,"kÃ¤nsla":14536,"dligen":14537,"Ġsalad":14538,"Ã¶rt":14539,"Ġvirgin":14540,"ĠnÃ¤rvaro":14541,"ĠtrÃ¶j":14542,"skÃ¶ter":14543,"kvÃ¥rd":14544,"Ġmeddela":14545,"Steph":14546,"bble":14547,"Ġgaller":14548,"ĠbestÃ¤lla":14549,"Ġbusted":14550,"ASS":14551,"ĠCollins":14552,"MY":14553,"Ġnovel":14554,"Ġbergen":14555,"Ġspray":14556,"Ġstilig":14557,"ĠAudrey":14558,"ĠAmber":14559,"Ġinternational":14560,"ĠTam":14561,"inky":14562,"ĠÃ¤ckligt":14563,"Ġsven":14564,"Ġbrush":14565,"Ġ33":14566,"eau":14567,"ĠVick":14568,"icin":14569,"ĠrÃ¶ker":14570,"Wasn":14571,"Ġfraud":14572,"Ġdocuments":14573,"hers":14574,"stjÃ¤rna":14575,"Aye":14576,"Ġinstant":14577,"bour":14578,"Ġsack":14579,"Ġlemon":14580,"ĠHos":14581,"Alltid":14582,"ĠfrÃ¤mling":14583,"itors":14584,"Won":14585,"laced":14586,"ĠbjÃ¶rn":14587,"Ġprin":14588,"Ġansvaret":14589,"ĠâĢ":14590,"ĠCorn":14591,"Ġorph":14592,"Da":14593,"Ġwrest":14594,"Ġreaktion":14595,"Ap":14596,"ĠBenjamin":14597,"Bak":14598,"ĠKnight":14599,"Ġkultur":14600,"real":14601,"Ġloaded":14602,"essorn":14603,"ĠsÃ¶ner":14604,"Ġbadge":14605,"Ġusel":14606,"iki":14607,"peror":14608,"Ġ37":14609,"Ġavslutar":14610,"inent":14611,"Ġmagiska":14612,"Ġdifferently":14613,"Ġlocker":14614,"reeze":14615,"ĠapplÃ¥d":14616,"Ġbreach":14617,"Ġconditions":14618,"Gissa":14619,"Liv":14620,"wick":14621,"hop":14622,"ĠSatan":14623,"riterande":14624,"Ġmeddelanden":14625,"Ġracing":14626,"gage":14627,"Ġparticularly":14628,"Ġapple":14629,"ĠDoktor":14630,"Ġln":14631,"Inter":14632,"Ġflood":14633,"glas":14634,"Fire":14635,"Ġnormala":14636,"Ġloyalty":14637,"ĠHud":14638,"ĠvÃ¤gar":14639,"ĠNelson":14640,"PlÃ¶tsligt":14641,"Ġunderground":14642,"whel":14643,"Ġkommunic":14644,"vÃ¤rk":14645,"Ġpatet":14646,"Ġmand":14647,"rycket":14648,"Ġdrill":14649,"reviously":14650,"Amy":14651,"Tel":14652,"Ã¤nge":14653,"aktig":14654,"ĠhjÃ¤rtan":14655,"ĠEasy":14656,"Ġky":14657,"Ġhobby":14658,"ĠrÃ¤ttegÃ¥ngen":14659,"uni":14660,"ĠYe":14661,"ĠIvan":14662,"ĠEmil":14663,"Ġklokt":14664,"etto":14665,"TV":14666,
[...]
