{
  "version": "1.0",
  "truncation": {
    "direction": "Right",
    "max_length": 128,
    "strategy": "LongestFirst",
    "stride": 0
  },
  "padding": {
    "strategy": {
      "Fixed": 128
    },
    "direction": "Right",
    "pad_to_multiple_of": null,
    "pad_id": 32003,
    "pad_type_id": 0,
    "pad_token": "<pad>"
  },
  "added_tokens": [
    {
      "id": 32000,
      "content": "<s>",
      "single_word": false,
      "lstrip": false,
      "rstrip": false,
      "normalized": true,
      "special": true
    },
    {
      "id": 32001,
      "content": "</s>",
      "single_word": false,
      "lstrip": false,
      "rstrip": false,
      "normalized": true,
      "special": true
    },
    {
      "id": 32002,
      "content": "<unk>",
      "single_word": false,
      "lstrip": false,
      "rstrip": false,
      "normalized": true,
      "special": true
    },
    {
      "id": 32003,
      "content": "<pad>",
      "single_word": false,
      "lstrip": false,
      "rstrip": false,
      "normalized": true,
      "special": true
    },
    {
      "id": 32004,
      "content": "<mask>",
      "single_word": false,
      "lstrip": false,
      "rstrip": false,
      "normalized": false,
      "special": true
    }
  ],
  "normalizer": null,
  "pre_tokenizer": {
    "type": "ByteLevel",
    "add_prefix_space": true,
    "trim_offsets": true,
    "use_regex": true
  },
  "post_processor": {
    "type": "ByteLevel",
    "add_prefix_space": true,
    "trim_offsets": false,
    "use_regex": true
  },
  "decoder": {
    "type": "ByteLevel",
    "add_prefix_space": true,
    "trim_offsets": true,
    "use_regex": true
  },
  "model": {
    "type": "BPE",
    "dropout": null,
    "unk_token": null,
    "continuing_subword_prefix": "",
    "end_of_word_suffix": "",
    "fuse_unk": false,
    "byte_fallback": false,
    "ignore_merges": false,
    "vocab": {
      "!": 0,
      "\"": 1,
      "#": 2,
      "$": 3,
      "%": 4,
      "&": 5,
      "'": 6,
      "(": 7,
      ")": 8,
      "*": 9,
      "+": 10,
      ",": 11,
      "-": 12,
      ".": 13,
      "/": 14,
      "0": 15,
      "1": 16,
      "2": 17,
      "3": 18,
      "4": 19,
      "5": 20,
      "6": 21,
      "7": 22,
      "8": 23,
      "9": 24,
      ":": 25,
      ";": 26,
      "<": 27,
      "=": 28,
      ">": 29,
      "?": 30,
      "@": 31,
      "A": 32,
      "B": 33,
      "C": 34,
      "D": 35,
      "E": 36,
      "F": 37,
      "G": 38,
      "H": 39,
      "I": 40,
      "J": 41,
      "K": 42,
      "L": 43,
      "M": 44,
      "N": 45,
      "O": 46,
      "P": 47,
      "Q": 48,
      "R": 49,
      "S": 50,
      "T": 51,
      "U": 52,
      "V": 53,
      "W": 54,
      "X": 55,
      "Y": 56,
      "Z": 57,
      "[": 58,
      "\\": 59,
      "]": 60,
      "^": 61,
      "_": 62,
      "`": 63,
      "a": 64,
      "b": 65,
      "c": 66,
      "d": 67,
      "e": 68,
      "f": 69,
      "g": 70,
      "h": 71,
      "i": 72,
      "j": 73,
      "k": 74,
      "l": 75,
      "m": 76,
      "n": 77,
      "o": 78,
      "p": 79,
      "q": 80,
      "r": 81,
      "s": 82,
      "t": 83,
      "u": 84,
      "v": 85,
      "w": 86,
      "x": 87,
      "y": 88,
      "z": 89,
      "{": 90,
      "|": 91,
      "}": 92,
      "~": 93,
      "¡": 94,
      "¢": 95,
      "£": 96,
      "¤": 97,
      "¥": 98,
      "¦": 99,
      "§": 100,
      "¨": 101,
      "©": 102,
      "ª": 103,
      "«": 104,
      "¬": 105,
      "®": 106,
      "¯": 107,
      "°": 108,
      "±": 109,
      "²": 110,
      "³": 111,
      "´": 112,
      "µ": 113,
      "¶": 114,
      "·": 115,
      "¸": 116,
      "¹": 117,
      "º": 118,
      "»": 119,
      "¼": 120,
      "½": 121,
      "¾": 122,
      "¿": 123,
      "À": 124,
      "Á": 125,
      "Â": 126,
      "Ã": 127,
      "Ä": 128,
      "Å": 129,
      "Æ": 130,
      "Ç": 131,
      "È": 132,
      "É": 133,
      "Ê": 134,
      "Ë": 135,
      "Ì": 136,
      "Í": 137,
      "Î": 138,
      "Ï": 139,
      "Ð": 140,
      "Ñ": 141,
      "Ò": 142,
      "Ó": 143,
      "Ô": 144,
      "Õ": 145,
      "Ö": 146,
      "×": 147,
      "Ø": 148,
      "Ù": 149,
      "Ú": 150,
      "Û": 151,
      "Ü": 152,
      "Ý": 153,
      "Þ": 154,
      "ß": 155,
      "à": 156,
      "á": 157,
      "â": 158,
      "ã": 159,
      "ä": 160,
      "å": 161,
      "æ": 162,
      "ç": 163,
      "è": 164,
      "é": 165,
      "ê": 166,
      "ë": 167,
      "ì": 168,
      "í": 169,
      "î": 170,
      "ï": 171,
      "ð": 172,
      "ñ": 173,
      "ò": 174,
      "ó": 175,
      "ô": 176,
      "õ": 177,
      "ö": 178,
      "÷": 179,
      "ø": 180,
      "ù": 181,
      "ú": 182,
      "û": 183,
      "ü": 184,
      "ý": 185,
      "þ": 186,
      "ÿ": 187,
      "Ā": 188,
      "ā": 189,
      "Ă": 190,
      "ă": 191,
      "Ą": 192,
      "ą": 193,
      "Ć": 194,
      "ć": 195,
      "Ĉ": 196,
      "ĉ": 197,
      "Ċ": 198,
      "ċ": 199,
      "Č": 200,
      "č": 201,
      "Ď": 202,
      "ď": 203,
      "Đ": 204,
      "đ": 205,
      "Ē": 206,
      "ē": 207,
      "Ĕ": 208,
      "ĕ": 209,
      "Ė": 210,
      "ė": 211,
      "Ę": 212,
      "ę": 213,
      "Ě": 214,
      "ě": 215,
      "Ĝ": 216,
      "ĝ": 217,
      "Ğ": 218,
      "ğ": 219,
      "Ġ": 220,
      "ġ": 221,
      "Ģ": 222,
      "ģ": 223,
      "Ĥ": 224,
      "ĥ": 225,
      "Ħ": 226,
      "ħ": 227,
      "Ĩ": 228,
      "ĩ": 229,
      "Ī": 230,
      "ī": 231,
      "Ĭ": 232,
      "ĭ": 233,
      "Į": 234,
      "į": 235,
      "İ": 236,
      "ı": 237,
      "Ĳ": 238,
      "ĳ": 239,
      "Ĵ": 240,
      "ĵ": 241,
      "Ķ": 242,
      "ķ": 243,
      "ĸ": 244,
      "Ĺ": 245,
      "ĺ": 246,
      "Ļ": 247,
      "ļ": 248,
      "Ľ": 249,
      "ľ": 250,
      "Ŀ": 251,
      "ŀ": 252,
      "Ł": 253,
      "ł": 254,
      "Ń": 255,
      "čĊ": 256,
      "Ġt": 257,
      "in": 258,
      "Ġs": 259,
      "er": 260,
      "Ġa": 261,
      "Ġd": 262,
      "Ġh": 263,
      "en": 264,
      "Ã¤": 265,
      "ar": 266,
      "Ġm": 267,
      "ou": 268,
      "et": 269,
      "an": 270,
      "Ġth": 271,
      "ll": 272,
      "Ġf": 273,
      "Ã¥": 274,
      "Ġb": 275,
      "on": 276,
      "Ġw": 277,
      "at": 278,
      "Ã¶": 279,
      "or": 280,
      "it": 281,
      "om": 282,
      "Ġv": 283,
      "Ġg": 284,
      "Ã¤r": 285,
      "ing": 286,
      "ag": 287,
      "st": 288,
      "re": 289,
      "Ġp": 290,
      "Ġy": 291,
      "ig": 292,
      "Ġn": 293,
      "Ġl": 294,
      "Ġk": 295,
      "Ġyou": 296,
      "is": 297,
      "Ġo": 298,
      "Ġthe": 299,
      "Ġin": 300,
      "..": 301,
      "ed": 302,
      "Ġc": 303,
      "Ġto": 304,
      "tt": 305,
      "Ã¶r": 306,
      "ad": 307,
      "nd": 308,
      "ĠI": 309,
      "Ġj": 310,
      "ĠÃ¤r": 311,
      "ch": 312,
      "te": 313,
      "ck": 314,
      "ill": 315,
      "es": 316,
      "as": 317,
      "'s": 318,
      "Ġu": 319,
      "Ġatt": 320,
      "el": 321,
      "Ġdet": 322,
      "ow": 323,
      "Jag": 324,
      "ot": 325,
      "ve": 326,
      "id": 327,
      "Ġdu": 328,
      "...": 329,
      "al": 330,
      "Ġbe": 331,
      "Ġinte": 332,
      "Ġen": 333,
      "Ġr": 334,
      "ĠfÃ¶r": 335,
      "Ġof": 336,
      "ay": 337,
      "am": 338,
      "le": 339,
      "Ġjag": 340,
      "Ġi": 341,
      "Ġit": 342,
      "ld": 343,
      "Th": 344,
      "ere": 345,
      "'t": 346,
      "ke": 347,
      "Ġst": 348,
      "Ġe": 349,
      "ver": 350,
      "Ġand": 351,
      "Ġthat": 352,
      "na": 353,
      "ut": 354,
      "pp": 355,
      "Ġsk": 356,
      "Ġwh": 357,
      "Ġsom": 358,
      "Ġme": 359,
      "Ġon": 360,
      "Ġha": 361,
      "Det": 362,
      "ra": 363,
      "Ã¤n": 364,
      "ĠpÃ¥": 365,
      "Ġvar": 366,
      "Ġoch": 367,
      "You": 368,
      "Ġhar": 369,
      "ĠS": 370,
      "Ġis": 371,
      "Ġre": 372,
      "im": 373,
      "ade": 374,
      "ur": 375,
      "se": 376,
      "Ġfor": 377,
      "oo": 378,
      "and": 379,
      "Ġan": 380,
      "Ġhe": 381,
      "out": 382,
      "ro": 383,
      "Ġli": 384,
      "Ġdo": 385,
      "ht": 386,
      "Ġwe": 387,
      "all": 388,
      "ĠM": 389,
      "Ã¥r": 390,
      "il": 391,
      "Ġde": 392,
      "Ġall": 393,
      "Ġmed": 394,
      "ent": 395,
      "ĠH": 396,
      "ir": 397,
      "ce": 398,
      "ust": 399,
      "Ġfr": 400,
      "Ġmy": 401,
      "ak": 402,
      "Ġtill": 403,
      "ion": 404,
      "ter": 405,
      "Ã¥n": 406,
      "Ġmig": 407,
      "Ġsh": 408,
      "Wh": 409,
      "Ġkn": 410,
      "Ġwas": 411,
      "ĠA": 412,
      "ĠD": 413,
      "Ġ-": 414,
      "We": 415,
      "Ġvi": 416,
      "ss": 417,
      "Ġgo": 418,
      "ant": 419,
      "ĠhÃ¤r": 420,
      "'m": 421,
      "Ġom": 422,
      "Ġthis": 423,
      "ĠC": 424,
      "itt": 425,
      "ett": 426,
      "Ġyour": 427,
      "Ġhave": 428,
      "Ġkan": 429,
      "ith": 430,
      "ight": 431,
      "ĠB": 432,
      "Ġse": 433,
      "ri": 434,
      "'re": 435,
      "ol": 436,
      "Ġdig": 437,
      "Ġknow": 438,
      "un": 439,
      "ould": 440,
      "ĠsÃ¥": 441,
      "de": 442,
      "Ġnot": 443,
      "Ġne": 444,
      "sk": 445,
      "ct": 446,
      "Ġwith": 447,
      "Vi": 448,
      "ack": 449,
      "ly": 450,
      "Ã¤l": 451,
      "Ġmin": 452,
      "kt": 453,
      "Ġtr": 454,
      "The": 455,
      "Du": 456,
      "Ġden": 457,
      "Ġav": 458,
      "lig": 459,
      "ea": 460,
      "ĠT": 461,
      "Ġcan": 462,
      "Ġjust": 463,
      "Ġhan": 464,
      "Ġdon": 465,
      "ĠG": 466,
      "Ġhon": 467,
      "ĠN": 468,
      "th": 469,
      "op": 470,
      "us": 471,
      "ĠL": 472,
      "omm": 473,
      "Ġwhat": 474,
      "li": 475,
      "ĠJ": 476,
      "Ã¤tt": 477,
      "ste": 478,
      "art": 479,
      "Ġare": 480,
      "ara": 481,
      "Ã¤g": 482,
      "Ġab": 483,
      "ĠO": 484,
      "Ġlike": 485,
      "ic": 486,
      "ull": 487,
      "Ã¥t": 488,
      "Ġso": 489,
      "ĠP": 490,
      "are": 491,
      "ning": 492,
      "Ġvill": 493,
      "Ġett": 494,
      "Ġman": 495,
      "ink": 496,
      "ff": 497,
      "ell": 498,
      "ĠF": 499,
      "Ġsa": 500,
      "Ġout": 501,
      "ome": 502,
      "ick": 503,
      "ry": 504,
      "ort": 505,
      "em": 506,
      "It": 507,
      "Ġget": 508,
      "ers": 509,
      "Ġska": 510,
      "Ġsp": 511,
      "ake": 512,
      "od": 513,
      "Ġup": 514,
      "um": 515,
      "He": 516,
      "Ġch": 517,
      "Ġno": 518,
      "ĠgÃ¶r": 519,
      "Ã¥g": 520,
      "Ġabout": 521,
      "ka": 522,
      "Ġhere": 523,
      "our": 524,
      "Ġut": 525,
      "Ġmen": 526,
      "What": 527,
      "'ll": 528,
      "one": 529,
      "Ġni": 530,
      "ul": 531,
      "Ġwant": 532,
      "ĠR": 533,
      "ook": 534,
      "And": 535,
      "ie": 536,
      "ne": 537,
      "ta": 538,
      "Ġfin": 539,
      "Ġher": 540,
      "Ġkomm": 541,
      "ist": 542,
      "ess": 543,
      "Ġhim": 544,
      "ood": 545,
      "Ã¤nd": 546,
      "ast": 547,
      "her": 548,
      "Ġdid": 549,
      "ĠK": 550,
      "ore": 551,
      "ally": 552,
      "Ġvet": 553,
      "Ġpl": 554,
      "Ġright": 555,
      "Ġthere": 556,
      "Ġor": 557,
      "Ġat": 558,
      "Ġwor": 559,
      "ĠÃ¶": 560,
      "ĠE": 561,
      "Ġthink": 562,
      "ĠV": 563,
      "Ġ\"": 564,
      "ud": 565,
      "Han": 566,
      "Ġbara": 567,
      "ĠmÃ¥": 568,
      "Ġbl": 569,
      "ation": 570,
      "ab": 571,
      "oug": 572,
      "ga": 573,
      "ob": 574,
      "Ġone": 575,
      "fÃ¶r": 576,
      "Ġbut": 577,
      "Ġlo": 578,
      "ller": 579,
      "eah": 580,
      "Ġhel": 581,
      "That": 582,
      "Ġdin": 583,
      "ap": 584,
      "Ġpro": 585,
      "Ġsu": 586,
      "'ve": 587,
      "Ġpr": 588,
      "Ġthey": 589,
      "au": 590,
      "ven": 591,
      "ans": 592,
      "os": 593,
      "Ġupp": 594,
      "ns": 595,
      "ker": 596,
      "ĠdÃ¤r": 597,
      "ma": 598,
      "ĠJag": 599,
      "Ġif": 600,
      "Ġgot": 601,
      "end": 602,
      "Ġtim": 603,
      "Ġany": 604,
      "Ġus": 605,
      "ĠmÃ¥ste": 606,
      "hing": 607,
      "he": 608,
      "Ġkommer": 609,
      "ge": 610,
      "da": 611,
      "ej": 612,
      "Ġbr": 613,
      "Ã¤m": 614,
      "Ġing": 615,
      "Ġar": 616,
      "Ã¤ll": 617,
      "Ġhonom": 618,
      "Ġsome": 619,
      "ĠYou": 620,
      "Ġshe": 621,
      "Ġvad": 622,
      "Ġskull": 623,
      "if": 624,
      "jÃ¤l": 625,
      "ĠW": 626,
      "Ġal": 627,
      "und": 628,
      "Ġex": 629,
      "Ġsl": 630,
      "Ġer": 631,
      "Yeah": 632,
      "ger": 633,
      "onna": 634,
      "Ġfrom": 635,
      "uck": 636,
      "ard": 637,
      "Ġever": 638,
      "fter": 639,
      "Ġgonna": 640,
      "Ġskulle": 641,
      "Well": 642,
      "Ġnu": 643,
      "ate": 644,
      "ite": 645,
      "Ġas": 646,
      "Men": 647,
      "ive": 648,
      "Ġle": 649,
      "Ġnow": 650,
      "Ġneed": 651,
      "Ġwould": 652,
      "iss": 653,
      "Och": 654,
      "Ġwho": 655,
      "ÃĦ": 656,
      "Vad": 657,
      "ong": 658,
      "ĠnÃ¤r": 659,
      "la": 660,
      "Ġback": 661,
      "ame": 662,
      "Ġgu": 663,
      "ner": 664,
      "Ġwill": 665,
      "Ġsee": 666,
      "att": 667,
      "Ġvara": 668,
      "kay": 669,
      "Ġund": 670,
      "Ġallt": 671,
      "est": 672,
      "ep": 673,
      "Ġtal": 674,
      "ound": 675,
      "Ġhen": 676,
      "Ġtime": 677,
      "Ġhis": 678,
      "Ġver": 679,
      "But": 680,
      "iv": 681,
      "Ġoff": 682,
      "der": 683,
      "Ġsay": 684,
      "Ġsig": 685,
      "Ġthem": 686,
      "Ġoss": 687,
      "Ġbeh": 688,
      "ass": 689,
      "qu": 690,
      "ank": 691,
      "So": 692,
      ".\"": 693,
      "Ġlook": 694,
      "Ġcon": 695,
      "In": 696,
      "Ġgoing": 697,
      "own": 698,
      "De": 699,
      "No": 700,
      "gen": 701,
      "Ġdem": 702,
      "sta": 703,
      "Ġcould": 704,
      "Ġwere": 705,
      "ĠgÃ¶ra": 706,
      "ĠnÃ¥g": 707,
      "ande": 708,
      "Ġhad": 709,
      "Ġthing": 710,
      "way": 711,
      "ĠDet": 712,
      "igt": 713,
      "ause": 714,
      "Ġbeen": 715,
      "ĠfÃ¥r": 716,
      "Ġbo": 717,
      "ord": 718,
      "ens": 719,
      "ĠÃ¶ver": 720,
      "Ġ1": 721,
      "Ġbra": 722,
      "Ġgr": 723,
      "ars": 724,
      "Ġfe": 725,
      "ligt": 726,
      "ft": 727,
      "Ġgood": 728,
      "Ġhade": 729,
      "Oh": 730,
      "Ġbet": 731,
      "Ġhur": 732,
      "This": 733,
      "Ġour": 734,
      "ble": 735,
      "ĠsÃ¤g": 736,
      "Ġby": 737,
      "oll": 738,
      "Ġcom": 739,
      "ind": 740,
      "ĠdÃ¶": 741,
      "orde": 742,
      "ĠfrÃ¥n": 743,
      "Ġig": 744,
      "00": 745,
      "Ġta": 746,
      "ase": 747,
      "per": 748,
      "het": 749,
      "av": 750,
      "fe": 751,
      "Var": 752,
      "rig": 753,
      "Ġevery": 754,
      "cause": 755,
      "thing": 756,
      "ys": 757,
      "Ja": 758,
      "Ġint": 759,
      "They": 760,
      "Ġhand": 761,
      "lo": 762,
      "ure": 763,
      "ough": 764,
      "ide": 765,
      "Ġwhen": 766,
      "'d": 767,
      "Hon": 768,
      "lar": 769,
      "ost": 770,
      "Ġunder": 771,
      "Ġtell": 772,
      "ĠfÃ¥": 773,
      "Ġhenne": 774,
      "ÃĦr": 775,
      "Ġjob": 776,
      "Ġsomet": 777,
      "All": 778,
      "Ġtoo": 779,
      "ire": 780,
      "FÃ¶r": 781,
      "Ġun": 782,
      "Ġser": 783,
      "ik": 784,
      "Ġgj": 785,
      "ber": 786,
      "ine": 787,
      "Ġdidn": 788,
      "ĠdÃ¥": 789,
      "Ġpre": 790,
      "Ġway": 791,
      "ous": 792,
      "Ġreally": 793,
      "other": 794,
      "Ġcome": 795,
      "Ã¥ng": 796,
      "Ġhow": 797,
      "Ġwork": 798,
      "Ġeller": 799,
      "ice": 800,
      "Ġlet": 801,
      "ĠIt": 802,
      "ĠfÃ¶rs": 803,
      "Ġdr": 804,
      "ĠbehÃ¶": 805,
      "Ġtake": 806,
      "Ġigen": 807,
      "Ġdown": 808,
      "Ġtalk": 809,
      "Ġsm": 810,
      "ĠnÃ¥t": 811,
      "ug": 812,
      "be": 813,
      "Ġkv": 814,
      "ĠY": 815,
      "app": 816,
      "Ġkill": 817,
      "cket": 818,
      "Om": 819,
      "mer": 820,
      "arna": 821,
      "Ġpe": 822,
      "Ġmake": 823,
      "Ġhapp": 824,
      "Ġsomething": 825,
      "Ġhas": 826,
      "ĠvÃ¤n": 827,
      "Ġcall": 828,
      "Ġtv": 829,
      "Ġalla": 830,
      "ople": 831,
      "arn": 832,
      "ci": 833,
      "ĠCh": 834,
      "SÃ¥": 835,
      "Ã¤ng": 836,
      "kej": 837,
      "Ġshould": 838,
      "En": 839,
      "Ġliv": 840,
      "Ġnever": 841,
      "Nej": 842,
      "isk": 843,
      "Ġmore": 844,
      "There": 845,
      "opp": 846,
      "amma": 847,
      "ace": 848,
      "She": 849,
      "ny": 850,
      "Ġsen": 851,
      "ĠkÃ¤n": 852,
      "Ġvis": 853,
      "Ġover": 854,
      "ĠÃ¤n": 855,
      "Den": 856,
      "Ġbli": 857,
      "ĠnÃ¥n": 858,
      "ark": 859,
      "ĠgÃ¥": 860,
      "Ġmean": 861,
      "yck": 862,
      "ĠgÃ¥r": 863,
      "Ġhem": 864,
      "get": 865,
      "ittle": 866,
      "va": 867,
      "Ġam": 868,
      "Ġtid": 869,
      "ja": 870,
      "erna": 871,
      "ich": 872,
      "âĻ": 873,
      "reat": 874,
      "ldrig": 875,
      "âĻª": 876,
      "ĠHe": 877,
      "Ġsv": 878,
      "sp": 879,
      "Ġpo": 880,
      "ought": 881,
      "ies": 882,
      "Ġkom": 883,
      "Ġsaid": 884,
      "ity": 885,
      "ia": 886,
      "Ġpeople": 887,
      "dd": 888,
      "ose": 889,
      "ĠÃ¥": 890,
      "Ġsin": 891,
      "ip": 892,
      "Ġ2": 893,
      "Ġid": 894,
      "Ġthen": 895,
      "Ġaldrig": 896,
      "nt": 897,
      "Ġprat": 898,
      "og": 899,
      "ĠtÃ¤n": 900,
      "ish": 901,
      "If": 902,
      "Ġlittle": 903,
      "ĠWe": 904,
      "ect": 905,
      "Ġdag": 906,
      "Ġdoes": 907,
      "Ġmycket": 908,
      "Ġlite": 909,
      "nan": 910,
      "elf": 911,
      "ĠbehÃ¶ver": 912,
      "ĠWhat": 913,
      "wo": 914,
      "pa": 915,
      "pt": 916,
      "era": 917,
      "ild": 918,
      "akt": 919,
      "Ġtror": 920,
      "Ġday": 921,
      "ats": 922,
      "Ġefter": 923,
      "ont": 924,
      "ĠU": 925,
      "Ġim": 926,
      "St": 927,
      "ub": 928,
      "Ġber": 929,
      "Ġmitt": 930,
      "Ġsak": 931,
      "ĠvÃ¤l": 932,
      "ody": 933,
      "ree": 934,
      "Ġhitt": 935,
      "ĠhjÃ¤l": 936,
      "Ġfuck": 937,
      "Ġblir": 938,
      "Ġjobb": 939,
      "Hur": 940,
      "Ġingen": 941,
      "ĠNo": 942,
      "Ġqu": 943,
      "ew": 944,
      "erson": 945,
      "man": 946,
      "ĠfÃ¶rst": 947,
      "Ġhelp": 948,
      "cks": 949,
      "amil": 950,
      "Ġfinns": 951,
      "Ġgl": 952,
      "ĠfÃ¶": 953,
      "Ġonly": 954,
      "ske": 955,
      "Ġny": 956,
      "ĠDu": 957,
      "ĠWh": 958,
      "Ġmu": 959,
      "Ġmor": 960,
      "Ġfind": 961,
      "ju": 962,
      "ĠSt": 963,
      "ady": 964,
      "Ġfeel": 965,
      "red": 966,
      "ken": 967,
      "int": 968,
      "Ã¶m": 969,
      "ach": 970,
      "aka": 971,
      "ligen": 972,
      "ait": 973,
      "Ġkanske": 974,
      "nar": 975,
      "Ġmot": 976,
      "Ġte": 977,
      "ĠAnd": 978,
      "ĠVi": 979,
      "Ġmer": 980,
      "ling": 981,
      "Ġlea": 982,
      "kar": 983,
      "Ġju": 984,
      "ĠÃ¥t": 985,
      "lease": 986,
      "Ġfl": 987,
      "Do": 988,
      "ress": 989,
      "Ġel": 990,
      "ĠhÃ¤nd": 991,
      "ther": 992,
      "Ġeven": 993,
      "orry": 994,
      "Ġkl": 995,
      "gain": 996,
      "age": 997,
      "Ã¤ck": 998,
      "Ġfamil": 999,
      "How": 1000,
      "Ġmo": 1001,
      "iz": 1002,
      "Ġtry": 1003,
      "ue": 1004,
      "Ġvery": 1005,
      "Ġtar": 1006,
      "Ã¤v": 1007,
      "Ã¥ll": 1008,
      "ond": 1009,
      "Ġwhy": 1010,
      "anna": 1011,
      "Ġwhere": 1012,
      "irst": 1013,
      "ang": 1014,
      "Ġbecause": 1015,
      "Ġstor": 1016,
      "aybe": 1017,
      "Hey": 1018,
      "Ġsc": 1019,
      "ĠbÃ¶r": 1020,
      "ĠhÃ¶r": 1021,
      "Ġmuch": 1022,
      "ving": 1023,
      "Ġagain": 1024,
      "Ġpart": 1025,
      "Ġtwo": 1026,
      "Ġlove": 1027,
      "Ġtro": 1028,
      "ock": 1029,
      "ĠYeah": 1030,
      "Ġfri": 1031,
      "ster": 1032,
      "Ġinto": 1033,
      "Ġsn": 1034,
      "ool": 1035,
      "Ġwon": 1036,
      "ĠsjÃ¤l": 1037,
      "Ġbef": 1038,
      "Ã¤tta": 1039,
      "âĢ": 1040,
      "atch": 1041,
      "ĠvÃ¤r": 1042,
      "Ġtillb": 1043,
      "Ġperson": 1044,
      "ĠÃ¥r": 1045,
      "ons": 1046,
      "Ġdi": 1047,
      "Ġhappen": 1048,
      "ely": 1049,
      "self": 1050,
      "Ġsy": 1051,
      "Ġstr": 1052,
      "Ni": 1053,
      "Ġnog": 1054,
      "Har": 1055,
      "ance": 1056,
      "ĠvÃ¥r": 1057,
      "Ġpol": 1058,
      "eep": 1059,
      "amm": 1060,
      "ĠtvÃ¥": 1061,
      "ĠdÃ¶d": 1062,
      "Ġgjorde": 1063,
      "My": 1064,
      "rar": 1065,
      "ater": 1066,
      "Ġinget": 1067,
      "Ġfick": 1068,
      "ĠOh": 1069,
      "sl": 1070,
      "wn": 1071,
      "Ġye": 1072,
      "Ġdoing": 1073,
      "ef": 1074,
      "Ġplan": 1075,
      "old": 1076,
      "Ġstill": 1077,
      "kte": 1078,
      "Ġokay": 1079,
      "Ġother": 1080,
      "Ġsure": 1081,
      "Ġhans": 1082,
      "Ġhit": 1083,
      "tta": 1084,
      "Ġstart": 1085,
      "Ġfort": 1086,
      "Ġbad": 1087,
      "ix": 1088,
      "Ġtillbaka": 1089,
      "orm": 1090,
      "pl": 1091,
      "ru": 1092,
      "we": 1093,
      "ence": 1094,
      "Ġask": 1095,
      "Ã¤lsk": 1096,
      "ac": 1097,
      "lev": 1098,
      "irl": 1099,
      "ile": 1100,
      "ath": 1101,
      "ĠfÃ¶rsÃ¶": 1102,
      "Ġthought": 1103,
      "Ġbel": 1104,
      "Ġspe": 1105,
      "VarfÃ¶r": 1106,
      "Ġfar": 1107,
      "Ġlife": 1108,
      "ĠsÃ¤ger": 1109,
      "Ã¤st": 1110,
      "Ġthr": 1111,
      "ĠtrÃ¤": 1112,
      "gon": 1113,
      "ningen": 1114,
      "Ġthan": 1115,
      "ment": 1116,
      "Ġmiss": 1117,
      "amn": 1118,
      "iga": 1119,
      "Ġslut": 1120,
      "NÃ¤r": 1121,
      "Ġanything": 1122,
      "ER": 1123,
      "Ġlast": 1124,
      "ĠThe": 1125,
      "Ġfirst": 1126,
      "ĠÃ¤lsk": 1127,
      "Ġper": 1128,
      "Ġtheir": 1129,
      "Ġnew": 1130,
      "Ġville": 1131,
      "sh": 1132,
      "ĠvÃ¤g": 1133,
      "Ġner": 1134,
      "ĠrÃ¤tt": 1135,
      "ave": 1136,
      "ikt": 1137,
      "Ġcl": 1138,
      "Ġbort": 1139,
      "cc": 1140,
      "Ġfun": 1141,
      "Ġgive": 1142,
      "Ġocks": 1143,
      "Ġro": 1144,
      "gg": 1145,
      "ĠocksÃ¥": 1146,
      "ĠMr": 1147,
      "Okay": 1148,
      "Ġkid": 1149,
      "ĠTh": 1150,
      "vis": 1151,
      "Ġact": 1152,
      "ek": 1153,
      "Ġthings": 1154,
      "IN": 1155,
      "Ġkund": 1156,
      "aking": 1157,
      "eck": 1158,
      "ute": 1159,
      "Ġbarn": 1160,
      "ret": 1161,
      "ever": 1162,
      "Ġthese": 1163,
      "ring": 1164,
      "ĠThat": 1165,
      "Ġfriend": 1166,
      "Ġwell": 1167,
      "ather": 1168,
      "day": 1169,
      "ren": 1170,
      "Just": 1171,
      "Let": 1172,
      "Nu": 1173,
      "Ġtold": 1174,
      "Why": 1175,
      "Ġtur": 1176,
      "ways": 1177,
      "Ġbefore": 1178,
      "sen": 1179,
      "blem": 1180,
      "Ġring": 1181,
      "ann": 1182,
      "olk": 1183,
      "Ġhome": 1184,
      "Min": 1185,
      "bb": 1186,
      "xt": 1187,
      "Ġdis": 1188,
      "Ġvid": 1189,
      "Ġditt": 1190,
      "ult": 1191,
      "ng": 1192,
      "Ġnight": 1193,
      "Ġtra": 1194,
      "Ġrun": 1195,
      "var": 1196,
      "Ġborde": 1197,
      "ĠrÃ¤": 1198,
      "Ġdel": 1199,
      "ĠVad": 1200,
      "oh": 1201,
      "Ġandra": 1202,
      "Ġsorry": 1203,
      "ĠsÃ¤ga": 1204,
      "ĠsjÃ¤lv": 1205,
      "body": 1206,
      "sa": 1207,
      "Ã¤kt": 1208,
      "Ġaway": 1209,
      "Ġbit": 1210,
      "Ġkunde": 1211,
      "Now": 1212,
      "Don": 1213,
      "ouse": 1214,
      "Look": 1215,
      "Ġfel": 1216,
      "ĠnÃ¥got": 1217,
      "Ġbu": 1218,
      "Ã¶j": 1219,
      "Ġfa": 1220,
      "Ġkeep": 1221,
      "Ġgen": 1222,
      "Ġgirl": 1223,
      "Ġbest": 1224,
      "liga": 1225,
      "Be": 1226,
      "kl": 1227,
      "Ġcar": 1228,
      "Ġfram": 1229,
      "Ġmina": 1230,
      "eng": 1231,
      "ise": 1232,
      "ian": 1233,
      "Ġson": 1234,
      "ĠsÃ¤": 1235,
      "aren": 1236,
      "Ġwr": 1237,
      "Ġass": 1238,
      "Ã¤ld": 1239,
      "appa": 1240,
      "ĠTH": 1241,
      "ĠJa": 1242,
      "Ġshow": 1243,
      "Ġput": 1244,
      "Ġproblem": 1245,
      "Ġins": 1246,
      "Okej": 1247,
      "Ġred": 1248,
      "Ġ'": 1249,
      "eter": 1250,
      "tar": 1251,
      "Ġafter": 1252,
      "Ġcou": 1253,
      "land": 1254,
      "Ġkind": 1255,
      "ĠmÃ¥n": 1256,
      "Ġens": 1257,
      "Ġsec": 1258,
      "ĠmÃ¤n": 1259,
      "Ġalways": 1260,
      "Kom": 1261,
      "io": 1262,
      "Ġthose": 1263,
      "ĠtrÃ¤ff": 1264,
      "dde": 1265,
      "ĠIn": 1266,
      "Ġag": 1267,
      "oth": 1268,
      "etting": 1269,
      "Ġlot": 1270,
      "Ġguy": 1271,
      "ĠbÃ¶rj": 1272,
      "rÃ¥n": 1273,
      "ĠâĻª": 1274,
      "ska": 1275,
      "Ġutan": 1276,
      "Ã©": 1277,
      "Ġfly": 1278,
      "Ġguys": 1279,
      "Ġverk": 1280,
      "Ġdoesn": 1281,
      "nes": 1282,
      "ey": 1283,
      "ors": 1284,
      "Ġrem": 1285,
      "Ġph": 1286,
      "Ġvarit": 1287,
      "ĠDe": 1288,
      "Yes": 1289,
      "Ġtre": 1290,
      "iskt": 1291,
      "cis": 1292,
      "Ġhu": 1293,
      "ok": 1294,
      "up": 1295,
      "Ġge": 1296,
      "Ġbetter": 1297,
      "ved": 1298,
      "Ġprata": 1299,
      "Ġpar": 1300,
      "Ġreal": 1301,
      "ins": 1302,
      "Ġbig": 1303,
      "Ġalltid": 1304,
      "ary": 1305,
      "Ġwanted": 1306,
      "amp": 1307,
      "able": 1308,
      "Ġtj": 1309,
      "sten": 1310,
      "Ġann": 1311,
      "Is": 1312,
      "ier": 1313,
      "Ġwait": 1314,
      "yr": 1315,
      "Ġad": 1316,
      "Ġmade": 1317,
      "Ġfan": 1318,
      "Ġmat": 1319,
      "Ġblev": 1320,
      "Ġhus": 1321,
      "Kan": 1322,
      "ee": 1323,
      "ĠGod": 1324,
      "je": 1325,
      "ually": 1326,
      "Ġty": 1327,
      "Ġmust": 1328,
      "ious": 1329,
      "Ġbelie": 1330,
      "Ġled": 1331,
      "Ġlong": 1332,
      "Ġaround": 1333,
      "jÃ¤r": 1334,
      "els": 1335,
      "âĢĵ": 1336,
      "Ġco": 1337,
      "Ġspel": 1338,
      "ĠfrÃ¥g": 1339,
      "Ġ3": 1340,
      "ĠsÃ¥g": 1341,
      "Ġtri": 1342,
      "Ġnothing": 1343,
      "Ã¤sta": 1344,
      "ung": 1345,
      "Âł": 1346,
      "bet": 1347,
      "Ġtog": 1348,
      "aug": 1349,
      "eg": 1350,
      "Ġlit": 1351,
      "Ġeverything": 1352,
      "Ġgjort": 1353,
      "OU": 1354,
      "Ġcare": 1355,
      "ions": 1356,
      "ades": 1357,
      "rs": 1358,
      "Ġplay": 1359,
      "Ġthrough": 1360,
      "uff": 1361,
      "Ġmamma": 1362,
      "Ã¶g": 1363,
      "orn": 1364,
      "Ġplace": 1365,
      "Ġimp": 1366,
      "Ġdone": 1367,
      "Ġyears": 1368,
      "ike": 1369,
      "Ġsir": 1370,
      "Ġvil": 1371,
      "ror": 1372,
      "Ġown": 1373,
      "ĠsÃ¤ker": 1374,
      "row": 1375,
      "oney": 1376,
      "Ġbes": 1377,
      "ĠSh": 1378,
      "Ġgill": 1379,
      "vÃ¤nd": 1380,
      "Ġsch": 1381,
      "Ġname": 1382,
      "nen": 1383,
      "ĠlÃ¤": 1384,
      "ĠHan": 1385,
      "Ġem": 1386,
      "Ġhela": 1387,
      "Not": 1388,
      "vet": 1389,
      "Ġsex": 1390,
      "Ġfucking": 1391,
      "Ġgreat": 1392,
      "Ġmight": 1393,
      "oy": 1394,
      "Sk": 1395,
      "Ġkomma": 1396,
      "Ġveta": 1397,
      "Ġfall": 1398,
      "Ġord": 1399,
      "ĠlÃ¤m": 1400,
      "Ġplease": 1401,
      "Ġuh": 1402,
      "ember": 1403,
      "ĠAll": 1404,
      "Ã¤lla": 1405,
      "ĠkÃ¤nner": 1406,
      "Ġcomp": 1407,
      "Ġcoming": 1408,
      "Ġleave": 1409,
      "Ġste": 1410,
      "alk": 1411,
      "Ġdri": 1412,
      "ated": 1413,
      "Ġsomeone": 1414,
      "pen": 1415,
      "Ġold": 1416,
      "When": 1417,
      "ĠnÃ¥gra": 1418,
      "AN": 1419,
      "Som": 1420,
      "ina": 1421,
      "orna": 1422,
      "Ġbeing": 1423,
      "ĠHar": 1424,
      "DÃ¥": 1425,
      "Ġcour": 1426,
      "Ãħ": 1427,
      "als": 1428,
      "ents": 1429,
      "ĠNej": 1430,
      "Ġstay": 1431,
      "Ġhear": 1432,
      "Ġmind": 1433,
      "Hej": 1434,
      "les": 1435,
      "Ġbre": 1436,
      "Ã¶t": 1437,
      "Ġpass": 1438,
      "Ġhead": 1439,
      "Ġsist": 1440,
      "Ġpappa": 1441,
      "ope": 1442,
      "AT": 1443,
      "Ġhouse": 1444,
      "Ã¥d": 1445,
      "Ġrep": 1446,
      "Ġans": 1447,
      "ĠBut": 1448,
      "Ġbelieve": 1449,
      "Man": 1450,
      "Ã¶d": 1451,
      "Ġsupp": 1452,
      "lor": 1453,
      "ĠsÃ¤tt": 1454,
      "Ġwom": 1455,
      "Ġinf": 1456,
      "Ġdina": 1457,
      "Ġleft": 1458,
      "ye": 1459,
      "Ġfolk": 1460,
      "ris": 1461,
      "very": 1462,
      "akes": 1463,
      "vin": 1464,
      "Ġsky": 1465,
      "Come": 1466,
      "Ġapp": 1467,
      "onst": 1468,
      "cy": 1469,
      "ket": 1470,
      "Ġend": 1471,
      "Ġhell": 1472,
      "itta": 1473,
      "ĠlÃ¥t": 1474,
      "ĠÃ¤": 1475,
      "Ġmil": 1476,
      "--": 1477,
      "iska": 1478,
      "Inte": 1479,
      "Ġpa": 1480,
      "illa": 1481,
      "Ġsam": 1482,
      "Ġbil": 1483,
      "Ġcame": 1484,
      "Ġres": 1485,
      "rat": 1486,
      "ffer": 1487,
      "Ġbab": 1488,
      "Ġgick": 1489,
      "Ġgetting": 1490,
      "ful": 1491,
      "rÃ¤": 1492,
      "ĠkÃ¶": 1493,
      "Ġelse": 1494,
      "Ġfound": 1495,
      "Ġrec": 1496,
      "Ġsur": 1497,
      "Ġtrying": 1498,
      "Ġtyck": 1499,
      "Ġmom": 1500,
      "igh": 1501,
      "ĠMar": 1502,
      "Ġkvin": 1503,
      "Ã¥ra": 1504,
      "Ġbro": 1505,
      "Ġkont": 1506,
      "ash": 1507,
      "ĠVar": 1508,
      "far": 1509,
      "mar": 1510,
      "ves": 1511,
      "ĠkÃ¶r": 1512,
      "rist": 1513,
      "Ġwanna": 1514,
      "isst": 1515,
      "Ġsit": 1516,
      "Ġanother": 1517,
      "tain": 1518,
      "Ġworld": 1519,
      "ets": 1520,
      "Ġstop": 1521,
      "Who": 1522,
      "Ġexp": 1523,
      "ĠtÃ¤nker": 1524,
      "hop": 1525,
      "Ġunderst": 1526,
      "Ġmar": 1527,
      "lick": 1528,
      "ott": 1529,
      "Ġhopp": 1530,
      "ition": 1531,
      "Ġcle": 1532,
      "Ġminute": 1533,
      "ĠlÃ¥": 1534,
      "ĠSo": 1535,
      "men": 1536,
      "ĠWell": 1537,
      "Ã¤ttre": 1538,
      "Ġmoney": 1539,
      "Ġmeet": 1540,
      "ings": 1541,
      "Ġkall": 1542,
      "Ġenough": 1543,
      "wh": 1544,
      "Ã¥l": 1545,
      "Did": 1546,
      "ĠlÃ¤r": 1547,
      "Ġfull": 1548,
      "ĠFr": 1549,
      "gr": 1550,
      "aw": 1551,
      "led": 1552,
      "Ġpeng": 1553,
      "Ġwasn": 1554,
      "ĠÃ¤lskar": 1555,
      "ĠgÃ¥ng": 1556,
      "\".": 1557,
      "Ã¶rd": 1558,
      "Ġtrodde": 1559,
      "Ġhappened": 1560,
      "Ġsett": 1561,
      "eras": 1562,
      "Ġly": 1563,
      "uta": 1564,
      "ON": 1565,
      "ty": 1566,
      "ĠbÃ¤ttre": 1567,
      "Ġfamily": 1568,
      "Ġ5": 1569,
      "ident": 1570,
      "Ã¥rt": 1571,
      "ĠYes": 1572,
      "mm": 1573,
      "Ġverkligen": 1574,
      "Tack": 1575,
      "iver": 1576,
      "nade": 1577,
      "act": 1578,
      "oot": 1579,
      "Ġmother": 1580,
      "ange": 1581,
      "Ġbus": 1582,
      "Ġremember": 1583,
      "Ġacc": 1584,
      "Ġlooking": 1585,
      "RE": 1586,
      "Ġokej": 1587,
      "ING": 1588,
      "Ġhal": 1589,
      "Ġfil": 1590,
      "Your": 1591,
      "jer": 1592,
      "Ġsame": 1593,
      "Ġgotta": 1594,
      "ctor": 1595,
      "Ġnice": 1596,
      "Ġhennes": 1597,
      "ĠnÃ¥gon": 1598,
      "ned": 1599,
      "ph": 1600,
      "Ġtalking": 1601,
      "Uh": 1602,
      "Ġwent": 1603,
      "ĠjÃ¤v": 1604,
      "Ska": 1605,
      "Ġyeah": 1606,
      "Ġisn": 1607,
      "Ġtack": 1608,
      "Ġma": 1609,
      "ime": 1610,
      "ib": 1611,
      "Ġsju": 1612,
      "ask": 1613,
      "Ta": 1614,
      "Ġtag": 1615,
      "ork": 1616,
      "aught": 1617,
      "Ġunderstand": 1618,
      "Ġmon": 1619,
      "Ġfast": 1620,
      "Are": 1621,
      "Can": 1622,
      "Vill": 1623,
      "oc": 1624,
      "tro": 1625,
      "ĠlÃ¤g": 1626,
      "Ġshit": 1627,
      "Ã¶s": 1628,
      "ĠkvÃ¤ll": 1629,
      "gether": 1630,
      "Ġlik": 1631,
      "Ġvisste": 1632,
      "tal": 1633,
      "erar": 1634,
      "Ã¤pp": 1635,
      "Ġvem": 1636,
      "Ġgillar": 1637,
      "ĠhÃ¥ll": 1638,
      "ĠfÃ¶rsta": 1639,
      "ife": 1640,
      "Ġhour": 1641,
      "ĠHow": 1642,
      "vit": 1643,
      "Ġdes": 1644,
      "Ġnum": 1645,
      "Ġknew": 1646,
      "ĠmÃ¥nga": 1647,
      "Ġcra": 1648,
      "Vem": 1649,
      "Ġgra": 1650,
      "idd": 1651,
      "Ġhard": 1652,
      "Ġdog": 1653,
      "Ġ...": 1654,
      "Ġtogether": 1655,
      "Ġsaker": 1656,
      "Ġnext": 1657,
      "anks": 1658,
      "Ġpres": 1659,
      "ĠhjÃ¤lpa": 1660,
      "vÃ¤r": 1661,
      "Then": 1662,
      "Ġannan": 1663,
      "Ġfru": 1664,
      "ĠOkay": 1665,
      "Ġthree": 1666,
      "ĠOch": 1667,
      "Ġfine": 1668,
      "Ġhitta": 1669,
      "Maybe": 1670,
      "Sh": 1671,
      "Ġbeg": 1672,
      "Ġhelt": 1673,
      "Ġcourse": 1674,
      "Ġmaybe": 1675,
      "ift": 1676,
      "min": 1677,
      "ĠÃ¤nd": 1678,
      "Ġland": 1679,
      "Ġur": 1680,
      "Ġweek": 1681,
      "Ġtills": 1682,
      "ump": 1683,
      "Ġklar": 1684,
      "ower": 1685,
      "ĠBr": 1686,
      "del": 1687,
      "ĠĠ": 1688,
      "Ã¥ller": 1689,
      "Ġinnan": 1690,
      "nad": 1691,
      "so": 1692,
      "000": 1693,
      "Ġwrong": 1694,
      "Att": 1695,
      "ĠvarfÃ¶r": 1696,
      "ĠShe": 1697,
      "Ch": 1698,
      "EN": 1699,
      "net": 1700,
      "Ġtoday": 1701,
      "Ġdead": 1702,
      "ĠlÃ¤ng": 1703,
      "Ġdro": 1704,
      "Ġbaby": 1705,
      "Ġter": 1706,
      "Ġcr": 1707,
      "LL": 1708,
      "ible": 1709,
      "Ġwhich": 1710,
      "Ġdrink": 1711,
      "ple": 1712,
      "res": 1713,
      "Ġuse": 1714,
      "ala": 1715,
      "alt": 1716,
      "ĠHey": 1717,
      "Ġroom": 1718,
      "ler": 1719,
      "Ġsna": 1720,
      "Ġpri": 1721,
      "etty": 1722,
      "ĠhÃ¤nder": 1723,
      "ole": 1724,
      "ason": 1725,
      "ird": 1726,
      "ĠvÃ¤rld": 1727,
      "Ġsitt": 1728,
      "Ġev": 1729,
      "ĠMen": 1730,
      "Ġmenar": 1731,
      "osed": 1732,
      "ĠgÃ¥n": 1733,
      "Ġcalled": 1734,
      "by": 1735,
      "Ġlag": 1736,
      "Ġfamilj": 1737,
      "Ġmany": 1738,
      "Ġton": 1739,
      "Ġfather": 1740,
      "farande": 1741,
      "?\"": 1742,
      "Ġreg": 1743,
      "ah": 1744,
      "ien": 1745,
      "ating": 1746,
      "Ġskri": 1747,
      "ĠanvÃ¤nd": 1748,
      "Ġwouldn": 1749,
      "son": 1750,
      "Ġsle": 1751,
      "ert": 1752,
      "AR": 1753,
      "Ġmay": 1754,
      "Ġsaw": 1755,
      "nas": 1756,
      "Ġschool": 1757,
      "ĠlÃ¤n": 1758,
      "Ġrikt": 1759,
      "uter": 1760,
      "Ãĸ": 1761,
      "Ġcomm": 1762,
      "Ġenda": 1763,
      "ĠfÃ¶l": 1764,
      "Ġdiffer": 1765,
      "ĠmÃ¤nn": 1766,
      "Vil": 1767,
      "ail": 1768,
      "its": 1769,
      "ready": 1770,
      "Where": 1771,
      "ĠAl": 1772,
      "Ġseen": 1773,
      "Ġhos": 1774,
      "Ġmet": 1775,
      "Ġmost": 1776,
      "Ġgre": 1777,
      "ĠberÃ¤tt": 1778,
      "else": 1779,
      "Ġyourself": 1780,
      "skap": 1781,
      "OR": 1782,
      "jud": 1783,
      "my": 1784,
      "cu": 1785,
      "ator": 1786,
      "Ġboy": 1787,
      "Because": 1788,
      "du": 1789,
      "tter": 1790,
      "Ġheard": 1791,
      "Ġalready": 1792,
      "Ġwhole": 1793,
      "ĠhjÃ¤lp": 1794,
      "Ġactually": 1795,
      "Ġsaying": 1796,
      "den": 1797,
      "Ġinter": 1798,
      "ction": 1799,
      "lock": 1800,
      "Ġtook": 1801,
      "Ã¤ldigt": 1802,
      "ĠrÃ¶": 1803,
      "ĠDo": 1804,
      "ohn": 1805,
      "Every": 1806,
      "sy": 1807,
      "Ġfix": 1808,
      "unt": 1809,
      "ĠdÃ¶da": 1810,
      "Ġfortfarande": 1811,
      "ĠfÃ¶rsÃ¶ker": 1812,
      "Mr": 1813,
      "Ġtom": 1814,
      "ream": 1815,
      "ĠkÃ¤r": 1816,
      "ĠHon": 1817,
      "Ġ20": 1818,
      "Ġperfe": 1819,
      "Sl": 1820,
      "ĠsÃ¥n": 1821,
      "ĠCar": 1822,
      "ried": 1823,
      "ably": 1824,
      "Ġused": 1825,
      "rsÃ¤kt": 1826,
      "ĠlÃ¤nge": 1827,
      "IS": 1828,
      "ĠÃĦr": 1829,
      "ĠvÃ¥ra": 1830,
      "ĠlÃ¥ng": 1831,
      "ifrÃ¥n": 1832,
      "dy": 1833,
      "Ġbak": 1834,
      "Ġlive": 1835,
      "ĠHur": 1836,
      "ical": 1837,
      "eln": 1838,
      "Ġdetta": 1839,
      "orrow": 1840,
      "ross": 1841,
      "ĠTHE": 1842,
      "lÃ¥t": 1843,
      "Ġ[": 1844,
      "Ġsecond": 1845,
      "Ġbur": 1846,
      "Ġresp": 1847,
      "dda": 1848,
      "Ġwatch": 1849,
      "lighet": 1850,
      "Ġchild": 1851,
      "Ġprecis": 1852,
      "Ġidea": 1853,
      "ial": 1854,
      "Ġ4": 1855,
      "reg": 1856,
      "med": 1857,
      "iness": 1858,
      "Ġfy": 1859,
      "Ġwalk": 1860,
      "itch": 1861,
      "istor": 1862,
      "Ingen": 1863,
      "ĠfÃ¶rstÃ¥r": 1864,
      "Ġkun": 1865,
      "Ġbring": 1866,
      "Get": 1867,
      "ĠhÃ¥ller": 1868,
      "ane": 1869,
      "Ġwar": 1870,
      "org": 1871,
      "ots": 1872,
      "ĠtÃ¤nkte": 1873,
      "Ett": 1874,
      "Ġheter": 1875,
      "ese": 1876,
      "Ġsamma": 1877,
      "ĠdÃ¶r": 1878,
      "Ġmove": 1879,
      "uth": 1880,
      "ces": 1881,
      "Ġskit": 1882,
      "ĠDon": 1883,
      "\"?": 1884,
      "Ġdire": 1885,
      "ations": 1886,
      "ĠThey": 1887,
      "Ġdum": 1888,
      "cial": 1889,
      "Ġgenom": 1890,
      "pe": 1891,
      "ĠhjÃ¤r": 1892,
      "An": 1893,
      "Ġdeal": 1894,
      "ĠFÃ¶r": 1895,
      "Ġanyone": 1896,
      "Ġquest": 1897,
      "Ġteam": 1898,
      "Ġtycker": 1899,
      "nor": 1900,
      "ĠsÃ¶": 1901,
      "agen": 1902,
      "Ġry": 1903,
      "atten": 1904,
      "PÃ¥": 1905,
      "Ġnamn": 1906,
      "ader": 1907,
      "Ã¤nta": 1908,
      "ĠrÃ¤dd": 1909,
      "LÃ¥t": 1910,
      "Se": 1911,
      "bably": 1912,
      "Ġkoll": 1913,
      "umm": 1914,
      "Ġguess": 1915,
      "Allt": 1916,
      "Ġkvar": 1917,
      "Ġpolis": 1918,
      "ĠThis": 1919,
      "ende": 1920,
      "ida": 1921,
      "Ġword": 1922,
      "Ġwoman": 1923,
      "cer": 1924,
      "Ġbar": 1925,
      "oner": 1926,
      "Ġute": 1927,
      "ĠstÃ¤ll": 1928,
      "ward": 1929,
      "alen": 1930,
      "Ġgod": 1931,
      "Ġcheck": 1932,
      "Ġpoint": 1933,
      "vel": 1934,
      "ĠZ": 1935,
      "Ġhaven": 1936,
      "Ġmyself": 1937,
      "unch": 1938,
      "Ã¤nde": 1939,
      "Ġglad": 1940,
      "come": 1941,
      "ote": 1942,
      "Ġfew": 1943,
      "zy": 1944,
      "Ġtest": 1945,
      "ĠvÃ¤ldigt": 1946,
      "ĠIs": 1947,
      "upp": 1948,
      "ĠhÃ¤m": 1949,
      "Ġcase": 1950,
      "Ġdef": 1951,
      "cept": 1952,
      "Ġmorning": 1953,
      "Her": 1954,
      "HÃ¤r": 1955,
      "Ġready": 1956,
      "vud": 1957,
      "Ġger": 1958,
      "ĠLet": 1959,
      "ĠJo": 1960,
      "Ġwants": 1961,
      "ĠberÃ¤tta": 1962,
      "ĠlÃ¤ngre": 1963,
      "Vet": 1964,
      "ĠNew": 1965,
      "Ġarbet": 1966,
      "co": 1967,
      "ingen": 1968,
      "ĠstÃ¥r": 1969,
      "ĠEn": 1970,
      "Ġpretty": 1971,
      "Ġago": 1972,
      "Ġbry": 1973,
      "Ġval": 1974,
      "Ġkr": 1975,
      "Ġob": 1976,
      "ĠMa": 1977,
      "Ġwithout": 1978,
      "Alla": 1979,
      "Ġkids": 1980,
      "Ġdad": 1981,
      "Ġstra": 1982,
      "Ġhaving": 1983,
      "Ġseem": 1984,
      "Ġpengar": 1985,
      "eb": 1986,
      "ared": 1987,
      "Go": 1988,
      "iel": 1989,
      "kv": 1990,
      "til": 1991,
      "ider": 1992,
      "Ġkilled": 1993,
      "Ġredan": 1994,
      "ĠlÃ¥ter": 1995,
      "Ġhund": 1996,
      "Ġvin": 1997,
      "Ġdoll": 1998,
      "olog": 1999,
      "Ġcount": 2000,
      "ness": 2001,
      "Ġswe": 2002,
      "Ġveck": 2003,
      "Ġwhile": 2004,
      "Ã¤nt": 2005,
      "Ġspr": 2006,
      "Ġphone": 2007,
      "Ġmatter": 2008,
      "Ġsleep": 2009,
      "Or": 2010,
      "nat": 2011,
      "Ġdra": 2012,
      "Ġhold": 2013,
      "stÃ¤ll": 2014,
      "asy": 2015,
      "Ġstand": 2016,
      "Ġvikt": 2017,
      "ĠhÃ¤nde": 2018,
      "Ġaff": 2019,
      "Ġmus": 2020,
      "ĠÃ¶gon": 2021,
      "Eller": 2022,
      "Ġlost": 2023,
      "On": 2024,
      "TH": 2025,
      "Ġfight": 2026,
      "edan": 2027,
      "Ġskick": 2028,
      "Ġeveryone": 2029,
      "Ġfriends": 2030,
      "Ġ6": 2031,
      "Ġprom": 2032,
      "ĠbÃ¶rjar": 2033,
      "Ge": 2034,
      "ĠThere": 2035,
      "Ġboth": 2036,
      "Ġlug": 2037,
      "Ġrest": 2038,
      "ĠLe": 2039,
      "Ġdays": 2040,
      "where": 2041,
      "Din": 2042,
      "erade": 2043,
      "ĠBe": 2044,
      "Ġbety": 2045,
      "Ġbreak": 2046,
      "pr": 2047,
      "ĠbÃ¤sta": 2048,
      "Ġpat": 2049,
      "Ġopen": 2050,
      "Ġlisten": 2051,
      "aken": 2052,
      "ĠCome": 2053,
      "Ġalso": 2054,
      "DÃ¤r": 2055,
      "Ġhistor": 2056,
      "Ġmur": 2057,
      "Ġwife": 2058,
      "ĠfÃ¶rlor": 2059,
      "Ġstud": 2060,
      "ĠJust": 2061,
      "Ġplats": 2062,
      "Ġtiden": 2063,
      "ps": 2064,
      "Ġsw": 2065,
      "ags": 2066,
      "Ġinne": 2067,
      "ubb": 2068,
      "For": 2069,
      "less": 2070,
      "Ġgav": 2071,
      "Ã¤nk": 2072,
      "ĠAn": 2073,
      "ĠDen": 2074,
      "ningar": 2075,
      "Ġthinking": 2076,
      "Ġac": 2077,
      "agt": 2078,
      "rev": 2079,
      "ĠmÃ¤nnisk": 2080,
      "Ġfire": 2081,
      "rew": 2082,
      "ighet": 2083,
      "Ġonce": 2084,
      "ister": 2085,
      "ĠYOU": 2086,
      "ize": 2087,
      "band": 2088,
      "iot": 2089,
      "Ġbed": 2090,
      "Ġpay": 2091,
      "Ġstuff": 2092,
      "ĠAr": 2093,
      "orts": 2094,
      "Ġpratar": 2095,
      "ĠglÃ¶m": 2096,
      "ley": 2097,
      "Ġuntil": 2098,
      "ced": 2099,
      "ana": 2100,
      "Ġfem": 2101,
      "Ġgam": 2102,
      "Ġlyck": 2103,
      "Ġtonight": 2104,
      "Ġdifferent": 2105,
      "Please": 2106,
      "iet": 2107,
      "ony": 2108,
      "ĠvÃ¤": 2109,
      "Ġdec": 2110,
      "ĠJack": 2111,
      "Ġnya": 2112,
      "SÃ¤g": 2113,
      "oke": 2114,
      "Ġhope": 2115,
      "Ġkonst": 2116,
      "ĠstÃ¶r": 2117,
      "ĠÃ¥ka": 2118,
      "Ġpick": 2119,
      "Ġlig": 2120,
      "ĠSÃ¥": 2121,
      "Ġdie": 2122,
      "Ġva": 2123,
      "Ġihop": 2124,
      "ĠÃ¥ter": 2125,
      "ten": 2126,
      "Ġsound": 2127,
      "Ġhum": 2128,
      "ĠhÃ¶g": 2129,
      "cka": 2130,
      "Ġread": 2131,
      "Ġorder": 2132,
      "Ġinga": 2133,
      "Ġworking": 2134,
      "Ġborta": 2135,
      "God": 2136,
      "bland": 2137,
      "ha": 2138,
      "ĠfÃ¶rb": 2139,
      "Ġdit": 2140,
      "Ġalone": 2141,
      "Ġmorgon": 2142,
      "Ġhuh": 2143,
      "Good": 2144,
      "To": 2145,
      "Ġmag": 2146,
      "ĠÃ¶pp": 2147,
      "Ġconf": 2148,
      "Ġhuvud": 2149,
      "Ġbusiness": 2150,
      "Ġfre": 2151,
      "ither": 2152,
      "ĠJohn": 2153,
      "som": 2154,
      "Ġeach": 2155,
      "ĠBl": 2156,
      "Ġsupposed": 2157,
      "Ġinform": 2158,
      "az": 2159,
      "Ġmess": 2160,
      "Ġgone": 2161,
      "Ġskad": 2162,
      "Ġsjuk": 2163,
      "Ġderas": 2164,
      "Ġhot": 2165,
      "stem": 2166,
      "Ġleg": 2167,
      "ĠChar": 2168,
      "aut": 2169,
      "ser": 2170,
      "Ġfakt": 2171,
      "ison": 2172,
      "ale": 2173,
      "ĠSe": 2174,
      "nings": 2175,
      "Ġtjej": 2176,
      "actly": 2177,
      "ĠDad": 2178,
      "Ġprote": 2179,
      "Ġprobably": 2180,
      "Ġbrother": 2181,
      "cle": 2182,
      "ena": 2183,
      "Ã¤k": 2184,
      "ates": 2185,
      "imes": 2186,
      "Ġart": 2187,
      "ĠvÃ¤nner": 2188,
      "Ġstory": 2189,
      "ict": 2190,
      "Ġwater": 2191,
      "Ġstick": 2192,
      "lie": 2193,
      "ney": 2194,
      "Ġhurt": 2195,
      "ĠfÃ¥tt": 2196,
      "Fr": 2197,
      "Ġkul": 2198,
      "lek": 2199,
      "ĠSte": 2200,
      "ilt": 2201,
      "Ġsina": 2202,
      "Ġyear": 2203,
      "ST": 2204,
      "mor": 2205,
      "Ġtel": 2206,
      "aring": 2207,
      "Ġblood": 2208,
      "Ġverkar": 2209,
      "Ġsnart": 2210,
      "ĠtrÃ¤ffa": 2211,
      "Ġsista": 2212,
      "Al": 2213,
      "Some": 2214,
      "ain": 2215,
      "bar": 2216,
      "Ã¶k": 2217,
      "Ġclo": 2218,
      "nder": 2219,
      "Ġcouldn": 2220,
      "Ġturn": 2221,
      "me": 2222,
      "Ġsent": 2223,
      "Ġali": 2224,
      "eth": 2225,
      "ela": 2226,
      "Ã¤gg": 2227,
      "Ġhigh": 2228,
      "Ġflick": 2229,
      "Ġyes": 2230,
      "Ġinv": 2231,
      "ĠRe": 2232,
      "ĠQ": 2233,
      "Ġmr": 2234,
      "Ġpower": 2235,
      "elt": 2236,
      "Ġwonder": 2237,
      "Ġannat": 2238,
      "Ġemot": 2239,
      "Ġminutes": 2240,
      "Here": 2241,
      "Ġtaking": 2242,
      "omb": 2243,
      "Ġvan": 2244,
      "ĠSp": 2245,
      "Ġsagt": 2246,
      "stÃ¥": 2247,
      "Ġret": 2248,
      "Ġvarje": 2249,
      "Ġrel": 2250,
      "ĠjÃ¤vla": 2251,
      "Any": 2252,
      "Ġset": 2253,
      "Ġain": 2254,
      "Ġmakes": 2255,
      "Ġgave": 2256,
      "ush": 2257,
      "ĠLu": 2258,
      "lic": 2259,
      "isten": 2260,
      "Ġpoj": 2261,
      "ĠfÃ¶re": 2262,
      "Bara": 2263,
      "Ġsol": 2264,
      "Ġdom": 2265,
      "Ġskj": 2266,
      "Ġdoor": 2267,
      "ĠMich": 2268,
      "Ġpolice": 2269,
      "ĠvÃ¤gen": 2270,
      "Ġinside": 2271,
      "utt": 2272,
      "Ġbas": 2273,
      "Ã¶ra": 2274,
      "Ġear": 2275,
      "ĠhÃ¥lla": 2276,
      "Sn": 2277,
      "fri": 2278,
      "more": 2279,
      "llan": 2280,
      "Ġface": 2281,
      "Ġum": 2282,
      "Ġhappy": 2283,
      "Med": 2284,
      "Re": 2285,
      "iff": 2286,
      "Ġfig": 2287,
      "Ġattack": 2288,
      "Ġreason": 2289,
      "Ġnej": 2290,
      "ĠTO": 2291,
      "Ġhands": 2292,
      "ĠvÃ¥rt": 2293,
      "ĠfrÃ¥ga": 2294,
      "Ġtomorrow": 2295,
      "ouch": 2296,
      "Ġfree": 2297,
      "Ã¥da": 2298,
      "Ġgun": 2299,
      "Ġpos": 2300,
      "Ġcoll": 2301,
      "Ġskol": 2302,
      "ropp": 2303,
      "Ġchar": 2304,
      "Ġposs": 2305,
      "Ġparty": 2306,
      "Ġmilj": 2307,
      "aughter": 2308,
      "Ġhours": 2309,
      "Sen": 2310,
      "ove": 2311,
      "Ġstopp": 2312,
      "ĠMan": 2313,
      "Ġsoon": 2314,
      "Ġchans": 2315,
      "Ġchange": 2316,
      "Ġ19": 2317,
      "ften": 2318,
      "ugg": 2319,
      "As": 2320,
      "Ġtitt": 2321,
      "Ġdess": 2322,
      "ĠhÃ¶": 2323,
      "Ġthank": 2324,
      "Ġrad": 2325,
      "Thank": 2326,
      "Ġmeans": 2327,
      "ract": 2328,
      "Ġsince": 2329,
      "eral": 2330,
      "Ġtrue": 2331,
      "Ġprof": 2332,
      "Ġasked": 2333,
      "Ġmurder": 2334,
      "ET": 2335,
      "VÃ¤nta": 2336,
      "gent": 2337,
      "ĠmÃ¥r": 2338,
      "anska": 2339,
      "Ġyet": 2340,
      "Ġinc": 2341,
      "ĠjÃ¤tt": 2342,
      "Ġworry": 2343,
      "Ġsays": 2344,
      "Ġlooks": 2345,
      "ollow": 2346,
      "Jo": 2347,
      "Like": 2348,
      "ika": 2349,
      "Ã¥k": 2350,
      "Ġlight": 2351,
      "ĠfÃ¶rut": 2352,
      "Ġlu": 2353,
      "ĠWhy": 2354,
      "Ġforts": 2355,
      "ĠsÃ¤kert": 2356,
      "rade": 2357,
      "Ġmaking": 2358,
      "ĠSk": 2359,
      "Ġable": 2360,
      "Ġhittade": 2361,
      "Ġimport": 2362,
      "rsÃ¤kta": 2363,
      "Ġclose": 2364,
      "cent": 2365,
      "vÃ¤g": 2366,
      "Ġcool": 2367,
      "Ġrum": 2368,
      "ily": 2369,
      "ention": 2370,
      "Ãħh": 2371,
      "Ġclear": 2372,
      "Ġmonth": 2373,
      "ron": 2374,
      "Ġfour": 2375,
      "ita": 2376,
      "Ġja": 2377,
      "Ġmellan": 2378,
      "Ġchance": 2379,
      "Ġsign": 2380,
      "Bra": 2381,
      "Ġsing": 2382,
      "Ġcut": 2383,
      "pped": 2384,
      "Ġlever": 2385,
      "attar": 2386,
      "ĠsvÃ¥rt": 2387,
      "Ġadv": 2388,
      "One": 2389,
      "ual": 2390,
      "Ġfav": 2391,
      "Ġbor": 2392,
      "ĠDr": 2393,
      "Ġknows": 2394,
      "ĠGe": 2395,
      "Ġext": 2396,
      "ĠhÃ¶ra": 2397,
      "Ġstarted": 2398,
      "ĠvÃ¤rlden": 2399,
      "Ġkunna": 2400,
      "Ġdollar": 2401,
      "Ex": 2402,
      "Ġaw": 2403,
      "Ġheart": 2404,
      "outh": 2405,
      "Ġfant": 2406,
      "ĠCan": 2407,
      "Ġexactly": 2408,
      "Ġcont": 2409,
      "Ġfaktiskt": 2410,
      "lan": 2411,
      "uss": 2412,
      "erat": 2413,
      "Ã¤der": 2414,
      "Ġbook": 2415,
      "ital": 2416,
      "ĠlÃ¶": 2417,
      "ĠlÃ¤tt": 2418,
      "...?": 2419,
      "erest": 2420,
      "Ġtrust": 2421,
      "Ġleast": 2422,
      "ael": 2423,
      "Ġside": 2424,
      "Ġmark": 2425,
      "Ġroll": 2426,
      "Ġsuch": 2427,
      "ester": 2428,
      "ĠChrist": 2429,
      "Ġlivet": 2430,
      "ĠkÃ¤nns": 2431,
      "ween": 2432,
      "par": 2433,
      "ton": 2434,
      "Ġdy": 2435,
      "plet": 2436,
      "aste": 2437,
      "ms": 2438,
      "Ã¶tt": 2439,
      "ĠNot": 2440,
      "Ġliten": 2441,
      "ĠmÃ¤nniskor": 2442,
      "ied": 2443,
      "Ã¢": 2444,
      "erg": 2445,
      "Ġhat": 2446,
      "Ġexper": 2447,
      "issa": 2448,
      "fer": 2449,
      "vie": 2450,
      "yss": 2451,
      "Ġmisst": 2452,
      "Ġfot": 2453,
      "igare": 2454,
      "Ġtimes": 2455,
      "head": 2456,
      "Ġspeak": 2457,
      "Ġfigure": 2458,
      "Ġimportant": 2459,
      "LE": 2460,
      "jur": 2461,
      "oj": 2462,
      "Ġmidd": 2463,
      "Ġbody": 2464,
      "andra": 2465,
      "ĠMy": 2466,
      "ĠDan": 2467,
      "Ġidag": 2468,
      "ĠhÃ¶rde": 2469,
      "Ġcouple": 2470,
      "Ġcrazy": 2471,
      "Tror": 2472,
      "ding": 2473,
      "sam": 2474,
      "Ġdan": 2475,
      "ouble": 2476,
      "ames": 2477,
      "Ġlika": 2478,
      "uset": 2479,
      "Ġblod": 2480,
      "ationen": 2481,
      "Ġhittar": 2482,
      "nu": 2483,
      "nsk": 2484,
      "any": 2485,
      "Ġvore": 2486,
      "Ġpub": 2487,
      "Ġla": 2488,
      "Ġsuper": 2489,
      "anske": 2490,
      "Ġbetyder": 2491,
      "br": 2492,
      "most": 2493,
      "oice": 2494,
      "yes": 2495,
      "Ġmass": 2496,
      "Ġwish": 2497,
      "Ã¶l": 2498,
      "Ġbeaut": 2499,
      "Ġdeath": 2500,
      "Ġminuter": 2501,
      "Ġtrans": 2502,
      "Right": 2503,
      "Ser": 2504,
      "ira": 2505,
      "ject": 2506,
      "tid": 2507,
      "vÃ¥": 2508,
      "ern": 2509,
      "unk": 2510,
      "ica": 2511,
      "ello": 2512,
      "Ã¤stan": 2513,
      "Ġquestion": 2514,
      "Have": 2515,
      "side": 2516,
      "Ġwin": 2517,
      "itet": 2518,
      "Ġvap": 2519,
      "ĠSam": 2520,
      "Ġgoes": 2521,
      "vete": 2522,
      "Ġnumber": 2523,
      "Wait": 2524,
      "air": 2525,
      "bo": 2526,
      "cess": 2527,
      "Ġinve": 2528,
      "illy": 2529,
      "Ġbevis": 2530,
      "napp": 2531,
      "Ġgets": 2532,
      "iful": 2533,
      "Ġ10": 2534,
      "Ġbetween": 2535,
      "ired": 2536,
      "ammans": 2537,
      "Ġrunt": 2538,
      "Ġledsen": 2539,
      "ĠVarfÃ¶r": 2540,
      "cuse": 2541,
      "Till": 2542,
      "Ġap": 2543,
      "ama": 2544,
      "Ġhemma": 2545,
      "atur": 2546,
      "Ġeasy": 2547,
      "Ġang": 2548,
      "Ġgott": 2549,
      "Ġanymore": 2550,
      "Tell": 2551,
      "aff": 2552,
      "Ġru": 2553,
      "Ġvisa": 2554,
      "Ġblivit": 2555,
      "dom": 2556,
      "ekt": 2557,
      "uk": 2558,
      "Ġsedan": 2559,
      "Ã¤ller": 2560,
      "Ġben": 2561,
      "aget": 2562,
      "ĠfÃ¶rv": 2563,
      "amer": 2564,
      "ĠbehÃ¶v": 2565,
      "ĠvÃ¤nta": 2566,
      "ĠidÃ©": 2567,
      "ĠWho": 2568,
      "GÃ¶r": 2569,
      "hÃ¥ll": 2570,
      "wer": 2571,
      "Ġ8": 2572,
      "Ġball": 2573,
      "Ġlater": 2574,
      "Ġkropp": 2575,
      "Ġfront": 2576,
      "ĠAmer": 2577,
      "Ġminns": 2578,
      "ĠGood": 2579,
      "Ġpress": 2580,
      "Ġigenom": 2581,
      "Ġagainst": 2582,
      "Ġhoppas": 2583,
      "ĠÃ¤ndÃ¥": 2584,
      "IT": 2585,
      "fra": 2586,
      "Ġsend": 2587,
      "Ġcop": 2588,
      "Ġforg": 2589,
      "Ġdep": 2590,
      "enting": 2591,
      "Ã¤mt": 2592,
      "Ġbuild": 2593,
      "Ġbilen": 2594,
      "With": 2595,
      "ĠmÃ¶rd": 2596,
      "idan": 2597,
      "vers": 2598,
      "ĠGr": 2599,
      "ĠtjÃ¤n": 2600,
      "Vilken": 2601,
      "Ġfavor": 2602,
      "GÃ¥": 2603,
      "erad": 2604,
      "Ġfollow": 2605,
      "Ġeat": 2606,
      "ĠGud": 2607,
      "ella": 2608,
      "Ġarg": 2609,
      "ĠfÃ¶rsÃ¶kte": 2610,
      "oss": 2611,
      "ĠmÃ¶j": 2612,
      "lex": 2613,
      "urn": 2614,
      "Ġyours": 2615,
      "ĠfÃ¶rstÃ¥": 2616,
      "ĠWhere": 2617,
      "Ġensam": 2618,
      "ĠlÃ¤mna": 2619,
      "ĠlÃ¥ta": 2620,
      "ĠFrank": 2621,
      "Ġriktigt": 2622,
      "AS": 2623,
      "ED": 2624,
      "Ġdaughter": 2625,
      "Ġmill": 2626,
      "ĠkÃ¤nde": 2627,
      "Ġent": 2628,
      "Ġits": 2629,
      "Ġtruth": 2630,
      "Ġcons": 2631,
      "Ã¤cker": 2632,
      "Ġtried": 2633,
      "Ġkvinna": 2634,
      "Ġhalf": 2635,
      "ield": 2636,
      "Ġinformation": 2637,
      "fraid": 2638,
      "lin": 2639,
      "lut": 2640,
      "Ġtouch": 2641,
      "Ġmod": 2642,
      "ĠnÃ¤stan": 2643,
      "Ġstan": 2644,
      "Ġeyes": 2645,
      "Ġhaft": 2646,
      "Ġlose": 2647,
      "Ã¤mmer": 2648,
      "ĠslÃ¤pp": 2649,
      "Ġoffer": 2650,
      "FÃ¶rlÃ¥t": 2651,
      "Ġjobbar": 2652,
      "Ut": 2653,
      "full": 2654,
      "ient": 2655,
      "Ġmatch": 2656,
      "ount": 2657,
      "Ġfood": 2658,
      "Ã¶st": 2659,
      "rest": 2660,
      "Ġpull": 2661,
      "ĠfÃ¶rr": 2662,
      "ĠfÃ¶rÃ¤ld": 2663,
      "Ġera": 2664,
      "Ġsluta": 2665,
      "regud": 2666,
      "Sp": 2667,
      "dr": 2668,
      "Ġilla": 2669,
      "Ġgift": 2670,
      "Ġlaw": 2671,
      "Ġcor": 2672,
      "Ġskr": 2673,
      "Ġtelling": 2674,
      "Ġung": 2675,
      "Ġidiot": 2676,
      "Ġredo": 2677,
      "iously": 2678,
      "Ġfyra": 2679,
      "Dr": 2680,
      "ND": 2681,
      "arch": 2682,
      "orter": 2683,
      "Ġluck": 2684,
      "ĠBar": 2685,
      "ement": 2686,
      "Ġchef": 2687,
      "Ġoffic": 2688,
      "Ġbehind": 2689,
      "Ġ15": 2690,
      "Ġgrund": 2691,
      "Ġstora": 2692,
      "ummet": 2693,
      "Ġligger": 2694,
      "ĠgÃ¤r": 2695,
      "Ġgame": 2696,
      "Ġrol": 2697,
      "Ġinterest": 2698,
      "ĠgÃ¥nger": 2699,
      "Ġdirekt": 2700,
      "OW": 2701,
      "ov": 2702,
      "init": 2703,
      "Ġsant": 2704,
      "ĠnÃ¤sta": 2705,
      "Ġinst": 2706,
      "ric": 2707,
      "ically": 2708,
      "ffic": 2709,
      "iving": 2710,
      "ĠkÃ¤nna": 2711,
      "Ġsim": 2712,
      "Ġthough": 2713,
      "onger": 2714,
      "Ã¤rd": 2715,
      "ĠfÃ¶rÃ¤nd": 2716,
      "ĠhÃ¤rifrÃ¥n": 2717,
      "Ġchang": 2718,
      "Ġtimmar": 2719,
      "Ġcomes": 2720,
      "Ġcomplet": 2721,
      "Ġeverybody": 2722,
      "ĠfÃ¶rsv": 2723,
      "ĠYork": 2724,
      "Ġkomp": 2725,
      "Ġlyss": 2726,
      "Ġfilm": 2727,
      "ior": 2728,
      "Ġafraid": 2729,
      "Ġline": 2730,
      "ĠdÃ¶dade": 2731,
      "ĠrÃ¤dda": 2732,
      "klag": 2733,
      "Ġwaiting": 2734,
      "Ġmoment": 2735,
      "Ġsweet": 2736,
      "IG": 2737,
      "inal": 2738,
      "Ġvack": 2739,
      "Ġpie": 2740,
      "ĠYour": 2741,
      "Ġhusband": 2742,
      "Ġsnabb": 2743,
      "HÃ¶r": 2744,
      "HÃ¥ll": 2745,
      "Ġtea": 2746,
      "Ġfive": 2747,
      "Ġcap": 2748,
      "ĠSc": 2749,
      "ĠLook": 2750,
      "ĠJu": 2751,
      "ĠdÃ¤rfÃ¶r": 2752,
      "ĠvÃ¤ntar": 2753,
      "ĠtÃ¤nka": 2754,
      "ĠgÃ¥ngen": 2755,
      "kan": 2756,
      "ras": 2757,
      "sÃ¥": 2758,
      "ones": 2759,
      "ign": 2760,
      "Ġlj": 2761,
      "Ġegen": 2762,
      "ĠHej": 2763,
      "Ġshot": 2764,
      "Ġshoot": 2765,
      "ĠPh": 2766,
      "Ġalong": 2767,
      "Ġalmost": 2768,
      "ĠslÃ¥": 2769,
      "Ġdied": 2770,
      "Ġsystem": 2771,
      "Ġbuy": 2772,
      "ĠbÃ¶rjade": 2773,
      "upid": 2774,
      "Ġspelar": 2775,
      "OM": 2776,
      "Ġses": 2777,
      "ery": 2778,
      "oun": 2779,
      "Ġgamm": 2780,
      "Ġlilla": 2781,
      "Ġkra": 2782,
      "Ġyoung": 2783,
      "ĠAre": 2784,
      "ĠOr": 2785,
      "ĠgÃ¥tt": 2786,
      "ĠÃ¥ker": 2787,
      "ĠUn": 2788,
      "Ġpresent": 2789,
      "Ġbeautiful": 2790,
      "Br": 2791,
      "NÃ¥g": 2792,
      "OT": 2793,
      "iven": 2794,
      "Ġair": 2795,
      "Ġoper": 2796,
      "ĠskÃ¶": 2797,
      "Ġhelst": 2798,
      "Ġquite": 2799,
      "Ġtillsammans": 2800,
      "Ġpriv": 2801,
      "NA": 2802,
      "gÃ¥ng": 2803,
      "kn": 2804,
      "komm": 2805,
      "Ġ!": 2806,
      "Ġsat": 2807,
      "Ġlate": 2808,
      "Ġkon": 2809,
      "ape": 2810,
      "Ġuppt": 2811,
      "Ġlearn": 2812,
      "âĢĲ": 2813,
      "Ġwomen": 2814,
      "Ġgamla": 2815,
      "ES": 2816,
      "Mar": 2817,
      "Ã¤t": 2818,
      "ĠmÃ¤r": 2819,
      "Ġbild": 2820,
      "ĠbÃ¥da": 2821,
      "aden": 2822,
      "ĠMiss": 2823,
      "Ġboys": 2824,
      "Ġ12": 2825,
      "ship": 2826,
      "Ġbitch": 2827,
      "ĠsÃ¥nt": 2828,
      "Ġtelef": 2829,
      "ately": 2830,
      "inger": 2831,
      "ĠOkej": 2832,
      "Ġnews": 2833,
      "Ġmarried": 2834,
      "Ġperfect": 2835,
      "FÃ¥r": 2836,
      "Ġsj": 2837,
      "Ġsan": 2838,
      "Ġsix": 2839,
      "Ġdist": 2840,
      "Ġcell": 2841,
      "Ġstanna": 2842,
      "Ġform": 2843,
      "ĠAd": 2844,
      "Ġaren": 2845,
      "Ġsmart": 2846,
      "ĠhjÃ¤lper": 2847,
      "ĠhÃ¶rt": 2848,
      "esus": 2849,
      "Ã¤nner": 2850,
      "ĠKan": 2851,
      "Ġoffice": 2852,
      "Ġcontro": 2853,
      "Ġfler": 2854,
      "Ġsecret": 2855,
      "ĠInte": 2856,
      "Ġ30": 2857,
      "Ġ9": 2858,
      "orge": 2859,
      "Ġlov": 2860,
      "ĠWill": 2861,
      "ĠThank": 2862,
      "Ġringde": 2863,
      "Ġfact": 2864,
      "Ġprotect": 2865,
      "AL": 2866,
      "Listen": 2867,
      "Um": 2868,
      "ihop": 2869,
      "jen": 2870,
      "let": 2871,
      "Ġ$": 2872,
      "Ġsort": 2873,
      "Ġdream": 2874,
      "ited": 2875,
      "Ġih": 2876,
      "Ġdotter": 2877,
      "ĠGo": 2878,
      "Ġsold": 2879,
      "Ġsave": 2880,
      "ĠEm": 2881,
      "aps": 2882,
      "ĠnÃ¤ra": 2883,
      "Ġspecial": 2884,
      "Titta": 2885,
      "TÃ¤nk": 2886,
      "iam": 2887,
      "lag": 2888,
      "Ġmist": 2889,
      "Ġbull": 2890,
      "Ġgif": 2891,
      "Ġcur": 2892,
      "cker": 2893,
      "Ġvisst": 2894,
      "Ġfanns": 2895,
      "Ġklarar": 2896,
      "Kanske": 2897,
      "nie": 2898,
      "sol": 2899,
      "uld": 2900,
      "van": 2901,
      "Ġ7": 2902,
      "Ġdamn": 2903,
      "ĠhÃ¤l": 2904,
      "ĠmÃ¶": 2905,
      "Ġpast": 2906,
      "ĠIf": 2907,
      "Ġeither": 2908,
      "unn": 2909,
      "kta": 2910,
      "ĠGet": 2911,
      "ĠJe": 2912,
      "Ġsafe": 2913,
      "Ġsvar": 2914,
      "Ġspela": 2915,
      "ĠlÃ¥ngt": 2916,
      "Ġfantast": 2917,
      "ĠgÃ¤rna": 2918,
      "At": 2919,
      "Efter": 2920,
      "hÃ¶r": 2921,
      "hand": 2922,
      "pect": 2923,
      "Ġhy": 2924,
      "Ġflo": 2925,
      "Ġbud": 2926,
      "Ġnorm": 2927,
      "Ġvarandra": 2928,
      "Ġdest": 2929,
      "ĠHer": 2930,
      "ĠBen": 2931,
      "Ġneeds": 2932,
      "Ġhuset": 2933,
      "UrsÃ¤kta": 2934,
      "sm": 2935,
      "ined": 2936,
      "Ġlad": 2937,
      "Ġtown": 2938,
      "Ġforget": 2939,
      "rott": 2940,
      "Ġmine": 2941,
      "ics": 2942,
      "ĠPr": 2943,
      "aster": 2944,
      "gest": 2945,
      "Ġbott": 2946,
      "avid": 2947,
      "Ġjobbet": 2948,
      "Sluta": 2949,
      "Ġchildren": 2950,
      "Ġinvest": 2951,
      "AD": 2952,
      "Ty": 2953,
      "oon": 2954,
      "uh": 2955,
      "ory": 2956,
      "reet": 2957,
      "ald": 2958,
      "Ġstol": 2959,
      "uten": 2960,
      "Ã¤nn": 2961,
      "Ġlist": 2962,
      "ently": 2963,
      "ĠÃ¶nsk": 2964,
      "Ġbror": 2965,
      "Ġklart": 2966,
      "Ġscen": 2967,
      "Ġparents": 2968,
      "Sorry": 2969,
      "ining": 2970,
      "Ġwhatever": 2971,
      "Ġingenting": 2972,
      "Ġclean": 2973,
      "sel": 2974,
      "tj": 2975,
      "yl": 2976,
      "ym": 2977,
      "Ġhate": 2978,
      "Ġcam": 2979,
      "ĠDid": 2980,
      "Ġdenna": 2981,
      "ĠNi": 2982,
      "ĠOK": 2983,
      "ĠFor": 2984,
      "Ġringer": 2985,
      "Hi": 2986,
      "not": 2987,
      "yn": 2988,
      "Ã¤d": 2989,
      "Ã¤ra": 2990,
      "Ġkrig": 2991,
      "Ġreda": 2992,
      "Ġheller": 2993,
      "ĠMc": 2994,
      "ĠMe": 2995,
      "ĠMin": 2996,
      "ommy": 2997,
      "Ġoutside": 2998,
      "ĠKe": 2999,
      "Ġhelvete": 3000,
      "ized": 3001,
      "Somet": 3002,
      "Ġexpect": 3003,
      "Ah": 3004,
      "IC": 3005,
      "Our": 3006,
      "See": 3007,
      "pro": 3008,
      "ĠrÃ¶r": 3009,
      "room": 3010,
      "Ġtala": 3011,
      "Ġkille": 3012,
      "Ġclass": 3013,
      "Take": 3014,
      "fall": 3015,
      "gÃ¥r": 3016,
      "ium": 3017,
      "Ġweird": 3018,
      "Ġarm": 3019,
      "Ġsmall": 3020,
      "ivers": 3021,
      "ĠhÃ¤mta": 3022,
      "Ar": 3023,
      "Ber": 3024,
      "OK": 3025,
      "Ġadd": 3026,
      "Ġmord": 3027,
      "ĠfÃ¤ng": 3028,
      "anden": 3029,
      "roll": 3030,
      "Ġavsl": 3031,
      "lipp": 3032,
      "ĠPar": 3033,
      "Ġbrought": 3034,
      "ards": 3035,
      "Ġhappens": 3036,
      "Ġdagar": 3037,
      "ĠÃ¤ven": 3038,
      "Ġrecord": 3039,
      "Ġcountry": 3040,
      ",\"": 3041,
      "ball": 3042,
      "lade": 3043,
      "to": 3044,
      "uation": 3045,
      "Ġten": 3046,
      "Ġcent": 3047,
      "Ġfelt": 3048,
      "friend": 3049,
      "Gr": 3050,
      "Of": 3051,
      "Tr": 3052,
      "aul": 3053,
      "ts": 3054,
      "vid": 3055,
      "Ġtaken": 3056,
      "ĠsÃ¤l": 3057,
      "ĠhÃ¥r": 3058,
      "oud": 3059,
      "ingar": 3060,
      "stans": 3061,
      "Ġpsy": 3062,
      "Ġstupid": 3063,
      "ĠOm": 3064,
      "Ġworth": 3065,
      "Ġsub": 3066,
      "ĠdrÃ¶m": 3067,
      "ĠÃ¤nnu": 3068,
      "ĠbÃ¶rja": 3069,
      "Ġrunning": 3070,
      "Ġannars": 3071,
      "Ġsister": 3072,
      "ĠÃ¤ta": 3073,
      "ĠkÃ¤rlek": 3074,
      "SnÃ¤lla": 3075,
      "Pro": 3076,
      "Âª": 3077,
      "ĠÃ¤g": 3078,
      "orth": 3079,
      "Ġstar": 3080,
      "irth": 3081,
      "Does": 3082,
      "icture": 3083,
      "Ġalive": 3084,
      "ĠMichael": 3085,
      "jor": 3086,
      "Ġpur": 3087,
      "eder": 3088,
      "Ġeng": 3089,
      "ants": 3090,
      "ĠCl": 3091,
      "ĠifrÃ¥n": 3092,
      "iken": 3093,
      "Ġthrow": 3094,
      "Ġbrott": 3095,
      "Ġpolisen": 3096,
      "Ġrelation": 3097,
      "Under": 3098,
      "och": 3099,
      "rum": 3100,
      "Ġ?": 3101,
      "Ġes": 3102,
      "Ġbank": 3103,
      "alm": 3104,
      "ĠCol": 3105,
      "elle": 3106,
      "Ġdinner": 3107,
      "Ġsenare": 3108,
      "Ġgirls": 3109,
      "Ġtrev": 3110,
      "Ġanswer": 3111,
      "ĠfÃ¶rÃ¤ldrar": 3112,
      "Ġgammal": 3113,
      "ID": 3114,
      "VE": 3115,
      "gan": 3116,
      "pital": 3117,
      "rad": 3118,
      "Ġtw": 3119,
      "ata": 3120,
      "rel": 3121,
      "Ġpack": 3122,
      "Ġnatt": 3123,
      "ĠlÃ¥g": 3124,
      "Ġless": 3125,
      "ĠIN": 3126,
      "elcome": 3127,
      "ility": 3128,
      "skt": 3129,
      "Ġgrand": 3130,
      "olly": 3131,
      "heten": 3132,
      "ĠaffÃ¤r": 3133,
      "His": 3134,
      "UT": 3135,
      "iker": 3136,
      "Ġ.": 3137,
      "Ġhor": 3138,
      "ktion": 3139,
      "ĠNow": 3140,
      "ummer": 3141,
      "ĠEng": 3142,
      "Ġlock": 3143,
      "Ġleva": 3144,
      "Ġdagen": 3145,
      "Ġfeeling": 3146,
      "Ġleaving": 3147,
      "ĠhÃ¤nda": 3148,
      "Ġterri": 3149,
      "AY": 3150,
      "ear": 3151,
      "ÂĻ": 3152,
      "Ġtitta": 3153,
      "ertain": 3154,
      "Ġdam": 3155,
      "Ã¤s": 3156,
      "ĠSom": 3157,
      "Ġship": 3158,
      "ĠRob": 3159,
      "ational": 3160,
      "Ġsomebody": 3161,
      "Ġplanet": 3162,
      "Ġvilja": 3163,
      "kvÃ¤ll": 3164,
      "Ġhuman": 3165,
      "Ġtelefon": 3166,
      "!\"": 3167,
      "fort": 3168,
      "ipp": 3169,
      "mb": 3170,
      "ox": 3171,
      "enny": 3172,
      "ette": 3173,
      "Ġpap": 3174,
      "Ġstat": 3175,
      "ĠTack": 3176,
      "Ġche": 3177,
      "ession": 3178,
      "Ġ100": 3179,
      "Ġjobba": 3180,
      "Ġpersonal": 3181,
      "Ġlugnt": 3182,
      "stÃ¥nd": 3183,
      "form": 3184,
      "Ġz": 3185,
      "Ġhop": 3186,
      "Ġfest": 3187,
      "isen": 3188,
      "Ġinsp": 3189,
      "Ġcir": 3190,
      "ills": 3191,
      "ĠMom": 3192,
      "ters": 3193,
      "ĠOF": 3194,
      "ular": 3195,
      "Ġkommit": 3196,
      "ives": 3197,
      "ĠUh": 3198,
      "Ġphot": 3199,
      "Ġcover": 3200,
      "ĠanvÃ¤nda": 3201,
      "Ġmillion": 3202,
      "Ġsus": 3203,
      "eren": 3204,
      "Ġpicture": 3205,
      "Ġlady": 3206,
      "Ġkap": 3207,
      "rav": 3208,
      "ĠKom": 3209,
      "Ġexc": 3210,
      "Ġbok": 3211,
      "Ġbox": 3212,
      "Ġnytt": 3213,
      "Ġringa": 3214,
      "Ġplaying": 3215,
      "Ġmonths": 3216,
      "za": 3217,
      "ense": 3218,
      "Ġbirth": 3219,
      "Ġwind": 3220,
      "ution": 3221,
      "ĠSara": 3222,
      "ulle": 3223,
      "Ġblack": 3224,
      "Ġhandlar": 3225,
      "Bl": 3226,
      "Le": 3227,
      "len": 3228,
      "oint": 3229,
      "sin": 3230,
      "iner": 3231,
      "ines": 3232,
      "agg": 3233,
      "Ġind": 3234,
      "Ġtop": 3235,
      "leas": 3236,
      "rick": 3237,
      "Ġfinish": 3238,
      "Ġlev": 3239,
      "Inget": 3240,
      "ĠMrs": 3241,
      "Ġdisapp": 3242,
      "Ġtyp": 3243,
      "Ġ50": 3244,
      "Ġdefinit": 3245,
      "Ġstraight": 3246,
      "Visst": 3247,
      "eople": 3248,
      "ham": 3249,
      "right": 3250,
      "erry": 3251,
      "omp": 3252,
      "isa": 3253,
      "idence": 3254,
      "Ġlie": 3255,
      "Ġtrouble": 3256,
      "Ġintress": 3257,
      "Ġlives": 3258,
      "BI": 3259,
      "Komm": 3260,
      "rid": 3261,
      "Ġsick": 3262,
      "ĠsÃ¤tta": 3263,
      "Ġfoot": 3264,
      "Ġband": 3265,
      "atter": 3266,
      "Ġcatch": 3267,
      "ĠSer": 3268,
      "ĠCon": 3269,
      "Ġhang": 3270,
      "ĠJim": 3271,
      "Ġliving": 3272,
      "ĠlÃ¤mnade": 3273,
      "Ġkvinnor": 3274,
      "Un": 3275,
      "Ġpapp": 3276,
      "ille": 3277,
      "sky": 3278,
      "Ġhoney": 3279,
      "Ã¤tter": 3280,
      "ounds": 3281,
      "Ġsyster": 3282,
      "lockan": 3283,
      "Ġbakom": 3284,
      "Herregud": 3285,
      "bart": 3286,
      "inner": 3287,
      "Ġdate": 3288,
      "lla": 3289,
      "Ġlunch": 3290,
      "Ġotro": 3291,
      "cher": 3292,
      "Ġrisk": 3293,
      "Ġmest": 3294,
      "ĠMart": 3295,
      "Ġsell": 3296,
      "Ġknown": 3297,
      "Ġspend": 3298,
      "ĠVem": 3299,
      "ivt": 3300,
      "Ġshouldn": 3301,
      "Ġsense": 3302,
      "Ġsitter": 3303,
      "Ġmeeting": 3304,
      "Ġskolan": 3305,
      "AM": 3306,
      "Will": 3307,
      "Wow": 3308,
      "tat": 3309,
      "Ġ000": 3310,
      "Ġtio": 3311,
      "oul": 3312,
      "Ã¶v": 3313,
      "Ġvatten": 3314,
      "Ġgalen": 3315,
      "Ġkiss": 3316,
      "Ġcity": 3317,
      "Ġant": 3318,
      "allÃ¥": 3319,
      "ĠGu": 3320,
      "Ġdrug": 3321,
      "Ġstep": 3322,
      "ĠdÃ¶rren": 3323,
      "Ġseems": 3324,
      "Ġcolle": 3325,
      "Ġvapen": 3326,
      "Ġcontrol": 3327,
      "ĠihÃ¥g": 3328,
      "Per": 3329,
      "arl": 3330,
      "Ġmad": 3331,
      "ager": 3332,
      "rey": 3333,
      "oose": 3334,
      "entle": 3335,
      "Ġnear": 3336,
      "ĠRight": 3337,
      "Ġbetal": 3338,
      "nygg": 3339,
      "Ġsvart": 3340,
      "Ġpratade": 3341,
      "Ġquick": 3342,
      "Ġklara": 3343,
      "Ġbryr": 3344,
      "Ġposition": 3345,
      "Even": 3346,
      "ral": 3347,
      "inn": 3348,
      "Ġske": 3349,
      "Ġpen": 3350,
      "ised": 3351,
      "ides": 3352,
      "amb": 3353,
      "These": 3354,
      "Ã¤nga": 3355,
      "Hans": 3356,
      "Ġasking": 3357,
      "ĠfÃ¶rsÃ¶ka": 3358,
      "Ġtagit": 3359,
      "Ġpromise": 3360,
      "CH": 3361,
      "mÃ¤r": 3362,
      "ering": 3363,
      "Ġfara": 3364,
      "Ġvak": 3365,
      "Ġvide": 3366,
      "Ġpot": 3367,
      "Ġpop": 3368,
      "Ġlonger": 3369,
      "Ġkick": 3370,
      "Ġcertain": 3371,
      "ĠfÃ¶rf": 3372,
      "Ġhair": 3373,
      "Ġshut": 3374,
      "ellt": 3375,
      "Ã¤nder": 3376,
      "heter": 3377,
      "Ġtidigare": 3378,
      "ogra": 3379,
      "Ġvilket": 3380,
      "Ġhalv": 3381,
      "Ġpresident": 3382,
      "ĠberÃ¤ttade": 3383,
      "Ġperfekt": 3384,
      "Ġdessa": 3385,
      "Ġkompis": 3386,
      "dag": 3387,
      "ĠhÃ¤nt": 3388,
      "Ġbreat": 3389,
      "Ġcol": 3390,
      "Ġmeant": 3391,
      "ĠHere": 3392,
      "rik": 3393,
      "Ġhonest": 3394,
      "ĠLa": 3395,
      "artment": 3396,
      "ryck": 3397,
      "Ġspring": 3398,
      "ief": 3399,
      "FÃ¶rs": 3400,
      "Ġhittat": 3401,
      "Ġhappening": 3402,
      "Mina": 3403,
      "Ġcompany": 3404,
      "Ġpengarna": 3405,
      "\",": 3406,
      "Ab": 3407,
      "Would": 3408,
      "klar": 3409,
      "las": 3410,
      "rÃ¤ck": 3411,
      "ux": 3412,
      "ues": 3413,
      "ze": 3414,
      "ora": 3415,
      "iting": 3416,
      "ĠgÃ¶m": 3417,
      "Ġkast": 3418,
      "ĠSch": 3419,
      "Ġhey": 3420,
      "Ġalls": 3421,
      "Ġallow": 3422,
      "used": 3423,
      "ĠOne": 3424,
      "ĠmÃ¥l": 3425,
      "Ġneeded": 3426,
      "Ġimag": 3427,
      "Ġdrive": 3428,
      "Ġreport": 3429,
      "ĠkÃ¶ra": 3430,
      "ĠfÃ¶lja": 3431,
      "bjud": 3432,
      "gar": 3433,
      "ience": 3434,
      "sc": 3435,
      "arm": 3436,
      "Ġmob": 3437,
      "ĠTe": 3438,
      "aptain": 3439,
      "Ġboss": 3440,
      "Ġflytt": 3441,
      "Ġbeslut": 3442,
      "After": 3443,
      "Gu": 3444,
      "Hello": 3445,
      "bor": 3446,
      "ran": 3447,
      "vice": 3448,
      "Ġsidan": 3449,
      "Ġahead": 3450,
      "Ġhote": 3451,
      "arbet": 3452,
      "Ġfund": 3453,
      "Ã¥tt": 3454,
      "Ġvitt": 3455,
      "Ġlab": 3456,
      "Ġlju": 3457,
      "Ġkort": 3458,
      "Ġbecome": 3459,
      "uts": 3460,
      "ppen": 3461,
      "Ġantar": 3462,
      "Ġmedic": 3463,
      "Ã¥nga": 3464,
      "Ġsek": 3465,
      "ĠEl": 3466,
      "Ġprison": 3467,
      "Ġkillen": 3468,
      "Ġfunger": 3469,
      "Ġfunny": 3470,
      "ĠfÃ¶ljer": 3471,
      "Ġkolla": 3472,
      "Give": 3473,
      "oid": 3474,
      "off": 3475,
      "Ġtreat": 3476,
      "Ġganska": 3477,
      "ism": 3478,
      "nda": 3479,
      "Ġenerg": 3480,
      "Ġrob": 3481,
      "ĠrÃ¥d": 3482,
      "Ġeg": 3483,
      "Ġeye": 3484,
      "ĠTa": 3485,
      "ĠbrÃ¶": 3486,
      "ific": 3487,
      "ĠWH": 3488,
      "Ġexist": 3489,
      "lain": 3490,
      "Ġbygg": 3491,
      "Ġvidare": 3492,
      "Ġhospital": 3493,
      "ĠCharlie": 3494,
      "Ġmiljoner": 3495,
      "lad": 3496,
      "pel": 3497,
      "zing": 3498,
      "ĠhÃ¥rt": 3499,
      "Ã¶n": 3500,
      "Ġgal": 3501,
      "Ġrid": 3502,
      "Ġeff": 3503,
      "vern": 3504,
      "Ã¤nger": 3505,
      "ĠTo": 3506,
      "Ġloc": 3507,
      "unda": 3508,
      "Ġundan": 3509,
      "Ġlooked": 3510,
      "olla": 3511,
      "Ġweeks": 3512,
      "Ġskriva": 3513,
      "Ġdanger": 3514,
      "Ġentire": 3515,
      "cri": 3516,
      "mas": 3517,
      "rÃ¥d": 3518,
      "Ġdans": 3519,
      "Ã¥ld": 3520,
      "Ã¥ter": 3521,
      "reen": 3522,
      "Ġbek": 3523,
      "aker": 3524,
      "ĠAng": 3525,
      "ctim": 3526,
      "Ġcannot": 3527,
      "Ġworked": 3528,
      "Ġ200": 3529,
      "ĠsnÃ¤ll": 3530,
      "Ġpolit": 3531,
      "ĠlÃ¤ra": 3532,
      "Ġlying": 3533,
      "Ġpossible": 3534,
      "30": 3535,
      "Could": 3536,
      "EL": 3537,
      "Me": 3538,
      "SÃ¤tt": 3539,
      "pte": 3540,
      "Ġ(": 3541,
      "ĠmÃ¶r": 3542,
      "Ġwall": 3543,
      "Ġweren": 3544,
      "ĠIS": 3545,
      "Ġjud": 3546,
      "tel": 3547,
      "ĠfÃ¶rtj": 3548,
      "Ġstort": 3549,
      "urt": 3550,
      "Ġallihop": 3551,
      "irt": 3552,
      "ĠDÃ¥": 3553,
      "riv": 3554,
      "ĠNu": 3555,
      "ĠRo": 3556,
      "Ġseeing": 3557,
      "Ġclos": 3558,
      "Ġpain": 3559,
      "Ġgrabb": 3560,
      "Ġpiece": 3561,
      "Mamma": 3562,
      "aven": 3563,
      "bil": 3564,
      "ians": 3565,
      "you": 3566,
      "oub": 3567,
      "ĠbÃ¤st": 3568,
      "ities": 3569,
      "Ġjo": 3570,
      "roy": 3571,
      "ĠTom": 3572,
      "ĠKing": 3573,
      "Inga": 3574,
      "ĠlÃ¤mnar": 3575,
      "oes": 3576,
      "Ġtem": 3577,
      "ince": 3578,
      "oup": 3579,
      "Ġfell": 3580,
      "Ġbill": 3581,
      "Ġbomb": 3582,
      "Ġkopp": 3583,
      "Ġcost": 3584,
      "Ġran": 3585,
      "Ġref": 3586,
      "tera": 3587,
      "ĠAb": 3588,
      "ĠPro": 3589,
      "Ġfinally": 3590,
      "under": 3591,
      "Ġexpl": 3592,
      "Ġsometimes": 3593,
      "Ġmoving": 3594,
      "Ġskydd": 3595,
      "ĠkÃ¶pa": 3596,
      "com": 3597,
      "ius": 3598,
      "kom": 3599,
      "kel": 3600,
      "set": 3601,
      "sla": 3602,
      "vak": 3603,
      "inda": 3604,
      "Ġnatur": 3605,
      "ldig": 3606,
      "uture": 3607,
      "ury": 3608,
      "andet": 3609,
      "Ġdeep": 3610,
      "ĠHi": 3611,
      "ĠDavid": 3612,
      "Ġvictim": 3613,
      "ĠBra": 3614,
      "Ġmannen": 3615,
      "Ġfint": 3616,
      "Ġlead": 3617,
      "orden": 3618,
      "Ġdags": 3619,
      "Ġflera": 3620,
      "Ġmissing": 3621,
      "ERE": 3622,
      "Ġroad": 3623,
      "ĠThanks": 3624,
      "ĠrÃ¤k": 3625,
      "resident": 3626,
      "Ġviktigt": 3627,
      "Ġtittar": 3628,
      "NÃ¥n": 3629,
      "for": 3630,
      "Ġopp": 3631,
      "Ġcry": 3632,
      "Ġmedan": 3633,
      "ĠTr": 3634,
      "tact": 3635,
      "ĠEx": 3636,
      "Ġcalling": 3637,
      "Ġeftersom": 3638,
      "ĠUS": 3639,
      "Ġassist": 3640,
      "Ġsituation": 3641,
      "Ġsounds": 3642,
      "Cause": 3643,
      "Ne": 3644,
      "lÃ¶m": 3645,
      "oe": 3646,
      "wood": 3647,
      "Ġfle": 3648,
      "igg": 3649,
      "ĠrÃ¤cker": 3650,
      "Thanks": 3651,
      "Ġreach": 3652,
      "Ġmeddel": 3653,
      "Which": 3654,
      "ĠBob": 3655,
      "ĠLike": 3656,
      "Ġnobody": 3657,
      "Ġherr": 3658,
      "Ġfair": 3659,
      "ĠsÃ¤tter": 3660,
      "CK": 3661,
      "Fan": 3662,
      "Fuck": 3663,
      "Ste": 3664,
      "tan": 3665,
      "ĠÃ¢": 3666,
      "Ġsatt": 3667,
      "Ġhung": 3668,
      "Ġgri": 3669,
      "aged": 3670,
      "stÃ¥r": 3671,
      "alth": 3672,
      "Ġdecis": 3673,
      "ĠAND": 3674,
      "ĠTV": 3675,
      "ules": 3676,
      "Ġprodu": 3677,
      "Ġconne": 3678,
      "ousand": 3679,
      "ĠsmÃ¥": 3680,
      "Ġident": 3681,
      "Ġflyg": 3682,
      "Ġresult": 3683,
      "ĠlÃ¤gga": 3684,
      "ĠstÃ¤llet": 3685,
      "Ġsjukh": 3686,
      "ĠQu": 3687,
      "By": 3688,
      "lit": 3689,
      "sch": 3690,
      "Ġtakes": 3691,
      "Ġsong": 3692,
      "enskap": 3693,
      "ety": 3694,
      "Ġthanks": 3695,
      "Ġbag": 3696,
      "Ã¤rsk": 3697,
      "Ġkost": 3698,
      "Ġjump": 3699,
      "Ġbeat": 3700,
      "ĠikvÃ¤ll": 3701,
      "ĠPaul": 3702,
      "Ġchoice": 3703,
      "Ġprogr": 3704,
      "Ġbru": 3705,
      "Ġ18": 3706,
      "Ġserious": 3707,
      "Ġscared": 3708,
      "Ġstrong": 3709,
      "ĠÃ¤lskling": 3710,
      "Ġwrite": 3711,
      "Ġkontakt": 3712,
      "Ġmusic": 3713,
      "Ġinvol": 3714,
      "Ġpublic": 3715,
      "Ġcompletely": 3716,
      "Er": 3717,
      "Folk": 3718,
      "Gen": 3719,
      "Ma": 3720,
      "Sir": 3721,
      "joy": 3722,
      "uc": 3723,
      "Ġfattar": 3724,
      "Ġpark": 3725,
      "ĠinfÃ¶r": 3726,
      "Ġcli": 3727,
      "Ġskrev": 3728,
      "ĠSl": 3729,
      "Ġdoctor": 3730,
      "Ġdej": 3731,
      "terna": 3732,
      "ĠTy": 3733,
      "Ġhimself": 3734,
      "Ġorgan": 3735,
      "Ġslog": 3736,
      "ĠigÃ¥r": 3737,
      "larna": 3738,
      "Stop": 3739,
      "Ġjobbat": 3740,
      "Ġtext": 3741,
      "Ġfault": 3742,
      "ĠframfÃ¶r": 3743,
      "Ġsingle": 3744,
      "Ġextra": 3745,
      "ĠbehÃ¶vde": 3746,
      "Ġbuilding": 3747,
      "Ġchanged": 3748,
      "Fin": 3749,
      "ai": 3750,
      "fr": 3751,
      "mber": 3752,
      "nal": 3753,
      "rit": 3754,
      "Ġdiv": 3755,
      "Ġdress": 3756,
      "Ã¥s": 3757,
      "atan": 3758,
      "Ġpost": 3759,
      "Ġknapp": 3760,
      "ĠSka": 3761,
      "Ġpris": 3762,
      "Ġuppe": 3763,
      "Ġanyway": 3764,
      "Ġgrow": 3765,
      "Ġkillar": 3766,
      "ĠsnÃ¤lla": 3767,
      "Ġnummer": 3768,
      "Ġwords": 3769,
      "Ġroligt": 3770,
      "ĠÃ¶nskar": 3771,
      "ĠSarah": 3772,
      "Av": 3773,
      "HE": 3774,
      "People": 3775,
      "TvÃ¥": 3776,
      "des": 3777,
      "ino": 3778,
      "Ġdar": 3779,
      "Ġdju": 3780,
      "enry": 3781,
      "Ġgentle": 3782,
      "ages": 3783,
      "Ġpan": 3784,
      "Ġcaught": 3785,
      "ĠIT": 3786,
      "ĠivÃ¤g": 3787,
      "Ġwhite": 3788,
      "Ġrequ": 3789,
      "urs": 3790,
      "urity": 3791,
      "andy": 3792,
      "rop": 3793,
      "Ġallvar": 3794,
      "enty": 3795,
      "rian": 3796,
      "ican": 3797,
      "ĠspÃ¥r": 3798,
      "Ã¤nda": 3799,
      "Ġarrest": 3800,
      "ept": 3801,
      "aces": 3802,
      "Ġspeci": 3803,
      "Ġturned": 3804,
      "augh": 3805,
      "Ġsurv": 3806,
      "esterday": 3807,
      "BerÃ¤tta": 3808,
      "Ġcollege": 3809,
      "Mitt": 3810,
      "Sam": 3811,
      "gga": 3812,
      "ks": 3813,
      "mt": 3814,
      "port": 3815,
      "Ġill": 3816,
      "Ã¶sa": 3817,
      "str": 3818,
      "Ġoli": 3819,
      "edding": 3820,
      "add": 3821,
      "Ġra": 3822,
      "Ġrock": 3823,
      "ĠMon": 3824,
      "Ġshall": 3825,
      "lyck": 3826,
      "Ã¥ga": 3827,
      "istol": 3828,
      "Ġorol": 3829,
      "Ġworse": 3830,
      "Ġworried": 3831,
      "Ġsomewhere": 3832,
      "ÃĦven": 3833,
      "ĠnÃ¥nsin": 3834,
      "ĠfÃ¶rstÃ¶r": 3835,
      "Ġbarnen": 3836,
      "Ġgener": 3837,
      "klart": 3838,
      "Nothing": 3839,
      "Skulle": 3840,
      "ĠBlack": 3841,
      "Ã¶lj": 3842,
      "Ġdisk": 3843,
      "ĠhÃ¤": 3844,
      "Ġfat": 3845,
      "Ġfir": 3846,
      "Ġfuture": 3847,
      "verk": 3848,
      "Ġanled": 3849,
      "Ġweap": 3850,
      "allt": 3851,
      "Ġsova": 3852,
      "Ġbetala": 3853,
      "Ġhandle": 3854,
      "Ġletar": 3855,
      "Ġsmell": 3856,
      "Ġvisar": 3857,
      "Ġsaken": 3858,
      "Ġglass": 3859,
      "ĠWhen": 3860,
      "ĠklÃ¤der": 3861,
      "Ġfail": 3862,
      "ĠutanfÃ¶r": 3863,
      "ĠvÃ¤x": 3864,
      "Kommer": 3865,
      "haps": 3866,
      "iant": 3867,
      "pris": 3868,
      "rummet": 3869,
      "yle": 3870,
      "Ġtable": 3871,
      "ination": 3872,
      "Ġakt": 3873,
      "Ġham": 3874,
      "Ġfinger": 3875,
      "illar": 3876,
      "ĠursÃ¤kt": 3877,
      "ids": 3878,
      "Ġstark": 3879,
      "ĠSm": 3880,
      "ĠMor": 3881,
      "ungen": 3882,
      "cted": 3883,
      "ender": 3884,
      "Ġusing": 3885,
      "Ġtapp": 3886,
      "ĠkÃ¤nsl": 3887,
      "ective": 3888,
      "Ġpartner": 3889,
      "rupt": 3890,
      "ĠTHAT": 3891,
      "Ġagent": 3892,
      "Ġcoff": 3893,
      "Ġfamiljen": 3894,
      "ĠanvÃ¤nder": 3895,
      "ĠJoe": 3896,
      "utting": 3897,
      "Ġmask": 3898,
      "Ġmention": 3899,
      "Ġnere": 3900,
      "idge": 3901,
      "ĠstÃ¥": 3902,
      "utom": 3903,
      "ila": 3904,
      "ĠBE": 3905,
      "ĠNe": 3906,
      "ĠON": 3907,
      "ĠOn": 3908,
      "ĠPol": 3909,
      "ĠVill": 3910,
      "Ã¶ts": 3911,
      "Everything": 3912,
      "Ġwatching": 3913,
      "Ġquestions": 3914,
      "IM": 3915,
      "RA": 3916,
      "US": 3917,
      "bit": 3918,
      "fÃ¤r": 3919,
      "of": 3920,
      "ray": 3921,
      "Ġdjur": 3922,
      "Ã¥de": 3923,
      "Ġbath": 3924,
      "stone": 3925,
      "Ġkli": 3926,
      "ided": 3927,
      "Ġstund": 3928,
      "Ġmemor": 3929,
      "ĠPet": 3930,
      "Ã¤mna": 3931,
      "que": 3932,
      "ikan": 3933,
      "Ġimor": 3934,
      "Ġmovie": 3935,
      "ĠvÃ¤rre": 3936,
      "ĠdÃ¶dar": 3937,
      "okat": 3938,
      "Ġskydda": 3939,
      "Ġkontor": 3940,
      "naden": 3941,
      "Ġrym": 3942,
      "ĠhÃ¶ll": 3943,
      "Ġmistake": 3944,
      "Ġbirthday": 3945,
      "-[": 3946,
      "Ju": 3947,
      "Upp": 3948,
      "lish": 3949,
      "Ġsida": 3950,
      "Ġthreat": 3951,
      "ĠvÃ¥ld": 3952,
      "Ġgud": 3953,
      "ĠlÃ¶s": 3954,
      "ĠkÃ¤m": 3955,
      "ĠInd": 3956,
      "Ġstod": 3957,
      "Ġont": 3958,
      "ĠMark": 3959,
      "ĠMaybe": 3960,
      "ĠMike": 3961,
      "usen": 3962,
      "Ġoro": 3963,
      "Ġert": 3964,
      "Ġworks": 3965,
      "Ġnerv": 3966,
      "ĠmÃ¥nader": 3967,
      "Ġdricka": 3968,
      "Ġkallar": 3969,
      "Vilket": 3970,
      "Ġvinna": 3971,
      "Ġinvestig": 3972,
      "Ġterrible": 3973,
      "Two": 3974,
      "con": 3975,
      "cing": 3976,
      "det": 3977,
      "kra": 3978,
      "lt": 3979,
      "miss": 3980,
      "ĠÃ¤kt": 3981,
      "Ġtank": 3982,
      "Ġsud": 3983,
      "Ġgiving": 3984,
      "Ġkar": 3985,
      "...\"": 3986,
      "Ġstad": 3987,
      "Ġstation": 3988,
      "Ġvart": 3989,
      "kten": 3990,
      "ĠPat": 3991,
      "ula": 3992,
      "ĠEd": 3993,
      "ĠVil": 3994,
      "Ġprove": 3995,
      "Ġproper": 3996,
      "osh": 3997,
      "attle": 3998,
      "iva": 3999,
      "Ġcontact": 4000,
      "Ġbrain": 4001,
      "Ġ25": 4002,
      "Ġtyst": 4003,
      "ĠsÃ¤kerhet": 4004,
      "AND": 4005,
      "Ġbusy": 4006,
      "Ġconsider": 4007,
      "selves": 4008,
      "HallÃ¥": 4009,
      "LÃ¤gg": 4010,
      "bl": 4011,
      "bye": 4012,
      "fy": 4013,
      "Ġthousand": 4014,
      "Ġlur": 4015,
      "Ġstyr": 4016,
      "ander": 4017,
      "Ġtillf": 4018,
      "ĠAnt": 4019,
      "ĠChe": 4020,
      "ĠBo": 4021,
      "ĠBer": 4022,
      "oly": 4023,
      "ĠGO": 4024,
      "Ġabsol": 4025,
      "ĠRich": 4026,
      "Ġpret": 4027,
      "ends": 4028,
      "Ġslutar": 4029,
      "ĠÃ¤lskade": 4030,
      "ĠberÃ¤ttar": 4031,
      "Ġpatient": 4032,
      "Ġhatar": 4033,
      "Ġsnabbt": 4034,
      "AK": 4035,
      "Pre": 4036,
      "aj": 4037,
      "Ġned": 4038,
      "Ġcreat": 4039,
      "ows": 4040,
      "Ġrapp": 4041,
      "Detta": 4042,
      "rakt": 4043,
      "rog": 4044,
      "ĠME": 4045,
      "ĠMm": 4046,
      "ĠJames": 4047,
      "ffa": 4048,
      "ĠFBI": 4049,
      "Ġspace": 4050,
      "ĠEli": 4051,
      "Ġlovar": 4052,
      "Ġloved": 4053,
      "Ġ11": 4054,
      "ĠbÃ¶rjan": 4055,
      "vÃ¤rr": 4056,
      "ĠfÃ¶lj": 4057,
      "ĠÃ¶gonb": 4058,
      "ĠstÃ¶rre": 4059,
      "Ġhuvudet": 4060,
      "Ġmisstag": 4061,
      "ĠtjÃ¤nst": 4062,
      "Ġrelationship": 4063,
      "Jack": 4064,
      "ative": 4065,
      "Ġkor": 4066,
      "Ġcook": 4067,
      "Ġtot": 4068,
      "ĠfÃ¶ret": 4069,
      "ams": 4070,
      "urg": 4071,
      "iles": 4072,
      "ĠAs": 4073,
      "ume": 4074,
      "enda": 4075,
      "Ġfeet": 4076,
      "Ġdrar": 4077,
      "Ġsenaste": 4078,
      "cover": 4079,
      "Ġobv": 4080,
      "prise": 4081,
      "Ġmessage": 4082,
      "Ġearly": 4083,
      "Excuse": 4084,
      "ĠJuli": 4085,
      "Ġsanningen": 4086,
      "ĠfÃ¶rtjÃ¤n": 4087,
      "Hel": 4088,
      "Kolla": 4089,
      "Miss": 4090,
      "Tom": 4091,
      "bord": 4092,
      "lÃ¶s": 4093,
      "rÃ¤tt": 4094,
      "ĠX": 4095,
      "Ġsal": 4096,
      "Ġself": 4097,
      "Ġdark": 4098,
      "Ġfi": 4099,
      "Ġfred": 4100,
      "Ã¶ver": 4101,
      "ĠnÃ¶j": 4102,
      "Ġop": 4103,
      "Ã¶ren": 4104,
      "ĠfÃ¶rm": 4105,
      "Ġstri": 4106,
      "Ġskuld": 4107,
      "urch": 4108,
      "ĠAtt": 4109,
      "essor": 4110,
      "Ġboard": 4111,
      "ddie": 4112,
      "Ġveckor": 4113,
      "IGH": 4114,
      "Ġdefinitely": 4115,
      "Ġtotally": 4116,
      "Ibland": 4117,
      "kor": 4118,
      "pat": 4119,
      "ÃŃ": 4120,
      "erk": 4121,
      "Ġama": 4122,
      "Ġmouth": 4123,
      "etter": 4124,
      "orl": 4125,
      "Ġgiven": 4126,
      "Ġpea": 4127,
      "Ġpleas": 4128,
      "Ġnatten": 4129,
      "Ġkept": 4130,
      "Ġoh": 4131,
      "Ġcold": 4132,
      "Ġjour": 4133,
      "Ġrom": 4134,
      "Ġibland": 4135,
      "ĠST": 4136,
      "ĠMed": 4137,
      "unity": 4138,
      "thers": 4139,
      "ĠJesus": 4140,
      "ĠWE": 4141,
      "Ġtalked": 4142,
      "juk": 4143,
      "Ġfeels": 4144,
      "Ã¤cka": 4145,
      "klara": 4146,
      "Ġtyd": 4147,
      "Ġbegin": 4148,
      "Ġhistoria": 4149,
      "ĠfortsÃ¤tta": 4150,
      "yssna": 4151,
      "Ġmassa": 4152,
      "Ġdestroy": 4153,
      "Ġimorgon": 4154,
      "IA": 4155,
      "IL": 4156,
      "Pol": 4157,
      "Sm": 4158,
      "af": 4159,
      "over": 4160,
      "Ġsun": 4161,
      "Ġdoub": 4162,
      "Ġmach": 4163,
      "Ġban": 4164,
      "Ġbod": 4165,
      "Ġgar": 4166,
      "Ġpistol": 4167,
      "Ġinom": 4168,
      "Ġskall": 4169,
      "Ã¤nker": 4170,
      "Ġdear": 4171,
      "ĠHA": 4172,
      "ĠBill": 4173,
      "ola": 4174,
      "ctually": 4175,
      "Ã¤lt": 4176,
      "ĠGer": 4177,
      "ĠOf": 4178,
      "ument": 4179,
      "ists": 4180,
      "Ġunivers": 4181,
      "ĠÃ¥kte": 4182,
      "ogn": 4183,
      "Ġsaknar": 4184,
      "Ġpersoner": 4185,
      "Ġbelong": 4186,
      "Ġcloth": 4187,
      "ĠThen": 4188,
      "Ġpassar": 4189,
      "Ġpaid": 4190,
      "Ġsamtal": 4191,
      "Ġbroke": 4192,
      "Ġrespect": 4193,
      "Ġhundred": 4194,
      "Ġcoffee": 4195,
      "Pl": 4196,
      "Vart": 4197,
      "Was": 4198,
      "eel": 4199,
      "gre": 4200,
      "sb": 4201,
      "tade": 4202,
      "zz": 4203,
      "enn": 4204,
      "reci": 4205,
      "Ġcre": 4206,
      "owers": 4207,
      "Ġhall": 4208,
      "ĠtrÃ¤n": 4209,
      "Ġsov": 4210,
      "ĠPlease": 4211,
      "ĠEll": 4212,
      "Ġloss": 4213,
      "Ġtimme": 4214,
      "Ã¤mma": 4215,
      "Ġsteal": 4216,
      "Ġpaint": 4217,
      "Ġtyckte": 4218,
      "Ġevidence": 4219,
      "Ġrespons": 4220,
      "Ġvecka": 4221,
      "ĠBecause": 4222,
      "ĠGeorge": 4223,
      "Something": 4224,
      "Ġpaper": 4225,
      "orlunda": 4226,
      "bror": 4227,
      "ca": 4228,
      "gn": 4229,
      "pet": 4230,
      "ram": 4231,
      "Ġsad": 4232,
      "Ġsil": 4233,
      "Ã¶ss": 4234,
      "Ġpract": 4235,
      "Ġkil": 4236,
      "Ġdude": 4237,
      "Ġones": 4238,
      "Ġforever": 4239,
      "ĠAlex": 4240,
      "Ġsearch": 4241,
      "stead": 4242,
      "obb": 4243,
      "obody": 4244,
      "osa": 4245,
      "ĠWait": 4246,
      "ĠalltsÃ¥": 4247,
      "Ġground": 4248,
      "Ġlived": 4249,
      "Ġrealize": 4250,
      "ĠlÃ¤t": 4251,
      "Ġexplain": 4252,
      "ĠkvÃ¤llen": 4253,
      "Ġfixa": 4254,
      "ĠhjÃ¤rta": 4255,
      "ĠMax": 4256,
      "Ġviktiga": 4257,
      "ĠfÃ¶rbi": 4258,
      "ĠmÃ¶jligt": 4259,
      "Ġskepp": 4260,
      "vernment": 4261,
      "Ġbrukar": 4262,
      "ogen": 4263,
      "yd": 4264,
      "llop": 4265,
      "Ġbjud": 4266,
      "atte": 4267,
      "iter": 4268,
      "Ġvir": 4269,
      "Ġyesterday": 4270,
      "Ġnyck": 4271,
      "eless": 4272,
      "Those": 4273,
      "Ã¤ngen": 4274,
      "oof": 4275,
      "tern": 4276,
      "ĠDNA": 4277,
      "ktor": 4278,
      "ĠNÃ¤r": 4279,
      "oph": 4280,
      "ĠLou": 4281,
      "ĠLord": 4282,
      "Ġbland": 4283,
      "Ġsug": 4284,
      "ĠslÃ¥r": 4285,
      "ivet": 4286,
      "Ġ24": 4287,
      "ĠfÃ¶d": 4288,
      "ĠStar": 4289,
      "Ġfunkar": 4290,
      "Ġagree": 4291,
      "Ġcrime": 4292,
      "ĠÃ¶ppna": 4293,
      "Ġcontin": 4294,
      "ĠfÃ¶rrÃ¤n": 4295,
      "Ġfloor": 4296,
      "Ġsuspect": 4297,
      "Ġdecision": 4298,
      "ALL": 4299,
      "ILL": 4300,
      "TER": 4301,
      "gift": 4302,
      "well": 4303,
      "arry": 4304,
      "ĠfÃ¤r": 4305,
      "Ġbri": 4306,
      "Ġcross": 4307,
      "Ġstress": 4308,
      "Ġresa": 4309,
      "imp": 4310,
      "iment": 4311,
      "ĠMal": 4312,
      "ĠsÃ¥d": 4313,
      "ĠLond": 4314,
      "emember": 4315,
      "Ġanybody": 4316,
      "ucker": 4317,
      "Ġframtid": 4318,
      "ĠtrÃ¤ffade": 4319,
      "Ġannorlunda": 4320,
      "Ġappreci": 4321,
      "Ġdecided": 4322,
      "Ġreturn": 4323,
      "Ġstannar": 4324,
      "Ġbuddy": 4325,
      "ĠfÃ¤ngelse": 4326,
      "Ġorolig": 4327,
      "Che": 4328,
      "Ha": 4329,
      "Pappa": 4330,
      "een": 4331,
      "gh": 4332,
      "go": 4333,
      "lu": 4334,
      "line": 4335,
      "time": 4336,
      "Ġtough": 4337,
      "Ġtuff": 4338,
      "Ġamer": 4339,
      "arth": 4340,
      "Ġbord": 4341,
      "itness": 4342,
      "read": 4343,
      "Ġport": 4344,
      "ĠkÃ¤nd": 4345,
      "Ġkaff": 4346,
      "Ġjack": 4347,
      "chn": 4348,
      "Ġutt": 4349,
      "Ġride": 4350,
      "Ġofta": 4351,
      "ays": 4352,
      "key": 4353,
      "ĠstÃ¤mmer": 4354,
      "ĠSn": 4355,
      "Ġresta": 4356,
      "ĠHE": 4357,
      "aket": 4358,
      "ĠAt": 4359,
      "liv": 4360,
      "Ġprocess": 4361,
      "ending": 4362,
      "ify": 4363,
      "Ġwhoa": 4364,
      "Ġundrar": 4365,
      "ured": 4366,
      "Ġunge": 4367,
      "Ġbesk": 4368,
      "Ġfallet": 4369,
      "Ġmain": 4370,
      "resent": 4371,
      "Ġsnack": 4372,
      "Ġskriver": 4373,
      "Ġarbete": 4374,
      "Ġmiddag": 4375,
      "Ġmobil": 4376,
      "Ġdangerous": 4377,
      "Ġamazing": 4378,
      "Ġclothes": 4379,
      "CE": 4380,
      "VÃ¥r": 4381,
      "bed": 4382,
      "hmm": 4383,
      "lat": 4384,
      "sas": 4385,
      "vil": 4386,
      "ĠkÃ¤": 4387,
      "Ġkung": 4388,
      "Ġklockan": 4389,
      "Ġothers": 4390,
      "ada": 4391,
      "Ġenk": 4392,
      "Ġrent": 4393,
      "Ġresten": 4394,
      "ĠMel": 4395,
      "Ġshare": 4396,
      "Ġshort": 4397,
      "ĠClar": 4398,
      "Ġtruck": 4399,
      "ĠGen": 4400,
      "ĠFre": 4401,
      "Ġors": 4402,
      "Ġuppdr": 4403,
      "Ġtalar": 4404,
      "Ġ16": 4405,
      "Ġgroup": 4406,
      "ĠsÃ¤gs": 4407,
      "ikte": 4408,
      "Ġvisit": 4409,
      "atsen": 4410,
      "Ġquiet": 4411,
      "ĠsjÃ¤lva": 4412,
      "Ġcarry": 4413,
      "ĠtrÃ¤ffas": 4414,
      "elser": 4415,
      "Ġlita": 4416,
      "ĠÃ¤ter": 4417,
      "ĠlÃ¤gger": 4418,
      "ĠstÃ¤lle": 4419,
      "stÃ¤llet": 4420,
      "Ġmiddle": 4421,
      "Ġkraft": 4422,
      "Ġesc": 4423,
      "ĠbrÃ¶llop": 4424,
      "Ã¤rskilt": 4425,
      "Ġolika": 4426,
      "FF": 4427,
      "Hopp": 4428,
      "Pr": 4429,
      "Tro": 4430,
      "bild": 4431,
      "fatt": 4432,
      "uel": 4433,
      "uper": 4434,
      "work": 4435,
      "Ġmun": 4436,
      "onen": 4437,
      "Ġwelcome": 4438,
      "orr": 4439,
      "itive": 4440,
      "ĠvÃ¥g": 4441,
      "Ġvoice": 4442,
      "ĠgÃ¤ller": 4443,
      "Ġpush": 4444,
      "Ġciv": 4445,
      "Ġenjoy": 4446,
      "ĠfÃ¶rl": 4447,
      "lem": 4448,
      "imm": 4449,
      "irs": 4450,
      "cep": 4451,
      "Ġgovernment": 4452,
      "ĠBur": 4453,
      "ĠNick": 4454,
      "Ġarea": 4455,
      "ĠPer": 4456,
      "Ġuts": 4457,
      "Ġfinnas": 4458,
      "ures": 4459,
      "ĠdÃ¥ligt": 4460,
      "ĠtÃ¤nkt": 4461,
      "lingen": 4462,
      "Ġsynd": 4463,
      "Ġsecurity": 4464,
      "Ġansvar": 4465,
      "Ġaccident": 4466,
      "Ġdeser": 4467,
      "ĠrÃ¶st": 4468,
      "Ġwalking": 4469,
      "Ġacross": 4470,
      "Ġkonstigt": 4471,
      "Ġlyssna": 4472,
      "kommen": 4473,
      "Ġsatte": 4474,
      "Ġgifta": 4475,
      "Ġsudden": 4476,
      "ĠLondon": 4477,
      "Ġrestaur": 4478,
      "KÃ¤nner": 4479,
      "Lug": 4480,
      "Tja": 4481,
      "VER": 4482,
      "bara": 4483,
      "jÃ¤v": 4484,
      "vÃ¤": 4485,
      "Ġ0": 4486,
      "Ġtick": 4487,
      "Ġsqu": 4488,
      "Ġsoul": 4489,
      "Ġhide": 4490,
      "ether": 4491,
      "Ġfit": 4492,
      "Ã¥ende": 4493,
      "Ġwedding": 4494,
      "Ġlar": 4495,
      "ĠkrÃ¤": 4496,
      "Ġenter": 4497,
      "Ġrules": 4498,
      "Ġstreet": 4499,
      "Ġeget": 4500,
      "imin": 4501,
      "Ġwear": 4502,
      "ĠHel": 4503,
      "ĠfrÃ¤m": 4504,
      "Ġgold": 4505,
      "Ġspark": 4506,
      "Ġblow": 4507,
      "Ġbruk": 4508,
      "Ġarri": 4509,
      "jÃ¤lp": 4510,
      "ĠigÃ¥ng": 4511,
      "ĠfÃ¶rsvin": 4512,
      "Ġkilling": 4513,
      "Ġglas": 4514,
      "Ġtrack": 4515,
      "ĠlÃ¤sa": 4516,
      "Ġdrog": 4517,
      "Ġgrej": 4518,
      "SlÃ¤pp": 4519,
      "ebra": 4520,
      "Ġskickar": 4521,
      "DÃ¤rfÃ¶r": 4522,
      "Ġskada": 4523,
      "ĠsÃ¤lja": 4524,
      "Dan": 4525,
      "Nice": 4526,
      "PP": 4527,
      "Put": 4528,
      "but": 4529,
      "ev": 4530,
      "hole": 4531,
      "mÃ¥l": 4532,
      "Ġhom": 4533,
      "Ġhost": 4534,
      "Ġinvit": 4535,
      "edd": 4536,
      "Ġcamp": 4537,
      "eleb": 4538,
      "Ġris": 4539,
      "ĠfÃ¶rklara": 4540,
      "Ġstate": 4541,
      "irty": 4542,
      "ionen": 4543,
      "ĠAm": 4544,
      "ĠCr": 4545,
      "olf": 4546,
      "ktorn": 4547,
      "ĠTake": 4548,
      "ĠGra": 4549,
      "umb": 4550,
      "Ġworst": 4551,
      "apan": 4552,
      "Ġprov": 4553,
      "Ġbehand": 4554,
      "ĠÃ¶verallt": 4555,
      "ĠsmÃ¤r": 4556,
      "Ġcalls": 4557,
      "Ġtvungen": 4558,
      "cially": 4559,
      "Ġevening": 4560,
      "Ġclub": 4561,
      "okus": 4562,
      "Ġkalla": 4563,
      "Char": 4564,
      "Ãĸver": 4565,
      "ĠberÃ¤ttat": 4566,
      "Everyone": 4567,
      "Ġ40": 4568,
      "Ġlucky": 4569,
      "Ġanledning": 4570,
      "15": 4571,
      "AG": 4572,
      "Ring": 4573,
      "bÃ¤r": 4574,
      "boll": 4575,
      "kÃ¤n": 4576,
      "kring": 4577,
      "mit": 4578,
      "rate": 4579,
      "Ġ..": 4580,
      "ances": 4581,
      "Ã¥ste": 4582,
      "ĠbÃ¥t": 4583,
      "Ġwake": 4584,
      "Ġve": 4585,
      "Ġgas": 4586,
      "ĠlÃ¶g": 4587,
      "Ġcat": 4588,
      "asc": 4589,
      "iden": 4590,
      "ĠrÃ¥": 4591,
      "ĠstÃ¤lla": 4592,
      "Ġrev": 4593,
      "uren": 4594,
      "Ġforward": 4595,
      "ĠHave": 4596,
      "aked": 4597,
      "Ġgol": 4598,
      "anta": 4599,
      "Ġtryck": 4600,
      "ices": 4601,
      "Ġspot": 4602,
      "ĠEur": 4603,
      "Ġanywhere": 4604,
      "jÃ¤lv": 4605,
      "Ġcond": 4606,
      "ension": 4607,
      "Ġfear": 4608,
      "ĠdÃ¥lig": 4609,
      "Ġdrag": 4610,
      "Ġtving": 4611,
      "Ã¤ckte": 4612,
      "shit": 4613,
      "Ġbutt": 4614,
      "ĠfrÃ¥gade": 4615,
      "Ġmindre": 4616,
      "Ġsupport": 4617,
      "Ġkallade": 4618,
      "Should": 4619,
      "Ġdrop": 4620,
      "ĠsÃ¶ker": 4621,
      "Ġmusik": 4622,
      "Someone": 4623,
      "Ġskjuta": 4624,
      "Really": 4625,
      "ĠfortsÃ¤tter": 4626,
      "ĠChristmas": 4627,
      "view": 4628,
      "Ġcops": 4629,
      "Ġnormal": 4630,
      "ĠKevin": 4631,
      "rÃ¤ckligt": 4632,
      "Ġpeace": 4633,
      "GlÃ¶m": 4634,
      "Keep": 4635,
      "Mm": 4636,
      "UR": 4637,
      "ford": 4638,
      "lÃ¤g": 4639,
      "ting": 4640,
      "Ġide": 4641,
      "Ġsens": 4642,
      "Ġsitta": 4643,
      "Ġthird": 4644,
      "ĠfÃ¥ng": 4645,
      "Ġgett": 4646,
      "ago": 4647,
      "igger": 4648,
      "Ġkey": 4649,
      "Ġjul": 4650,
      "Ġround": 4651,
      "Ġstack": 4652,
      "ĠMad": 4653,
      "ĠMay": 4654,
      "Ġgoda": 4655,
      "ĠCaptain": 4656,
      "Ġspir": 4657,
      "Ġutom": 4658,
      "ĠWil": 4659,
      "Ġ14": 4660,
      "ĠWest": 4661,
      "Stanna": 4662,
      "Ġdiffic": 4663,
      "Ġmissed": 4664,
      "Ġemp": 4665,
      "ĠHarry": 4666,
      "Ġsurpris": 4667,
      "Ġkallas": 4668,
      "ĠglÃ¶mde": 4669,
      "Ġwonderful": 4670,
      "Ġcharge": 4671,
      "Ġadvokat": 4672,
      "ĠfÃ¶rsvann": 4673,
      "Ġtrevligt": 4674,
      "Ġdifficult": 4675,
      "Ad": 4676,
      "Kl": 4677,
      "kare": 4678,
      "mare": 4679,
      "use": 4680,
      "Ġed": 4681,
      "ĠÃĦ": 4682,
      "inen": 4683,
      "Ġmis": 4684,
      "Ġfill": 4685,
      "Ġfool": 4686,
      "Ġvers": 4687,
      "Ġya": 4688,
      "ige": 4689,
      "Ġlim": 4690,
      "Ġjail": 4691,
      "iller": 4692,
      "Ġduring": 4693,
      "ĠrÃ¶ra": 4694,
      "ĠfÃ¶rklar": 4695,
      "amed": 4696,
      "Ġice": 4697,
      "Ġeight": 4698,
      "ĠSan": 4699,
      "Ġanim": 4700,
      "Ġviol": 4701,
      "ries": 4702,
      "Ġneigh": 4703,
      "Ġavsk": 4704,
      "ico": 4705,
      "Ġmenade": 4706,
      "Ġsucc": 4707,
      "Ġuppsk": 4708,
      "Ġboat": 4709,
      "Ġdrunk": 4710,
      "Ġhemskt": 4711,
      "Ġamb": 4712,
      "Ġfucked": 4713,
      "ĠStop": 4714,
      "Ġmoved": 4715,
      "Ġplane": 4716,
      "Ġrecogn": 4717,
      "cuss": 4718,
      "ĠfÃ¶rlora": 4719,
      "Ġflicka": 4720,
      "Ġexperience": 4721,
      "ĠPhil": 4722,
      "Ġsjun": 4723,
      "Ġpsych": 4724,
      "ĠMartin": 4725,
      "Dad": 4726,
      "Make": 4727,
      "OL": 4728,
      "Qu": 4729,
      "mp": 4730,
      "Ġtred": 4731,
      "Ġsorts": 4732,
      "Ã¤ker": 4733,
      "Ġgry": 4734,
      "agn": 4735,
      "Ġpiss": 4736,
      "Ġpiz": 4737,
      "iding": 4738,
      "ĠstjÃ¤r": 4739,
      "Ġeas": 4740,
      "Ġegent": 4741,
      "ppna": 4742,
      "ĠSen": 4743,
      "Ġrema": 4744,
      "une": 4745,
      "Ġneg": 4746,
      "ĠtrÃ¶tt": 4747,
      "arty": 4748,
      "Ġsover": 4749,
      "ĠFuck": 4750,
      "Ġbrand": 4751,
      "Ġerbjud": 4752,
      "Ġconcer": 4753,
      "ires": 4754,
      "Ġprep": 4755,
      "akten": 4756,
      "Ġgirlfriend": 4757,
      "ĠfrÃ¥gar": 4758,
      "ĠfrÃ¥gor": 4759,
      "Ġskyldig": 4760,
      "Ġmajor": 4761,
      "Ġbegrav": 4762,
      "minstone": 4763,
      "ĠCarl": 4764,
      "Ġveckan": 4765,
      "Ġhistory": 4766,
      "igheter": 4767,
      "ĠglÃ¶mma": 4768,
      "ĠCharles": 4769,
      "Ġvacker": 4770,
      "Ġsuggest": 4771,
      "John": 4772,
      "VÃ¤l": 4773,
      "field": 4774,
      "ges": 4775,
      "hip": 4776,
      "jut": 4777,
      "kort": 4778,
      "lsk": 4779,
      "Ãĥ": 4780,
      "iny": 4781,
      "Ġbi": 4782,
      "Ġbj": 4783,
      "Ġbought": 4784,
      "Ã¶ken": 4785,
      "oman": 4786,
      "Ġcas": 4787,
      "Ġren": 4788,
      "ĠfÃ¶rlÃ¥t": 4789,
      "Ġsty": 4790,
      "Ġstuck": 4791,
      "ĠskÃ¤r": 4792,
      "Ġskill": 4793,
      "anda": 4794,
      "Ġseven": 4795,
      "riage": 4796,
      "olm": 4797,
      "liver": 4798,
      "ĠPresident": 4799,
      "Ġchamp": 4800,
      "Ġblock": 4801,
      "aby": 4802,
      "Ã¤mta": 4803,
      "ĠWas": 4804,
      "ĠfÃ¶rsikt": 4805,
      "Ġeld": 4806,
      "rench": 4807,
      "elsed": 4808,
      "Ġvilken": 4809,
      "Ġansikt": 4810,
      "Ġansikte": 4811,
      "Ġmiles": 4812,
      "ĠkÃ¶pte": 4813,
      "Ġmonster": 4814,
      "Ġriktig": 4815,
      "ĠmÃ¤nniska": 4816,
      "wards": 4817,
      "Ġholding": 4818,
      "Only": 4819,
      "ĠAmerican": 4820,
      "Ġteach": 4821,
      "ĠJeff": 4822,
      "Ġfungerar": 4823,
      "Ġegna": 4824,
      "Precis": 4825,
      "Ġbrukade": 4826,
      "CT": 4827,
      "Gra": 4828,
      "IK": 4829,
      "Lyssna": 4830,
      "Oj": 4831,
      "Sa": 4832,
      "back": 4833,
      "ged": 4834,
      "rask": 4835,
      "Ġage": 4836,
      "Ġdance": 4837,
      "Ã¤ss": 4838,
      "ona": 4839,
      "Ġpun": 4840,
      "Ġnone": 4841,
      "Ġkyr": 4842,
      "Ġceleb": 4843,
      "ĠstjÃ¤l": 4844,
      "ĠDO": 4845,
      "unic": 4846,
      "ĠsÃ¥na": 4847,
      "ĠRE": 4848,
      "Ġblind": 4849,
      "Ġsuit": 4850,
      "geant": 4851,
      "laim": 4852,
      "Ġguld": 4853,
      "attnet": 4854,
      "Ġ13": 4855,
      "Ġtax": 4856,
      "Ġhasn": 4857,
      "Ġimm": 4858,
      "ĠhÃ¤nderna": 4859,
      "ĠvÃ¤rd": 4860,
      "athan": 4861,
      "utely": 4862,
      "Ġtrain": 4863,
      "Ġflytta": 4864,
      "jekt": 4865,
      "Ġsitting": 4866,
      "ĠkrÃ¤v": 4867,
      "Ġaccept": 4868,
      "ĠAmerica": 4869,
      "Ġlawy": 4870,
      "Ġofficer": 4871,
      "ĠScott": 4872,
      "ĠParis": 4873,
      "ĠÃ¶gonblick": 4874,
      "Ant": 4875,
      "Actually": 4876,
      "First": 4877,
      "brott": 4878,
      "jag": 4879,
      "Ġsand": 4880,
      "ĠsÃ¶t": 4881,
      "ennes": 4882,
      "ĠbÃ¶": 4883,
      "Ġpil": 4884,
      "Ġlay": 4885,
      "Ġkus": 4886,
      "Ġok": 4887,
      "Ġinn": 4888,
      "Ġinse": 4889,
      "Ġcab": 4890,
      "Ġcous": 4891,
      "elsen": 4892,
      "Ġintell": 4893,
      "Ġrummet": 4894,
      "Ġstore": 4895,
      "Ġskin": 4896,
      "ĠSorry": 4897,
      "Ġhealth": 4898,
      "ĠMer": 4899,
      "ĠCal": 4900,
      "ĠTony": 4901,
      "ĠPeter": 4902,
      "ĠRed": 4903,
      "ĠEtt": 4904,
      "ĠblÃ¥": 4905,
      "Ġgrupp": 4906,
      "Ġhemlighet": 4907,
      "ĠWhite": 4908,
      "Ġteck": 4909,
      "ĠTHIS": 4910,
      "ĠIngen": 4911,
      "Ã©n": 4912,
      "Ġtrick": 4913,
      "ibly": 4914,
      "Ġevent": 4915,
      "Ġfixar": 4916,
      "Ġstanding": 4917,
      "Ġfighting": 4918,
      "ĠstÃ¶rsta": 4919,
      "Utan": 4920,
      "Ġvideo": 4921,
      "Finns": 4922,
      ".'": 4923,
      "Hold": 4924,
      "Very": 4925,
      "bers": 4926,
      "cl": 4927,
      "inc": 4928,
      "Ġfur": 4929,
      "Ġfoc": 4930,
      "Ġbal": 4931,
      "Ġborn": 4932,
      "Ã¶ka": 4933,
      "stru": 4934,
      "Ġlow": 4935,
      "Ġow": 4936,
      "Ġtotal": 4937,
      "asÃ¥": 4938,
      "Ġenem": 4939,
      "Ġrather": 4940,
      "Ġir": 4941,
      "ĠstÃ¤ng": 4942,
      "aller": 4943,
      "ĠtillhÃ¶r": 4944,
      "ĠtillrÃ¤ckligt": 4945,
      "ĠDin": 4946,
      "ĠCo": 4947,
      "Ġneck": 4948,
      "the": 4949,
      "usan": 4950,
      "ĠPark": 4951,
      "elly": 4952,
      "ĠFlor": 4953,
      "Whatever": 4954,
      "ĠRy": 4955,
      "ĠRay": 4956,
      "Ġfinal": 4957,
      "Ġhero": 4958,
      "ĠEvery": 4959,
      "abri": 4960,
      "Ġproud": 4961,
      "lace": 4962,
      "FÃ¶rst": 4963,
      "ĠbehÃ¶va": 4964,
      "ĠsvÃ¥r": 4965,
      "achel": 4966,
      "Ġscrew": 4967,
      "efore": 4968,
      "Ġspeaking": 4969,
      "Minns": 4970,
      "Ġliter": 4971,
      "rÃ¤ff": 4972,
      "Ġaccount": 4973,
      "Ġdirect": 4974,
      "ĠÃ¶gonen": 4975,
      "Ġlugn": 4976,
      "ĠQue": 4977,
      "Ġstoppa": 4978,
      "Ġprofession": 4979,
      "Ġforgot": 4980,
      "Ġprogram": 4981,
      "ĠtillfÃ¤ll": 4982,
      "Ġenkelt": 4983,
      "20": 4984,
      "Am": 4985,
      "Bes": 4986,
      "Car": 4987,
      "Damn": 4988,
      "FÃ¥": 4989,
      "Jesus": 4990,
      "Lu": 4991,
      "came": 4992,
      "fl": 4993,
      "fil": 4994,
      "host": 4995,
      "house": 4996,
      "kter": 4997,
      "ĠâĢĵ": 4998,
      "Ġfatt": 4999,
      "ĠbÃ¤r": 5000,
      "Ġbuck": 5001,
      "onel": 5002,
      "itor": 5003,
      "aga": 5004,
      "Ġcalm": 5005,
      "tte": 5006,
      "Ġjoke": 5007,
      "nack": 5008,
      "ĠskÃ¶t": 5009,
      "ĠpÃ¥min": 5010,
      "ĠSE": 5011,
      "ĠSw": 5012,
      "ĠSir": 5013,
      "ĠSÃ¤g": 5014,
      "roller": 5015,
      "akta": 5016,
      "Ġ--": 5017,
      "ĠCity": 5018,
      "Ġspent": 5019,
      "essa": 5020,
      "Ġlos": 5021,
      "heart": 5022,
      "Ġimmed": 5023,
      "Ġnyheter": 5024,
      "Ġmorse": 5025,
      "ĠtrÃ¤d": 5026,
      "Ġlitet": 5027,
      "uthor": 5028,
      "Ġradio": 5029,
      "Ġsimple": 5030,
      "Ġscene": 5031,
      "Ġinvolved": 5032,
      "Ġimmedi": 5033,
      "Dra": 5034,
      "Ditt": 5035,
      "Gud": 5036,
      "ION": 5037,
      "Ph": 5038,
      "Tj": 5039,
      "bs": 5040,
      "hood": 5041,
      "kade": 5042,
      "nis": 5043,
      "night": 5044,
      "ners": 5045,
      "noon": 5046,
      "sv": 5047,
      "ura": 5048,
      "ya": 5049,
      "Ġsci": 5050,
      "Ġwood": 5051,
      "Ġwitness": 5052,
      "itu": 5053,
      "omas": 5054,
      "Ġking": 5055,
      "Ġkamer": 5056,
      "Ġot": 5057,
      "Ġinstead": 5058,
      "edu": 5059,
      "ĠistÃ¤llet": 5060,
      "Ġharm": 5061,
      "Ġiss": 5062,
      "oop": 5063,
      "rodu": 5064,
      "Ġgodd": 5065,
      "skan": 5066,
      "eave": 5067,
      "ĠNorth": 5068,
      "Ġsocial": 5069,
      "ĠPÃ¥": 5070,
      "Ã¥god": 5071,
      "Ġorig": 5072,
      "ĠEarth": 5073,
      "Ġblame": 5074,
      "ĠvÃ¤nster": 5075,
      "spel": 5076,
      "ĠStan": 5077,
      "Ġstarting": 5078,
      "Ġspec": 5079,
      "Ġtrip": 5080,
      "Ġmilit": 5081,
      "ĠFran": 5082,
      "talet": 5083,
      "Ġseconds": 5084,
      "ology": 5085,
      "Ġskicka": 5086,
      "Ġinterested": 5087,
      "Ġimagine": 5088,
      "Ġflesta": 5089,
      "Ġcivil": 5090,
      "Ġegentligen": 5091,
      "FrÃ¥n": 5092,
      "Remember": 5093,
      "can": 5094,
      "pose": 5095,
      "rarna": 5096,
      "inna": 5097,
      "ĠsÃ¤ll": 5098,
      "etch": 5099,
      "Ġfield": 5100,
      "oni": 5101,
      "Ġcust": 5102,
      "Ġcard": 5103,
      "Ġrakt": 5104,
      "Ġstab": 5105,
      "Ġrece": 5106,
      "iminal": 5107,
      "Ġanklag": 5108,
      "alla": 5109,
      "ĠMary": 5110,
      "ĠHa": 5111,
      "ĠHenry": 5112,
      "aks": 5113,
      "ĠDel": 5114,
      "Ġomkring": 5115,
      "ligare": 5116,
      "ĠGar": 5117,
      "Ġhonor": 5118,
      "ĠJoh": 5119,
      "ĠKen": 5120,
      "Ġthinks": 5121,
      "ĠVet": 5122,
      "Ġsuffer": 5123,
      "ended": 5124,
      "ĠWin": 5125,
      "Ġexcuse": 5126,
      "law": 5127,
      "Ġwilling": 5128,
      "avs": 5129,
      "avy": 5130,
      "Ġways": 5131,
      "Ġleta": 5132,
      "Ġhelping": 5133,
      "redit": 5134,
      "lingar": 5135,
      "Ã¤ckt": 5136,
      "ments": 5137,
      "ggs": 5138,
      "Ġfaith": 5139,
      "Ġrepresent": 5140,
      "Ġsuppose": 5141,
      "Ġfrukt": 5142,
      "Ġdrinking": 5143,
      "ĠLuc": 5144,
      "ĠmisstÃ¤n": 5145,
      "ĠmÃ¶jlighet": 5146,
      "ĠRobert": 5147,
      "Ã¶tsligt": 5148,
      "Ġdoubt": 5149,
      "Ã¶sses": 5150,
      "ĠfÃ¶delsed": 5151,
      "Ġappreciate": 5152,
      "Ġkaffe": 5153,
      "Mrs": 5154,
      "NÃ¥t": 5155,
      "NOW": 5156,
      "OD": 5157,
      "Sure": 5158,
      "Try": 5159,
      "do": 5160,
      "ging": 5161,
      "mÃ¤n": 5162,
      "ration": 5163,
      "tryck": 5164,
      "vi": 5165,
      "Ġtree": 5166,
      "ini": 5167,
      "Ġsnygg": 5168,
      "Ġhole": 5169,
      "ened": 5170,
      "Ġmid": 5171,
      "Ġfal": 5172,
      "onnie": 5173,
      "atis": 5174,
      "ature": 5175,
      "stad": 5176,
      "ĠnÃ¶d": 5177,
      "Ġletting": 5178,
      "Ġcow": 5179,
      "elat": 5180,
      "ĠSome": 5181,
      "ĠSouth": 5182,
      "Ġrese": 5183,
      "Ġaning": 5184,
      "ĠHall": 5185,
      "ĠAust": 5186,
      "ĠAli": 5187,
      "Ġavg": 5188,
      "ĠTell": 5189,
      "Ġutred": 5190,
      "ĠVan": 5191,
      "ified": 5192,
      "stairs": 5193,
      "ĠkÃ¤nt": 5194,
      "Stay": 5195,
      "Ġmotor": 5196,
      "Ã¤stare": 5197,
      "ĠtrÃ¤ffat": 5198,
      "Ġbroken": 5199,
      "Didn": 5200,
      "Ġliked": 5201,
      "Ġdifference": 5202,
      "Ġburn": 5203,
      "Ġdump": 5204,
      "ĠhÃ¤mtar": 5205,
      "Ġvinner": 5206,
      "Ġswear": 5207,
      "Ġstudent": 5208,
      "ĠÃ¥tervÃ¤nd": 5209,
      "Ġdying": 5210,
      "Sometimes": 5211,
      "Ġpsyk": 5212,
      "Ġotroligt": 5213,
      "Ġljuger": 5214,
      "IGHT": 5215,
      "Ġmachine": 5216,
      "EA": 5217,
      "Nobody": 5218,
      "Say": 5219,
      "UN": 5220,
      "UST": 5221,
      "Ġtip": 5222,
      "Ġtired": 5223,
      "Ġslipp": 5224,
      "Ġdick": 5225,
      "Ġfing": 5226,
      "itter": 5227,
      "Ġkross": 5228,
      "Ġkyss": 5229,
      "Ġol": 5230,
      "veck": 5231,
      "Ġbecame": 5232,
      "Ġequ": 5233,
      "ĠSa": 5234,
      "rote": 5235,
      "ilty": 5236,
      "ĠAT": 5237,
      "ĠBa": 5238,
      "ĠTill": 5239,
      "Ġchick": 5240,
      "ĠRick": 5241,
      "ĠRuss": 5242,
      "ĠEr": 5243,
      "fÃ¶ra": 5244,
      "Ġpray": 5245,
      "Ġexam": 5246,
      "Ġexcept": 5247,
      "Ġcomfort": 5248,
      "cious": 5249,
      "ĠÃ¥tta": 5250,
      "Ġtechn": 5251,
      "Ġelect": 5252,
      "Ġpartic": 5253,
      "Ġdiscuss": 5254,
      "Looks": 5255,
      "Ġkeeping": 5256,
      "Ġafternoon": 5257,
      "Ġbigger": 5258,
      "Ġcourt": 5259,
      "Ġappro": 5260,
      "Ãĸppna": 5261,
      "Ġskickade": 5262,
      "ĠfÃ¶rlorar": 5263,
      "ĠfÃ¶rlorade": 5264,
      "Ġpojke": 5265,
      "Ġfavorite": 5266,
      "Ġinteresting": 5267,
      "OME": 5268,
      "Ġbullshit": 5269,
      "unnit": 5270,
      "Ġbreath": 5271,
      "Ġbathroom": 5272,
      "ĠkÃ¤ften": 5273,
      "10": 5274,
      "Back": 5275,
      "GH": 5276,
      "Got": 5277,
      "IR": 5278,
      "Mom": 5279,
      "sn": 5280,
      "sikt": 5281,
      "vÃ¤n": 5282,
      "vent": 5283,
      "Ġhind": 5284,
      "ĠhÃ¥l": 5285,
      "Ġment": 5286,
      "ĠmÃ¶t": 5287,
      "Ġmira": 5288,
      "anke": 5289,
      "Ġfisk": 5290,
      "ĠfÃ¤rd": 5291,
      "Ġble": 5292,
      "Ġbother": 5293,
      "aten": 5294,
      "atal": 5295,
      "Ã¶ker": 5296,
      "itz": 5297,
      "Ġputting": 5298,
      "igar": 5299,
      "ĠnÃ¥": 5300,
      "Ġcash": 5301,
      "aler": 5302,
      "ppar": 5303,
      "ĠSH": 5304,
      "ĠSher": 5305,
      "imon": 5306,
      "Ġweak": 5307,
      "allen": 5308,
      "ĠMo": 5309,
      "ĠAN": 5310,
      "ĠBara": 5311,
      "ĠBilly": 5312,
      "ĠGÃ¶r": 5313,
      "ĠFrench": 5314,
      "ived": 5315,
      "Innan": 5316,
      "ĠÃ¶verrask": 5317,
      "Varje": 5318,
      "Jaha": 5319,
      "Ġkiller": 5320,
      "ĠÃ¥tminstone": 5321,
      "ression": 5322,
      "Ġtarget": 5323,
      "Ġkidding": 5324,
      "Ã¶jligt": 5325,
      "ĠmÃ¤nsk": 5326,
      "Ġsteg": 5327,
      "Ġdriving": 5328,
      "ĠlÃ¥tsas": 5329,
      "rÃ¤d": 5330,
      "ĠkÃ¶rde": 5331,
      "Ġmarriage": 5332,
      "ĠhjÃ¤lpte": 5333,
      "Ġskiten": 5334,
      "ortsÃ¤tt": 5335,
      "ĠSteve": 5336,
      "Ġkroppen": 5337,
      "ĠljÃ¶g": 5338,
      "Ġoperation": 5339,
      "Ġcamera": 5340,
      "Ġhoping": 5341,
      "Ġkapten": 5342,
      "Hade": 5343,
      "KÃ¶r": 5344,
      "May": 5345,
      "Mich": 5346,
      "MÃ¥nga": 5347,
      "Never": 5348,
      "RO": 5349,
      "bel": 5350,
      "eared": 5351,
      "fest": 5352,
      "mo": 5353,
      "nars": 5354,
      "samma": 5355,
      "uch": 5356,
      "usk": 5357,
      "val": 5358,
      "Ġtight": 5359,
      "Ġsli": 5360,
      "Ġhers": 5361,
      "eta": 5362,
      "Ġbase": 5363,
      "Ġwild": 5364,
      "orld": 5365,
      "Ġgay": 5366,
      "eds": 5367,
      "Ġca": 5368,
      "ĠrÃ¤tta": 5369,
      "ĠfÃ¶rra": 5370,
      "Ġsten": 5371,
      "ĠskÃ¤mt": 5372,
      "roa": 5373,
      "ĠMars": 5374,
      "Ã¥ngen": 5375,
      "Ġshoes": 5376,
      "ĠCH": 5377,
      "ĠLÃ¥t": 5378,
      "ĠJane": 5379,
      "ningarna": 5380,
      "ĠFÃ¥r": 5381,
      "ĠFred": 5382,
      "ĠFOR": 5383,
      "ĠVÃ¤nta": 5384,
      "mail": 5385,
      "gency": 5386,
      "ensive": 5387,
      "ĠÃ¶verle": 5388,
      "Ġhanden": 5389,
      "Ġservice": 5390,
      "appy": 5391,
      "ĠsvÃ¤r": 5392,
      "Ġpoor": 5393,
      "Ġscream": 5394,
      "Ġsyn": 5395,
      "plan": 5396,
      "Ġdelar": 5397,
      "Ġvilka": 5398,
      "Ġfolks": 5399,
      "Ġkvinn": 5400,
      "ĠlÃ¤rde": 5401,
      "Ġmotherf": 5402,
      "Ġfavorit": 5403,
      "ĠslÃ¤ppa": 5404,
      "Ġljus": 5405,
      "ĠAdam": 5406,
      "ĠhÃ¤lsa": 5407,
      "Ġladies": 5408,
      "ĠEngland": 5409,
      "Ġpotent": 5410,
      "ograph": 5411,
      "Ġhotell": 5412,
      "Ġenergy": 5413,
      "Ġsjukhuset": 5414,
      "Ġgentlemen": 5415,
      "Ġsuccess": 5416,
      "LD": 5417,
      "SE": 5418,
      "ban": 5419,
      "ec": 5420,
      "fast": 5421,
      "jest": 5422,
      "kost": 5423,
      "por": 5424,
      "pol": 5425,
      "Ġ]": 5426,
      "Ġou": 5427,
      "ĠsÃ¤ng": 5428,
      "Ġmrs": 5429,
      "Ã¶ja": 5430,
      "omen": 5431,
      "Ġlaugh": 5432,
      "Ġko": 5433,
      "edom": 5434,
      "Ġcast": 5435,
      "Ġcup": 5436,
      "Ġtoppen": 5437,
      "ĠjÃ¤m": 5438,
      "Ġjorden": 5439,
      "Ġvare": 5440,
      "ĠHolly": 5441,
      "Ġshop": 5442,
      "Ġknock": 5443,
      "ĠAh": 5444,
      "ktig": 5445,
      "ĠTommy": 5446,
      "Ġsaved": 5447,
      "Ġchurch": 5448,
      "udd": 5449,
      "Ġproject": 5450,
      "Ġslag": 5451,
      "Ġslags": 5452,
      "Ġunders": 5453,
      "Ġtalat": 5454,
      "ĠbehÃ¥ll": 5455,
      "arsÃ¥god": 5456,
      "fect": 5457,
      "Ġintrodu": 5458,
      "loy": 5459,
      "ĠnÃ¥nstans": 5460,
      "Ġpratat": 5461,
      "ption": 5462,
      "Ġjobbade": 5463,
      "Ġbarnet": 5464,
      "Ġdiscover": 5465,
      "Ġtravel": 5466,
      "Ġbuilt": 5467,
      "Ġwriting": 5468,
      "Ġproblems": 5469,
      "Ġagre": 5470,
      "Ġgillade": 5471,
      "Whoa": 5472,
      "Ġaccess": 5473,
      "ibility": 5474,
      "Ġlandet": 5475,
      "Ġ60": 5476,
      "Ġwondering": 5477,
      "Ġluft": 5478,
      "Ġfigured": 5479,
      "versation": 5480,
      "fully": 5481,
      "NÃ¥gon": 5482,
      "Ġstolt": 5483,
      "Ġbetalar": 5484,
      "Ġquickly": 5485,
      "Ġmeddelande": 5486,
      "Ġweapon": 5487,
      "Ġuppdrag": 5488,
      "Ġrisker": 5489,
      "Ġtredje": 5490,
      "Kill": 5491,
      "Led": 5492,
      "Rob": 5493,
      "gin": 5494,
      "han": 5495,
      "here": 5496,
      "nÃ¤r": 5497,
      "wen": 5498,
      "Ġtit": 5499,
      "ero": 5500,
      "Ġhunt": 5501,
      "Ġmamm": 5502,
      "Ġmaster": 5503,
      "ano": 5504,
      "Ġfish": 5505,
      "Ġfokus": 5506,
      "Ġbow": 5507,
      "Ġwrote": 5508,
      "Ġvit": 5509,
      "Ġvelat": 5510,
      "Ġgym": 5511,
      "Ġpal": 5512,
      "Ġkry": 5513,
      "Ġinbland": 5514,
      "eld": 5515,
      "ota": 5516,
      "Ġbear": 5517,
      "Ġrich": 5518,
      "ĠfÃ¶rh": 5519,
      "Ġwhether": 5520,
      "Ã¤ns": 5521,
      "ĠSon": 5522,
      "ĠSure": 5523,
      "Ġwearing": 5524,
      "Ġdeb": 5525,
      "ĠHÃ¤r": 5526,
      "cell": 5527,
      "akar": 5528,
      "ĠCor": 5529,
      "ĠCla": 5530,
      "itten": 5531,
      "ĠTed": 5532,
      "ĠTra": 5533,
      "ĠNor": 5534,
      "Ġfina": 5535,
      "Ġplans": 5536,
      "Ġplaces": 5537,
      "ĠWal": 5538,
      "Ġexakt": 5539,
      "Ġguilty": 5540,
      "Ġunless": 5541,
      "cia": 5542,
      "Ġfuckin": 5543,
      "Ġmission": 5544,
      "Ġaction": 5545,
      "ĠAllt": 5546,
      "Ġdriver": 5547,
      "Ġstaying": 5548,
      "Ġbrev": 5549,
      "year": 5550,
      "Ġmarry": 5551,
      "otten": 5552,
      "Ġterror": 5553,
      "Ġsleeping": 5554,
      "ĠfÃ¶rbann": 5555,
      "Ġmagic": 5556,
      "Ġtjejer": 5557,
      "ĠDaddy": 5558,
      "Ġincred": 5559,
      "ĠjÃ¤ttebra": 5560,
      "Ġcomplete": 5561,
      "Ġprivat": 5562,
      "Ġprivate": 5563,
      "ĠhÃ¤ls": 5564,
      "Ġfantastisk": 5565,
      "ĠEnglish": 5566,
      "Ġhotel": 5567,
      "rÃ¥det": 5568,
      "Ġopport": 5569,
      "ĠRichard": 5570,
      "ĠfÃ¶rtjÃ¤nar": 5571,
      "Ġsurprised": 5572,
      "Ġpizza": 5573,
      "Ġinnoc": 5574,
      "Ġcousin": 5575,
      "50": 5576,
      "Call": 5577,
      "ITH": 5578,
      "Jim": 5579,
      "Lite": 5580,
      "Sc": 5581,
      "Tre": 5582,
      "WH": 5583,
      "awn": 5584,
      "boy": 5585,
      "eys": 5586,
      "hal": 5587,
      "iat": 5588,
      "karna": 5589,
      "ĠsÃ¥r": 5590,
      "ĠsÃ¤rskilt": 5591,
      "anne": 5592,
      "Ġborrow": 5593,
      "Ġwaste": 5594,
      "Ġvol": 5595,
      "Ġvac": 5596,
      "ague": 5597,
      "Ġpath": 5598,
      "ishing": 5599,
      "tes": 5600,
      "ĠfÃ¶rber": 5601,
      "amin": 5602,
      "Ġskil": 5603,
      "Ġreger": 5604,
      "andon": 5605,
      "rol": 5606,
      "ĠHis": 5607,
      "ĠHello": 5608,
      "irm": 5609,
      "terar": 5610,
      "Ġknull": 5611,
      "ĠAny": 5612,
      "itting": 5613,
      "ĠBrian": 5614,
      "Ġnecess": 5615,
      "lik": 5616,
      "ĠJake": 5617,
      "arac": 5618,
      "Ġsoci": 5619,
      "ĠFl": 5620,
      "ĠEller": 5621,
      "ĠEddie": 5622,
      "Ġguest": 5623,
      "ĠnÃ¥gons": 5624,
      "Ġhadn": 5625,
      "Ġ17": 5626,
      "ĠÃ¤nt": 5627,
      "Ġtidigt": 5628,
      "Ġ21": 5629,
      "ished": 5630,
      "ints": 5631,
      "ĠmÃ¥nad": 5632,
      "Ġremind": 5633,
      "ĠfrÃ¥gan": 5634,
      "Ġhoppa": 5635,
      "Ġlikad": 5636,
      "Ġgrab": 5637,
      "Ġvalde": 5638,
      "Ġaccep": 5639,
      "Ġstopped": 5640,
      "Ġsignal": 5641,
      "Ġextre": 5642,
      "Ġangry": 5643,
      "Ġvackra": 5644,
      "Ã¤nnande": 5645,
      "Ġallowed": 5646,
      "ĠUSA": 5647,
      "Ġrequest": 5648,
      "Ġamerikan": 5649,
      "Ġlawyer": 5650,
      "Ġgoddamn": 5651,
      "avsett": 5652,
      "AP": 5653,
      "Dina": 5654,
      "Prat": 5655,
      "YOU": 5656,
      "rats": 5657,
      "vÃ¤l": 5658,
      "ĠÃ¥ng": 5659,
      "Ġtor": 5660,
      "Ġsour": 5661,
      "Ã¤ster": 5662,
      "Ġbred": 5663,
      "atta": 5664,
      "Ġvamp": 5665,
      "Ġvissa": 5666,
      "Ġvux": 5667,
      "Ġgiss": 5668,
      "ĠlÃ¤st": 5669,
      "Ġcrew": 5670,
      "Ġclaim": 5671,
      "iday": 5672,
      "ĠstÃ¶": 5673,
      "ĠSal": 5674,
      "ooper": 5675,
      "Ġhej": 5676,
      "ĠMY": 5677,
      "ĠMac": 5678,
      "ĠComm": 5679,
      "Ġtrots": 5680,
      "Ġsake": 5681,
      "Ġspar": 5682,
      "Ġupon": 5683,
      "Ġutveck": 5684,
      "Ġherrar": 5685,
      "abe": 5686,
      "ateg": 5687,
      "Ġlevel": 5688,
      "Ġundv": 5689,
      "Ġboll": 5690,
      "ligtvis": 5691,
      "ĠnÃ¥nting": 5692,
      "ycker": 5693,
      "pty": 5694,
      "Str": 5695,
      "Ġkidnapp": 5696,
      "ĠThomas": 5697,
      "ohol": 5698,
      "Beh": 5699,
      "Ġasshole": 5700,
      "ĠtrÃ¤ffar": 5701,
      "Ġhuge": 5702,
      "Ġcareer": 5703,
      "Ġreser": 5704,
      "ĠkÃ¶tt": 5705,
      "Ġkvinnan": 5706,
      "Ġkontroll": 5707,
      "Ġcrack": 5708,
      "Ġfresh": 5709,
      "ĠlÃ¶sa": 5710,
      "Ġbevisa": 5711,
      "Ġpressure": 5712,
      "ossible": 5713,
      "Ġlovely": 5714,
      "Ġwindow": 5715,
      "Ġintressant": 5716,
      "ĠAngel": 5717,
      "Ġjoin": 5718,
      "mission": 5719,
      "Ġrapporter": 5720,
      "Ġintellig": 5721,
      "ĠÃ¤ntligen": 5722,
      "\"...": 5723,
      "-\"": 5724,
      "Before": 5725,
      "Ooh": 5726,
      "Sy": 5727,
      "how": 5728,
      "lerna": 5729,
      "nst": 5730,
      "sfÃ¶r": 5731,
      "vy": 5732,
      "zab": 5733,
      "Ġaud": 5734,
      "Ġdouble": 5735,
      "Ġhook": 5736,
      "ĠhÃ¤st": 5737,
      "ening": 5738,
      "Ġfake": 5739,
      "Ġvattnet": 5740,
      "stÃ¤nd": 5741,
      "Ġnames": 5742,
      "Ġklo": 5743,
      "Ġcit": 5744,
      "Ġcute": 5745,
      "esome": 5746,
      "Ġdetail": 5747,
      "aly": 5748,
      "Ġrain": 5749,
      "ĠSee": 5750,
      "ĠMat": 5751,
      "ĠHold": 5752,
      "ĠHmm": 5753,
      "ĠCent": 5754,
      "ĠBro": 5755,
      "Ġminut": 5756,
      "Ġtrad": 5757,
      "ĠTw": 5758,
      "ĠGive": 5759,
      "usion": 5760,
      "lier": 5761,
      "Ġchoose": 5762,
      "Ġnio": 5763,
      "ĠKate": 5764,
      "Ġlog": 5765,
      "Ġprin": 5766,
      "Ġusually": 5767,
      "ĠWith": 5768,
      "Ġslow": 5769,
      "ÃĦlsk": 5770,
      "ording": 5771,
      "cip": 5772,
      "ĠfÃ¶rstÃ¶ra": 5773,
      "Ġhelped": 5774,
      "weet": 5775,
      "Ġmisslyck": 5776,
      "Ġdela": 5777,
      "ĠInter": 5778,
      "Ġphys": 5779,
      "Ġtype": 5780,
      "Ġsamman": 5781,
      "Ġsurprise": 5782,
      "Ġ500": 5783,
      "ĠjÃ¤vel": 5784,
      "Ġlikes": 5785,
      "Ġinterview": 5786,
      "ĠDoctor": 5787,
      "ĠCarol": 5788,
      "Ġfyll": 5789,
      "Ġdraw": 5790,
      "Ġstudy": 5791,
      "Ġtjejen": 5792,
      "samhet": 5793,
      "Ġgotten": 5794,
      "Ġupptagen": 5795,
      "Ġlearned": 5796,
      "Ġaddress": 5797,
      "Ġfinished": 5798,
      "Ġcloser": 5799,
      "Ġknappt": 5800,
      "Ġdarling": 5801,
      "Ġobviously": 5802,
      "Ġliterally": 5803,
      "Alex": 5804,
      "Great": 5805,
      "Hennes": 5806,
      "Ins": 5807,
      "Sv": 5808,
      "SjÃ¤lv": 5809,
      "Te": 5810,
      "cret": 5811,
      "down": 5812,
      "ech": 5813,
      "midd": 5814,
      "pade": 5815,
      "vo": 5816,
      "ville": 5817,
      "Ġ#": 5818,
      "ĠÃħ": 5819,
      "inder": 5820,
      "Ġauthor": 5821,
      "Ã¤na": 5822,
      "Ã¤dd": 5823,
      "ari": 5824,
      "Ġmeter": 5825,
      "Ġbast": 5826,
      "Ã¤rt": 5827,
      "Ġcal": 5828,
      "test": 5829,
      "esh": 5830,
      "Ġbeb": 5831,
      "Ġbeer": 5832,
      "Ġbeklag": 5833,
      "Ġstal": 5834,
      "Ġisland": 5835,
      "Ġforce": 5836,
      "itted": 5837,
      "Ġwithin": 5838,
      "ĠLee": 5839,
      "ĠJapan": 5840,
      "Ġspoke": 5841,
      "Ġupset": 5842,
      "ulous": 5843,
      "Ġheld": 5844,
      "Ġsuck": 5845,
      "Ġfeed": 5846,
      "Ġbygga": 5847,
      "oster": 5848,
      "Ġletter": 5849,
      "Ġtekn": 5850,
      "Ġstrange": 5851,
      "slag": 5852,
      "ĠfÃ¶rsÃ¶k": 5853,
      "bby": 5854,
      "Ġcode": 5855,
      "Ġcareful": 5856,
      "Ġplayed": 5857,
      "ANT": 5858,
      "Ġsamarbet": 5859,
      "Ġfullt": 5860,
      "ĠlÃ¤gen": 5861,
      "Ġrespekt": 5862,
      "Ġdumma": 5863,
      "Once": 5864,
      "Ġpromised": 5865,
      "Ġlistening": 5866,
      "ubben": 5867,
      "ĠglÃ¶mmer": 5868,
      "Ġdecide": 5869,
      "ĠhÃ¶gt": 5870,
      "Ġreading": 5871,
      "Anyway": 5872,
      "NÃ¥gra": 5873,
      "Ġstolen": 5874,
      "ĠMex": 5875,
      "Ġexcited": 5876,
      "Ġdrugs": 5877,
      "Ġcertainly": 5878,
      "ĠÃ¤ktenskap": 5879,
      "Ġinvited": 5880,
      "Ġimmediately": 5881,
      "Ġresearch": 5882,
      "OP": 5883,
      "Oroa": 5884,
      "eal": 5885,
      "jar": 5886,
      "kes": 5887,
      "rass": 5888,
      "vad": 5889,
      "wise": 5890,
      "Ġtour": 5891,
      "Ġaut": 5892,
      "Ġdirty": 5893,
      "Ġhi": 5894,
      "Ġfj": 5895,
      "Ġfart": 5896,
      "atic": 5897,
      "iten": 5898,
      "Ġgard": 5899,
      "ston": 5900,
      "resten": 5901,
      "Ġpul": 5902,
      "ĠnÃ¤m": 5903,
      "Ġnamed": 5904,
      "Ġcause": 5905,
      "Ġcigar": 5906,
      "ĠID": 5907,
      "ased": 5908,
      "ality": 5909,
      "Ġrik": 5910,
      "Ġitself": 5911,
      "lder": 5912,
      "Ġemer": 5913,
      "Ġdoc": 5914,
      "Ġmyster": 5915,
      "ĠLiz": 5916,
      "lies": 5917,
      "ĠJac": 5918,
      "icago": 5919,
      "ĠFin": 5920,
      "oday": 5921,
      "Ġplenty": 5922,
      "ationer": 5923,
      "abel": 5924,
      "Ġloves": 5925,
      "ĠdÃ¤rifrÃ¥n": 5926,
      "ĠWAS": 5927,
      "Ġconvin": 5928,
      "Enligt": 5929,
      "spl": 5930,
      "Still": 5931,
      "StÃ¤ll": 5932,
      "iley": 5933,
      "Ġacting": 5934,
      "Ġshowed": 5935,
      "ĠinsÃ¥g": 5936,
      "Isn": 5937,
      "Ġimpro": 5938,
      "Sky": 5939,
      "ĠkÃ¶per": 5940,
      "Ġfilmen": 5941,
      "Ġcrap": 5942,
      "ENT": 5943,
      "Ġdropped": 5944,
      "Ġwarm": 5945,
      "THE": 5946,
      "ĠAnna": 5947,
      "Ġligga": 5948,
      "From": 5949,
      "ĠReally": 5950,
      "ĠNothing": 5951,
      "Ġruin": 5952,
      "ĠGrand": 5953,
      "ĠslÃ¤pper": 5954,
      "Ġchefen": 5955,
      "Ġlyssnar": 5956,
      "Ġlevande": 5957,
      "Ġsekunder": 5958,
      "Ġdjupt": 5959,
      "ĠkÃ¤nslor": 5960,
      "Ġpleasure": 5961,
      "Ġfocus": 5962,
      "LA": 5963,
      "Last": 5964,
      "MÃ¥ste": 5965,
      "NÃ¤sta": 5966,
      "WE": 5967,
      "giv": 5968,
      "jorde": 5969,
      "light": 5970,
      "inion": 5971,
      "ĠhÃ¤ng": 5972,
      "Ġmate": 5973,
      "Ġmater": 5974,
      "Ġbattle": 5975,
      "ĠgÃ¤ng": 5976,
      "Ġkitch": 5977,
      "edel": 5978,
      "Ġcy": 5979,
      "Ġattention": 5980,
      "ele": 5981,
      "Ġrap": 5982,
      "Ġraring": 5983,
      "Ġstink": 5984,
      "Ġstaden": 5985,
      "ĠstÃ¤nga": 5986,
      "Ġskogen": 5987,
      "rap": 5988,
      "ĠpÃ¥gÃ¥r": 5989,
      "Ġshots": 5990,
      "ĠknÃ¤pp": 5991,
      "ĠDom": 5992,
      "ĠCra": 5993,
      "ĠTur": 5994,
      "ĠGÃ¥": 5995,
      "ĠJon": 5996,
      "ĠFan": 5997,
      "Ġsaf": 5998,
      "Ġskapa": 5999,
      "oden": 6000,
      "ulations": 6001,
      "ĠRoy": 6002,
      "ĠKat": 6003,
      "ĠVisst": 6004,
      "loe": 6005,
      "ĠdÃ¥liga": 6006,
      "ĠtvÃ¤tt": 6007,
      "ĠStreet": 6008,
      "ĠvÃ¤rsta": 6009,
      "ĠÃ¥ret": 6010,
      "Ġfarm": 6011,
      "Ġringt": 6012,
      "ampan": 6013,
      "Ġlitar": 6014,
      "Ġended": 6015,
      "iverse": 6016,
      "Ġfaster": 6017,
      "Ġinterv": 6018,
      "Ġ201": 6019,
      "medel": 6020,
      "ĠhjÃ¤rtat": 6021,
      "Ġbreakfast": 6022,
      "revligt": 6023,
      "Ġskjut": 6024,
      "Ġtittade": 6025,
      "Ġlights": 6026,
      "ĠDanny": 6027,
      "Ġapartment": 6028,
      "ĠmÃ¶rdare": 6029,
      "ĠslÃ¥ss": 6030,
      "Ġcirc": 6031,
      "Ġphoto": 6032,
      "FÃ¶rsÃ¶k": 6033,
      "About": 6034,
      "Ġclient": 6035,
      "Ġmemory": 6036,
      "Ġoroa": 6037,
      "Ġjournal": 6038,
      "ĠHAVE": 6039,
      "ĠGerman": 6040,
      "Ġideas": 6041,
      "Ġneighbor": 6042,
      "Ġkusin": 6043,
      "ĠQueen": 6044,
      "Ġlosing": 6045,
      "FortsÃ¤tt": 6046,
      "Has": 6047,
      "JÃ¶sses": 6048,
      "Yo": 6049,
      "book": 6050,
      "ggen": 6051,
      "jÃ¶l": 6052,
      "kon": 6053,
      "met": 6054,
      "rom": 6055,
      "yond": 6056,
      "Ġsight": 6057,
      "arr": 6058,
      "Ġfac": 6059,
      "Ġbird": 6060,
      "omer": 6061,
      "Ġvann": 6062,
      "Ġgives": 6063,
      "rep": 6064,
      "Ġpers": 6065,
      "Ġkat": 6066,
      "Ġocc": 6067,
      "che": 6068,
      "vey": 6069,
      "amon": 6070,
      "Three": 6071,
      "Ġskoj": 6072,
      "ĠanstÃ¤ll": 6073,
      "Ġmedvet": 6074,
      "entligt": 6075,
      "ĠHal": 6076,
      "Ġknife": 6077,
      "ĠAS": 6078,
      "ĠCIA": 6079,
      "ĠBell": 6080,
      "ĠBoy": 6081,
      "Ġseat": 6082,
      "Ġtru": 6083,
      "ĠTwo": 6084,
      "ĠNOT": 6085,
      "iced": 6086,
      "empt": 6087,
      "Ġskaffa": 6088,
      "Ġspo": 6089,
      "Ġplant": 6090,
      "ĠplÃ¶tsligt": 6091,
      "ĠÃ¶l": 6092,
      "ĠbrÃ¥": 6093,
      "Ġguard": 6094,
      "ĠÃ¶verlev": 6095,
      "ĠdÃ¶tt": 6096,
      "Ġeverywhere": 6097,
      "Ġpregn": 6098,
      "ĠChris": 6099,
      "nytt": 6100,
      "ĠpoÃ¤ng": 6101,
      "Ġnyss": 6102,
      "Ġplanning": 6103,
      "Ġstarts": 6104,
      "Ġfarligt": 6105,
      "Ġslutet": 6106,
      "Ġslutade": 6107,
      "Ġinser": 6108,
      "ĠbÃ¶rjat": 6109,
      "Ġspelade": 6110,
      "ĠÃ¤t": 6111,
      "ctory": 6112,
      "Ġskriv": 6113,
      "Vilka": 6114,
      "Everybody": 6115,
      "Ġbringing": 6116,
      "Ġkollar": 6117,
      "Ġsticka": 6118,
      "Ġsticker": 6119,
      "ĠLuke": 6120,
      "Ġbasket": 6121,
      "Ġcollect": 6122,
      "ĠbehÃ¶vs": 6123,
      "ĠUncle": 6124,
      "ĠskÃ¶ter": 6125,
      "ĠmÃ¶te": 6126,
      "ĠavslÃ¶j": 6127,
      "ĠsÃ¤ljer": 6128,
      "Ġpurpose": 6129,
      "Ġtrevlig": 6130,
      "fortun": 6131,
      "Perhaps": 6132,
      "Ġcolor": 6133,
      "Ġbredvid": 6134,
      "Ġpregnant": 6135,
      "Ben": 6136,
      "Con": 6137,
      "Far": 6138,
      "Fort": 6139,
      "HjÃ¤lp": 6140,
      "More": 6141,
      "Over": 6142,
      "Time": 6143,
      "Welcome": 6144,
      "bra": 6145,
      "jÃ¶": 6146,
      "kont": 6147,
      "nam": 6148,
      "su": 6149,
      "tr": 6150,
      "vÃ¤nt": 6151,
      "ĠÃ¤ld": 6152,
      "erande": 6153,
      "Ġdry": 6154,
      "Ġhiding": 6155,
      "Ġmakt": 6156,
      "Ġbunch": 6157,
      "Ġwitch": 6158,
      "Ġgro": 6159,
      "agon": 6160,
      "stÃ¤lla": 6161,
      "Ġpin": 6162,
      "Ġpuss": 6163,
      "Ġnine": 6164,
      "Ġowe": 6165,
      "....": 6166,
      "ĠjÃ¤k": 6167,
      "tee": 6168,
      "Think": 6169,
      "Ġstole": 6170,
      "rof": 6171,
      "ĠMs": 6172,
      "iling": 6173,
      "Ġshock": 6174,
      "unior": 6175,
      "Ġnotice": 6176,
      "ĠNE": 6177,
      "that": 6178,
      "ĠLA": 6179,
      "ĠLi": 6180,
      "ĠLarry": 6181,
      "ĠJUST": 6182,
      "ĠOliver": 6183,
      "icle": 6184,
      "icka": 6185,
      "odd": 6186,
      "Ġcharac": 6187,
      "ĠRos": 6188,
      "ĠKNOW": 6189,
      "Ġbrud": 6190,
      "Ã¤mde": 6191,
      "ĠWITH": 6192,
      "lax": 6193,
      "ordin": 6194,
      "Ġtaste": 6195,
      "Ġprefer": 6196,
      "Ġvisade": 6197,
      "Ġsvag": 6198,
      "Ġsvara": 6199,
      "ĠUm": 6200,
      "ĠfÃ¶rstod": 6201,
      "ĠfÃ¶dd": 6202,
      "ĠklÃ¤n": 6203,
      "Ġstories": 6204,
      "âĢĶ": 6205,
      "Ġfarbror": 6206,
      "ĠrÃ¤d": 6207,
      "ength": 6208,
      "Ġproblemet": 6209,
      "Ġcoun": 6210,
      "elset": 6211,
      "egan": 6212,
      "ĠAlla": 6213,
      "Ġstrax": 6214,
      "Ġfired": 6215,
      "Ġlyckas": 6216,
      "Ġlycklig": 6217,
      "ĠJackson": 6218,
      "Ġpicked": 6219,
      "Ġskadad": 6220,
      "Ġlegs": 6221,
      "Ġchansen": 6222,
      "ĠGeorg": 6223,
      "ĠWilliam": 6224,
      "Ġtwice": 6225,
      "Ġilleg": 6226,
      "ĠWilson": 6227,
      "Ġeasier": 6228,
      "Ġenemy": 6229,
      "ĠfÃ¶delsedag": 6230,
      "Ġopportunity": 6231,
      "ĠnÃ¥gonsin": 6232,
      "Ġkitchen": 6233,
      "ARE": 6234,
      "Dom": 6235,
      "Em": 6236,
      "Kn": 6237,
      "Mer": 6238,
      "TÃ¤nker": 6239,
      "ears": 6240,
      "fte": 6241,
      "ias": 6242,
      "jord": 6243,
      "lay": 6244,
      "lass": 6245,
      "ĠÃ¶r": 6246,
      "Ġdat": 6247,
      "Ġdare": 6248,
      "Ġdata": 6249,
      "Ġhired": 6250,
      "ences": 6251,
      "etition": 6252,
      "Ġther": 6253,
      "ĠbÃ¥de": 6254,
      "Ġpig": 6255,
      "Ġlust": 6256,
      "Ġljud": 6257,
      "Ġosk": 6258,
      "Ġovan": 6259,
      "Ġosky": 6260,
      "Ġcream": 6261,
      "Ã¶rja": 6262,
      "nde": 6263,
      "Ġjord": 6264,
      "aska": 6265,
      "Ġdue": 6266,
      "Ġdubb": 6267,
      "...!": 6268,
      "alys": 6269,
      "ĠofÃ¶r": 6270,
      "aylor": 6271,
      "lden": 6272,
      "Ġstry": 6273,
      "ĠstÃ¶d": 6274,
      "pping": 6275,
      "ĠskÃ¤l": 6276,
      "Ġrelig": 6277,
      "ĠHit": 6278,
      "ĠHouse": 6279,
      "ĠDra": 6280,
      "rie": 6281,
      "riÃ¤r": 6282,
      "Ġavoid": 6283,
      "ĠTim": 6284,
      "ĠTror": 6285,
      "ĠGreg": 6286,
      "ĠJer": 6287,
      "ĠJen": 6288,
      "ulation": 6289,
      "ĠRock": 6290,
      "ĠKim": 6291,
      "ĠKelly": 6292,
      "ĠVer": 6293,
      "Ġblue": 6294,
      "ansen": 6295,
      "enden": 6296,
      "ĠbrÃ¶st": 6297,
      "Ġarmy": 6298,
      "Ġarms": 6299,
      "atest": 6300,
      "Ġleka": 6301,
      "Ġthemselves": 6302,
      "Ġconversation": 6303,
      "Ġhurry": 6304,
      "Ġseriously": 6305,
      "Ġtviv": 6306,
      "Ġnyhet": 6307,
      "ĠvÃ¤rt": 6308,
      "Ġplaner": 6309,
      "Ġdeliver": 6310,
      "Ġshows": 6311,
      "Ġshower": 6312,
      "Ġtrial": 6313,
      "ĠlÃ¤ser": 6314,
      "ĠlÃ¤kare": 6315,
      "Ġorders": 6316,
      "Ġdesig": 6317,
      "Ġdesper": 6318,
      "Ġnumbers": 6319,
      "Ġdogs": 6320,
      "Ġlaget": 6321,
      "ĠanvÃ¤nde": 6322,
      "Ġboyfriend": 6323,
      "Ġwalked": 6324,
      "Ġkunnat": 6325,
      "Annars": 6326,
      "Ġarbetar": 6327,
      "Ġafford": 6328,
      "ĠfÃ¶rlorat": 6329,
      "Ġapart": 6330,
      "ĠfÃ¶rvir": 6331,
      "ĠfÃ¶rÃ¤ndras": 6332,
      "Ġcaptain": 6333,
      "Ġlocked": 6334,
      "Ġdisappeared": 6335,
      "ĠJimmy": 6336,
      "Ġdeserve": 6337,
      "Ġparticular": 6338,
      "Fick": 6339,
      "Fem": 6340,
      "FÃ¶lj": 6341,
      "IF": 6342,
      "JÃ¤v": 6343,
      "Leave": 6344,
      "ax": 6345,
      "jan": 6346,
      "mon": 6347,
      "mark": 6348,
      "nande": 6349,
      "pÃ¥": 6350,
      "yal": 6351,
      "Ã³": 6352,
      "Ġers": 6353,
      "ĠtÃ¤v": 6354,
      "Ġtusen": 6355,
      "Ġtanke": 6356,
      "Ġsummer": 6357,
      "eri": 6358,
      "Ġmix": 6359,
      "anger": 6360,
      "ancy": 6361,
      "Ġfile": 6362,
      "Ġwine": 6363,
      "atin": 6364,
      "oms": 6365,
      "Ġghost": 6366,
      "Ġpool": 6367,
      "igen": 6368,
      "Ġnor": 6369,
      "ĠlÃ¥n": 6370,
      "Ġlang": 6371,
      "isar": 6372,
      "illiant": 6373,
      "leep": 6374,
      "Ġeating": 6375,
      "Ġrelax": 6376,
      "imate": 6377,
      "oog": 6378,
      "ĠCam": 6379,
      "ĠBea": 6380,
      "ĠBeck": 6381,
      "Ġsea": 6382,
      "ctions": 6383,
      "lyn": 6384,
      "ĠGot": 6385,
      "ĠGreat": 6386,
      "ĠGreen": 6387,
      "ĠListen": 6388,
      "ĠJones": 6389,
      "icide": 6390,
      "ully": 6391,
      "Ġchair": 6392,
      "ĠRachel": 6393,
      "ĠEast": 6394,
      "udy": 6395,
      "Ġload": 6396,
      "apten": 6397,
      "ĠWar": 6398,
      "ĠWow": 6399,
      "ĠWay": 6400,
      "ĠWould": 6401,
      "Ġalter": 6402,
      "Ġleader": 6403,
      "ival": 6404,
      "ĠgrÃ¤": 6405,
      "Ġourselves": 6406,
      "ĠChuck": 6407,
      "spr": 6408,
      "Stick": 6409,
      "Ã¤cken": 6410,
      "ĠdÃ¶den": 6411,
      "Ġfunn": 6412,
      "ĠbestÃ¤mmer": 6413,
      "Ġleder": 6414,
      "Ġimpossible": 6415,
      "ĠShut": 6416,
      "Ġempty": 6417,
      "Ġpassed": 6418,
      "rison": 6419,
      "Ġhello": 6420,
      "Ġhellre": 6421,
      "Ġmilk": 6422,
      "rator": 6423,
      "Ġrecently": 6424,
      "ĠlÃ¤rt": 6425,
      "ĠlÃ¤gg": 6426,
      "ĠÃ¤ndra": 6427,
      "deles": 6428,
      "Ġbloody": 6429,
      "Ġearlier": 6430,
      "Ġmurdered": 6431,
      "Ġaware": 6432,
      "Ġawesome": 6433,
      "Ġmarket": 6434,
      "ĠmÃ¤rk": 6435,
      "Ġlovade": 6436,
      "ĠEmily": 6437,
      "Ġskyddar": 6438,
      "Ġhungry": 6439,
      "ĠSluta": 6440,
      "Ġdivor": 6441,
      "Ġpractice": 6442,
      "Ġbordet": 6443,
      "ĠkÃ¤ndes": 6444,
      "Lugn": 6445,
      "ĠkrÃ¤vs": 6446,
      ".,": 6447,
      "Aw": 6448,
      "Bring": 6449,
      "NÃ¥": 6450,
      "barn": 6451,
      "gru": 6452,
      "hel": 6453,
      "mans": 6454,
      "rant": 6455,
      "rare": 6456,
      "vor": 6457,
      "xa": 6458,
      "xor": 6459,
      "ĠtÃ¥r": 6460,
      "ĠtÃ¤nd": 6461,
      "Ġdamer": 6462,
      "itions": 6463,
      "omet": 6464,
      "Ġgang": 6465,
      "Ġpund": 6466,
      "Ġyell": 6467,
      "iger": 6468,
      "Ġklipp": 6469,
      "Ġoly": 6470,
      "chie": 6471,
      "Ġbell": 6472,
      "Ġbeyond": 6473,
      "Ġrace": 6474,
      "Ġrub": 6475,
      "amie": 6476,
      "Ġstage": 6477,
      "ĠstÃ¤ller": 6478,
      "Ġest": 6479,
      "Ġhavet": 6480,
      "Ġrecept": 6481,
      "ands": 6482,
      "ĠHuh": 6483,
      "uster": 6484,
      "ĠDick": 6485,
      "Ġvild": 6486,
      "ĠBru": 6487,
      "untar": 6488,
      "ĠGET": 6489,
      "ĠNO": 6490,
      "thew": 6491,
      "Ġabs": 6492,
      "Ġsabb": 6493,
      "Ġnose": 6494,
      "kast": 6495,
      "ĠRod": 6496,
      "apt": 6497,
      "nson": 6498,
      "Ġbrut": 6499,
      "ĠvadÃ¥": 6500,
      "ifer": 6501,
      "ifier": 6502,
      "ordon": 6503,
      "Ġgrad": 6504,
      "Ġcomb": 6505,
      "inden": 6506,
      "load": 6507,
      "Ġuniverse": 6508,
      "ĠvÃ¤ntat": 6509,
      "spe": 6510,
      "Ġ23": 6511,
      "ĠvÃ¤lja": 6512,
      "Ġfeelings": 6513,
      "Ġmode": 6514,
      "Ġstrid": 6515,
      "Ġspeech": 6516,
      "ĠÃ¤lska": 6517,
      "visa": 6518,
      "Ġturns": 6519,
      "ĠsÃ¤kra": 6520,
      "Ġinsane": 6521,
      "oking": 6522,
      "Ġgilla": 6523,
      "ĠlÃ¤ste": 6524,
      "Ġordna": 6525,
      "Ġhearing": 6526,
      "Ġkontroller": 6527,
      "ĠlÃ¥na": 6528,
      "ONE": 6529,
      "ĠlÃ¤get": 6530,
      "Ġfrukost": 6531,
      "Ġevil": 6532,
      "Ġdumb": 6533,
      "Ġdollars": 6534,
      "ĠinnebÃ¤r": 6535,
      "ĠglÃ¶mt": 6536,
      "Ġlyckades": 6537,
      "ĠSteven": 6538,
      "Ġflickan": 6539,
      "Ġlukt": 6540,
      "ĠDaniel": 6541,
      "Ġapolog": 6542,
      "Ġsweetheart": 6543,
      "Ġteacher": 6544,
      "Ġfantastiskt": 6545,
      "utenant": 6546,
      "Ġkriget": 6547,
      "Ġinspir": 6548,
      "Ġnearly": 6549,
      "Ġljuga": 6550,
      "Ġmedicin": 6551,
      "ĠWHAT": 6552,
      "Ġdansa": 6553,
      "Ġresponsible": 6554,
      "Hoppas": 6555,
      "Ġcondition": 6556,
      "Ġskillnad": 6557,
      "Ġansiktet": 6558,
      "ĠRyan": 6559,
      "Ġherself": 6560,
      "Ġinnocent": 6561,
      "zabeth": 6562,
      "Captain": 6563,
      "David": 6564,
      "Hmm": 6565,
      "Helt": 6566,
      "LÃ¤mna": 6567,
      "Mad": 6568,
      "Red": 6569,
      "bes": 6570,
      "bry": 6571,
      "bok": 6572,
      "cue": 6573,
      "fly": 6574,
      "fta": 6575,
      "fessor": 6576,
      "iar": 6577,
      "Ġ,": 6578,
      "Ġsats": 6579,
      "Ġhug": 6580,
      "ĠhÃ¶j": 6581,
      "arp": 6582,
      "Ã¶da": 6583,
      "Ã¶nt": 6584,
      "ito": 6585,
      "Ġviss": 6586,
      "Ġgum": 6587,
      "Ġgatan": 6588,
      "agar": 6589,
      "agne": 6590,
      "stra": 6591,
      "rek": 6592,
      "Ġpants": 6593,
      "igan": 6594,
      "ĠnÃ¤s": 6595,
      "Ġcake": 6596,
      "ĠjÃ¤mt": 6597,
      "chen": 6598,
      "Ġattempt": 6599,
      "alf": 6600,
      "alar": 6601,
      "Ġbecom": 6602,
      "ĠfÃ¶rhÃ¥ll": 6603,
      "Ġstre": 6604,
      "vert": 6605,
      "Ġrefer": 6606,
      "Ġforsk": 6607,
      "Ġanm": 6608,
      "Ġlied": 6609,
      "Ġlift": 6610,
      "ĠMur": 6611,
      "ĠHigh": 6612,
      "ĠtillstÃ¥nd": 6613,
      "ĠAB": 6614,
      "ĠDave": 6615,
      "sson": 6616,
      "ĠBig": 6617,
      "skar": 6618,
      "list": 6619,
      "ĠJord": 6620,
      "ĠFar": 6621,
      "Ġspread": 6622,
      "ĠspÃ¤nnande": 6623,
      "Ġutnytt": 6624,
      "ĠKn": 6625,
      "ĠKor": 6626,
      "ĠVin": 6627,
      "fÃ¶rs": 6628,
      "Ġarr": 6629,
      "ĠslÃ¶s": 6630,
      "Ġerk": 6631,
      "gery": 6632,
      "Ġnowhere": 6633,
      "Ġdemon": 6634,
      "ĠÃ¶verty": 6635,
      "Ġtells": 6636,
      "ĠfÃ¶rsÃ¤k": 6637,
      "ĠvÃ¤ntade": 6638,
      "onting": 6639,
      "Ġingenstans": 6640,
      "Ġklass": 6641,
      "Ġmoon": 6642,
      "Ġstorm": 6643,
      "cca": 6644,
      "atherine": 6645,
      "Ġ300": 6646,
      "Ġcomputer": 6647,
      "Ġappar": 6648,
      "Ġgravid": 6649,
      "Ġklarade": 6650,
      "ĠvÃ¤rldens": 6651,
      "Ġriktiga": 6652,
      "Ġnamnet": 6653,
      "velop": 6654,
      "Ġdaddy": 6655,
      "Ġfreedom": 6656,
      "Ġpowerful": 6657,
      "Anything": 6658,
      "Ġpojkar": 6659,
      "Ġpossibly": 6660,
      "ĠhÃ¶ger": 6661,
      "Ã¥kigt": 6662,
      "Ġcontract": 6663,
      "board": 6664,
      "Ġ80": 6665,
      "NÃ¥got": 6666,
      "ĠJean": 6667,
      "Ġbottle": 6668,
      "Ġavslut": 6669,
      "Ġsubject": 6670,
      "ĠÃ¤ger": 6671,
      "Ġgrabben": 6672,
      "Ġsurvive": 6673,
      "Ġrymd": 6674,
      "Ġabsolutely": 6675,
      "ĠfÃ¶retag": 6676,
      "Polisen": 6677,
      "Ġorsak": 6678,
      "Ġuppskattar": 6679,
      "Ġkyrkan": 6680,
      "Ġfurther": 6681,
      "Ġmotherfucker": 6682,
      "ĠbehÃ¥lla": 6683,
      "Ledsen": 6684,
      "Ġtruly": 6685,
      "Fast": 6686,
      "Open": 6687,
      "Po": 6688,
      "Tur": 6689,
      "Va": 6690,
      "VÃ¥ra": 6691,
      "bi": 6692,
      "gif": 6693,
      "ho": 6694,
      "hy": 6695,
      "hus": 6696,
      "ierna": 6697,
      "lÃ¤gg": 6698,
      "no": 6699,
      "pun": 6700,
      "pare": 6701,
      "vakt": 6702,
      "xy": 6703,
      "zo": 6704,
      "ÂĢ": 6705,
      "Ġsid": 6706,
      "Ġdyr": 6707,
      "Ġhinner": 6708,
      "Ġkam": 6709,
      "Ġcult": 6710,
      "Ġtoil": 6711,
      "ador": 6712,
      "Ġbeach": 6713,
      "Ġras": 6714,
      "amt": 6715,
      "Ġmeat": 6716,
      "Ġonline": 6717,
      "ĠSol": 6718,
      "ĠSund": 6719,
      "Ġfran": 6720,
      "Ġknark": 6721,
      "ĠDÃ¤r": 6722,
      "ĠDoug": 6723,
      "Ã¤lj": 6724,
      "Dude": 6725,
      "opa": 6726,
      "usive": 6727,
      "ĠJew": 6728,
      "ĠJosh": 6729,
      "Ġmanager": 6730,
      "Ġchest": 6731,
      "onest": 6732,
      "ĠVal": 6733,
      "obby": 6734,
      "Ġprop": 6735,
      "Ġuppf": 6736,
      "ĠWood": 6737,
      "attan": 6738,
      "ĠfÃ¶rsvar": 6739,
      "Ġsmoke": 6740,
      "ugo": 6741,
      "ĠChicago": 6742,
      "lings": 6743,
      "ĠÃ¥ren": 6744,
      "Ġsymb": 6745,
      "Ġstrateg": 6746,
      "Ġclosed": 6747,
      "iana": 6748,
      "ĠInget": 6749,
      "Ġrealized": 6750,
      "Ġcoach": 6751,
      "Ġordnar": 6752,
      "Ġappear": 6753,
      "what": 6754,
      "Ġweekend": 6755,
      "Ġslept": 6756,
      "Ġgreatest": 6757,
      "organ": 6758,
      "ĠsÃ¶nder": 6759,
      "Ġarbeta": 6760,
      "Ġstraff": 6761,
      "ĠLeo": 6762,
      "Ġemotion": 6763,
      "Ġvanligt": 6764,
      "Ġskola": 6765,
      "samt": 6766,
      "fficer": 6767,
      "Ġkrafter": 6768,
      "Ã¤tet": 6769,
      "Ġdreams": 6770,
      "TyvÃ¤rr": 6771,
      "Ġcenter": 6772,
      "Ġsekund": 6773,
      "Next": 6774,
      "ĠBobby": 6775,
      "Ġconnection": 6776,
      "Ġsjukhus": 6777,
      "Ġkostar": 6778,
      "Ġinvestigation": 6779,
      "Ġpretend": 6780,
      "Ġbeginning": 6781,
      "Check": 6782,
      "Ġarrived": 6783,
      "Ġspirit": 6784,
      "VÃ¤lkommen": 6785,
      "ĠstjÃ¤la": 6786,
      "Ġprofessional": 6787,
      "Ġoriginal": 6788,
      "Ġincredible": 6789,
      "Ġbeklagar": 6790,
      "'.": 6791,
      "Bo": 6792,
      "Je": 6793,
      "JasÃ¥": 6794,
      "Ke": 6795,
      "LY": 6796,
      "Lo": 6797,
      "RÃ¶r": 6798,
      "SÃ¥g": 6799,
      "Since": 6800,
      "Vid": 6801,
      "VarsÃ¥god": 6802,
      "gas": 6803,
      "gress": 6804,
      "iers": 6805,
      "ipped": 6806,
      "just": 6807,
      "pic": 6808,
      "rag": 6809,
      "yg": 6810,
      "yra": 6811,
      "ĠÃ¤m": 6812,
      "Ġax": 6813,
      "Ġhol": 6814,
      "Ġhamn": 6815,
      "Ġfasc": 6816,
      "atet": 6817,
      "ores": 6818,
      "Ġytter": 6819,
      "Ġkass": 6820,
      "Ġkeys": 6821,
      "Ġobe": 6822,
      "Ġodd": 6823,
      "Ġcrow": 6824,
      "eline": 6825,
      "Ġenligt": 6826,
      "Ġrac": 6827,
      "Ġstil": 6828,
      "Ġskor": 6829,
      "ĠskÃ¤m": 6830,
      "Ġharder": 6831,
      "ĠSil": 6832,
      "imb": 6833,
      "urse": 6834,
      "sey": 6835,
      "andid": 6836,
      "Ġlies": 6837,
      "ĠMil": 6838,
      "ilar": 6839,
      "ĠHill": 6840,
      "Ġshift": 6841,
      "Ġkniv": 6842,
      "ĠDay": 6843,
      "etten": 6844,
      "ĠBarn": 6845,
      "Ġnoticed": 6846,
      "Ġavtal": 6847,
      "Ġhantera": 6848,
      "ĠLO": 6849,
      "ĠLo": 6850,
      "Ġsplit": 6851,
      "Ġprocent": 6852,
      "ĠuppmÃ¤r": 6853,
      "Ġbroth": 6854,
      "Ġalright": 6855,
      "ongress": 6856,
      "ongrat": 6857,
      "Ġtalas": 6858,
      "FÃ¶rsta": 6859,
      "bert": 6860,
      "Ġpoison": 6861,
      "ĠtÃ¤nk": 6862,
      "Ġqueen": 6863,
      "mannen": 6864,
      "Ġperhaps": 6865,
      "Ġgeneral": 6866,
      "ample": 6867,
      "Ġadop": 6868,
      "Ġbesv": 6869,
      "ĠlÃ¤sk": 6870,
      "ĠsÃ¤ttet": 6871,
      "Ġsettle": 6872,
      "Shit": 6873,
      "Ġcommunic": 6874,
      "ĠDoes": 6875,
      "ĠkÃ¤ra": 6876,
      "ĠFÃ¶rlÃ¥t": 6877,
      "Ġdefend": 6878,
      "kvÃ¤n": 6879,
      "Ġsword": 6880,
      "Ġfreak": 6881,
      "ĠJohnny": 6882,
      "ĠflickvÃ¤n": 6883,
      "Ġearth": 6884,
      "Ġumg": 6885,
      "Ġcharm": 6886,
      "Ġbooks": 6887,
      "Ġrule": 6888,
      "ĠWhoa": 6889,
      "Ġballs": 6890,
      "Ġfollowing": 6891,
      "Ġcorre": 6892,
      "Ġinstru": 6893,
      "Ġcurr": 6894,
      "Ġbrotts": 6895,
      "ĠaffÃ¤rer": 6896,
      "Ġcheese": 6897,
      "Ġpapper": 6898,
      "Ġpappas": 6899,
      "Ġjudge": 6900,
      "Ġhamnar": 6901,
      "Ġtappade": 6902,
      "Ġklient": 6903,
      "Ġnervous": 6904,
      "ĠkarriÃ¤r": 6905,
      "Ġbodde": 6906,
      "Ġbodies": 6907,
      "Ġcontinue": 6908,
      "ĠFlorida": 6909,
      "edule": 6910,
      "Ġcomfortable": 6911,
      "Ġoutta": 6912,
      "',": 6913,
      "Fly": 6914,
      "Most": 6915,
      "PS": 6916,
      "Par": 6917,
      "Reg": 6918,
      "Son": 6919,
      "Tar": 6920,
      "Tra": 6921,
      "Too": 6922,
      "Vissa": 6923,
      "Visa": 6924,
      "bud": 6925,
      "cra": 6926,
      "don": 6927,
      "hÃ¤ll": 6928,
      "press": 6929,
      "rust": 6930,
      "san": 6931,
      "ystem": 6932,
      "Ġhette": 6933,
      "ĠfÃ¥n": 6934,
      "Ġfira": 6935,
      "ĠbÃ¤ra": 6936,
      "aton": 6937,
      "ormer": 6938,
      "Ġvote": 6939,
      "Ġvita": 6940,
      "ĠgÃ¤st": 6941,
      "Ġcredit": 6942,
      "Ġtok": 6943,
      "Ġstaff": 6944,
      "Ġvarann": 6945,
      "uring": 6946,
      "Ġdock": 6947,
      "Ġdoktorn": 6948,
      "Ġweight": 6949,
      "ili": 6950,
      "ils": 6951,
      "ĠHaw": 6952,
      "cean": 6953,
      "ĠARE": 6954,
      "ĠAgent": 6955,
      "ĠDE": 6956,
      "ĠCour": 6957,
      "Ġsem": 6958,
      "ria": 6959,
      "olan": 6960,
      "Ġneither": 6961,
      "Ġcancer": 6962,
      "ĠNever": 6963,
      "thur": 6964,
      "ĠJan": 6965,
      "ĠPal": 6966,
      "ĠFather": 6967,
      "Ġsacri": 6968,
      "ista": 6969,
      "essed": 6970,
      "ĠÃ¶n": 6971,
      "Ġprogress": 6972,
      "Ġuppr": 6973,
      "Ġuppen": 6974,
      "Ġbrilliant": 6975,
      "Ġexem": 6976,
      "attis": 6977,
      "ĠÃ¶vervak": 6978,
      "fekt": 6979,
      "Ġunderbar": 6980,
      "Ġunga": 6981,
      "ugust": 6982,
      "ĠhjÃ¤lte": 6983,
      "ĠVictor": 6984,
      "Ġtrygg": 6985,
      "Ġspeed": 6986,
      "Ġactiv": 6987,
      "Ġtrapp": 6988,
      "lands": 6989,
      "Ġadm": 6990,
      "OUT": 6991,
      "Ġvila": 6992,
      "Ġsurr": 6993,
      "Ġsurgery": 6994,
      "Ġtacka": 6995,
      "Ġdrott": 6996,
      "Ġreglerna": 6997,
      "ÃĸR": 6998,
      "Ġintern": 6999,
      "syn": 7000,
      "ligheten": 7001,
      "Ġfylla": 7002,
      "ĠrÃ¤ddade": 7003,
      "Ġmatters": 7004,
      "igheterna": 7005,
      "Ġartist": 7006,
      "barrass": 7007,
      "Ġretur": 7008,
      "Ġclearly": 7009,
      "Ġfotboll": 7010,
      "Ġfollowed": 7011,
      "Ġpulled": 7012,
      "Tyst": 7013,
      "Ġcameras": 7014,
      "ĠColonel": 7015,
      "Ġsvarta": 7016,
      "Ġkicked": 7017,
      "Absol": 7018,
      "Guys": 7019,
      "Ġrobot": 7020,
      "Ġvictims": 7021,
      "Ġcrying": 7022,
      "Ġassistent": 7023,
      "Ġfatta": 7024,
      "Ġweapons": 7025,
      "Ġkontoret": 7026,
      "ĠÃ¤kta": 7027,
      "ĠVilken": 7028,
      "ĠfÃ¶ljde": 7029,
      "Ġromant": 7030,
      "Ġescape": 7031,
      "ĠbjÃ¶d": 7032,
      "Ġnecessary": 7033,
      "Ġsource": 7034,
      "Ġtradition": 7035,
      "Ġbastard": 7036,
      "Agent": 7037,
      "Big": 7038,
      "Barn": 7039,
      "Dags": 7040,
      "LO": 7041,
      "Little": 7042,
      "Ms": 7043,
      "New": 7044,
      "SS": 7045,
      "Snygg": 7046,
      "Tw": 7047,
      "bell": 7048,
      "borg": 7049,
      "ex": 7050,
      "huset": 7051,
      "jort": 7052,
      "jung": 7053,
      "lud": 7054,
      "mord": 7055,
      "yst": 7056,
      "Ã¡": 7057,
      "Ġtum": 7058,
      "ĠtÃ¥g": 7059,
      "Ġtie": 7060,
      "inct": 7061,
      "Ġsize": 7062,
      "Ġagg": 7063,
      "Ġdip": 7064,
      "Ġhig": 7065,
      "Ġfars": 7066,
      "Ġbon": 7067,
      "Ġbett": 7068,
      "Ã¶rel": 7069,
      "orney": 7070,
      "Ġpowers": 7071,
      "Ġlin": 7072,
      "ĠkÃ¤ll": 7073,
      "Ġolyck": 7074,
      "Ġinfe": 7075,
      "asure": 7076,
      "Ġattract": 7077,
      "Ġoften": 7078,
      "Ġhack": 7079,
      "Ġreact": 7080,
      "Ġheaven": 7081,
      "Ġdev": 7082,
      "Ġalldeles": 7083,
      "ceed": 7084,
      "Ã¥nad": 7085,
      "ĠAir": 7086,
      "ĠALL": 7087,
      "ĠDar": 7088,
      "ĠDav": 7089,
      "ĠCom": 7090,
      "itty": 7091,
      "ĠBeth": 7092,
      "Ġsever": 7093,
      "Ġknowing": 7094,
      "ski": 7095,
      "ĠTR": 7096,
      "ĠLy": 7097,
      "Ġabove": 7098,
      "iculous": 7099,
      "ĠPut": 7100,
      "Ġsaving": 7101,
      "Ġspell": 7102,
      "Ġchock": 7103,
      "Ġchief": 7104,
      "Ġnote": 7105,
      "ĠRep": 7106,
      "ĠÃ¶ga": 7107,
      "ĠEric": 7108,
      "Ġblomm": 7109,
      "Ġsuger": 7110,
      "hington": 7111,
      "ĠWorld": 7112,
      "ucky": 7113,
      "ÃĦn": 7114,
      "Ġtalent": 7115,
      "Ġgran": 7116,
      "Ġgoodbye": 7117,
      "Ġours": 7118,
      "Ġunderbart": 7119,
      "Ġpred": 7120,
      "Ã¤ngd": 7121,
      "oppa": 7122,
      "oppen": 7123,
      "Ġvision": 7124,
      "ĠsvÃ¤rd": 7125,
      "Ġpocket": 7126,
      "ipe": 7127,
      "ĠfÃ¶red": 7128,
      "Ġfinding": 7129,
      "Ġleaves": 7130,
      "amme": 7131,
      "ammet": 7132,
      "ĠfÃ¶rsÃ¶kt": 7133,
      "Ġdelen": 7134,
      "Ġlots": 7135,
      "Ġleda": 7136,
      "Ġdricker": 7137,
      "Ġheaded": 7138,
      "ĠMarc": 7139,
      "ashed": 7140,
      "vÃ¤rd": 7141,
      "ĠBrown": 7142,
      "ARR": 7143,
      "Ġcommon": 7144,
      "ĠHonor": 7145,
      "Ġ45": 7146,
      "Ġskitst": 7147,
      "Ġdumt": 7148,
      "pecially": 7149,
      "Ġryggen": 7150,
      "Ġchecked": 7151,
      "Herr": 7152,
      "ĠMajest": 7153,
      "Ġsprang": 7154,
      "Ġpaying": 7155,
      "ĠÃ¶ppnar": 7156,
      "Ġsjukdom": 7157,
      "Ġpojken": 7158,
      "ĠpojkvÃ¤n": 7159,
      "Ġguns": 7160,
      "Ġmarken": 7161,
      "Ġexpert": 7162,
      "Without": 7163,
      "Ġcorner": 7164,
      "Ġungar": 7165,
      "Ġoffici": 7166,
      "Ġrolig": 7167,
      "Ġgifter": 7168,
      "Ġnormalt": 7169,
      "Ġbottom": 7170,
      "Ġrecords": 7171,
      "Probably": 7172,
      "Ġhorri": 7173,
      "ĠSomet": 7174,
      "Ġpictures": 7175,
      "Ġspringa": 7176,
      "scar": 7177,
      "ĠTex": 7178,
      "Ġgalna": 7179,
      "Ġlocal": 7180,
      "Ġexplos": 7181,
      "Ġassistant": 7182,
      "Juli": 7183,
      "ĠnÃ¶jd": 7184,
      "Ġopinion": 7185,
      "Ġskulden": 7186,
      "Ġtydligen": 7187,
      "Ġbjuda": 7188,
      "ĠGeneral": 7189,
      "ĠEurope": 7190,
      "Ġemploy": 7191,
      "ĠfÃ¶rsiktig": 7192,
      "IKE": 7193,
      "Ġpilot": 7194,
      "ĠFrancis": 7195,
      "Ġpotential": 7196,
      "Ġdiscovered": 7197,
      "Ġmammas": 7198,
      "Ġinblandad": 7199,
      "Ġmaterial": 7200,
      "ÂĢÂ": 7201,
      "Ġsymbol": 7202,
      "Ġsacrif": 7203,
      "-...": 7204,
      "El": 7205,
      "IE": 7206,
      "II": 7207,
      "OH": 7208,
      "Ob": 7209,
      "Rich": 7210,
      "Tycker": 7211,
      "ben": 7212,
      "faren": 7213,
      "hund": 7214,
      "kal": 7215,
      "mande": 7216,
      "mask": 7217,
      "pack": 7218,
      "vs": 7219,
      "vir": 7220,
      "wers": 7221,
      "zer": 7222,
      "zen": 7223,
      "ĠÃħh": 7224,
      "Ġtab": 7225,
      "Ġtunn": 7226,
      "ĠsÃ¶m": 7227,
      "Ġsorg": 7228,
      "ĠsÃ¤ngen": 7229,
      "Ġast": 7230,
      "Ġhed": 7231,
      "aron": 7232,
      "ares": 7233,
      "arian": 7234,
      "Ġmut": 7235,
      "Ġmum": 7236,
      "Ġmama": 7237,
      "Ġmoun": 7238,
      "Ġfro": 7239,
      "Ġfys": 7240,
      "Ġbang": 7241,
      "onica": 7242,
      "ato": 7243,
      "atri": 7244,
      "Ã¶re": 7245,
      "ori": 7246,
      "oren": 7247,
      "Ġlord": 7248,
      "Ġkol": 7249,
      "Ġkinda": 7250,
      "Ġos": 7251,
      "Ġost": 7252,
      "Ġcru": 7253,
      "Ġtoal": 7254,
      "ĠIr": 7255,
      "Ġjur": 7256,
      "Ġjury": 7257,
      "chuck": 7258,
      "chef": 7259,
      "aser": 7260,
      "aled": 7261,
      "Ġrit": 7262,
      "ĠfÃ¶rhÃ¶r": 7263,
      "Ġandas": 7264,
      "Ġskott": 7265,
      "rak": 7266,
      "Ġforest": 7267,
      "Ġheavy": 7268,
      "ĠMont": 7269,
      "irk": 7270,
      "ĠtillgÃ¥ng": 7271,
      "ĠBu": 7272,
      "skri": 7273,
      "ctors": 7274,
      "ĠGary": 7275,
      "ĠNice": 7276,
      "ĠLisa": 7277,
      "icks": 7278,
      "ems": 7279,
      "Ġspy": 7280,
      "Ġutman": 7281,
      "ĠRa": 7282,
      "ĠReg": 7283,
      "ĠKomm": 7284,
      "ĠVir": 7285,
      "nsel": 7286,
      "ĠbrÃ¥k": 7287,
      "Ã¤llde": 7288,
      "ĠWall": 7289,
      "ĠnÃ¤rmare": 7290,
      "ĠÃ¶verens": 7291,
      "Ġbetray": 7292,
      "oston": 7293,
      "Ġlivs": 7294,
      "Ġeftermidd": 7295,
      "ĠUt": 7296,
      "ĠUrsÃ¤kta": 7297,
      "Ġjobbigt": 7298,
      "Ġquar": 7299,
      "ĠglÃ¤d": 7300,
      "Ġteeth": 7301,
      "karen": 7302,
      "Ġtroll": 7303,
      "Ġdiam": 7304,
      "Ġsyst": 7305,
      "Ġstrength": 7306,
      "ĠdÃ¶dat": 7307,
      "Mycket": 7308,
      "ples": 7309,
      "Ġperform": 7310,
      "Ġpermission": 7311,
      "Ġmaten": 7312,
      "Ġimpress": 7313,
      "Ġschedule": 7314,
      "Ġcompla": 7315,
      "Ã¥dan": 7316,
      "ONG": 7317,
      "ĠjÃ¤veln": 7318,
      "Ġtaget": 7319,
      "Ġdescri": 7320,
      "idden": 7321,
      "vÃ¤rt": 7322,
      "ĠBrit": 7323,
      "ĠBrad": 7324,
      "Ġcriminal": 7325,
      "Ġdrinks": 7326,
      "Ġprior": 7327,
      "Ġprice": 7328,
      "Ġregret": 7329,
      "Ġgreen": 7330,
      "ĠhjÃ¤rt": 7331,
      "ĠhjÃ¤rna": 7332,
      "AnvÃ¤nd": 7333,
      "ĠLeon": 7334,
      "ĠBlue": 7335,
      "Ġlegend": 7336,
      "Ġartik": 7337,
      "Ġskjuter": 7338,
      "Ġ194": 7339,
      "centr": 7340,
      "ĠidÃ©er": 7341,
      "Ġungdom": 7342,
      "Ġbilder": 7343,
      "Ġgifte": 7344,
      "Ġhorse": 7345,
      "Ġfesten": 7346,
      "aggie": 7347,
      "Ġdisappear": 7348,
      "Ġkasta": 7349,
      "Ġflyttade": 7350,
      "Ġeffect": 7351,
      "ĠbekrÃ¤": 7352,
      "telse": 7353,
      "komna": 7354,
      "Ġhungrig": 7355,
      "Ġdejt": 7356,
      "Ġorganis": 7357,
      "ĠhÃ¤ft": 7358,
      "ĠSmith": 7359,
      "ĠPete": 7360,
      "ĠAnton": 7361,
      "Ġstrike": 7362,
      "Ġframtiden": 7363,
      "ĠClark": 7364,
      "Ġsuddenly": 7365,
      "ĠkrÃ¤ver": 7366,
      "ĠlÃ¶gn": 7367,
      "Ġtecken": 7368,
      "ĠHollywood": 7369,
      "SjÃ¤lvklart": 7370,
      "Ġemergency": 7371,
      "ĠÃ¤tit": 7372,
      "ĠÃ¤ldre": 7373,
      "Ġillegal": 7374,
      "ongratulations": 7375,
      "Baby": 7376,
      "Cle": 7377,
      "Fl": 7378,
      "Gillar": 7379,
      "HÃ¤l": 7380,
      "Hell": 7381,
      "LÃ¥ter": 7382,
      "Mart": 7383,
      "Sedan": 7384,
      "Today": 7385,
      "Want": 7386,
      "aos": 7387,
      "ault": 7388,
      "fÃ¤rd": 7389,
      "kret": 7390,
      "uvud": 7391,
      "ĠÃ¤ck": 7392,
      "Ġtask": 7393,
      "Ġsalt": 7394,
      "Ġager": 7395,
      "ĠhÃ¤nger": 7396,
      "ĠmjÃ¶l": 7397,
      "ete": 7398,
      "Ġfam": 7399,
      "Ã¥p": 7400,
      "Ġboo": 7401,
      "ites": 7402,
      "Ġvag": 7403,
      "stal": 7404,
      "Ġpir": 7405,
      "Ġkatt": 7406,
      "Ġod": 7407,
      "Ġcock": 7408,
      "Ġcards": 7409,
      "ĠÃ¤rlig": 7410,
      "Ġult": 7411,
      "Ġdetal": 7412,
      "Ġenorm": 7413,
      "Ġrat": 7414,
      "Ġrab": 7415,
      "amen": 7416,
      "Ġstir": 7417,
      "pper": 7418,
      "ppet": 7419,
      "ĠSta": 7420,
      "Ġanfall": 7421,
      "Ġlista": 7422,
      "Ġdok": 7423,
      "ĠMag": 7424,
      "ĠMmm": 7425,
      "ilj": 7426,
      "Ġdevelop": 7427,
      "Ġmedia": 7428,
      "ĠHor": 7429,
      "ĠHERE": 7430,
      "ĠAss": 7431,
      "ĠDep": 7432,
      "Ġombord": 7433,
      "ĠomrÃ¥det": 7434,
      "ittar": 7435,
      "ĠBack": 7436,
      "ĠBla": 7437,
      "ĠBye": 7438,
      "rip": 7439,
      "rich": 7440,
      "rike": 7441,
      "oln": 7442,
      "olution": 7443,
      "unny": 7444,
      "skor": 7445,
      "ĠNÃ¥g": 7446,
      "ĠNik": 7447,
      "using": 7448,
      "ĠJess": 7449,
      "stein": 7450,
      "Ã¤get": 7451,
      "icy": 7452,
      "Ã¥ta": 7453,
      "ffs": 7454,
      "ums": 7455,
      "Ġchallen": 7456,
      "ĠRad": 7457,
      "ieutenant": 7458,
      "uddy": 7459,
      "Ġprojekt": 7460,
      "Ġprim": 7461,
      "Ġbrors": 7462,
      "ĠslÃ¤kt": 7463,
      "issar": 7464,
      "VadÃ¥": 7465,
      "Ġallting": 7466,
      "ĠnÃ¥gonting": 7467,
      "ĠÃ¶verl": 7468,
      "ollins": 7469,
      "log": 7470,
      "berg": 7471,
      "Ġdram": 7472,
      "Ġhemsk": 7473,
      "Ġhemska": 7474,
      "ĠÃ¥lder": 7475,
      "ips": 7476,
      "Ġ22": 7477,
      "ogan": 7478,
      "Ġstruntar": 7479,
      "plant": 7480,
      "Ġkeeps": 7481,
      "Ġadress": 7482,
      "ĠtyvÃ¤rr": 7483,
      "Ġembarrass": 7484,
      "onstans": 7485,
      "Ġlikely": 7486,
      "Shut": 7487,
      "ĠÃ¤ndrar": 7488,
      "Christ": 7489,
      "Ġcommit": 7490,
      "Ġgrejer": 7491,
      "Ġaffair": 7492,
      "Ġmorgonen": 7493,
      "ĠÃ¶ppen": 7494,
      "ĠLucy": 7495,
      "Ġattacked": 7496,
      "Ġ198": 7497,
      "Ġprofessor": 7498,
      "ĠfÃ¶rutom": 7499,
      "Ġbenef": 7500,
      "Ġmodel": 7501,
      "ĠBarry": 7502,
      "Ġchanges": 7503,
      "ounce": 7504,
      "ĠskÃ¶nt": 7505,
      "Ġdistri": 7506,
      "ĠEmma": 7507,
      "Ġespecially": 7508,
      "Ġdefinitivt": 7509,
      "ograf": 7510,
      "Ġspringer": 7511,
      "Ġflyttar": 7512,
      "Ġenergi": 7513,
      "Ġlocation": 7514,
      "Ġgrip": 7515,
      "ĠElizabeth": 7516,
      "Ġjacket": 7517,
      "Ġmunnen": 7518,
      "jÃ¤vul": 7519,
      "Charlie": 7520,
      "ĠJohnson": 7521,
      "ĠmÃ¶tet": 7522,
      "ĠÃ¶verleva": 7523,
      "ĠClaire": 7524,
      "fortunately": 7525,
      "Ġcrowd": 7526,
      "ĠuppmÃ¤rk": 7527,
      "12": 7528,
      "Ang": 7529,
      "Com": 7530,
      "Dess": 7531,
      "EM": 7532,
      "Love": 7533,
      "Und": 7534,
      "Vis": 7535,
      "Watch": 7536,
      "dri": 7537,
      "fiken": 7538,
      "gu": 7539,
      "gÃ¥": 7540,
      "giving": 7541,
      "ique": 7542,
      "look": 7543,
      "nster": 7544,
      "oved": 7545,
      "ĠÃ¤ng": 7546,
      "Ġought": 7547,
      "Ġtaught": 7548,
      "ĠtÃ¤nder": 7549,
      "Ġate": 7550,
      "Ġdator": 7551,
      "Ġheder": 7552,
      "Ġmonst": 7553,
      "Ġthrew": 7554,
      "Ġfed": 7555,
      "ĠfjÃ¤r": 7556,
      "Ġwound": 7557,
      "Ġgn": 7558,
      "Ġgull": 7559,
      "Ã¤ren": 7560,
      "stit": 7561,
      "Ġnj": 7562,
      "ĠnÃ¥r": 7563,
      "Ġnation": 7564,
      "Ġnorth": 7565,
      "Ġnature": 7566,
      "Ġlys": 7567,
      "isher": 7568,
      "Ġopt": 7569,
      "Ġinde": 7570,
      "Ġcars": 7571,
      "asing": 7572,
      "Ġdeter": 7573,
      "owing": 7574,
      "Ġduty": 7575,
      "Ġstars": 7576,
      "uti": 7577,
      "ĠSyd": 7578,
      "Ġreleas": 7579,
      "sex": 7580,
      "alle": 7581,
      "iled": 7582,
      "ĠfrÃ¶ken": 7583,
      "Ġwash": 7584,
      "ĠAsh": 7585,
      "etta": 7586,
      "ĠBoston": 7587,
      "ols": 7588,
      "acken": 7589,
      "ĠTer": 7590,
      "ĠGOT": 7591,
      "ĠLady": 7592,
      "ĠLove": 7593,
      "ĠJose": 7594,
      "ĠOUT": 7595,
      "ĠPier": 7596,
      "ĠRon": 7597,
      "iest": 7598,
      "Ġkommun": 7599,
      "asting": 7600,
      "ĠKl": 7601,
      "ĠKyle": 7602,
      "Ġvetenskap": 7603,
      "Ġplock": 7604,
      "Ġtalade": 7605,
      "Ġsigned": 7606,
      "Ġbehav": 7607,
      "ĠDetective": 7608,
      "Ġbyta": 7609,
      "ugs": 7610,
      "arnas": 7611,
      "ĠChief": 7612,
      "ĠkÃ¤nsla": 7613,
      "ycka": 7614,
      "ĠUP": 7615,
      "ĠStr": 7616,
      "ĠAndy": 7617,
      "vision": 7618,
      "INK": 7619,
      "annen": 7620,
      "Ġtraining": 7621,
      "ĠbestÃ¤mma": 7622,
      "Ġassume": 7623,
      "Ġbiggest": 7624,
      "ĠbesÃ¶k": 7625,
      "Ġsexy": 7626,
      "Ġcomplic": 7627,
      "Ġsteps": 7628,
      "Ġends": 7629,
      "Ġexpensive": 7630,
      "otter": 7631,
      "Ġliksom": 7632,
      "Ġdesk": 7633,
      "Ġgrav": 7634,
      "Ġlaga": 7635,
      "ĠAlan": 7636,
      "Ġbarely": 7637,
      "Ġpoints": 7638,
      "Ġbryta": 7639,
      "Ġlugna": 7640,
      "Ġhistorien": 7641,
      "Ġplatsen": 7642,
      "Ġgames": 7643,
      "Ġkonstig": 7644,
      "Ġflickor": 7645,
      "Ġsolen": 7646,
      "Ġsolution": 7647,
      "Ġpositive": 7648,
      "Ġmiljon": 7649,
      "Ġawful": 7650,
      "Ġdyker": 7651,
      "Ġsending": 7652,
      "Ġsweetie": 7653,
      "Ġshooting": 7654,
      "Ġsanning": 7655,
      "ĠMcC": 7656,
      "Ġmordet": 7657,
      "Ġpapers": 7658,
      "Ġphotograph": 7659,
      "Ġcovered": 7660,
      "Ġindust": 7661,
      "Ġfootball": 7662,
      "Ġbreathe": 7663,
      "Ġgalet": 7664,
      "Ġridiculous": 7665,
      "Genom": 7666,
      "Ġspeciell": 7667,
      "Ġdiskut": 7668,
      "Ġfailed": 7669,
      "ĠlÃ¶ser": 7670,
      "ĠnervÃ¶s": 7671,
      "Ġobvious": 7672,
      "ophie": 7673,
      "Ġbrief": 7674,
      "Ġsnackar": 7675,
      "Ġrestaurant": 7676,
      "ĠfÃ¶rsvinner": 7677,
      "Ġversion": 7678,
      "Ġanimal": 7679,
      "Ġgrym": 7680,
      "Ġconcerned": 7681,
      "Ġcelebrate": 7682,
      "Besides": 7683,
      "Ġwoods": 7684,
      "Ġchicken": 7685,
      "Ġsafety": 7686,
      "Ġintervju": 7687,
      "Ġtherap": 7688,
      "ĠJordan": 7689,
      "19": 7690,
      "Billy": 7691,
      "Fine": 7692,
      "Honey": 7693,
      "Ken": 7694,
      "Kapten": 7695,
      "Nick": 7696,
      "NING": 7697,
      "TO": 7698,
      "UL": 7699,
      "UCK": 7700,
      "bol": 7701,
      "dar": 7702,
      "eat": 7703,
      "father": 7704,
      "folk": 7705,
      "hav": 7706,
      "iera": 7707,
      "jÃ¤n": 7708,
      "kins": 7709,
      "mos": 7710,
      "mother": 7711,
      "mond": 7712,
      "oci": 7713,
      "ydd": 7714,
      "Ġtort": 7715,
      "inne": 7716,
      "Ġsne": 7717,
      "Ġho": 7718,
      "anny": 7719,
      "Ġfader": 7720,
      "Ġbib": 7721,
      "Ã¶kt": 7722,
      "Ã¶gon": 7723,
      "iti": 7724,
      "omi": 7725,
      "Ġvul": 7726,
      "Ġvakt": 7727,
      "Ġgather": 7728,
      "Ġpu": 7729,
      "Ġpet": 7730,
      "Ġpump": 7731,
      "Ġyr": 7732,
      "Ġnon": 7733,
      "Ġkop": 7734,
      "Ġkons": 7735,
      "iser": 7736,
      "ises": 7737,
      "Ġocean": 7738,
      "Ġtol": 7739,
      "ndag": 7740,
      "ches": 7741,
      "tem": 7742,
      "ales": 7743,
      "alitet": 7744,
      "Ġrull": 7745,
      "Ġriver": 7746,
      "Ġiron": 7747,
      "Ġstul": 7748,
      "Ġstyck": 7749,
      "Ġeh": 7750,
      "Ġonto": 7751,
      "Ġvarken": 7752,
      "ĠSuper": 7753,
      "Ġdoin": 7754,
      "alley": 7755,
      "ĠMatt": 7756,
      "Ġdevil": 7757,
      "ĠHanna": 7758,
      "akor": 7759,
      "Ġshirt": 7760,
      "ĠAfri": 7761,
      "ĠDoc": 7762,
      "Ġview": 7763,
      "Ġomedel": 7764,
      "ĠBel": 7765,
      "Ġsepar": 7766,
      "Ġminne": 7767,
      "ĠTvÃ¥": 7768,
      "ĠGordon": 7769,
      "though": 7770,
      "like": 7771,
      "ĠJason": 7772,
      "arts": 7773,
      "ĠFel": 7774,
      "orten": 7775,
      "Ġmening": 7776,
      "ĠKanske": 7777,
      "ĠVa": 7778,
      "Ġprins": 7779,
      "Ġupplev": 7780,
      "ĠbrÃ¶t": 7781,
      "Ġexch": 7782,
      "ĠnÃ¤rheten": 7783,
      "Def": 7784,
      "stav": 7785,
      "Ġbrave": 7786,
      "ĠgrÃ¤n": 7787,
      "Ġbyg": 7788,
      "opping": 7789,
      "ĠkÃ¤ns": 7790,
      "Ġamong": 7791,
      "ĠUnder": 7792,
      "ewis": 7793,
      "ĠfÃ¶tt": 7794,
      "ĠfÃ¶nst": 7795,
      "Ġflu": 7796,
      "Ġflight": 7797,
      "izing": 7798,
      "Ġpartners": 7799,
      "Ġtillbring": 7800,
      "ĠdÃ¶ds": 7801,
      "slÃ¶s": 7802,
      "Ġfuneral": 7803,
      "IND": 7804,
      "Ġdisc": 7805,
      "Ġbutter": 7806,
      "Ġverkade": 7807,
      "okes": 7808,
      "Ġadmit": 7809,
      "ATOR": 7810,
      "ĠsamhÃ¤ll": 7811,
      "Ġresist": 7812,
      "ashion": 7813,
      "Ġcommand": 7814,
      "Ġburning": 7815,
      "Ġdealing": 7816,
      "ĠJoey": 7817,
      "Ġviktig": 7818,
      "Ġaffect": 7819,
      "Ġpicking": 7820,
      "ĠhÃ¶gre": 7821,
      "Ġadvice": 7822,
      "Ġtransfer": 7823,
      "tidigt": 7824,
      "Ġvapnet": 7825,
      "Tills": 7826,
      "Ġbenen": 7827,
      "Ġcopy": 7828,
      "klagaren": 7829,
      "Ġvackert": 7830,
      "Ġpresentera": 7831,
      "iami": 7832,
      "Ġsvarar": 7833,
      "Ġdamen": 7834,
      "Ġphotos": 7835,
      "Ġintresserad": 7836,
      "Ġexplod": 7837,
      "Ġnatural": 7838,
      "ĠExcuse": 7839,
      "Max": 7840,
      "Ġarrested": 7841,
      "Ġfirm": 7842,
      "Ã¤ltet": 7843,
      "Ġcreep": 7844,
      "ĠsÃ¥dan": 7845,
      "fattat": 7846,
      "Ġlarge": 7847,
      "ĠsmÃ¤rta": 7848,
      "Ġanimals": 7849,
      "Ġcases": 7850,
      "ĠWashington": 7851,
      "Ġbucks": 7852,
      "Ġscience": 7853,
      "Ġcharacter": 7854,
      "Ġtoilet": 7855,
      "Ġbrothers": 7856,
      "Ġsemester": 7857,
      "ĠfÃ¶redrar": 7858,
      "ĠTexas": 7859,
      "Ġdokument": 7860,
      "Ġchallenge": 7861,
      "Five": 7862,
      "Hela": 7863,
      "Henry": 7864,
      "HÃ¤mta": 7865,
      "SK": 7866,
      "TA": 7867,
      "Were": 7868,
      "bj": 7869,
      "cut": 7870,
      "dare": 7871,
      "ders": 7872,
      "ease": 7873,
      "face": 7874,
      "iod": 7875,
      "ients": 7876,
      "lom": 7877,
      "lim": 7878,
      "lÃ¶sa": 7879,
      "ply": 7880,
      "tag": 7881,
      "uella": 7882,
      "wa": 7883,
      "yp": 7884,
      "Ã¨": 7885,
      "Ã¼": 7886,
      "ĠÃ¤v": 7887,
      "ĠÃ¤gg": 7888,
      "Ġtu": 7889,
      "Ġtand": 7890,
      "Ġtung": 7891,
      "Ġsilly": 7892,
      "Ġdating": 7893,
      "Ġmars": 7894,
      "Ġmult": 7895,
      "anie": 7896,
      "ĠvÃ¤nda": 7897,
      "Ġgiant": 7898,
      "Ġyng": 7899,
      "Ġlid": 7900,
      "Ġlink": 7901,
      "Ġloose": 7902,
      "Ġyoun": 7903,
      "ising": 7904,
      "ision": 7905,
      "Ġinjur": 7906,
      "Ã¶rn": 7907,
      "ads": 7908,
      "teck": 7909,
      "asons": 7910,
      "Ġuns": 7911,
      "Ġram": 7912,
      "ĠrÃ¥n": 7913,
      "ĠfÃ¶rtro": 7914,
      "ĠfÃ¶rresten": 7915,
      "ament": 7916,
      "leken": 7917,
      "Ġmej": 7918,
      "Ġmember": 7919,
      "Ã¤ntar": 7920,
      "Ġvarm": 7921,
      "Ġvarenda": 7922,
      "ĠSO": 7923,
      "ĠSpe": 7924,
      "ĠSanta": 7925,
      "Ġrek": 7926,
      "urance": 7927,
      "Ġlic": 7928,
      "allar": 7929,
      "Ã¥ring": 7930,
      "ĠHÃ¥ll": 7931,
      "Ġfrisk": 7932,
      "ĠDor": 7933,
      "ĠDub": 7934,
      "anten": 7935,
      "Ġseason": 7936,
      "olt": 7937,
      "cture": 7938,
      "ĠTor": 7939,
      "ĠGi": 7940,
      "ĠNational": 7941,
      "ops": 7942,
      "ĠLin": 7943,
      "Ã¤gare": 7944,
      "ĠOwen": 7945,
      "ĠPort": 7946,
      "ĠFer": 7947,
      "ĠspÃ¶": 7948,
      "odligen": 7949,
      "Ġupstairs": 7950,
      "uma": 7951,
      "umber": 7952,
      "ĠRiver": 7953,
      "istr": 7954,
      "istan": 7955,
      "ĠÃ¶de": 7956,
      "Ġbridge": 7957,
      "Ġalert": 7958,
      "Ġslapp": 7959,
      "Ġerfaren": 7960,
      "Menar": 7961,
      "ongen": 7962,
      "ĠnÃ¤rmar": 7963,
      "Ġconv": 7964,
      "Ġgratis": 7965,
      "Ġbetalt": 7966,
      "ĠdÃ¶l": 7967,
      "hetic": 7968,
      "avtryck": 7969,
      "FÃ¶rstÃ¥r": 7970,
      "ĠChloe": 7971,
      "Ġtidningen": 7972,
      "ilda": 7973,
      "ĠvÃ¤ljer": 7974,
      "Ġquit": 7975,
      "Ġnyligen": 7976,
      "ĠStates": 7977,
      "narare": 7978,
      "Ġmots": 7979,
      "Ġfamilies": 7980,
      "wear": 7981,
      "Ġtrail": 7982,
      "Ġwritten": 7983,
      "ĠtjÃ¤na": 7984,
      "Ġschem": 7985,
      "vetet": 7986,
      "Ġsexual": 7987,
      "Ġordet": 7988,
      "Ġordentligt": 7989,
      "ĠHarold": 7990,
      "Ġpassa": 7991,
      "Ġheads": 7992,
      "Ġinflu": 7993,
      "ĠMaria": 7994,
      "asha": 7995,
      "Ġhoppar": 7996,
      "Ġliknar": 7997,
      "ĠHoward": 7998,
      "Ġrygg": 7999,
      "Ġobject": 8000,
      "Ġopened": 8001,
      "ĠYOUR": 8002,
      "Ġordered": 8003,
      "Frank": 8004,
      "Alright": 8005,
      "Ġvanliga": 8006,
      "ĠMichelle": 8007,
      "Ġbasically": 8008,
      "Ġposit": 8009,
      "Ġincident": 8010,
      "Ġinclud": 8011,
      "Ã¶tte": 8012,
      "Ġinvester": 8013,
      "Ġforgive": 8014,
      "Ġdepartment": 8015,
      "ounty": 8016,
      "ĠfÃ¶rÃ¤ndrats": 8017,
      "Ġcapable": 8018,
      "Ġ90": 8019,
      "Ġbullet": 8020,
      "Ġhyp": 8021,
      "ĠfÃ¤ngelset": 8022,
      "Ġdisappoint": 8023,
      "mÃ¤rkt": 8024,
      "Ġhalvt": 8025,
      "Ġpolitical": 8026,
      "Ġgrowing": 8027,
      "ĠkÃ¤mpa": 8028,
      "AKE": 8029,
      "ĠfÃ¶retaget": 8030,
      "erkligen": 8031,
      "ĠfÃ¤rg": 8032,
      "ĠungefÃ¤r": 8033,
      "Ġrecognize": 8034,
      "itude": 8035,
      "Ġissue": 8036,
      "ĠsÃ¤llskap": 8037,
      "ĠAustral": 8038,
      "Ġapproach": 8039,
      "Michael": 8040,
      "Prata": 8041,
      "ĠJacob": 8042,
      "ĠjÃ¤kla": 8043,
      "ĠrÃ¤dsla": 8044,
      "Ġoskyldig": 8045,
      "Ġlangu": 8046,
      "Ġluktar": 8047,
      "ĠupprÃ¶rd": 8048,
      "ÂĢÂ¦": 8049,
      "\"!": 8050,
      "22": 8051,
      "Girl": 8052,
      "Hund": 8053,
      "JÃ¤tt": 8054,
      "Lad": 8055,
      "Mat": 8056,
      "Mark": 8057,
      "Move": 8058,
      "Spe": 8059,
      "bie": 8060,
      "dog": 8061,
      "iens": 8062,
      "lÃ¶st": 8063,
      "natt": 8064,
      "rÃ¥de": 8065,
      "trÃ¥d": 8066,
      "vat": 8067,
      "vies": 8068,
      "Ã±": 8069,
      "ÃĤ": 8070,
      "Ġ%": 8071,
      "Ġet": 8072,
      "Ġtape": 8073,
      "Ġhous": 8074,
      "ĠhÃ¤nga": 8075,
      "Ġms": 8076,
      "oute": 8077,
      "ĠfÃ¥g": 8078,
      "Ġbid": 8079,
      "Ġbond": 8080,
      "Ġvent": 8081,
      "Ġpill": 8082,
      "Ġyo": 8083,
      "Ġnational": 8084,
      "Ġkart": 8085,
      "Ġkult": 8086,
      "Ġoil": 8087,
      "Ġink": 8088,
      "edy": 8089,
      "ĠIng": 8090,
      "cho": 8091,
      "esp": 8092,
      "asion": 8093,
      "Ġrough": 8094,
      "ampa": 8095,
      "Ġjaga": 8096,
      "Ġvarmt": 8097,
      "Ġrelease": 8098,
      "imme": 8099,
      "Ġformer": 8100,
      "Ġheat": 8101,
      "ĠMove": 8102,
      "Ġdefe": 8103,
      "Ġmedical": 8104,
      "ĠHÃ¶r": 8105,
      "Ġfria": 8106,
      "akna": 8107,
      "ĠknÃ¤": 8108,
      "ĠDON": 8109,
      "ĠDID": 8110,
      "ssk": 8111,
      "Ġseg": 8112,
      "Their": 8113,
      "ĠTE": 8114,
      "ĠTaylor": 8115,
      "ĠNic": 8116,
      "ushing": 8117,
      "ĠLau": 8118,
      "ĠLittle": 8119,
      "liken": 8120,
      "Ã¤ttning": 8121,
      "eller": 8122,
      "ĠFort": 8123,
      "Ġchose": 8124,
      "Ġnoise": 8125,
      "ĠnivÃ¥": 8126,
      "ulf": 8127,
      "ĠRose": 8128,
      "Ġherre": 8129,
      "istent": 8130,
      "istic": 8131,
      "ĠEle": 8132,
      "ĠEven": 8133,
      "ĠVery": 8134,
      "osen": 8135,
      "Ġuppgift": 8136,
      "ĠWANT": 8137,
      "unde": 8138,
      "Ġlektion": 8139,
      "Ġwhose": 8140,
      "Ġundrade": 8141,
      "Ġoffret": 8142,
      "Ġdemonst": 8143,
      "ĠnÃ¥gonstans": 8144,
      "Ġgrown": 8145,
      "Ġbete": 8146,
      "ĠdÃ¶k": 8147,
      "aves": 8148,
      "lotte": 8149,
      "Ġsms": 8150,
      "Ġsmile": 8151,
      "arned": 8152,
      "Ġhemligt": 8153,
      "Ġamount": 8154,
      "pton": 8155,
      "Ġberor": 8156,
      "Ġmitten": 8157,
      "ĠvÃ¤ls": 8158,
      "ĠAndre": 8159,
      "ĠAndrew": 8160,
      "ization": 8161,
      "Ġpersonen": 8162,
      "Ġpersonally": 8163,
      "Ġsym": 8164,
      "sland": 8165,
      "acon": 8166,
      "Ġmissade": 8167,
      "Ġdisp": 8168,
      "Ġassum": 8169,
      "Ġshowing": 8170,
      "ĠtrÃ¤ffades": 8171,
      "Ġbilj": 8172,
      "Ġlagt": 8173,
      "Ġlagar": 8174,
      "Ġburned": 8175,
      "Ġskiter": 8176,
      "stÃ¤llning": 8177,
      "George": 8178,
      "pril": 8179,
      "Ġplatser": 8180,
      "Ġswitch": 8181,
      "Ġfemale": 8182,
      "Ġhurts": 8183,
      "Ġvanlig": 8184,
      "Ġluften": 8185,
      "Ġexperiment": 8186,
      "Ġforgotten": 8187,
      "ĠmÃ¶rdaren": 8188,
      "ĠGuds": 8189,
      "Ġofficial": 8190,
      "Ġperfectly": 8191,
      "Ġcurious": 8192,
      "Ġexpected": 8193,
      "Doesn": 8194,
      "Ġdamage": 8195,
      "Ġstatement": 8196,
      "Ġhanging": 8197,
      "ĠGuard": 8198,
      "ĠbrÃ¶der": 8199,
      "Ġstarkare": 8200,
      "ĠBerlin": 8201,
      "Ġpistolen": 8202,
      "Ġresponsibility": 8203,
      "ĠLouis": 8204,
      "Ġgolf": 8205,
      "Klart": 8206,
      "ĠfÃ¶rklarar": 8207,
      "Ġprepared": 8208,
      "Ġowner": 8209,
      "ĠtrÃ¤dgÃ¥r": 8210,
      "Ġkameran": 8211,
      "ĠLucas": 8212,
      "ĠavgÃ¶r": 8213,
      "EAH": 8214,
      "ĠfÃ¶ddes": 8215,
      "Ġexempel": 8216,
      "'?": 8217,
      "11": 8218,
      "Ali": 8219,
      "BE": 8220,
      "Bry": 8221,
      "Deras": 8222,
      "Ed": 8223,
      "GÃ¥r": 8224,
      "Huh": 8225,
      "IVE": 8226,
      "La": 8227,
      "Out": 8228,
      "ROU": 8229,
      "Sounds": 8230,
      "Trevligt": 8231,
      "UM": 8232,
      "VÃ¥rt": 8233,
      "bal": 8234,
      "bru": 8235,
      "colm": 8236,
      "ds": 8237,
      "dÃ¥": 8238,
      "fru": 8239,
      "gÃ¶ra": 8240,
      "gÃ¥ngen": 8241,
      "hem": 8242,
      "hab": 8243,
      "jus": 8244,
      "ki": 8245,
      "mel": 8246,
      "ni": 8247,
      "ode": 8248,
      "rande": 8249,
      "sar": 8250,
      "word": 8251,
      "Î¿": 8252,
      "ĠÃĸ": 8253,
      "Ġtap": 8254,
      "Ġsiff": 8255,
      "anter": 8256,
      "Ġbust": 8257,
      "Ġbite": 8258,
      "ators": 8259,
      "Ã¶ter": 8260,
      "Ġlack": 8261,
      "Ġlung": 8262,
      "Ġloud": 8263,
      "Ġkuk": 8264,
      "Ġcere": 8265,
      "Ã¶rj": 8266,
      "Ã¶rren": 8267,
      "ado": 8268,
      "teen": 8269,
      "illen": 8270,
      "Ġug": 8271,
      "Ġbekv": 8272,
      "Ġrope": 8273,
      "lde": 8274,
      "ldiga": 8275,
      "Ġstock": 8276,
      "Ġstann": 8277,
      "Ġeggs": 8278,
      "utch": 8279,
      "Ġskur": 8280,
      "Ġskum": 8281,
      "ĠskÃ¥d": 8282,
      "ĠSand": 8283,
      "ĠSusan": 8284,
      "Ġfore": 8285,
      "Ġanlit": 8286,
      "Ġanalys": 8287,
      "ĠMommy": 8288,
      "ilen": 8289,
      "entals": 8290,
      "ĠHay": 8291,
      "ĠHallÃ¥": 8292,
      "akan": 8293,
      "akter": 8294,
      "ĠBon": 8295,
      "ĠBor": 8296,
      "Ġseger": 8297,
      "Ġtrash": 8298,
      "ĠTIM": 8299,
      "Ġjustice": 8300,
      "ĠGard": 8301,
      "uses": 8302,
      "usse": 8303,
      "ĠLewis": 8304,
      "ĠJay": 8305,
      "Ġabandon": 8306,
      "ĠPappa": 8307,
      "ĠFord": 8308,
      "ĠFirst": 8309,
      "Ġskaff": 8310,
      "Ġskapade": 8311,
      "oder": 8312,
      "Ġcho": 8313,
      "Ġchea": 8314,
      "ĠRu": 8315,
      "ĠRam": 8316,
      "ĠKeep": 8317,
      "Ġplac": 8318,
      "ĠEX": 8319,
      "ĠEv": 8320,
      "fÃ¶rande": 8321,
      "apa": 8322,
      "aper": 8323,
      "Ã¤md": 8324,
      "Ġsomehow": 8325,
      "Ġexact": 8326,
      "loss": 8327,
      "Ġserv": 8328,
      "ĠItal": 8329,
      "Ġdrama": 8330,
      "Ġsmugg": 8331,
      "âĻªâĻª": 8332,
      "ĠberÃ¶m": 8333,
      "ĠWhich": 8334,
      "Ġteen": 8335,
      "Ġmovies": 8336,
      "Ġscare": 8337,
      "Ġfrihet": 8338,
      "stern": 8339,
      "ĠvÃ¤rde": 8340,
      "Ġstranden": 8341,
      "Ġturning": 8342,
      "bben": 8343,
      "Ġtrap": 8344,
      "Ġgenast": 8345,
      "Ġflyger": 8346,
      "Ġreality": 8347,
      "Ġfancy": 8348,
      "Ġledigt": 8349,
      "aughing": 8350,
      "Ġfaller": 8351,
      "ĠlÃ¤mnat": 8352,
      "Ġsisters": 8353,
      "Ġinformer": 8354,
      "Ġappears": 8355,
      "ĠkÃ¶ket": 8356,
      "ĠFriday": 8357,
      "ground": 8358,
      "phy": 8359,
      "Ġdesign": 8360,
      "Ġhardly": 8361,
      "minister": 8362,
      "Ġdroger": 8363,
      "Ġlagen": 8364,
      "Ġperfekta": 8365,
      "Ġrespek": 8366,
      "ĠJackie": 8367,
      "ĠkonstnÃ¤r": 8368,
      "Ġconfirm": 8369,
      "Ġbased": 8370,
      "Ġcharges": 8371,
      "Ġmiljard": 8372,
      "ĠChristian": 8373,
      "ĠDani": 8374,
      "ĠfÃ¶rstÃ¥s": 8375,
      "ĠfÃ¶rsvara": 8376,
      "ĠUnited": 8377,
      "ĠskÃ¶ta": 8378,
      "Ġsecrets": 8379,
      "Ġsvarade": 8380,
      "Eftersom": 8381,
      "ĠHerregud": 8382,
      "Ġhonestly": 8383,
      "ĠgÃ¶mma": 8384,
      "ĠgÃ¶mmer": 8385,
      "Ġkastade": 8386,
      "ĠAngela": 8387,
      "ĠfÃ¶rstÃ¶rde": 8388,
      "Ġoroar": 8389,
      "ĠEdward": 8390,
      "Ġstyrka": 8391,
      "ĠJulia": 8392,
      "Plus": 8393,
      "Ġviktigaste": 8394,
      "Ġskeppet": 8395,
      "ĠvÃ¥gar": 8396,
      "Ġtickets": 8397,
      "ĠGrace": 8398,
      "kÃ¤nna": 8399,
      "ĠbÃ¥ten": 8400,
      "Ġhealthy": 8401,
      "ĠAlice": 8402,
      "Ġcaused": 8403,
      "Ġintroduce": 8404,
      "Ġlikadant": 8405,
      "ealous": 8406,
      "ĠHitler": 8407,
      "Ġolycka": 8408,
      "onestly": 8409,
      "ĠumgÃ¥s": 8410,
      "Bet": 8411,
      "Kont": 8412,
      "Klockan": 8413,
      "Pass": 8414,
      "Poj": 8415,
      "RI": 8416,
      "Sch": 8417,
      "Samma": 8418,
      "VÃ¤ldigt": 8419,
      "cel": 8420,
      "dra": 8421,
      "dagen": 8422,
      "ega": 8423,
      "fin": 8424,
      "iste": 8425,
      "jam": 8426,
      "nummer": 8427,
      "ping": 8428,
      "ses": 8429,
      "sdag": 8430,
      "town": 8431,
      "von": 8432,
      "»¿": 8433,
      "Â´": 8434,
      "ï»¿": 8435,
      "Ġting": 8436,
      "Ġtve": 8437,
      "Ġtaket": 8438,
      "Ġsop": 8439,
      "Ġhust": 8440,
      "Ġhud": 8441,
      "etag": 8442,
      "ani": 8443,
      "Ġfif": 8444,
      "Ã¥pet": 8445,
      "oned": 8446,
      "oret": 8447,
      "ĠvÃ¥n": 8448,
      "Ġvunnit": 8449,
      "Ã¤rk": 8450,
      "sty": 8451,
      "stid": 8452,
      "Ġnons": 8453,
      "Ġnuts": 8454,
      "Ġlamp": 8455,
      "Ġkm": 8456,
      "Ġkem": 8457,
      "Ġkors": 8458,
      "isera": 8459,
      "Ġog": 8460,
      "Ġinb": 8461,
      "Ġinuti": 8462,
      "eda": 8463,
      "Ġtowards": 8464,
      "ĠIF": 8465,
      "Ġjealous": 8466,
      "alter": 8467,
      "Ġenc": 8468,
      "Ġrate": 8469,
      "aya": 8470,
      "Ġep": 8471,
      "Ġeast": 8472,
      "Ġears": 8473,
      "Ġond": 8474,
      "Ġvars": 8475,
      "ĠSu": 8476,
      "ĠSant": 8477,
      "ural": 8478,
      "Ġforced": 8479,
      "andal": 8480,
      "ĠMet": 8481,
      "ĠMir": 8482,
      "ĠMother": 8483,
      "ĠMitch": 8484,
      "ĠMiami": 8485,
      "Ġmedel": 8486,
      "entyr": 8487,
      "ĠHans": 8488,
      "ĠHIS": 8489,
      "Ġfrun": 8490,
      "ioner": 8491,
      "Ġshape": 8492,
      "Ġvia": 8493,
      "ĠBern": 8494,
      "rier": 8495,
      "olen": 8496,
      "unter": 8497,
      "ĠTÃ¤nk": 8498,
      "ĠGold": 8499,
      "ĠGabri": 8500,
      "usentals": 8501,
      "ĠLos": 8502,
      "ĠLIKE": 8503,
      "likt": 8504,
      "ĠJud": 8505,
      "ĠOut": 8506,
      "ĠOur": 8507,
      "ĠPop": 8508,
      "Ġvillage": 8509,
      "emon": 8510,
      "ĠRom": 8511,
      "ĠRIGHT": 8512,
      "asty": 8513,
      "astic": 8514,
      "ĠKrist": 8515,
      "udrey": 8516,
      "Ġbless": 8517,
      "atty": 8518,
      "Ġconstru": 8519,
      "indy": 8520,
      "Ġignor": 8521,
      "Ġjobs": 8522,
      "ugh": 8523,
      "ĠYep": 8524,
      "Ã¤ngde": 8525,
      "Ġsenior": 8526,
      "Ġhemliga": 8527,
      "spro": 8528,
      "Ġ27": 8529,
      "Ġ28": 8530,
      "ntil": 8531,
      "ishop": 8532,
      "Ġque": 8533,
      "Ġnytta": 8534,
      "ĠvÃ¤rdel": 8535,
      "Ġhits": 8536,
      "plats": 8537,
      "platsen": 8538,
      "athy": 8539,
      "Ġbelow": 8540,
      "Ġmissar": 8541,
      "Ġtrained": 8542,
      "varande": 8543,
      "Ġdelic": 8544,
      "Ġbuss": 8545,
      "ĠframgÃ¥ng": 8546,
      "Ġflykt": 8547,
      "Ġparker": 8548,
      "Ġledare": 8549,
      "elserna": 8550,
      "Skicka": 8551,
      "Ġheading": 8552,
      "Ġanswers": 8553,
      "Ġappoint": 8554,
      "ledge": 8555,
      "delningen": 8556,
      "ĠrÃ¶da": 8557,
      "SlÃ¥": 8558,
      "Anna": 8559,
      "Another": 8560,
      "Ġkollade": 8561,
      "Ġseemed": 8562,
      "ĠLex": 8563,
      "Ġlycka": 8564,
      "Ġlegal": 8565,
      "Also": 8566,
      "Somebody": 8567,
      "Ġalien": 8568,
      "ĠSpan": 8569,
      "ĠlÃ¤ttare": 8570,
      "Ġexperien": 8571,
      "Ġdancing": 8572,
      "ĠfÃ¶rvÃ¤nt": 8573,
      "Ġtouched": 8574,
      "Ġprivile": 8575,
      "Ġprotecting": 8576,
      "Ġsoldat": 8577,
      "Ġ70": 8578,
      "Ġexpecting": 8579,
      "Ġavsluta": 8580,
      "Grattis": 8581,
      "Ġindiv": 8582,
      "Unless": 8583,
      "ĠfÃ¶rflut": 8584,
      "Ġkastar": 8585,
      "garet": 8586,
      "ĠsnÃ¤llt": 8587,
      "Fucking": 8588,
      "Ġproduct": 8589,
      "Ġconnected": 8590,
      "General": 8591,
      "Ġraise": 8592,
      "ĠklÃ¤derna": 8593,
      "Ġabsolut": 8594,
      "Ġdestroyed": 8595,
      "Ġbelongs": 8596,
      "Ġcreate": 8597,
      "Ġsilver": 8598,
      "ALLY": 8599,
      "ĠSnÃ¤lla": 8600,
      "Trodde": 8601,
      "Ġremain": 8602,
      "Ġcabin": 8603,
      "Ġcustom": 8604,
      "Ġhindra": 8605,
      "Ġagreed": 8606,
      "cellent": 8607,
      "Ġundvika": 8608,
      "BehÃ¶ver": 8609,
      "ĠMatthew": 8610,
      "ĠInternet": 8611,
      "Skynda": 8612,
      "ĠBruce": 8613,
      "specially": 8614,
      "ĠABOUT": 8615,
      "ĠKorea": 8616,
      "Ġarrang": 8617,
      "ĠSunday": 8618,
      "Kevin": 8619,
      "Ġcorrect": 8620,
      "Ġhorrible": 8621,
      "viron": 8622,
      "Ġomedelbart": 8623,
      "Ġexchange": 8624,
      "40": 8625,
      "Aldrig": 8626,
      "Acc": 8627,
      "Bar": 8628,
      "Bro": 8629,
      "Better": 8630,
      "CA": 8631,
      "Find": 8632,
      "Kul": 8633,
      "Ly": 8634,
      "Mor": 8635,
      "Off": 8636,
      "Other": 8637,
      "Sit": 8638,
      "Sweet": 8639,
      "TE": 8640,
      "Ton": 8641,
      "Talk": 8642,
      "UD": 8643,
      "Ver": 8644,
      "__": 8645,
      "burg": 8646,
      "cil": 8647,
      "fet": 8648,
      "gy": 8649,
      "gree": 8650,
      "ios": 8651,
      "kohol": 8652,
      "ln": 8653,
      "lÃ¤nd": 8654,
      "nos": 8655,
      "rades": 8656,
      "sna": 8657,
      "xter": 8658,
      "ĠsÃ¤nd": 8659,
      "eriff": 8660,
      "Ġak": 8661,
      "Ġdamm": 8662,
      "Ġhyr": 8663,
      "Ġhals": 8664,
      "Ġfate": 8665,
      "Ġbound": 8666,
      "Ġwoke": 8667,
      "ingo": 8668,
      "star": 8669,
      "resp": 8670,
      "Ġped": 8671,
      "Ġpills": 8672,
      "Ġpounds": 8673,
      "Ġpension": 8674,
      "Ġnet": 8675,
      "ĠnÃ¥d": 8676,
      "ĠnÃ¤tet": 8677,
      "Ġnurse": 8678,
      "Ġlower": 8679,
      "Ġlines": 8680,
      "Ġkal": 8681,
      "Ġkyck": 8682,
      "Ġolag": 8683,
      "Ġclock": 8684,
      "Ġtopp": 8685,
      "adow": 8686,
      "illing": 8687,
      "espel": 8688,
      "ashing": 8689,
      "vest": 8690,
      "Ġenviron": 8691,
      "Ġstationen": 8692,
      "Ġej": 8693,
      "Ġsked": 8694,
      "ĠSP": 8695,
      "ĠSun": 8696,
      "ĠSimon": 8697,
      "Ġreve": 8698,
      "Ġreven": 8699,
      "ima": 8700,
      "Ġlib": 8701,
      "ĠMick": 8702,
      "ĠMolly": 8703,
      "Ġallerg": 8704,
      "ĠHard": 8705,
      "iring": 8706,
      "Ġshopping": 8707,
      "Ġsheriff": 8708,
      "ĠDi": 8709,
      "ĠDun": 8710,
      "ĠhÃ¤rom": 8711,
      "ĠomÃ¶jligt": 8712,
      "ĠCa": 8713,
      "ĠCle": 8714,
      "ĠCall": 8715,
      "ĠCould": 8716,
      "ĠCast": 8717,
      "ĠCAN": 8718,
      "dem": 8719,
      "Ġminnas": 8720,
      "Ġtrade": 8721,
      "Ġtrigger": 8722,
      "ĠTre": 8723,
      "ĠLes": 8724,
      "ĠLily": 8725,
      "arah": 8726,
      "ĠOscar": 8727,
      "Ġsoff": 8728,
      "Ġsoft": 8729,
      "ĠPe": 8730,
      "ĠPen": 8731,
      "ellan": 8732,
      "ĠspÃ¥ra": 8733,
      "uments": 8734,
      "Ġutbild": 8735,
      "ĠRen": 8736,
      "istisk": 8737,
      "Ġhimlen": 8738,
      "ĠKal": 8739,
      "Ġplus": 8740,
      "ĠEN": 8741,
      "fÃ¶rt": 8742,
      "Ġloyal": 8743,
      "Ġprova": 8744,
      "oses": 8745,
      "Ġbrown": 8746,
      "Ã¤mp": 8747,
      "iforn": 8748,
      "ivitet": 8749,
      "ĠgrÃ¶": 8750,
      "ĠgrÃ¥ta": 8751,
      "hets": 8752,
      "Ġuncle": 8753,
      "Ġserve": 8754,
      "ikanska": 8755,
      "cient": 8756,
      "acey": 8757,
      "ĠWhatever": 8758,
      "Ġberedd": 8759,
      "Ġmotiv": 8760,
      "ĠViet": 8761,
      "ĠÃ¥tal": 8762,
      "Ġscr": 8763,
      "Ġscar": 8764,
      "Ġparts": 8765,
      "ockey": 8766,
      "Ġsyss": 8767,
      "Ġstrang": 8768,
      "ammy": 8769,
      "rary": 8770,
      "Ġplanen": 8771,
      "Ġfarfar": 8772,
      "Ã¤staren": 8773,
      "ĠThese": 8774,
      "Ġdisease": 8775,
      "iano": 8776,
      "Ġassault": 8777,
      "Ġparad": 8778,
      "Ġadult": 8779,
      "Ġbelieved": 8780,
      "egas": 8781,
      "OULD": 8782,
      "Ġordning": 8783,
      "ANK": 8784,
      "Ġbread": 8785,
      "Ġbreaking": 8786,
      "Ġpassion": 8787,
      "Ġrescue": 8788,
      "Ġkontrakt": 8789,
      "Ġsitu": 8790,
      "Ġunderstood": 8791,
      "licka": 8792,
      "ĠlÃ¤rare": 8793,
      "ĠbegÃ¥": 8794,
      "Ġterms": 8795,
      "Ġregler": 8796,
      "ARD": 8797,
      "Ġcommunity": 8798,
      "Ġfixed": 8799,
      "ĠCarrie": 8800,
      "ĠstÃ¤llde": 8801,
      "Ġtests": 8802,
      "Ġobser": 8803,
      "Ġhundrat": 8804,
      "Ġbedroom": 8805,
      "FrÃ¥ga": 8806,
      "Ġinvent": 8807,
      "Except": 8808,
      "Ġfantas": 8809,
      "Ġlaid": 8810,
      "Ġangel": 8811,
      "Ġpulling": 8812,
      "Spring": 8813,
      "Ġofficers": 8814,
      "Ġchanging": 8815,
      "HÃ¶rde": 8816,
      "Ġcapt": 8817,
      "Ġfantastiska": 8818,
      "Ġcampa": 8819,
      "Trots": 8820,
      "Ġengel": 8821,
      "Ġengine": 8822,
      "ĠRobin": 8823,
      "Ġstatus": 8824,
      "Perfekt": 8825,
      "Ġbetalade": 8826,
      "bilen": 8827,
      "Ġtemper": 8828,
      "Ġbillion": 8829,
      "ĠAbout": 8830,
      "ĠThanksgiving": 8831,
      "Ġreached": 8832,
      "Ġknappast": 8833,
      "aughs": 8834,
      "Ġfingeravtryck": 8835,
      "Ġtankar": 8836,
      "Ġproperty": 8837,
      "ennifer": 8838,
      "Ġbjuder": 8839,
      "Ġpushed": 8840,
      "ĠHelen": 8841,
      "ĠEuropa": 8842,
      "Ġsjunga": 8843,
      "Ã¤kert": 8844,
      "ĠCarlos": 8845,
      "Ġchampagne": 8846,
      "ĠtillfÃ¤lle": 8847,
      "Ġfruktans": 8848,
      "Ġfingers": 8849,
      "Ġriskerar": 8850,
      "ginia": 8851,
      "Ġextrem": 8852,
      "Ġcitiz": 8853,
      "ĠCentral": 8854,
      "ÃĦlskling": 8855,
      "JÃ¤vla": 8856,
      "Ġalternat": 8857,
      "Ġkontrollera": 8858,
      "ĠnÃ¤san": 8859,
      "Ġapparently": 8860,
      "Ġdiplom": 8861,
      "Ġhigher": 8862,
      "ĠSomething": 8863,
      "ĠKommer": 8864,
      "ĠWallace": 8865,
      "ĠDepartment": 8866,
      "80": 8867,
      "Aren": 8868,
      "Boy": 8869,
      "Gjorde": 8870,
      "Honestly": 8871,
      "Im": 8872,
      "Kr": 8873,
      "KÃ¤r": 8874,
      "KÃ¤ra": 8875,
      "Mary": 8876,
      "Mmm": 8877,
      "Pat": 8878,
      "RIS": 8879,
      "Turn": 8880,
      "UGH": 8881,
      "Yep": 8882,
      "fit": 8883,
      "fik": 8884,
      "hin": 8885,
      "hall": 8886,
      "huh": 8887,
      "lare": 8888,
      "mi": 8889,
      "mat": 8890,
      "mÃ¶": 8891,
      "rer": 8892,
      "rough": 8893,
      "sÃ¤g": 8894,
      "sjuk": 8895,
      "vere": 8896,
      "vard": 8897,
      "ylan": 8898,
      "Ġ*": 8899,
      "Ġtong": 8900,
      "Ġtatt": 8901,
      "Ġtju": 8902,
      "Ġtorn": 8903,
      "Ġsve": 8904,
      "Ġsite": 8905,
      "Ġsouth": 8906,
      "ernas": 8907,
      "aran": 8908,
      "ario": 8909,
      "Ġmart": 8910,
      "Ġmale": 8911,
      "lling": 8912,
      "Ġfought": 8913,
      "Ã¥telse": 8914,
      "omy": 8915,
      "ometer": 8916,
      "Ġgem": 8917,
      "stjÃ¤r": 8918,
      "reak": 8919,
      "Ġpitch": 8920,
      "Ġpunch": 8921,
      "Ġnin": 8922,
      "Ġnorr": 8923,
      "Ġinbjud": 8924,
      "eding": 8925,
      "Ġtow": 8926,
      "tton": 8927,
      "esse": 8928,
      "Ġdusch": 8929,
      "aling": 8930,
      "Ġenkel": 8931,
      "ĠrÃ¶d": 8932,
      "ĠrÃ¥k": 8933,
      "Ġroute": 8934,
      "Ġick": 8935,
      "Ġeur": 8936,
      "Ã¤nna": 8937,
      "ĠSU": 8938,
      "ĠSy": 8939,
      "Ġreasons": 8940,
      "Ġanl": 8941,
      "Ġdoctors": 8942,
      "Ġweather": 8943,
      "Ġmedborg": 8944,
      "ĠHoly": 8945,
      "ĠAL": 8946,
      "ĠDes": 8947,
      "ĠDana": 8948,
      "Ġsees": 8949,
      "olo": 8950,
      "unga": 8951,
      "ĠTitta": 8952,
      "ĠGU": 8953,
      "ĠGirl": 8954,
      "licer": 8955,
      "ĠJenny": 8956,
      "ĠJamie": 8957,
      "ĠOb": 8958,
      "ĠPan": 8959,
      "ĠPre": 8960,
      "ĠPac": 8961,
      "ĠPeople": 8962,
      "Ġmanage": 8963,
      "Ġskapar": 8964,
      "Ġspl": 8965,
      "Ã¥gan": 8966,
      "Ġwanting": 8967,
      "ĠRes": 8968,
      "astrof": 8969,
      "ĠKaren": 8970,
      "Ġhelgen": 8971,
      "Ġsugar": 8972,
      "endent": 8973,
      "ĠerkÃ¤nna": 8974,
      "ateful": 8975,
      "Ġasleep": 8976,
      "ÃĦR": 8977,
      "eph": 8978,
      "Int": 8979,
      "Ġboot": 8980,
      "Ġboken": 8981,
      "Ġbyter": 8982,
      "Ġletters": 8983,
      "ĠsmÃ¤ll": 8984,
      "ĠgÃ¥va": 8985,
      "Ġmeaning": 8986,
      "ĠsvÃ¥ra": 8987,
      "Ġimage": 8988,
      "ublic": 8989,
      "ĠState": 8990,
      "Ġklubb": 8991,
      "Ġfamiljer": 8992,
      "ERS": 8993,
      "Ġpercent": 8994,
      "ĠrÃ¤tteg": 8995,
      "iktigt": 8996,
      "Ġclown": 8997,
      "Ġfriendly": 8998,
      "bba": 8999,
      "Ġgenius": 9000,
      "ĠbestÃ¤mt": 9001,
      "Ġassass": 9002,
      "Ġinsurance": 9003,
      "Ġensamma": 9004,
      "Ġflying": 9005,
      "Ġparan": 9006,
      "ĠledtrÃ¥d": 9007,
      "Ġ35": 9008,
      "ĠbesÃ¶ka": 9009,
      "Skit": 9010,
      "Ġfalling": 9011,
      "pencer": 9012,
      "Ġolder": 9013,
      "Ãħk": 9014,
      "Ġstayed": 9015,
      "Ġanser": 9016,
      "Ġskynda": 9017,
      "Ġsamtidigt": 9018,
      "Ġbabe": 9019,
      "Ġbabies": 9020,
      "Ġrecover": 9021,
      "Ġhoppades": 9022,
      "Ġfiles": 9023,
      "Ġtacksam": 9024,
      "ocol": 9025,
      "Ġcrit": 9026,
      "Ġprick": 9027,
      "Ġmeth": 9028,
      "Ġinterrupt": 9029,
      "ĠdÃ¶rr": 9030,
      "Ġglada": 9031,
      "Ġstudents": 9032,
      "ĠÃ¶ppet": 9033,
      "elax": 9034,
      "Snart": 9035,
      "Ġ197": 9036,
      "Ġprofile": 9037,
      "Ġmurderer": 9038,
      "ĠSky": 9039,
      "vÃ¤gen": 9040,
      "Ġadvent": 9041,
      "ĠlÃ¶n": 9042,
      "Ġmiddagen": 9043,
      "hÃ¥lla": 9044,
      "ĠmÃ¶rdade": 9045,
      "Ġoffered": 9046,
      "Ġsimply": 9047,
      "Ġpieces": 9048,
      "ĠupptÃ¤ckte": 9049,
      "Ġdistance": 9050,
      "Ġsoldier": 9051,
      "ĠmÃ¶ta": 9052,
      "Ġstarkt": 9053,
      "Ġengag": 9054,
      "Ġtwist": 9055,
      "Ġtelefonen": 9056,
      "Ġzomb": 9057,
      "Ġexciting": 9058,
      "Blir": 9059,
      "ĠSergeant": 9060,
      "ĠRoger": 9061,
      "Ġfellow": 9062,
      "Ġresults": 9063,
      "Ġhamna": 9064,
      "Ġmentioned": 9065,
      "USE": 9066,
      "ĠVilka": 9067,
      "Ġlurade": 9068,
      "Ġcreated": 9069,
      "Ġjourney": 9070,
      "Ġgarage": 9071,
      "Ġvirus": 9072,
      "Ġcarrying": 9073,
      "Lugna": 9074,
      "Ġveh": 9075,
      "Ġgolvet": 9076,
      "Ġeduc": 9077,
      "Ġchampion": 9078,
      "Ġirrit": 9079,
      "ĠnÃ¶dvÃ¤nd": 9080,
      "Ġsuccessful": 9081,
      "Ġfokusera": 9082,
      "WHAT": 9083,
      "Ġvuxen": 9084,
      "Ġintelligence": 9085,
      "splatsen": 9086,
      "Ġneighborhood": 9087,
      "ĠWayne": 9088,
      "ĠgrÃ¤va": 9089,
      "Ġstreets": 9090,
      "ĠanmÃ¤l": 9091,
      "gifter": 9092,
      "ÃĦnnu": 9093,
      "ĠuppmÃ¤rksamhet": 9094,
      "Ġreleased": 9095,
      "Ġcomplicated": 9096,
      "ĠHannah": 9097,
      "Ġbygger": 9098,
      "ĠfÃ¶nstret": 9099,
      "Ġlanguage": 9100,
      ".]": 9101,
      "500": 9102,
      "BY": 9103,
      "Bu": 9104,
      "Borde": 9105,
      "BLE": 9106,
      "Cra": 9107,
      "Cla": 9108,
      "Cool": 9109,
      "Especially": 9110,
      "Fri": 9111,
      "Four": 9112,
      "Fakt": 9113,
      "Famil": 9114,
      "Gre": 9115,
      "LÃ¤": 9116,
      "Mc": 9117,
      "MÃ¤n": 9118,
      "MÃ¥r": 9119,
      "Peter": 9120,
      "President": 9121,
      "Ra": 9122,
      "Run": 9123,
      "VÃ¤r": 9124,
      "Work": 9125,
      "gel": 9126,
      "har": 9127,
      "hÃ¤r": 9128,
      "hÃ¥l": 9129,
      "iper": 9130,
      "iots": 9131,
      "js": 9132,
      "kin": 9133,
      "king": 9134,
      "lon": 9135,
      "oom": 9136,
      "rull": 9137,
      "ued": 9138,
      "vist": 9139,
      "Ġtat": 9140,
      "Ġsum": 9141,
      "ĠsÃ¥ng": 9142,
      "Ġsons": 9143,
      "Ġdies": 9144,
      "Ġdish": 9145,
      "ĠhÃ¤v": 9146,
      "Ġhidden": 9147,
      "ene": 9148,
      "enad": 9149,
      "anor": 9150,
      "Ġbump": 9151,
      "Ġbail": 9152,
      "Ġbatter": 9153,
      "Ã¶vel": 9154,
      "Ġglo": 9155,
      "agan": 9156,
      "agligen": 9157,
      "stag": 9158,
      "stand": 9159,
      "Ġnic": 9160,
      "Ġnaked": 9161,
      "Ġlately": 9162,
      "Ġkur": 9163,
      "Ġoavsett": 9164,
      "Ġtheory": 9165,
      "Ġcos": 9166,
      "tto": 9167,
      "asen": 9168,
      "eland": 9169,
      "elter": 9170,
      "otion": 9171,
      "Ġrena": 9172,
      "ĠfÃ¶rd": 9173,
      "Thought": 9174,
      "Things": 9175,
      "erek": 9176,
      "Ġstom": 9177,
      "ppa": 9178,
      "Ã¤nkte": 9179,
      "ĠpÃ¥ver": 9180,
      "ĠSHE": 9181,
      "ĠSOME": 9182,
      "Ġrekomm": 9183,
      "urr": 9184,
      "ando": 9185,
      "Ġanger": 9186,
      "ĠMamma": 9187,
      "ĠMAN": 9188,
      "ĠallmÃ¤n": 9189,
      "Ġmyst": 9190,
      "Ġshame": 9191,
      "ĠAbby": 9192,
      "ĠDa": 9193,
      "ĠDonna": 9194,
      "ĠDire": 9195,
      "ĠCli": 9196,
      "ĠCap": 9197,
      "ĠCyr": 9198,
      "ĠCole": 9199,
      "ĠBry": 9200,
      "ĠBishop": 9201,
      "unnen": 9202,
      "Ġtras": 9203,
      "Ġtraged": 9204,
      "ĠtrÃ¥kigt": 9205,
      "ĠTal": 9206,
      "ĠTalk": 9207,
      "ĠGa": 9208,
      "ĠNaz": 9209,
      "opy": 9210,
      "opter": 9211,
      "ĠLiv": 9212,
      "ĠLaw": 9213,
      "ĠLogan": 9214,
      "Ã¤ttra": 9215,
      "ĠOR": 9216,
      "ĠOoh": 9217,
      "ĠPa": 9218,
      "ĠPam": 9219,
      "ffin": 9220,
      "ĠFace": 9221,
      "orta": 9222,
      "Ġsport": 9223,
      "Ġnoll": 9224,
      "Ġutby": 9225,
      "uls": 9226,
      "ieur": 9227,
      "tains": 9228,
      "ĠKar": 9229,
      "Ġvetat": 9230,
      "Ġloj": 9231,
      "Ġsup": 9232,
      "endet": 9233,
      "Ġbrings": 9234,
      "Ã¤mpa": 9235,
      "Ġarch": 9236,
      "Ġalarm": 9237,
      "Ġalkohol": 9238,
      "Ġwhoever": 9239,
      "ysst": 9240,
      "Ġdownstairs": 9241,
      "becca": 9242,
      "cipl": 9243,
      "Ġsenast": 9244,
      "Ġsaknade": 9245,
      "ĠfÃ¶ll": 9246,
      "Ġflask": 9247,
      "Ġfamiliar": 9248,
      "Ġmoves": 9249,
      "Ġscreen": 9250,
      "ockh": 9251,
      "onsieur": 9252,
      "Ġplanned": 9253,
      "Ġperfor": 9254,
      "Ġperiod": 9255,
      "ĠvÃ¤grar": 9256,
      "bbie": 9257,
      "Ġinsist": 9258,
      "ĠDean": 9259,
      "Ġplays": 9260,
      "Ġimponer": 9261,
      "ĠbesvÃ¤r": 9262,
      "ATION": 9263,
      "while": 9264,
      "Ġhalva": 9265,
      "Ġfilmer": 9266,
      "nedy": 9267,
      "ĠjÃ¤vligt": 9268,
      "Ġmax": 9269,
      "ĠBrook": 9270,
      "itsnack": 9271,
      "skapet": 9272,
      "atory": 9273,
      "ĠCarter": 9274,
      "ĠTHEY": 9275,
      "Ġburied": 9276,
      "Ġ48": 9277,
      "Ġkungen": 9278,
      "Ġwarrant": 9279,
      "orgm": 9280,
      "ĠFÃ¶rs": 9281,
      "ĠsÃ¶ka": 9282,
      "Ġgodk": 9283,
      "Ġgods": 9284,
      "ĠhÃ¤mnas": 9285,
      "Ġhunden": 9286,
      "Ġhundar": 9287,
      "Ġhundra": 9288,
      "Ġdrack": 9289,
      "THAT": 9290,
      "THING": 9291,
      "Ġstudio": 9292,
      "Ġswim": 9293,
      "ĠAnth": 9294,
      "ĠAnne": 9295,
      "Ġlyckliga": 9296,
      "Ġhumans": 9297,
      "Ġmagi": 9298,
      "Ġmagaz": 9299,
      "ĠÃ¶ppnade": 9300,
      "Ġmessed": 9301,
      "Ã¤klar": 9302,
      "morgon": 9303,
      "Always": 9304,
      "ĠfortsÃ¤tt": 9305,
      "Ġmassor": 9306,
      "Ġtransport": 9307,
      "Sergeant": 9308,
      "ITT": 9309,
      "ĠtjÃ¤nar": 9310,
      "fulla": 9311,
      "Ġmatchen": 9312,
      "Ġlyssnade": 9313,
      "Ġcells": 9314,
      "Ġsoldiers": 9315,
      "ĠmÃ¶ter": 9316,
      "ĠPrince": 9317,
      "Ġlistan": 9318,
      "Ġstarka": 9319,
      "Ġthrowing": 9320,
      "Ġotrolig": 9321,
      "Ġeffekt": 9322,
      "komst": 9323,
      "ĠrÃ¤knar": 9324,
      "Ġdressed": 9325,
      "Ġgentleman": 9326,
      "Ġpanik": 9327,
      "Ġraised": 9328,
      "ĠvÃ¥ldt": 9329,
      "Ġthousands": 9330,
      "ĠGOING": 9331,
      "Ġuniversum": 9332,
      "Ġuniversitet": 9333,
      "ĠfÃ¶rsvinna": 9334,
      "Ġveget": 9335,
      "Ġsjunger": 9336,
      "Ġpissed": 9337,
      "Ġpunish": 9338,
      "Ġeventually": 9339,
      "Ġdirectly": 9340,
      "Ġreceive": 9341,
      "Ġslippa": 9342,
      "Ġslipper": 9343,
      "ĠÃ¶verraskning": 9344,
      "Ġhotellet": 9345,
      "Ġvampyr": 9346,
      "Ġdetails": 9347,
      "ĠJapanese": 9348,
      "Ġconvince": 9349,
      "ĠklÃ¤nning": 9350,
      "Ġcounter": 9351,
      "Ġnyheterna": 9352,
      "Ġfunnits": 9353,
      "Ġbecomes": 9354,
      "Ġbesviken": 9355,
      "Ġdrottning": 9356,
      "Ġseveral": 9357,
      "Ġsacrifice": 9358,
      "chuckles": 9359,
      "ĠBritish": 9360,
      "Martin": 9361,
      "Ġfamous": 9362,
      "Dessutom": 9363,
      "Ġerfarenhet": 9364,
      "Ladies": 9365,
      "Ġhouses": 9366,
      "ĠfÃ¶rflutna": 9367,
      "Ġenvironment": 9368,
      "Ġhundratals": 9369,
      "Bad": 9370,
      "Bye": 9371,
      "Cl": 9372,
      "Col": 9373,
      "DR": 9374,
      "EP": 9375,
      "Ele": 9376,
      "Ever": 9377,
      "Full": 9378,
      "Hitta": 9379,
      "Jan": 9380,
      "Ny": 9381,
      "Ner": 9382,
      "None": 9383,
      "Oavsett": 9384,
      "Paul": 9385,
      "Ry": 9386,
      "Rep": 9387,
      "SO": 9388,
      "SP": 9389,
      "Same": 9390,
      "Ten": 9391,
      "Tommy": 9392,
      "bon": 9393,
      "case": 9394,
      "dan": 9395,
      "djur": 9396,
      "gat": 9397,
      "gÃ¶r": 9398,
      "hm": 9399,
      "jobb": 9400,
      "ko": 9401,
      "kward": 9402,
      "lÃ¥": 9403,
      "lats": 9404,
      "laughs": 9405,
      "ocks": 9406,
      "pher": 9407,
      "rot": 9408,
      "uce": 9409,
      "uell": 9410,
      "uga": 9411,
      "vation": 9412,
      "vik": 9413,
      "via": 9414,
      "ware": 9415,
      "Ġess": 9416,
      "inese": 9417,
      "Ġsann": 9418,
      "Ġsumm": 9419,
      "Ġachie": 9420,
      "Ġhire": 9421,
      "Ġhated": 9422,
      "Ġmas": 9423,
      "Ġmood": 9424,
      "Ġmap": 9425,
      "Ġmik": 9426,
      "ĠmÃ¤kt": 9427,
      "anen": 9428,
      "Ġfann": 9429,
      "Ã¶p": 9430,
      "order": 9431,
      "Ġvett": 9432,
      "ĠvÃ¤st": 9433,
      "Ġvaken": 9434,
      "stick": 9435,
      "igga": 9436,
      "Ġnail": 9437,
      "Ġlon": 9438,
      "Ġlav": 9439,
      "Ġkro": 9440,
      "Ġcoo": 9441,
      "ttag": 9442,
      "ĠÃ¤rligt": 9443,
      "Ġdetect": 9444,
      "Ġdetsamma": 9445,
      "owns": 9446,
      "Ġena": 9447,
      "Ġrod": 9448,
      "Ġrens": 9449,
      "Ġroof": 9450,
      "amber": 9451,
      "Ġskatt": 9452,
      "ĠskrÃ¤": 9453,
      "Ġskrek": 9454,
      "ĠSay": 9455,
      "ĠSim": 9456,
      "ĠSophie": 9457,
      "ros": 9458,
      "ĠMO": 9459,
      "ĠMake": 9460,
      "ĠMama": 9461,
      "Ġdevice": 9462,
      "Ġmedlem": 9463,
      "ĠHER": 9464,
      "usting": 9465,
      "terade": 9466,
      "ĠAv": 9467,
      "ĠAri": 9468,
      "ĠAmy": 9469,
      "Ġ-[": 9470,
      "ĠCher": 9471,
      "ĠCass": 9472,
      "ittade": 9473,
      "ights": 9474,
      "ĠBUT": 9475,
      "ĠsÃ¥lde": 9476,
      "Ġminnen": 9477,
      "Ġminister": 9478,
      "Ġavail": 9479,
      "ĠGun": 9480,
[...]
